unsigned char modelo[] = {
  0x1c, 0x00, 0x00, 0x00, 0x54, 0x46, 0x4c, 0x33, 0x14, 0x00, 0x20, 0x00,
  0x1c, 0x00, 0x18, 0x00, 0x14, 0x00, 0x10, 0x00, 0x0c, 0x00, 0x00, 0x00,
  0x08, 0x00, 0x04, 0x00, 0x14, 0x00, 0x00, 0x00, 0x1c, 0x00, 0x00, 0x00,
  0x8c, 0x00, 0x00, 0x00, 0x0c, 0x01, 0x00, 0x00, 0x44, 0x44, 0x00, 0x00,
  0x54, 0x44, 0x00, 0x00, 0xfc, 0x50, 0x00, 0x00, 0x03, 0x00, 0x00, 0x00,
  0x01, 0x00, 0x00, 0x00, 0x04, 0x00, 0x00, 0x00, 0x6a, 0xbb, 0xff, 0xff,
  0x0c, 0x00, 0x00, 0x00, 0x1c, 0x00, 0x00, 0x00, 0x3c, 0x00, 0x00, 0x00,
  0x0f, 0x00, 0x00, 0x00, 0x73, 0x65, 0x72, 0x76, 0x69, 0x6e, 0x67, 0x5f,
  0x64, 0x65, 0x66, 0x61, 0x75, 0x6c, 0x74, 0x00, 0x01, 0x00, 0x00, 0x00,
  0x04, 0x00, 0x00, 0x00, 0x68, 0xff, 0xff, 0xff, 0x09, 0x00, 0x00, 0x00,
  0x04, 0x00, 0x00, 0x00, 0x08, 0x00, 0x00, 0x00, 0x6f, 0x75, 0x74, 0x70,
  0x75, 0x74, 0x5f, 0x30, 0x00, 0x00, 0x00, 0x00, 0x01, 0x00, 0x00, 0x00,
  0x04, 0x00, 0x00, 0x00, 0x76, 0xbb, 0xff, 0xff, 0x04, 0x00, 0x00, 0x00,
  0x0e, 0x00, 0x00, 0x00, 0x6b, 0x65, 0x72, 0x61, 0x73, 0x5f, 0x74, 0x65,
  0x6e, 0x73, 0x6f, 0x72, 0x5f, 0x33, 0x00, 0x00, 0x03, 0x00, 0x00, 0x00,
  0x5c, 0x00, 0x00, 0x00, 0x2c, 0x00, 0x00, 0x00, 0x04, 0x00, 0x00, 0x00,
  0xb8, 0xff, 0xff, 0xff, 0x0d, 0x00, 0x00, 0x00, 0x04, 0x00, 0x00, 0x00,
  0x13, 0x00, 0x00, 0x00, 0x43, 0x4f, 0x4e, 0x56, 0x45, 0x52, 0x53, 0x49,
  0x4f, 0x4e, 0x5f, 0x4d, 0x45, 0x54, 0x41, 0x44, 0x41, 0x54, 0x41, 0x00,
  0xdc, 0xff, 0xff, 0xff, 0x0c, 0x00, 0x00, 0x00, 0x04, 0x00, 0x00, 0x00,
  0x13, 0x00, 0x00, 0x00, 0x6d, 0x69, 0x6e, 0x5f, 0x72, 0x75, 0x6e, 0x74,
  0x69, 0x6d, 0x65, 0x5f, 0x76, 0x65, 0x72, 0x73, 0x69, 0x6f, 0x6e, 0x00,
  0x08, 0x00, 0x0c, 0x00, 0x08, 0x00, 0x04, 0x00, 0x08, 0x00, 0x00, 0x00,
  0x0b, 0x00, 0x00, 0x00, 0x04, 0x00, 0x00, 0x00, 0x13, 0x00, 0x00, 0x00,
  0x6d, 0x69, 0x6e, 0x5f, 0x72, 0x75, 0x6e, 0x74, 0x69, 0x6d, 0x65, 0x5f,
  0x76, 0x65, 0x72, 0x73, 0x69, 0x6f, 0x6e, 0x00, 0x0e, 0x00, 0x00, 0x00,
  0x34, 0x43, 0x00, 0x00, 0x2c, 0x43, 0x00, 0x00, 0x0c, 0x43, 0x00, 0x00,
  0xfc, 0x41, 0x00, 0x00, 0xec, 0x40, 0x00, 0x00, 0xdc, 0x00, 0x00, 0x00,
  0xd4, 0x00, 0x00, 0x00, 0xcc, 0x00, 0x00, 0x00, 0xc4, 0x00, 0x00, 0x00,
  0xbc, 0x00, 0x00, 0x00, 0xb4, 0x00, 0x00, 0x00, 0x94, 0x00, 0x00, 0x00,
  0x74, 0x00, 0x00, 0x00, 0x04, 0x00, 0x00, 0x00, 0x52, 0xbc, 0xff, 0xff,
  0x04, 0x00, 0x00, 0x00, 0x60, 0x00, 0x00, 0x00, 0x0c, 0x00, 0x00, 0x00,
  0x08, 0x00, 0x0e, 0x00, 0x08, 0x00, 0x04, 0x00, 0x08, 0x00, 0x00, 0x00,
  0x10, 0x00, 0x00, 0x00, 0x28, 0x00, 0x00, 0x00, 0x00, 0x00, 0x06, 0x00,
  0x08, 0x00, 0x04, 0x00, 0x06, 0x00, 0x00, 0x00, 0x04, 0x00, 0x00, 0x00,
  0x01, 0x00, 0x00, 0x00, 0xeb, 0x03, 0x00, 0x00, 0x0c, 0x00, 0x18, 0x00,
  0x14, 0x00, 0x10, 0x00, 0x0c, 0x00, 0x04, 0x00, 0x0c, 0x00, 0x00, 0x00,
  0xaf, 0x8f, 0x0e, 0x93, 0x06, 0x2c, 0x0f, 0xb5, 0x02, 0x00, 0x00, 0x00,
  0x02, 0x00, 0x00, 0x00, 0x04, 0x00, 0x00, 0x00, 0x06, 0x00, 0x00, 0x00,
  0x32, 0x2e, 0x31, 0x39, 0x2e, 0x30, 0x00, 0x00, 0xbe, 0xbc, 0xff, 0xff,
  0x04, 0x00, 0x00, 0x00, 0x10, 0x00, 0x00, 0x00, 0x00, 0x00, 0x00, 0x00,
  0x00, 0x00, 0x00, 0x00, 0x00, 0x00, 0x00, 0x00, 0x00, 0x00, 0x00, 0x00,
  0xda, 0xbc, 0xff, 0xff, 0x04, 0x00, 0x00, 0x00, 0x10, 0x00, 0x00, 0x00,
  0x31, 0x2e, 0x31, 0x34, 0x2e, 0x30, 0x00, 0x00, 0x00, 0x00, 0x00, 0x00,
  0x00, 0x00, 0x00, 0x00, 0x20, 0xb1, 0xff, 0xff, 0x24, 0xb1, 0xff, 0xff,
  0x28, 0xb1, 0xff, 0xff, 0x2c, 0xb1, 0xff, 0xff, 0x30, 0xb1, 0xff, 0xff,
  0x0a, 0xbd, 0xff, 0xff, 0x04, 0x00, 0x00, 0x00, 0x00, 0x40, 0x00, 0x00,
  0xef, 0xd4, 0xd4, 0xab, 0xdf, 0x81, 0xde, 0x8e, 0xc2, 0x4a, 0xe6, 0xa9,
  0x0e, 0x08, 0x13, 0xf1, 0x59, 0xd4, 0x1b, 0xf7, 0x50, 0x9d, 0x90, 0x44,
  0x47, 0x74, 0x7a, 0x03, 0xa3, 0x06, 0xb5, 0x98, 0xdc, 0x0b, 0x0d, 0xca,
  0x49, 0xdd, 0xc4, 0x51, 0x3d, 0x76, 0x4b, 0xb3, 0x9e, 0x29, 0x1a, 0x54,
  0xf6, 0x3e, 0x2c, 0x37, 0x85, 0xdd, 0x01, 0x56, 0x58, 0xaa, 0xfa, 0xe2,
  0xe8, 0xc9, 0x72, 0xc7, 0xb8, 0xa0, 0x64, 0x84, 0x07, 0x85, 0xfe, 0xe1,
  0x82, 0x91, 0x53, 0x5a, 0xe4, 0x93, 0x6e, 0xeb, 0x40, 0x4e, 0xd7, 0x0d,
  0x33, 0x5f, 0xdd, 0xd8, 0x95, 0xe4, 0x63, 0x28, 0x73, 0xc8, 0x8f, 0xfd,
  0xd8, 0x6c, 0x37, 0xd3, 0x12, 0x22, 0x87, 0x89, 0x8e, 0x0f, 0x48, 0xa2,
  0xcf, 0xb7, 0x48, 0x8c, 0x7f, 0x9e, 0xd9, 0x33, 0xef, 0x31, 0xd0, 0x83,
  0xb1, 0x2c, 0x96, 0x4c, 0x55, 0x0c, 0x27, 0x97, 0x9b, 0xca, 0xb4, 0xad,
  0xec, 0x99, 0x1f, 0x55, 0x91, 0xcf, 0xc4, 0xdb, 0x20, 0x8c, 0xc6, 0x53,
  0xc3, 0x14, 0xdf, 0x50, 0x25, 0x17, 0x8c, 0x33, 0x28, 0x9c, 0xfa, 0x5c,
  0x06, 0x6c, 0xae, 0x0b, 0x96, 0xf4, 0xab, 0x71, 0xbc, 0xb0, 0x16, 0xeb,
  0x2e, 0xd4, 0x7a, 0x0f, 0x67, 0xd3, 0xa7, 0x48, 0xb5, 0x0e, 0xc3, 0xae,
  0x0c, 0x30, 0x6f, 0x9c, 0x77, 0x4c, 0xd5, 0x26, 0xb8, 0xca, 0x1e, 0xeb,
  0xfd, 0x96, 0xad, 0x57, 0x99, 0x30, 0x53, 0x3e, 0x4c, 0x0c, 0x27, 0x98,
  0x60, 0x23, 0x2d, 0x47, 0xbe, 0x28, 0xec, 0x53, 0xb3, 0x21, 0x4c, 0xdd,
  0x45, 0x7a, 0x47, 0x39, 0xaf, 0x52, 0x7d, 0x4e, 0x03, 0x67, 0xc4, 0xe1,
  0x04, 0xb0, 0xa3, 0x8f, 0x5b, 0x05, 0x2c, 0xab, 0x50, 0xf2, 0xe4, 0x11,
  0xc5, 0xe2, 0x7a, 0xf3, 0x9e, 0xeb, 0xf6, 0x35, 0x4a, 0xdd, 0x02, 0xf2,
  0x05, 0x1c, 0x60, 0xcf, 0xae, 0xc8, 0x98, 0x00, 0x92, 0x0e, 0xb6, 0x69,
  0x45, 0xb9, 0xcc, 0x30, 0x98, 0xce, 0x66, 0x3e, 0x6c, 0x22, 0x0d, 0x3e,
  0xa3, 0xb4, 0x51, 0xc5, 0x2e, 0xda, 0x9d, 0xd8, 0xb8, 0xd2, 0xdf, 0x41,
  0x44, 0x55, 0xb2, 0x95, 0x8a, 0x32, 0x63, 0x6a, 0x69, 0xad, 0x2e, 0xbc,
  0xb0, 0x76, 0x47, 0xdf, 0xcf, 0x14, 0x6b, 0xe2, 0x64, 0x46, 0x9b, 0xd7,
  0xcf, 0xe6, 0x95, 0xf7, 0xe0, 0x4c, 0xb5, 0x43, 0xa5, 0x0e, 0x03, 0x57,
  0xb0, 0x55, 0xf8, 0x9c, 0x23, 0x64, 0xd6, 0x04, 0x48, 0x6e, 0xb0, 0xb7,
  0xf1, 0x39, 0x8f, 0x87, 0x10, 0x8a, 0x3f, 0x1c, 0x0a, 0x5c, 0x16, 0xcb,
  0x38, 0xb8, 0xa6, 0x44, 0x88, 0x25, 0xdb, 0x86, 0x56, 0xcb, 0xa8, 0xcf,
  0x96, 0xb7, 0xb6, 0xad, 0x2e, 0x23, 0xdc, 0xab, 0x6a, 0x3e, 0x94, 0x43,
  0x03, 0xe1, 0xfa, 0x96, 0x8d, 0xcf, 0x14, 0x04, 0xf9, 0xce, 0xa5, 0xb0,
  0xd7, 0x38, 0x2b, 0x41, 0xe1, 0x19, 0x65, 0xf3, 0x3a, 0x08, 0xf4, 0xc8,
  0x5f, 0x8e, 0xa5, 0x50, 0x9d, 0x20, 0x38, 0x75, 0xad, 0xc9, 0xb3, 0x4e,
  0x4a, 0x66, 0x25, 0x07, 0xbf, 0xea, 0x4a, 0x59, 0x0d, 0xf9, 0x30, 0xc3,
  0x30, 0x73, 0xbe, 0x6a, 0x47, 0x89, 0x51, 0x8b, 0x47, 0xda, 0xe3, 0x73,
  0x4b, 0x38, 0x36, 0x24, 0x9c, 0x45, 0x99, 0xec, 0x54, 0x50, 0x21, 0xe3,
  0xea, 0x1c, 0xe0, 0xb0, 0xbf, 0x3c, 0x4c, 0xb9, 0xee, 0x5a, 0xb6, 0x54,
  0xa2, 0xa9, 0x87, 0xca, 0xe9, 0xb3, 0xab, 0xf1, 0xa4, 0xc6, 0x08, 0x22,
  0x90, 0x41, 0x34, 0xab, 0xc7, 0x63, 0x44, 0x92, 0xf2, 0xb6, 0x9f, 0xfd,
  0x3c, 0x81, 0x12, 0x63, 0x38, 0x9e, 0xb1, 0xe7, 0x87, 0x50, 0x96, 0xc6,
  0x5d, 0x13, 0x77, 0xb4, 0x31, 0xae, 0x68, 0x67, 0x6c, 0x81, 0x84, 0x5b,
  0x2a, 0xda, 0x97, 0xd4, 0x8b, 0x73, 0x49, 0xc2, 0x3c, 0x09, 0x34, 0xd8,
  0xf0, 0x9d, 0xb3, 0xc3, 0x44, 0x89, 0x0f, 0xb9, 0xae, 0x44, 0xbe, 0xef,
  0xbb, 0x2e, 0x5f, 0x9b, 0x77, 0x17, 0xfd, 0xc9, 0x6d, 0x03, 0x04, 0x6b,
  0x1e, 0x06, 0xc4, 0xf8, 0x04, 0xe1, 0x4f, 0x5c, 0xa4, 0xa7, 0xd7, 0xaa,
  0xeb, 0x35, 0x5a, 0x47, 0x81, 0x31, 0x29, 0xf1, 0xb6, 0xf1, 0xae, 0x30,
  0x66, 0x91, 0xbe, 0x97, 0xfe, 0x3d, 0xf3, 0xde, 0x65, 0xc5, 0x13, 0xbb,
  0x20, 0xe7, 0x6d, 0x2f, 0x3f, 0xc2, 0x15, 0x15, 0xda, 0x07, 0x8f, 0xe2,
  0x5d, 0xa8, 0xcc, 0xde, 0x9a, 0xcf, 0x6e, 0x31, 0xe9, 0xe5, 0x49, 0xf7,
  0x9b, 0x6d, 0x93, 0x66, 0x01, 0x6b, 0xcf, 0x47, 0x89, 0x50, 0x47, 0xe9,
  0x94, 0xb0, 0xad, 0xf0, 0x8f, 0x2b, 0xc3, 0x2c, 0x60, 0xd0, 0x51, 0x71,
  0x36, 0x61, 0xc4, 0x3a, 0xb3, 0x00, 0x2d, 0x73, 0x1b, 0x06, 0x08, 0xe7,
  0xf3, 0xfb, 0x4c, 0x73, 0x11, 0x40, 0xae, 0xc4, 0xfe, 0xa7, 0xd7, 0x3e,
  0x0b, 0xc5, 0x05, 0x96, 0x26, 0x3c, 0x23, 0x26, 0x5b, 0x0a, 0xab, 0xa8,
  0x3d, 0x9d, 0x73, 0x14, 0x47, 0x18, 0xc7, 0xe8, 0x44, 0x0d, 0xa4, 0x6f,
  0xc6, 0x0a, 0x6a, 0xee, 0xd0, 0x5b, 0x70, 0x90, 0x54, 0x0e, 0x74, 0x4a,
  0xed, 0x2b, 0x94, 0x6d, 0x2e, 0xf8, 0xdf, 0x3d, 0x26, 0xb7, 0xca, 0x5c,
  0x1b, 0x66, 0xe6, 0xa5, 0x5a, 0x4a, 0xeb, 0x96, 0x53, 0xda, 0x3d, 0x8f,
  0x55, 0x8c, 0x0b, 0x97, 0xf6, 0x6f, 0xcd, 0x95, 0xa5, 0xfe, 0x8d, 0x93,
  0xaf, 0x2c, 0xd6, 0xd8, 0x01, 0xe5, 0xb0, 0xe5, 0xc6, 0x20, 0x27, 0x29,
  0xdc, 0x42, 0x8b, 0x15, 0xbf, 0x56, 0x2c, 0x5c, 0x6e, 0xc7, 0x5f, 0x83,
  0xc6, 0xfb, 0xb3, 0x3b, 0xa7, 0x30, 0x00, 0x10, 0xf4, 0x2b, 0x6f, 0xa9,
  0xe1, 0x5c, 0x1e, 0xce, 0x5b, 0xf1, 0xe7, 0x46, 0x28, 0x0d, 0x1e, 0xcf,
  0x52, 0xb9, 0x0d, 0xc2, 0x56, 0x0b, 0xbe, 0xf5, 0x22, 0xbf, 0xc2, 0x59,
  0xe5, 0x42, 0x30, 0xee, 0xe2, 0x3d, 0x56, 0x56, 0xca, 0x09, 0x60, 0x3c,
  0x5b, 0x48, 0xb2, 0xbf, 0xce, 0x2a, 0xc7, 0xde, 0xae, 0xf2, 0x55, 0xd5,
  0xaa, 0xbc, 0xb8, 0xfa, 0xc2, 0x41, 0x19, 0xae, 0x19, 0x1e, 0xfd, 0x2c,
  0xd1, 0x4f, 0x2d, 0x29, 0xe5, 0xdf, 0x55, 0xef, 0x54, 0xdd, 0xc3, 0xef,
  0x32, 0xea, 0x3e, 0xd5, 0x32, 0xa1, 0xa9, 0x1f, 0xf3, 0x21, 0xac, 0x0f,
  0xde, 0xee, 0xfe, 0x29, 0xda, 0x42, 0xbb, 0x4b, 0x5b, 0xc1, 0x05, 0x9c,
  0xca, 0xe4, 0xa3, 0x57, 0x14, 0xeb, 0xf1, 0xd1, 0x26, 0x38, 0xe1, 0x18,
  0xf9, 0xbb, 0x62, 0x37, 0x00, 0xef, 0x26, 0x65, 0xee, 0x20, 0x3c, 0xbd,
  0xea, 0xc6, 0x19, 0x14, 0x0e, 0xe5, 0xc1, 0x35, 0xb4, 0xe6, 0x6d, 0xd6,
  0x33, 0x25, 0x3f, 0x54, 0x5b, 0x29, 0xdb, 0x34, 0x28, 0x14, 0x4e, 0xf2,
  0x23, 0xe9, 0xf1, 0x32, 0xe0, 0x17, 0x45, 0x42, 0x43, 0x29, 0x30, 0x41,
  0x58, 0x36, 0xc3, 0xc3, 0x5d, 0x02, 0xd3, 0x18, 0x1c, 0xbe, 0x2b, 0x4a,
  0xc8, 0x1a, 0xad, 0xf6, 0x0d, 0x43, 0x43, 0xca, 0x63, 0xc2, 0x2d, 0x28,
  0xc2, 0x25, 0x1f, 0x44, 0xe2, 0x18, 0x5d, 0x4f, 0x0d, 0x4c, 0xe5, 0xec,
  0xbf, 0x5e, 0x50, 0xf8, 0x62, 0x56, 0xd8, 0x1d, 0x53, 0xea, 0x1f, 0xc4,
  0xb3, 0x07, 0xa1, 0x2e, 0xec, 0xd5, 0xda, 0xd2, 0x9a, 0x24, 0xdc, 0x05,
  0xd6, 0xf9, 0xc1, 0xbc, 0x44, 0xfc, 0x31, 0x26, 0xdb, 0xbd, 0xb4, 0x02,
  0x3d, 0x27, 0xe1, 0xfd, 0x05, 0xde, 0x64, 0xf7, 0x10, 0x1b, 0xf8, 0xf2,
  0xb2, 0xe3, 0xec, 0xb0, 0x81, 0xff, 0xb9, 0xc0, 0xca, 0xcd, 0xb2, 0x52,
  0x09, 0xc8, 0xa4, 0xa2, 0x1b, 0xca, 0x9c, 0x32, 0x00, 0xf8, 0x26, 0xff,
  0xfd, 0xc2, 0xc5, 0x28, 0x31, 0x16, 0xc6, 0xfe, 0x65, 0xe0, 0x9c, 0x8a,
  0x53, 0x34, 0xb8, 0x65, 0x5b, 0x91, 0x9a, 0xdd, 0x44, 0xc4, 0x39, 0x71,
  0xf6, 0x09, 0xb2, 0x47, 0x78, 0xfb, 0xff, 0x3a, 0x35, 0x03, 0x56, 0xac,
  0x75, 0x35, 0xd8, 0x25, 0xd7, 0x74, 0x5e, 0xa0, 0x75, 0x37, 0xdb, 0x4c,
  0x05, 0x1f, 0x85, 0x8f, 0x37, 0x34, 0x23, 0xff, 0x2b, 0xa0, 0xbf, 0x2f,
  0xb4, 0xab, 0x3c, 0x5d, 0x65, 0x50, 0x36, 0x89, 0x9c, 0x3c, 0xf8, 0xec,
  0xda, 0x9e, 0xf2, 0x71, 0x14, 0xbd, 0x05, 0xd9, 0x45, 0x35, 0xf1, 0xe0,
  0x8d, 0x1b, 0xef, 0x9a, 0xff, 0xca, 0xf5, 0x3e, 0x38, 0x6c, 0xc0, 0x1c,
  0xf1, 0x52, 0x44, 0x0d, 0x15, 0x3c, 0x41, 0x46, 0x16, 0xfa, 0x19, 0xe8,
  0xb6, 0x74, 0x55, 0x00, 0x08, 0xf9, 0x30, 0x21, 0x9d, 0x26, 0x65, 0x14,
  0x79, 0x23, 0x74, 0x2b, 0xe7, 0x69, 0x69, 0x5b, 0x0c, 0x38, 0xd4, 0xc9,
  0xea, 0x34, 0x30, 0xb2, 0x60, 0xd0, 0xae, 0x31, 0x02, 0x6d, 0xbe, 0xef,
  0xd2, 0xaf, 0x64, 0xef, 0x23, 0xb3, 0x26, 0xf2, 0x35, 0xb4, 0x00, 0x9b,
  0x2e, 0x15, 0x9f, 0xf0, 0x8d, 0x4c, 0xeb, 0xea, 0xa6, 0x0f, 0x2b, 0xf7,
  0x41, 0x57, 0xb0, 0xef, 0xa3, 0x91, 0x18, 0x63, 0xf3, 0x42, 0xf2, 0xa7,
  0xe8, 0xd5, 0xaf, 0xd3, 0x5f, 0x0a, 0x12, 0x14, 0x8e, 0xea, 0xf6, 0x29,
  0x64, 0x24, 0x98, 0x01, 0x52, 0x87, 0x1c, 0xc1, 0xaa, 0x61, 0xa3, 0x06,
  0x11, 0x44, 0xab, 0x3b, 0x43, 0x98, 0xb7, 0xd4, 0xc3, 0x0f, 0xb1, 0xaf,
  0xc7, 0x3b, 0x01, 0x0a, 0xcb, 0xad, 0xc4, 0xca, 0x12, 0x41, 0xd8, 0x8a,
  0xd5, 0xaa, 0x77, 0xaf, 0x55, 0x3f, 0x1e, 0xd6, 0x15, 0xe1, 0xda, 0x14,
  0x37, 0x43, 0xc0, 0x69, 0xb5, 0x57, 0x6d, 0x7d, 0x7f, 0x1a, 0xb7, 0x45,
  0xae, 0x74, 0xba, 0xe3, 0x41, 0xd8, 0xd3, 0x6c, 0xfb, 0xe7, 0xec, 0xe4,
  0x14, 0x9d, 0x00, 0x7a, 0x22, 0xcb, 0x70, 0x97, 0x83, 0x53, 0xc7, 0x0c,
  0x63, 0xc7, 0xd7, 0x7a, 0x33, 0x88, 0xb3, 0x53, 0xea, 0xb4, 0xa2, 0x65,
  0x6f, 0xf1, 0x5c, 0x53, 0xe3, 0xec, 0x93, 0xc1, 0x91, 0x38, 0x39, 0x3d,
  0x37, 0xeb, 0xf8, 0x33, 0x8e, 0xac, 0x28, 0x58, 0xd5, 0xdf, 0xa5, 0xd8,
  0xc9, 0x9f, 0xc9, 0x3e, 0xb7, 0x4e, 0xdb, 0x4c, 0x01, 0xf0, 0x05, 0xf0,
  0x0e, 0x17, 0xd0, 0xd5, 0x4d, 0x87, 0xf9, 0xa7, 0xfc, 0xcf, 0xa1, 0x60,
  0xd2, 0xae, 0xc6, 0x15, 0xc7, 0x0a, 0x30, 0x5b, 0xbb, 0x69, 0xc2, 0xc9,
  0xd9, 0xf1, 0x5e, 0xc9, 0x05, 0xf5, 0x10, 0xb0, 0xf0, 0xe4, 0xf9, 0xd8,
  0x66, 0xbf, 0xb6, 0x04, 0x93, 0xfb, 0x5b, 0x6e, 0xf0, 0xcd, 0xcd, 0x5c,
  0x3a, 0xca, 0x4b, 0xd5, 0x63, 0xba, 0x66, 0x95, 0x53, 0x48, 0x6d, 0xf4,
  0xe9, 0x26, 0xfb, 0x98, 0x1f, 0x00, 0x40, 0x47, 0xa0, 0xff, 0x5d, 0xe1,
  0xb6, 0x4e, 0xa3, 0x4e, 0xcb, 0x90, 0xf1, 0xa5, 0x2a, 0x8d, 0x9c, 0xe1,
  0xbd, 0xd5, 0x49, 0xff, 0x35, 0x19, 0x92, 0x39, 0x95, 0x27, 0x2c, 0x6d,
  0x4b, 0xad, 0xff, 0x3c, 0x74, 0x2c, 0x22, 0xb6, 0x75, 0x13, 0xa6, 0xa9,
  0x00, 0xde, 0x78, 0x4d, 0x93, 0x5f, 0x71, 0x05, 0xae, 0x5f, 0x40, 0x3c,
  0x16, 0xed, 0x93, 0xeb, 0x55, 0x02, 0x01, 0x62, 0xc4, 0x0f, 0x35, 0x77,
  0xe2, 0x2b, 0x3c, 0xde, 0xa4, 0xba, 0x29, 0x2a, 0x66, 0x26, 0xdc, 0xac,
  0x01, 0x32, 0x2f, 0x67, 0x4e, 0x1a, 0x27, 0x7b, 0xed, 0xd6, 0x94, 0x97,
  0x9d, 0xb8, 0xf6, 0xfc, 0x0a, 0x40, 0x99, 0x3b, 0xe0, 0xe7, 0xd9, 0xb2,
  0x81, 0xa8, 0x9e, 0x5d, 0x96, 0x28, 0x65, 0xe7, 0x95, 0x08, 0xef, 0x73,
  0x57, 0xc0, 0x68, 0x55, 0x08, 0x1d, 0xd4, 0xa4, 0x93, 0xbf, 0xd3, 0xb8,
  0xfa, 0xbc, 0x65, 0xe9, 0x4b, 0xbc, 0x9d, 0xcf, 0x67, 0xe1, 0x19, 0x08,
  0x11, 0x51, 0x24, 0x1b, 0x4f, 0x10, 0xe3, 0xca, 0x33, 0x62, 0x51, 0xbd,
  0xb7, 0xed, 0x90, 0x9f, 0xd9, 0x8d, 0x32, 0x6e, 0x25, 0x67, 0xe4, 0xa5,
  0xc0, 0x0f, 0xee, 0x4e, 0xf4, 0x0d, 0xca, 0xbf, 0xf7, 0xef, 0x4b, 0x9e,
  0x9b, 0xdf, 0x64, 0xe5, 0x1a, 0x4a, 0xec, 0x3e, 0x91, 0x47, 0xd5, 0x48,
  0x65, 0x5d, 0x96, 0x51, 0x55, 0xe3, 0x62, 0x94, 0xf9, 0x25, 0xdf, 0x87,
  0xd8, 0x78, 0xb1, 0x8e, 0x47, 0xfa, 0xc8, 0x6b, 0xac, 0xf8, 0x8f, 0x5e,
  0x09, 0x0a, 0xcc, 0x5c, 0xbb, 0x6e, 0x64, 0x6a, 0x4b, 0x8c, 0x43, 0xd5,
  0xf2, 0x16, 0xa2, 0x37, 0x8e, 0x07, 0x1a, 0xc2, 0xa5, 0xc3, 0x9e, 0x47,
  0x9c, 0x17, 0x92, 0xf8, 0x1c, 0x66, 0x54, 0x33, 0x42, 0xa5, 0x15, 0x15,
  0x58, 0x7f, 0x1f, 0x51, 0x24, 0x8f, 0x9e, 0xf6, 0x3f, 0x99, 0xf9, 0x54,
  0x26, 0x22, 0x53, 0xf5, 0xaf, 0x52, 0x65, 0xc8, 0xaf, 0x60, 0xdf, 0x8e,
  0xb6, 0x25, 0x27, 0x38, 0xf1, 0xf8, 0x2b, 0x67, 0x61, 0xa6, 0x28, 0x75,
  0xfd, 0xb4, 0xa0, 0x9a, 0xaa, 0xe8, 0x95, 0xc2, 0x99, 0x9d, 0x8c, 0x4d,
  0x6d, 0xa3, 0xf0, 0x34, 0x8b, 0x39, 0x20, 0x6e, 0x33, 0xa0, 0x57, 0xda,
  0x24, 0xa8, 0x1c, 0xe6, 0x94, 0x5d, 0xca, 0xde, 0x8f, 0x2a, 0xad, 0xf2,
  0x70, 0xb0, 0xad, 0x37, 0xf7, 0x45, 0x94, 0x62, 0xaa, 0x74, 0xda, 0xc6,
  0x94, 0x8c, 0x0d, 0x22, 0x0b, 0x6b, 0x41, 0x58, 0x3a, 0xf1, 0x7c, 0x5d,
  0x6c, 0x5a, 0x15, 0x23, 0x0f, 0x20, 0x54, 0x66, 0x5d, 0x4e, 0x2f, 0x77,
  0x2e, 0xe6, 0xd1, 0x0d, 0xc7, 0x3e, 0x03, 0x29, 0xab, 0x69, 0x3e, 0x1e,
  0xaf, 0x4f, 0xfb, 0xba, 0x07, 0x30, 0x5b, 0xe8, 0xdf, 0x27, 0xbc, 0x57,
  0xb7, 0x67, 0x4f, 0xab, 0x2c, 0xa4, 0x4e, 0xb7, 0x83, 0xce, 0x8f, 0xfd,
  0x97, 0x92, 0xd7, 0x0a, 0x2e, 0x90, 0x94, 0x34, 0xec, 0xa9, 0xe7, 0xe4,
  0x22, 0x48, 0xea, 0x03, 0xbc, 0x55, 0x6a, 0x90, 0x19, 0x2c, 0xf6, 0x25,
  0x07, 0x57, 0xc0, 0x04, 0xf2, 0x94, 0x7e, 0x39, 0x58, 0x9a, 0xb5, 0x7c,
  0x2b, 0xcd, 0xc4, 0x02, 0x6a, 0x8b, 0xd1, 0x67, 0xd7, 0x41, 0xde, 0x17,
  0x2f, 0x63, 0xfe, 0xdd, 0x09, 0x0f, 0x91, 0xca, 0x26, 0x53, 0x71, 0xac,
  0x85, 0x3e, 0xcf, 0x13, 0xc0, 0xe4, 0xb3, 0xdb, 0x30, 0x76, 0x42, 0xf7,
  0xec, 0x20, 0x9c, 0xd8, 0x38, 0xa6, 0x3a, 0xdf, 0x72, 0x69, 0x79, 0xf6,
  0x45, 0xf5, 0xc0, 0x6d, 0xc9, 0x2f, 0xea, 0xd3, 0xe6, 0xb9, 0x3c, 0x12,
  0x93, 0xf0, 0x76, 0x4b, 0x3a, 0xe1, 0x65, 0xa9, 0xcc, 0xba, 0x9e, 0x97,
  0x79, 0x02, 0x41, 0xe9, 0x0f, 0x31, 0xd9, 0x83, 0x65, 0xe0, 0xd9, 0x3e,
  0xed, 0x8b, 0x1a, 0x4e, 0x7b, 0xc8, 0x87, 0x33, 0xe3, 0x87, 0x9d, 0x2e,
  0x5b, 0x19, 0x97, 0x02, 0xbd, 0x4e, 0xea, 0x86, 0xa2, 0x02, 0x3d, 0x43,
  0x0c, 0x1f, 0xbd, 0xfd, 0x1c, 0xcc, 0xb0, 0x90, 0xcc, 0x53, 0xdd, 0x8f,
  0xcc, 0x26, 0x82, 0x3f, 0x66, 0x35, 0x22, 0x1b, 0x1d, 0x7e, 0x09, 0xdc,
  0x70, 0x35, 0x40, 0x11, 0x23, 0x89, 0xd3, 0xb2, 0x18, 0x89, 0x05, 0x18,
  0x2d, 0xbd, 0x29, 0x83, 0x0e, 0xae, 0xc4, 0x39, 0xd8, 0x17, 0xde, 0x1c,
  0xa6, 0x7a, 0x7d, 0xdf, 0x00, 0x3b, 0x20, 0xd2, 0x1d, 0xda, 0xdc, 0x2c,
  0x8c, 0x4f, 0x7b, 0x6f, 0xc1, 0x5a, 0xb2, 0xfe, 0x0f, 0x4c, 0x12, 0x5b,
  0x59, 0xaa, 0x8f, 0x62, 0x64, 0xa3, 0xbd, 0x17, 0xc2, 0x98, 0xc9, 0x66,
  0x81, 0x7d, 0xad, 0xfc, 0x6e, 0x23, 0x44, 0xe0, 0x6f, 0x1e, 0x84, 0x2b,
  0xf9, 0xa5, 0xfe, 0xc9, 0xaa, 0x04, 0x23, 0xb7, 0x7a, 0x2b, 0x05, 0x4a,
  0xc1, 0x24, 0x29, 0xd4, 0xf0, 0x99, 0x16, 0x87, 0x45, 0xc2, 0x17, 0xd9,
  0x52, 0x5f, 0x9e, 0xa5, 0xf5, 0xc1, 0xe7, 0x0c, 0x9b, 0x6e, 0x69, 0x1f,
  0xe0, 0x1c, 0xf2, 0x66, 0x51, 0x53, 0xa7, 0x6b, 0x08, 0x3f, 0xf1, 0x9a,
  0xbb, 0x5f, 0xfc, 0xed, 0x60, 0xb3, 0xb8, 0x31, 0x52, 0x2f, 0xfb, 0x35,
  0x1f, 0xa3, 0xd2, 0x4f, 0xc8, 0x06, 0xad, 0xbd, 0x30, 0x8d, 0xf0, 0xbe,
  0x20, 0x4f, 0xe9, 0xe2, 0x64, 0x29, 0xed, 0xc1, 0xed, 0x13, 0x3a, 0xd7,
  0x02, 0x1e, 0x16, 0x0e, 0xf0, 0x62, 0x08, 0xf5, 0xf9, 0x59, 0x4e, 0x00,
  0x32, 0x6a, 0xd6, 0x28, 0x15, 0xde, 0x89, 0xc8, 0x50, 0xa7, 0xbc, 0xb8,
  0xd1, 0xa2, 0x51, 0xf4, 0x12, 0xb0, 0x12, 0xa5, 0x9e, 0x9a, 0x2f, 0xcf,
  0xe4, 0x53, 0x57, 0x14, 0x65, 0xef, 0x0f, 0x26, 0xbf, 0x05, 0xbd, 0xeb,
  0xc4, 0x9e, 0x60, 0xcd, 0x8d, 0x36, 0x16, 0xe6, 0xe8, 0x2d, 0x5f, 0xc4,
  0xf0, 0xbc, 0x1e, 0x3d, 0xa7, 0xb2, 0x4e, 0x5e, 0x35, 0x95, 0xd1, 0xf7,
  0x3f, 0xda, 0xaf, 0x98, 0x67, 0xad, 0xed, 0x37, 0x8c, 0x2b, 0xd9, 0x67,
  0x5a, 0x96, 0xd1, 0x4f, 0xf5, 0x87, 0x3d, 0xcd, 0x67, 0xf9, 0xd2, 0x5b,
  0x95, 0xed, 0xc9, 0xe3, 0x6e, 0xec, 0xde, 0xa2, 0x5b, 0x3d, 0xde, 0xf6,
  0xc1, 0xbb, 0xbf, 0x2c, 0x32, 0x57, 0xc4, 0xec, 0x9a, 0xcb, 0xe9, 0x5a,
  0x6e, 0x4d, 0x6b, 0x3b, 0x34, 0x9f, 0x0a, 0xa9, 0x9c, 0x63, 0xbf, 0x1b,
  0xb0, 0x10, 0xb5, 0xec, 0x7f, 0xd1, 0x06, 0x2e, 0x20, 0x4a, 0xe1, 0xce,
  0xc0, 0xe6, 0xbe, 0xee, 0x43, 0x26, 0xfb, 0xba, 0x2e, 0xe8, 0x73, 0x4f,
  0xb5, 0x52, 0x3b, 0xc8, 0xdc, 0xae, 0x4b, 0x40, 0xcb, 0x08, 0x63, 0x18,
  0xc6, 0x42, 0x42, 0x04, 0xbc, 0xd2, 0x60, 0x4c, 0x3c, 0xf5, 0x62, 0xfd,
  0x35, 0x39, 0x1c, 0xfa, 0x63, 0x46, 0x53, 0x2c, 0x3f, 0x18, 0x0f, 0x2a,
  0x0e, 0xa5, 0x49, 0xb4, 0xa1, 0x53, 0xde, 0xd0, 0x35, 0x25, 0xd9, 0xdc,
  0xe6, 0x67, 0xd0, 0xc6, 0x00, 0x32, 0x2e, 0x2a, 0xb5, 0xe0, 0xfe, 0xcc,
  0x09, 0x4f, 0x23, 0x20, 0xba, 0xe1, 0x13, 0x9c, 0x69, 0x30, 0x2c, 0x33,
  0x64, 0xe5, 0x02, 0x36, 0x03, 0xf1, 0x10, 0xca, 0xe7, 0xe1, 0x56, 0xee,
  0x72, 0x09, 0xd9, 0x26, 0x95, 0x2b, 0x58, 0x69, 0xa2, 0xb3, 0x2e, 0xcd,
  0x5c, 0x76, 0xe3, 0x55, 0xce, 0x35, 0x09, 0x11, 0x00, 0xca, 0x11, 0x37,
  0x53, 0x04, 0x3a, 0x47, 0xba, 0xce, 0x3b, 0x58, 0xd3, 0xd7, 0xcc, 0x4a,
  0xcc, 0xfe, 0xac, 0xaa, 0xf1, 0x61, 0xa1, 0x17, 0x2b, 0x6c, 0x56, 0xb4,
  0xda, 0xaf, 0xe3, 0xbe, 0x2a, 0xad, 0x02, 0xae, 0xd2, 0xdc, 0x1f, 0xe5,
  0xcf, 0x7f, 0xfe, 0x3b, 0x5f, 0xee, 0xec, 0x2f, 0x1f, 0x05, 0x40, 0xde,
  0x04, 0x6e, 0x15, 0xcd, 0xe6, 0xb1, 0x02, 0x35, 0xa4, 0xa6, 0x08, 0xcb,
  0x3f, 0x6f, 0xc6, 0x41, 0x5d, 0x6b, 0xbd, 0xbc, 0x54, 0xc6, 0x9e, 0xbc,
  0x5e, 0x98, 0x62, 0x21, 0x33, 0x09, 0xac, 0x26, 0x50, 0x08, 0x1c, 0xff,
  0x44, 0x05, 0x4d, 0xf3, 0x52, 0xd1, 0x51, 0x49, 0xcf, 0x55, 0xdf, 0xc0,
  0x49, 0xbf, 0xdb, 0x62, 0x07, 0x54, 0xc3, 0xb8, 0x54, 0x05, 0xb6, 0xb1,
  0xe5, 0xa7, 0x91, 0x1e, 0xca, 0x8b, 0x03, 0xe2, 0x14, 0x28, 0x09, 0x16,
  0xc2, 0xbe, 0xa1, 0x20, 0xac, 0xe5, 0xa7, 0xf9, 0xef, 0x3f, 0x10, 0x33,
  0x21, 0xeb, 0x3a, 0xf5, 0x06, 0x12, 0x2c, 0xc5, 0x27, 0x82, 0xa8, 0x8b,
  0xdf, 0xd9, 0x47, 0x8f, 0x2f, 0xf4, 0x8e, 0xce, 0x91, 0x13, 0x22, 0x3f,
  0xa5, 0x00, 0xf0, 0x98, 0x4c, 0xbd, 0x92, 0xd9, 0x13, 0x5e, 0xb9, 0x0a,
  0x53, 0x2d, 0xca, 0xe1, 0x63, 0x53, 0x32, 0xd8, 0x6d, 0xc9, 0x30, 0x6a,
  0x9a, 0x9b, 0x2c, 0x69, 0x3d, 0x20, 0x24, 0xcb, 0xa3, 0x9d, 0xda, 0xb9,
  0xa1, 0x2f, 0x37, 0x2f, 0x0f, 0xcf, 0xa2, 0x2f, 0xa1, 0x1a, 0x31, 0x1d,
  0xda, 0xf1, 0x65, 0x17, 0xe3, 0xc6, 0x33, 0xb4, 0x78, 0x0c, 0xbc, 0x3c,
  0xcc, 0x87, 0xea, 0x96, 0xe1, 0x92, 0xd1, 0xd5, 0x00, 0x28, 0xc8, 0x68,
  0x6b, 0x66, 0x2f, 0xcd, 0xbb, 0x46, 0x17, 0x2c, 0x9a, 0x4e, 0x9c, 0x31,
  0x2c, 0x3d, 0x2d, 0xd8, 0x42, 0x60, 0x68, 0x4c, 0x2e, 0x97, 0x0a, 0x28,
  0x6d, 0xd2, 0x61, 0x68, 0x08, 0x1f, 0xed, 0xae, 0x16, 0x28, 0xc2, 0x65,
  0x51, 0xe9, 0x48, 0x6c, 0x53, 0xbf, 0xdd, 0xf2, 0xc6, 0x55, 0x5f, 0xf3,
  0xe3, 0x18, 0x16, 0x1e, 0xfc, 0xda, 0x4b, 0x51, 0xa8, 0xe2, 0x63, 0xc2,
  0x2e, 0x5c, 0xb2, 0xc0, 0x3f, 0xe8, 0x9c, 0x97, 0x12, 0x8c, 0xf3, 0xdc,
  0x31, 0xfd, 0xa2, 0x14, 0xb0, 0xe8, 0x36, 0x7f, 0x4a, 0xcd, 0x3e, 0x48,
  0xc0, 0x10, 0xbb, 0x13, 0x6c, 0x5d, 0xfa, 0xec, 0x1d, 0x1a, 0x43, 0xae,
  0xdd, 0xea, 0x10, 0xc7, 0x95, 0xf8, 0x3b, 0x66, 0x49, 0x55, 0x5a, 0x1f,
  0x0a, 0x12, 0xee, 0x00, 0x98, 0xaa, 0xe6, 0x41, 0x8f, 0x47, 0xad, 0x91,
  0x1f, 0x0c, 0x42, 0xca, 0xd4, 0xcc, 0x65, 0xe5, 0xc0, 0xcc, 0x1e, 0xaf,
  0xb5, 0x61, 0xfb, 0xb5, 0xad, 0xfe, 0xa5, 0xe5, 0x04, 0x3b, 0xaa, 0x97,
  0x35, 0x00, 0xdb, 0x88, 0x66, 0x01, 0xd0, 0x4b, 0x5d, 0xca, 0x50, 0x22,
  0x4a, 0x00, 0x3a, 0x99, 0xbc, 0xde, 0xfd, 0xc1, 0xb6, 0x26, 0x5b, 0x18,
  0xd6, 0x3c, 0xa2, 0x8a, 0xe6, 0xcc, 0xb3, 0x55, 0x8d, 0xd8, 0x9c, 0x96,
  0x34, 0xce, 0x45, 0xc0, 0x62, 0xd4, 0x2c, 0xfb, 0xc7, 0x0f, 0xac, 0x8c,
  0x5d, 0x9c, 0xab, 0xb2, 0x89, 0x21, 0x9c, 0xda, 0x3c, 0x52, 0xd2, 0xea,
  0xff, 0xb5, 0xaa, 0x27, 0x61, 0x6b, 0x9f, 0xb9, 0xc0, 0x11, 0x32, 0x59,
  0x5f, 0x4c, 0xc3, 0xfc, 0x68, 0xb7, 0xdf, 0xef, 0x51, 0x3f, 0xcc, 0xa4,
  0xbd, 0x21, 0xa9, 0x5e, 0x6c, 0xf8, 0xff, 0xcb, 0x32, 0xef, 0x26, 0x0f,
  0xd8, 0xeb, 0x32, 0x99, 0xf5, 0xfc, 0xf8, 0xc3, 0x6d, 0x22, 0x04, 0xb5,
  0xd1, 0x9c, 0x40, 0x1a, 0xcb, 0xd4, 0x05, 0xea, 0x19, 0x1d, 0x1a, 0x19,
  0xcc, 0x51, 0x56, 0x98, 0x04, 0x54, 0x35, 0x2c, 0x02, 0x9f, 0x2b, 0xb1,
  0x27, 0xa4, 0x6c, 0x3a, 0xf4, 0xb0, 0xdc, 0x12, 0x1b, 0x2b, 0x9b, 0xa1,
  0x67, 0xd9, 0xba, 0xe5, 0x13, 0x48, 0x43, 0x96, 0xd0, 0x5c, 0x16, 0x39,
  0xf1, 0xb2, 0x65, 0x6c, 0xc8, 0xc2, 0x49, 0xdc, 0xae, 0xe8, 0xbb, 0xdb,
  0x4f, 0xe8, 0xc1, 0x04, 0x3e, 0x98, 0xe0, 0x9f, 0x93, 0x35, 0x34, 0x28,
  0x31, 0x41, 0xa6, 0x9b, 0xa3, 0xa0, 0x36, 0x65, 0x22, 0xac, 0xea, 0xa2,
  0xd7, 0x6e, 0x98, 0xf6, 0x2a, 0xf1, 0x52, 0xa8, 0xe3, 0x0e, 0xfd, 0x41,
  0x36, 0xd4, 0x15, 0x0c, 0x0a, 0xc0, 0xab, 0x3a, 0xb5, 0x3d, 0x40, 0x99,
  0x3d, 0x3e, 0xc1, 0x97, 0x67, 0xb3, 0x46, 0x2d, 0x46, 0xe2, 0xed, 0x42,
  0x26, 0x6d, 0xed, 0x66, 0xa2, 0x4d, 0xdf, 0x37, 0xae, 0x1e, 0x92, 0x3d,
  0x4f, 0x04, 0x6a, 0x17, 0xda, 0xe9, 0xb7, 0xaa, 0x67, 0xc1, 0x60, 0xe1,
  0xa8, 0xe4, 0x30, 0xf0, 0x12, 0x67, 0x40, 0x93, 0x9e, 0xcc, 0xee, 0xb8,
  0xa6, 0xf4, 0xf9, 0xfc, 0xf9, 0xec, 0xdc, 0xd2, 0x3e, 0xa7, 0xf0, 0xd9,
  0xc8, 0x62, 0x3d, 0xf3, 0xf8, 0x99, 0xce, 0x2a, 0x9f, 0xb5, 0x41, 0x31,
  0xca, 0xb6, 0xdd, 0x4d, 0x93, 0xbf, 0xc3, 0x17, 0xd1, 0xd3, 0x97, 0x55,
  0xb0, 0xae, 0x81, 0xb7, 0xe2, 0x58, 0x5d, 0x35, 0xad, 0x31, 0xbe, 0x4a,
  0x7f, 0xbc, 0xf4, 0xfb, 0xc9, 0x1f, 0x4c, 0xf2, 0xf7, 0xfe, 0xfe, 0xff,
  0xc6, 0x02, 0x2c, 0xf1, 0xcd, 0xef, 0x30, 0x3d, 0xf7, 0xcf, 0xbc, 0xc3,
  0xdb, 0x39, 0x08, 0x07, 0xd8, 0x38, 0xeb, 0x28, 0x57, 0xd8, 0xac, 0x46,
  0xc5, 0x0d, 0x33, 0xdd, 0xc6, 0xc2, 0x40, 0xbb, 0x07, 0xcc, 0xde, 0xc8,
  0xcf, 0xc5, 0x2e, 0x1b, 0x15, 0xe2, 0x0c, 0xb1, 0x23, 0xbf, 0x27, 0xd6,
  0x49, 0xeb, 0xf5, 0x40, 0x10, 0xc1, 0x01, 0x31, 0x02, 0x08, 0xf3, 0x0c,
  0xff, 0x28, 0x35, 0x3a, 0x2e, 0x45, 0x1f, 0xea, 0x27, 0x43, 0x4d, 0x39,
  0x2a, 0xdc, 0xdf, 0x2e, 0x05, 0xe0, 0xed, 0x3e, 0xc2, 0x31, 0xc5, 0x10,
  0xce, 0xb2, 0xf9, 0xc5, 0x43, 0xf9, 0xc2, 0xef, 0x03, 0xc0, 0xde, 0x4b,
  0xdd, 0xc1, 0xbc, 0x1d, 0x04, 0x23, 0xb7, 0x29, 0xcc, 0xa9, 0x3f, 0x07,
  0x15, 0xc2, 0x0c, 0x4a, 0xaa, 0xa1, 0xbd, 0xc0, 0xd2, 0xfa, 0xfd, 0x2c,
  0x37, 0x2a, 0xd7, 0x3b, 0xc2, 0x2f, 0x27, 0x05, 0xdf, 0xa4, 0xc8, 0x39,
  0xec, 0x26, 0x45, 0x0d, 0x39, 0x14, 0x2e, 0x3a, 0x24, 0x40, 0xba, 0xf4,
  0xf7, 0xe0, 0xeb, 0x13, 0xe5, 0x99, 0xbc, 0xbf, 0x12, 0x3c, 0x3c, 0xba,
  0xd8, 0x09, 0xa9, 0xc0, 0xf3, 0x54, 0x3a, 0x54, 0x33, 0xc6, 0xe6, 0x11,
  0xee, 0x03, 0xd1, 0x25, 0xed, 0xdf, 0xd4, 0xb2, 0x10, 0x4b, 0xf6, 0x27,
  0xff, 0x4d, 0xb6, 0x27, 0x0b, 0x4d, 0x49, 0x2b, 0x0f, 0xdc, 0x45, 0xc5,
  0x08, 0x04, 0xc5, 0xd5, 0x58, 0x0c, 0xbf, 0x4a, 0xee, 0x1d, 0xf5, 0xbf,
  0x50, 0x5a, 0x47, 0xd1, 0x3b, 0x24, 0x4b, 0x01, 0xc5, 0xc0, 0x56, 0xef,
  0x1b, 0xd1, 0xd2, 0xd6, 0x30, 0xc8, 0x54, 0xe0, 0xb0, 0xa7, 0x31, 0xb6,
  0xec, 0x23, 0x12, 0x03, 0x55, 0x36, 0xe7, 0x05, 0x40, 0xc6, 0x20, 0x20,
  0xed, 0x1c, 0x3f, 0xb5, 0x10, 0x02, 0xac, 0x81, 0xb4, 0x98, 0x15, 0xec,
  0x64, 0x77, 0x51, 0xa2, 0x42, 0x8f, 0xbb, 0xfe, 0x8b, 0x41, 0x4c, 0x2b,
  0x4f, 0x21, 0xba, 0xdd, 0x91, 0xd4, 0xf3, 0x44, 0x3b, 0x93, 0x72, 0xd5,
  0x9a, 0xd1, 0xb7, 0x96, 0xab, 0xa1, 0xca, 0x75, 0x26, 0xbe, 0xad, 0x14,
  0x68, 0xe7, 0x64, 0xc4, 0xd2, 0xf7, 0xe6, 0x19, 0x10, 0xdb, 0x2c, 0x52,
  0x7a, 0x0c, 0x1a, 0x3a, 0xe5, 0x05, 0xd6, 0xab, 0xfb, 0x0e, 0xab, 0xcb,
  0x82, 0xcc, 0x5c, 0x6a, 0x72, 0x03, 0x51, 0x32, 0x41, 0xd1, 0x2a, 0x67,
  0xff, 0xd7, 0xd7, 0x33, 0x64, 0x0f, 0xce, 0x78, 0x83, 0x84, 0x88, 0xb2,
  0x62, 0x67, 0x65, 0x4a, 0x4c, 0xe3, 0xe5, 0xe6, 0xa0, 0x4b, 0x78, 0x59,
  0xab, 0x29, 0x04, 0xb4, 0x2f, 0x1e, 0xb5, 0xf6, 0x96, 0x29, 0xa0, 0xf0,
  0xc3, 0xf6, 0x49, 0x3b, 0xc9, 0x9b, 0x8f, 0xed, 0xc3, 0x74, 0x23, 0xfb,
  0x5a, 0x89, 0x1e, 0xe3, 0x8a, 0x98, 0xec, 0xae, 0xd2, 0xeb, 0xd9, 0xa8,
  0xaf, 0x1b, 0xe4, 0xa3, 0x44, 0x88, 0x99, 0xa8, 0x8c, 0x1c, 0x3b, 0xfa,
  0xcc, 0x94, 0x2e, 0x72, 0x19, 0x01, 0x69, 0xe8, 0xfc, 0xc4, 0x61, 0x84,
  0x52, 0x6b, 0xe1, 0xd5, 0xa0, 0x8f, 0xce, 0x3c, 0xed, 0xdf, 0x68, 0xf3,
  0x3d, 0x76, 0x15, 0xf8, 0xd3, 0x00, 0xce, 0x5f, 0x8f, 0xd6, 0x98, 0xa2,
  0x96, 0xb9, 0xd2, 0x6b, 0x4b, 0xb4, 0xd0, 0x8d, 0x07, 0x94, 0xa6, 0x52,
  0x4b, 0x45, 0x15, 0x4f, 0x41, 0x91, 0xfe, 0xec, 0x94, 0x18, 0x37, 0x73,
  0x50, 0x46, 0x05, 0x24, 0x3a, 0xd8, 0xda, 0x53, 0xdc, 0x2a, 0xa4, 0xaa,
  0x45, 0xa4, 0x97, 0xda, 0x14, 0xac, 0x05, 0xf2, 0xdc, 0x69, 0x0d, 0x96,
  0x97, 0xb6, 0x6b, 0xbd, 0x68, 0x85, 0xa5, 0x86, 0xe9, 0x0a, 0x06, 0xd1,
  0x8b, 0x25, 0xc8, 0x32, 0xcd, 0x11, 0xf4, 0x1a, 0x6d, 0x6a, 0x50, 0x8f,
  0x47, 0xb1, 0x99, 0x49, 0x43, 0x9a, 0x08, 0x9c, 0xe6, 0x21, 0x12, 0xf2,
  0xea, 0xd5, 0x88, 0x3d, 0x3e, 0x1a, 0x06, 0xc0, 0xa4, 0xc2, 0x4a, 0x1d,
  0x97, 0xc3, 0x5c, 0xcb, 0xd9, 0x52, 0xb4, 0x63, 0x6b, 0x47, 0x95, 0xa8,
  0xfe, 0x88, 0x48, 0x91, 0x05, 0xab, 0xfb, 0x62, 0x13, 0x38, 0x1b, 0x5a,
  0xd3, 0xb8, 0xeb, 0x30, 0xa0, 0x38, 0x9c, 0x23, 0x67, 0x3e, 0xba, 0xf6,
  0xa9, 0x28, 0x99, 0xfd, 0xaa, 0x62, 0xb4, 0x2c, 0xb4, 0x63, 0xc8, 0x12,
  0xd4, 0x72, 0xc9, 0x52, 0xe7, 0x91, 0xd3, 0xbf, 0xfb, 0xa7, 0x0a, 0x98,
  0xa5, 0x00, 0x0b, 0xd5, 0x1e, 0x6d, 0x5b, 0x25, 0x5a, 0xc5, 0x4b, 0x09,
  0x0e, 0x3d, 0xa6, 0x19, 0xb5, 0x11, 0x4e, 0xa5, 0xd0, 0x93, 0xb6, 0xdb,
  0x3d, 0x8a, 0x3e, 0x0c, 0xb5, 0xb4, 0xc7, 0xd1, 0xa2, 0x9a, 0xd7, 0xb0,
  0xbb, 0xcc, 0xbf, 0x09, 0x3c, 0x3d, 0x5b, 0x13, 0x9d, 0xdf, 0x67, 0xa5,
  0x63, 0x89, 0x0a, 0xeb, 0xa8, 0x92, 0xf5, 0x54, 0xa6, 0x57, 0x97, 0x4a,
  0xcc, 0xb5, 0x41, 0xdb, 0x69, 0x08, 0x55, 0x12, 0x45, 0xef, 0x1d, 0x96,
  0xcd, 0xf5, 0xb9, 0x43, 0x9f, 0x2b, 0x5a, 0x00, 0xcd, 0xea, 0xea, 0x6e,
  0x8d, 0xd7, 0x32, 0x2d, 0x2d, 0x3b, 0xe2, 0xb6, 0x16, 0x07, 0x0e, 0x4d,
  0xd6, 0xee, 0x37, 0xd7, 0xfc, 0xb2, 0xc6, 0x73, 0xd4, 0x59, 0xf1, 0x1e,
  0x40, 0xa0, 0x64, 0x21, 0x43, 0x6e, 0x53, 0x94, 0xa1, 0x4a, 0xf1, 0xe2,
  0x2a, 0x97, 0x99, 0xab, 0xe5, 0x4c, 0x36, 0xbc, 0xe4, 0x17, 0xe3, 0x89,
  0x6c, 0xd1, 0xde, 0x18, 0xc9, 0x90, 0x0b, 0x10, 0x36, 0x22, 0x28, 0x5f,
  0xc9, 0x99, 0xa7, 0x5c, 0x04, 0xc5, 0x8f, 0xe1, 0x0e, 0x5d, 0xeb, 0xb2,
  0xb7, 0x98, 0x81, 0x1d, 0x11, 0x6f, 0x1f, 0x98, 0x48, 0x97, 0x52, 0x60,
  0x03, 0xfc, 0xa4, 0x63, 0x41, 0x0f, 0xa2, 0x9e, 0x2b, 0xc4, 0xc9, 0xfd,
  0xf1, 0x3e, 0x45, 0xd9, 0x51, 0x34, 0xb3, 0x2f, 0xd7, 0xa5, 0x19, 0x24,
  0xf7, 0x3f, 0x36, 0xf0, 0xe7, 0xed, 0xc3, 0x9e, 0xf7, 0xe4, 0x2d, 0x18,
  0x26, 0xd7, 0xa2, 0x61, 0x4a, 0x69, 0x4e, 0xe9, 0xd2, 0xb1, 0xc7, 0xd8,
  0x0e, 0x68, 0xba, 0x24, 0x70, 0xbf, 0x0d, 0xbb, 0x6e, 0x31, 0x52, 0x04,
  0xbb, 0x09, 0xbc, 0xd3, 0xfc, 0xaa, 0x70, 0x2e, 0x1d, 0xa2, 0xde, 0xd0,
  0x0b, 0x47, 0x77, 0x44, 0x37, 0x1f, 0x1d, 0x3e, 0xb5, 0x81, 0x34, 0x0b,
  0xa8, 0x0b, 0x97, 0x33, 0xf0, 0xb2, 0x4b, 0xb4, 0xd4, 0xe9, 0xd5, 0x20,
  0xb1, 0xfb, 0xd8, 0x32, 0xff, 0x57, 0x10, 0xce, 0xbc, 0xc3, 0xa8, 0x2a,
  0xe5, 0xfc, 0x24, 0xa8, 0x48, 0xf1, 0x21, 0xc2, 0x76, 0xab, 0x7d, 0x62,
  0x16, 0xf0, 0xe5, 0x63, 0x3c, 0xc8, 0xa0, 0xe2, 0x11, 0xbf, 0x65, 0x0f,
  0x2d, 0x03, 0xbe, 0x69, 0x7b, 0xc0, 0xb0, 0xbd, 0x28, 0xda, 0xb1, 0xe5,
  0x1d, 0x35, 0xe6, 0xdd, 0x5a, 0xda, 0xf2, 0xeb, 0x0c, 0x67, 0x1b, 0x0a,
  0x2c, 0xc6, 0xfe, 0xdf, 0x5c, 0x3a, 0xfe, 0x19, 0xc0, 0xf0, 0x24, 0xed,
  0x06, 0x09, 0x90, 0x39, 0x08, 0x0a, 0x9c, 0x9b, 0xd0, 0x29, 0x1f, 0xde,
  0x6d, 0x4e, 0x3f, 0xf1, 0x49, 0x72, 0xe9, 0xc1, 0xbe, 0x0a, 0x57, 0x43,
  0xb9, 0x44, 0x41, 0x54, 0x65, 0xf1, 0xdb, 0x12, 0xfa, 0xe6, 0x2e, 0xf7,
  0x9d, 0xac, 0xf8, 0xe4, 0x11, 0x11, 0x18, 0x3c, 0xd3, 0x5e, 0xa4, 0xb3,
  0x3f, 0xb6, 0xde, 0x93, 0x40, 0x49, 0x9b, 0xbc, 0x96, 0xec, 0xbf, 0x17,
  0xff, 0xfb, 0x3a, 0x3e, 0xb5, 0xd7, 0x24, 0x42, 0x23, 0xde, 0x35, 0x2d,
  0xdf, 0xba, 0x95, 0x53, 0x42, 0xef, 0x3f, 0xb3, 0xd3, 0xc0, 0x5c, 0xaf,
  0xfd, 0x29, 0x9f, 0xea, 0xea, 0xa8, 0x28, 0xc6, 0x61, 0xf9, 0x19, 0xc0,
  0x9d, 0xbb, 0xdd, 0xbe, 0x1a, 0x93, 0x98, 0x9c, 0xaf, 0x48, 0xee, 0xb6,
  0xd9, 0x09, 0xfc, 0xab, 0xe4, 0x54, 0xb7, 0x15, 0xe9, 0x13, 0x46, 0x12,
  0x25, 0xda, 0xe3, 0x11, 0x30, 0x0e, 0x3a, 0x3b, 0x4e, 0x91, 0xd7, 0x02,
  0x8c, 0xe7, 0xb0, 0x40, 0xd2, 0x26, 0xa7, 0x06, 0xf2, 0x67, 0x43, 0x54,
  0xc9, 0x01, 0x15, 0x8c, 0xcf, 0x23, 0xee, 0x11, 0x44, 0x1b, 0xc8, 0xc2,
  0x35, 0x1b, 0xa0, 0x56, 0x45, 0xf1, 0x9a, 0xfe, 0x6d, 0xff, 0x3f, 0xf3,
  0xfb, 0xc9, 0x1a, 0x16, 0x33, 0x4f, 0x05, 0x96, 0x49, 0x8f, 0x2f, 0x4d,
  0x39, 0xf5, 0x6b, 0x43, 0x1c, 0x05, 0x3f, 0x85, 0x8b, 0xc8, 0xa3, 0x06,
  0x0c, 0x2a, 0xaf, 0x49, 0x31, 0xf6, 0x27, 0xb8, 0xed, 0x98, 0x34, 0x50,
  0x81, 0xb8, 0x88, 0x42, 0x85, 0x47, 0x40, 0x63, 0x28, 0x09, 0xa6, 0x40,
  0xc9, 0x67, 0x5f, 0x95, 0x06, 0x5a, 0xa4, 0x4d, 0xd9, 0xec, 0x59, 0x8e,
  0xa7, 0x74, 0x73, 0x8f, 0xf7, 0xcc, 0x65, 0xbc, 0xfd, 0x59, 0xa5, 0x8d,
  0x5f, 0x52, 0x28, 0xac, 0xe7, 0x1a, 0x55, 0x03, 0xbb, 0x83, 0xbd, 0x16,
  0xda, 0xcc, 0x2f, 0xbf, 0x56, 0x47, 0x13, 0xdd, 0xaf, 0xa9, 0x28, 0x1e,
  0x62, 0xfd, 0x98, 0xc4, 0x9d, 0x3e, 0x0c, 0x85, 0xeb, 0x05, 0x24, 0x5c,
  0x44, 0xd0, 0xc0, 0xd3, 0x65, 0xf1, 0x50, 0xb5, 0x87, 0xb3, 0x56, 0x50,
  0xb6, 0xda, 0x86, 0xf9, 0x3d, 0x8f, 0x18, 0xc9, 0x14, 0xa2, 0x6c, 0x2c,
  0xf7, 0xb1, 0x3d, 0x57, 0x93, 0x38, 0x05, 0x36, 0x68, 0x1a, 0x09, 0xf2,
  0xee, 0x25, 0x52, 0x61, 0x1e, 0xde, 0xf6, 0xb9, 0xb2, 0x3d, 0x4e, 0x99,
  0x33, 0x30, 0xbf, 0xa3, 0x6b, 0xf4, 0xce, 0x46, 0xde, 0x37, 0x88, 0x8b,
  0x94, 0x64, 0x1c, 0x26, 0x04, 0xec, 0x8b, 0xf7, 0x67, 0x7b, 0xa4, 0x37,
  0x2a, 0xde, 0x64, 0xdf, 0xa7, 0x49, 0xdb, 0x1c, 0xaa, 0xa3, 0x2f, 0xbd,
  0xfa, 0x9f, 0x5f, 0x31, 0x59, 0xc1, 0x94, 0x2c, 0x04, 0x12, 0x09, 0x49,
  0xe0, 0xce, 0x1c, 0xa6, 0x0f, 0x2e, 0xf3, 0x9e, 0x0e, 0x5e, 0x9e, 0x6a,
  0x60, 0x2a, 0xad, 0xea, 0xae, 0xc2, 0xc7, 0x41, 0xce, 0x35, 0x14, 0x0e,
  0x1e, 0x6a, 0x35, 0xa2, 0xff, 0x51, 0xf7, 0x90, 0xc9, 0xe6, 0xc8, 0xf7,
  0x54, 0xb4, 0x06, 0xae, 0x44, 0x0c, 0xe1, 0xf8, 0xa0, 0x96, 0x10, 0x37,
  0x6f, 0x3b, 0xfc, 0xf5, 0xfe, 0x5a, 0xad, 0xed, 0x5f, 0x06, 0x41, 0xbb,
  0x9c, 0x1c, 0xbd, 0x60, 0x0c, 0xe5, 0x5c, 0x98, 0xb6, 0xb5, 0x31, 0x1a,
  0x8a, 0x97, 0x5f, 0xf1, 0xe7, 0x14, 0xec, 0x11, 0x14, 0xc4, 0xaf, 0x57,
  0x54, 0x16, 0x4b, 0x3f, 0x15, 0x4b, 0x19, 0x18, 0x57, 0x46, 0x8c, 0x58,
  0x6f, 0xf6, 0x90, 0xa9, 0x29, 0xca, 0xa7, 0x91, 0x56, 0x36, 0xf6, 0x5e,
  0xdf, 0x5c, 0x9e, 0x08, 0xf4, 0xd0, 0xea, 0x1b, 0x5b, 0x00, 0x91, 0x5c,
  0x4b, 0x00, 0x09, 0x1a, 0xe2, 0xa0, 0x18, 0x4b, 0x1b, 0xa3, 0xb4, 0xfd,
  0x49, 0xde, 0x04, 0x28, 0xf2, 0xc6, 0xd6, 0x4d, 0x4c, 0xef, 0x6b, 0x33,
  0x17, 0x4d, 0x40, 0xc5, 0x71, 0xff, 0xb2, 0x68, 0x2d, 0xb1, 0x11, 0xdc,
  0x04, 0xcc, 0x0e, 0x76, 0xc1, 0x3f, 0xdd, 0x52, 0xa8, 0xcd, 0xcf, 0x32,
  0x30, 0x55, 0x01, 0xd6, 0x38, 0xde, 0xab, 0xa6, 0x20, 0xe7, 0x28, 0x51,
  0x46, 0xcc, 0x21, 0x56, 0x26, 0x60, 0x29, 0x30, 0x5d, 0x6e, 0x03, 0x29,
  0xcd, 0x7c, 0xcb, 0xbf, 0x58, 0x6e, 0xf3, 0x7f, 0x2d, 0x1c, 0xfd, 0x00,
  0xd7, 0x4d, 0xbe, 0x19, 0xd2, 0xd0, 0x75, 0xc9, 0xfa, 0xf4, 0xdb, 0x2f,
  0x6f, 0x06, 0x22, 0xca, 0xdb, 0x0e, 0x73, 0x5a, 0x69, 0x57, 0xc8, 0x9e,
  0x21, 0x6a, 0x08, 0x58, 0x0e, 0xdd, 0x10, 0xe7, 0x5d, 0x49, 0x4e, 0x1f,
  0x71, 0x3e, 0x70, 0x16, 0x41, 0x52, 0xd3, 0x1b, 0xbe, 0xee, 0xce, 0x00,
  0xf5, 0xc4, 0xce, 0x67, 0xd2, 0x23, 0x15, 0x43, 0x24, 0x20, 0xad, 0x45,
  0x44, 0x5e, 0x70, 0xee, 0xaa, 0xb8, 0x57, 0x9d, 0x40, 0x58, 0xe9, 0x3f,
  0x66, 0xcd, 0x1d, 0x03, 0x42, 0x29, 0x61, 0x45, 0xeb, 0x30, 0x14, 0x3e,
  0xf9, 0x3e, 0xa2, 0xc8, 0xfc, 0xc1, 0x17, 0xa8, 0x2e, 0xf7, 0x35, 0x18,
  0x58, 0xd3, 0x45, 0xf1, 0x4d, 0xb7, 0x10, 0x40, 0x60, 0xe4, 0xa9, 0xf6,
  0xa1, 0x4a, 0x44, 0x34, 0x06, 0x06, 0x10, 0x0d, 0x08, 0x53, 0xe0, 0xc7,
  0x9e, 0x32, 0xc4, 0xd6, 0xb2, 0xf2, 0x39, 0xd4, 0xf2, 0x31, 0xb1, 0x19,
  0x25, 0xf2, 0xd0, 0xf5, 0x68, 0xa9, 0xf3, 0xfd, 0x9d, 0x04, 0x4d, 0x54,
  0xe5, 0xf9, 0x19, 0xd4, 0x4e, 0xa4, 0xad, 0xca, 0x34, 0xc9, 0xb7, 0x37,
  0xf0, 0xd6, 0x33, 0x97, 0x93, 0x26, 0x20, 0xc7, 0xd8, 0x45, 0x4c, 0xc6,
  0xc6, 0xa0, 0x1b, 0xb2, 0xe2, 0xc7, 0xc1, 0x21, 0x2d, 0x2c, 0xd1, 0xe1,
  0xa2, 0x14, 0xf5, 0x44, 0x16, 0x3b, 0x32, 0x4e, 0xea, 0xcb, 0xba, 0x65,
  0xdf, 0xf0, 0x61, 0xac, 0xc8, 0xc3, 0x1b, 0xac, 0xc2, 0x23, 0x3f, 0xe2,
  0xc1, 0xc9, 0xc2, 0xdf, 0x28, 0x3e, 0xf8, 0x0a, 0x03, 0x4b, 0x2c, 0x22,
  0xbe, 0xf4, 0x3a, 0xe1, 0xb2, 0xd9, 0x44, 0xdf, 0x0c, 0x36, 0xd3, 0x1d,
  0xb4, 0xa1, 0xe3, 0x11, 0xdb, 0xb8, 0x7e, 0x16, 0xfe, 0xd6, 0x1d, 0x1a,
  0x19, 0xc6, 0xc9, 0x75, 0x38, 0xdd, 0xb2, 0x9d, 0x9b, 0xfd, 0x28, 0x5c,
  0xee, 0x7f, 0x0f, 0x74, 0xdc, 0xa4, 0xdf, 0xc4, 0x4d, 0x44, 0x5e, 0x66,
  0xe8, 0x73, 0x1c, 0xd2, 0xf8, 0xf4, 0x6d, 0xe4, 0xbc, 0xe1, 0xf9, 0x25,
  0x59, 0x35, 0xd3, 0x6b, 0xa8, 0x5a, 0x69, 0xf1, 0x23, 0xbc, 0x17, 0xbb,
  0xf3, 0x07, 0xef, 0x55, 0xde, 0xf6, 0x5b, 0x2a, 0x16, 0x21, 0xef, 0x9f,
  0x3e, 0x44, 0x4a, 0x15, 0xea, 0x48, 0x53, 0x12, 0x33, 0x3b, 0xae, 0xc5,
  0xda, 0x64, 0xc5, 0xe0, 0xe6, 0x63, 0xaa, 0x14, 0x28, 0x3c, 0x16, 0x52,
  0xac, 0xe8, 0x3d, 0xa5, 0x06, 0x91, 0x69, 0xcd, 0x0f, 0x4e, 0x16, 0x95,
  0xb1, 0xb9, 0xf9, 0x95, 0xb3, 0x11, 0x6b, 0xa4, 0xf6, 0x5b, 0x66, 0xee,
  0x05, 0xcb, 0xee, 0xec, 0x5e, 0x4f, 0xf2, 0xb5, 0x93, 0xa6, 0xb7, 0xac,
  0xa7, 0x57, 0xf0, 0xe0, 0x02, 0xbe, 0xc0, 0x98, 0x3d, 0xef, 0x0b, 0x91,
  0x97, 0xc7, 0x6c, 0x03, 0x64, 0x47, 0xde, 0x02, 0xee, 0x54, 0xc7, 0x0f,
  0x61, 0x9a, 0x96, 0x39, 0xc3, 0x96, 0x98, 0x25, 0x1d, 0xbf, 0x3b, 0x92,
  0xcf, 0xba, 0xc4, 0x1e, 0xff, 0x19, 0x53, 0x4d, 0xca, 0xbe, 0xe6, 0xf4,
  0xd1, 0x31, 0xa3, 0x1f, 0x9c, 0x14, 0xdb, 0xda, 0xcd, 0xfe, 0x0a, 0x57,
  0xb4, 0x08, 0x93, 0xb2, 0x50, 0xf4, 0xae, 0x05, 0x68, 0xae, 0x2d, 0x28,
  0xaf, 0x26, 0xb0, 0xda, 0x6f, 0xb8, 0x8f, 0x4c, 0xd7, 0x11, 0xcd, 0xf4,
  0xa4, 0xdc, 0x29, 0xe4, 0xb8, 0xaa, 0xee, 0x57, 0xd8, 0xa4, 0xbd, 0x0c,
  0x2d, 0x15, 0xc8, 0xf0, 0xe5, 0x46, 0xa2, 0x1d, 0x4b, 0x58, 0xb7, 0xab,
  0xe9, 0xdb, 0x46, 0xf1, 0x70, 0x4a, 0xbe, 0xb6, 0xda, 0xd0, 0xbc, 0x6b,
  0x08, 0xfe, 0x5b, 0x17, 0x74, 0xbd, 0x44, 0x9c, 0x46, 0x31, 0x0e, 0xdf,
  0x64, 0x2a, 0x3f, 0x34, 0xbf, 0xc7, 0x59, 0xb9, 0xda, 0xfe, 0x21, 0x00,
  0xba, 0xc7, 0xd2, 0x2f, 0xb5, 0x7f, 0x5a, 0x3d, 0x1d, 0xde, 0xa1, 0x0c,
  0xc9, 0x5d, 0x65, 0x15, 0x6c, 0xb0, 0xbc, 0x70, 0xf6, 0xd9, 0xf2, 0xf0,
  0x6e, 0xa4, 0x0d, 0xff, 0x19, 0xc9, 0xa4, 0x1f, 0x51, 0xbf, 0xc1, 0xa4,
  0xc0, 0xcd, 0x9f, 0xd0, 0xbb, 0xe8, 0x70, 0xc4, 0x13, 0xf3, 0xd8, 0xc9,
  0x89, 0xf9, 0x51, 0xf1, 0x05, 0xc3, 0x93, 0x54, 0xd3, 0x4c, 0x62, 0xc5,
  0x97, 0xad, 0x8c, 0xc8, 0xb7, 0x05, 0x42, 0xac, 0xe3, 0x05, 0x8b, 0x8e,
  0xa7, 0x02, 0xef, 0xcd, 0x49, 0x4d, 0x6e, 0x10, 0x13, 0x1f, 0x28, 0x99,
  0x7f, 0xf0, 0xa9, 0x33, 0x53, 0x85, 0x08, 0x01, 0xe9, 0x7f, 0xf7, 0x5a,
  0xbe, 0x0c, 0xf8, 0xdd, 0xbc, 0xc6, 0xc8, 0x00, 0x95, 0x18, 0xee, 0xdf,
  0xd1, 0xa3, 0x07, 0xfe, 0xec, 0x3f, 0x12, 0xa5, 0x6c, 0x33, 0x7f, 0x65,
  0xf5, 0x35, 0x21, 0xdf, 0xd5, 0x0f, 0xc7, 0xf2, 0x9b, 0x66, 0xf7, 0x63,
  0xe8, 0x7e, 0xb6, 0xe6, 0xf7, 0x27, 0x76, 0x03, 0x34, 0xf4, 0x33, 0x45,
  0xf2, 0x35, 0xd3, 0x3b, 0xcb, 0x0e, 0x99, 0x67, 0xa5, 0xf8, 0x09, 0x79,
  0xe5, 0x34, 0x65, 0x4c, 0xa9, 0x9b, 0x60, 0x3b, 0x04, 0x0f, 0x77, 0xd9,
  0x43, 0x95, 0x40, 0x25, 0xe0, 0xdc, 0x8c, 0xfa, 0x4f, 0xec, 0xb4, 0x1c,
  0x6a, 0x22, 0x9c, 0xb6, 0xc7, 0x5a, 0xde, 0x8b, 0x9d, 0x75, 0x00, 0x29,
  0xe7, 0x78, 0x85, 0x0d, 0x11, 0x0e, 0xd3, 0xe5, 0x25, 0x59, 0x9a, 0x8d,
  0x08, 0xa3, 0xe4, 0xca, 0xe7, 0xc7, 0x0e, 0x6e, 0x94, 0x98, 0x3b, 0x31,
  0x85, 0x18, 0x6a, 0x41, 0x01, 0xc3, 0x5d, 0x1b, 0x65, 0x60, 0x3c, 0x43,
  0x9a, 0x8c, 0x91, 0xc5, 0xa8, 0xae, 0xb9, 0x27, 0xf2, 0xd0, 0x8b, 0x20,
  0xe3, 0xc1, 0xfa, 0xb7, 0x4e, 0xac, 0x32, 0xf7, 0xf9, 0x23, 0xaf, 0x20,
  0x10, 0x67, 0xfc, 0xa0, 0xde, 0x66, 0x28, 0x43, 0x13, 0xfa, 0x3b, 0x43,
  0x7f, 0x99, 0x63, 0x2e, 0x78, 0x08, 0x06, 0x02, 0x4d, 0x6b, 0x02, 0x00,
  0x7e, 0xb0, 0xaa, 0x02, 0xd6, 0x67, 0xa9, 0xa1, 0xab, 0x2a, 0x9d, 0x26,
  0x2c, 0xf1, 0x61, 0x5c, 0x2d, 0xc6, 0x24, 0xc8, 0xcd, 0x0d, 0xc9, 0xfe,
  0xb4, 0x24, 0x3d, 0xac, 0x93, 0xd3, 0x95, 0x5f, 0x60, 0x29, 0x68, 0x72,
  0xe2, 0xbb, 0xd8, 0x79, 0xda, 0x46, 0x19, 0x1a, 0x33, 0xe8, 0x68, 0xb4,
  0x25, 0x22, 0xc0, 0x1a, 0xc9, 0x97, 0xcc, 0xe8, 0x3e, 0xea, 0x2b, 0xc2,
  0x0d, 0xbf, 0xf1, 0xd7, 0x1e, 0xd8, 0xb3, 0xcf, 0xa3, 0xc7, 0x41, 0xae,
  0xd1, 0xe5, 0xc4, 0x2e, 0x44, 0xaf, 0x43, 0xc7, 0xbb, 0x49, 0xbb, 0x1d,
  0x58, 0x31, 0x97, 0x2e, 0x40, 0xcf, 0x2a, 0x15, 0x9b, 0x1c, 0x51, 0xf0,
  0x53, 0x2a, 0x5c, 0x16, 0x53, 0x2c, 0x06, 0x41, 0xa3, 0xbd, 0x47, 0xde,
  0xa9, 0x0f, 0x04, 0x21, 0xc2, 0x24, 0x19, 0x98, 0x9e, 0xdf, 0x90, 0x56,
  0x67, 0x59, 0x15, 0x18, 0x9e, 0xe7, 0xd6, 0x8e, 0x63, 0x5d, 0x36, 0xa3,
  0xd2, 0x6b, 0x52, 0x29, 0x08, 0x17, 0x94, 0x08, 0x31, 0x11, 0xea, 0x59,
  0xd9, 0x67, 0xe9, 0x1f, 0x75, 0x5d, 0xfc, 0xb7, 0xc4, 0xb8, 0xaf, 0x44,
  0x2c, 0xa8, 0xe8, 0x0c, 0xc2, 0x12, 0x16, 0xde, 0xcf, 0xd2, 0xee, 0xcd,
  0xa9, 0xaa, 0xf2, 0xa5, 0xd4, 0x03, 0x8f, 0xea, 0x12, 0xc3, 0xe2, 0xc3,
  0xc7, 0x98, 0x2a, 0xb5, 0xf2, 0x0b, 0x3e, 0xac, 0x04, 0x48, 0xb6, 0xf7,
  0xa4, 0x5d, 0x13, 0xd7, 0x38, 0xe3, 0x27, 0x76, 0x68, 0x10, 0x46, 0x1f,
  0x5e, 0x34, 0xb4, 0x60, 0xec, 0xf6, 0x09, 0xb8, 0xdf, 0x64, 0x15, 0x41,
  0x4e, 0x47, 0x55, 0x5a, 0xd9, 0x0e, 0xb8, 0xd9, 0x7f, 0x3f, 0x6b, 0x3d,
  0x2c, 0xce, 0x57, 0xd3, 0xf9, 0xcc, 0x55, 0x42, 0x1f, 0x12, 0x0f, 0xb0,
  0xc8, 0xfa, 0x4b, 0xfb, 0x51, 0xa9, 0x54, 0xc5, 0x55, 0x47, 0xd5, 0xf0,
  0xd3, 0x4c, 0x69, 0x42, 0xc1, 0xf8, 0xff, 0xc5, 0xd6, 0x99, 0xbf, 0x5c,
  0x1d, 0x13, 0xd7, 0xa1, 0x7f, 0xa7, 0x42, 0xc3, 0x03, 0x38, 0xd9, 0xc1,
  0xf8, 0xfd, 0xc1, 0xa3, 0x2e, 0x2b, 0x1a, 0xcf, 0x11, 0xcf, 0x19, 0x3c,
  0xe4, 0xea, 0x27, 0xda, 0xd3, 0xef, 0x31, 0x2a, 0xf0, 0x33, 0xd5, 0xac,
  0x00, 0x36, 0xfc, 0xde, 0x35, 0x39, 0xa9, 0xdb, 0x19, 0x3d, 0xbc, 0x40,
  0xdf, 0x39, 0xf5, 0x49, 0xe3, 0x0e, 0x01, 0xfa, 0x3d, 0x22, 0xf0, 0x3d,
  0x2e, 0xbd, 0x35, 0x0d, 0xcb, 0x05, 0xd7, 0xae, 0xf6, 0x28, 0xd1, 0xd5,
  0x0b, 0x24, 0xd6, 0xc2, 0x40, 0x4f, 0xe0, 0x3d, 0x2d, 0x07, 0x34, 0x2e,
  0x02, 0xf4, 0x44, 0xfe, 0xfe, 0x2e, 0x47, 0x25, 0xae, 0xd1, 0x42, 0xec,
  0xfe, 0xa8, 0x1d, 0xd8, 0xbe, 0x1b, 0x56, 0x07, 0xee, 0x43, 0xdf, 0x32,
  0x12, 0x3c, 0x16, 0x0a, 0x08, 0x27, 0xd9, 0x2f, 0x38, 0x1f, 0x01, 0xbe,
  0x20, 0xd0, 0xcf, 0xee, 0x37, 0xfb, 0xf8, 0xdd, 0xda, 0x45, 0xae, 0x25,
  0xee, 0x32, 0x49, 0x18, 0x30, 0xbf, 0x43, 0xcd, 0x1a, 0xcb, 0x27, 0x27,
  0xcc, 0xc4, 0xfa, 0xc2, 0x54, 0x13, 0x08, 0x17, 0x31, 0x52, 0x2e, 0xd2,
  0x2f, 0x4a, 0xfa, 0xc0, 0xe8, 0xb1, 0x0c, 0x2f, 0x20, 0x02, 0xc3, 0xca,
  0xbc, 0xd8, 0x2b, 0x20, 0x02, 0x34, 0x17, 0x26, 0xcd, 0x1c, 0x14, 0x3b,
  0x34, 0xd5, 0x35, 0x27, 0xc7, 0xc8, 0xc9, 0x46, 0x25, 0xcf, 0xcd, 0x2c,
  0xb4, 0x15, 0x15, 0xf8, 0x24, 0xe8, 0xdf, 0x38, 0xdd, 0x4d, 0xf0, 0xf9,
  0x17, 0xdc, 0x44, 0x29, 0x28, 0xce, 0x04, 0xe8, 0xe7, 0x08, 0xdd, 0x22,
  0xcf, 0xd4, 0xd9, 0x43, 0x1b, 0xf7, 0xcf, 0xec, 0x1f, 0x0c, 0xad, 0x1b,
  0x24, 0xe6, 0xc1, 0x2c, 0xf6, 0xc1, 0x07, 0xb6, 0xa9, 0xb6, 0x14, 0x15,
  0x33, 0x11, 0x39, 0xfe, 0xfc, 0xb7, 0xc4, 0xd5, 0xed, 0x1d, 0xf1, 0xea,
  0x48, 0xb6, 0xd3, 0xad, 0x30, 0xd9, 0x0a, 0xb9, 0xa1, 0xa4, 0x0c, 0x99,
  0x12, 0x1e, 0xd6, 0x87, 0xe0, 0xf2, 0xcb, 0x0e, 0xeb, 0x05, 0x1f, 0x41,
  0x46, 0x9a, 0xbf, 0x7b, 0x2c, 0x39, 0xc0, 0xc5, 0x44, 0xd9, 0x28, 0xf3,
  0xab, 0xb4, 0xd6, 0xb1, 0x09, 0xee, 0xa7, 0x84, 0xd7, 0x9d, 0x4c, 0x0d,
  0x14, 0x32, 0xc9, 0x8d, 0xd7, 0x16, 0x1a, 0xa5, 0x3e, 0x01, 0x47, 0x50,
  0x93, 0x02, 0xbc, 0xcf, 0x98, 0xbb, 0xa1, 0x41, 0x95, 0x81, 0x92, 0x96,
  0x47, 0xdf, 0xcf, 0x79, 0x45, 0xbe, 0xf0, 0x44, 0x10, 0x6d, 0xcb, 0xb3,
  0xff, 0xfd, 0x4b, 0x2f, 0xaa, 0x0a, 0xf9, 0x84, 0x5d, 0xaa, 0xaf, 0xdb,
  0x6d, 0x7f, 0xa8, 0x61, 0xa8, 0xd7, 0x3d, 0x19, 0x45, 0xa7, 0x90, 0xb4,
  0xea, 0xb7, 0x49, 0x3f, 0x3d, 0xb9, 0x88, 0xd4, 0x63, 0xec, 0x94, 0x17,
  0x8f, 0xce, 0xe5, 0x69, 0x15, 0x1c, 0x0e, 0x3d, 0xdf, 0x4f, 0xfa, 0x68,
  0xa7, 0x82, 0x96, 0x2f, 0xdd, 0xdb, 0xda, 0xcc, 0x78, 0x63, 0xa6, 0x66,
  0x08, 0xed, 0x0c, 0xcd, 0x03, 0x56, 0x0b, 0xcd, 0xe8, 0x70, 0xeb, 0xc0,
  0xcc, 0x84, 0x72, 0x28, 0xad, 0xfb, 0xe1, 0x0e, 0xb2, 0x3a, 0xa1, 0x6e,
  0x48, 0x20, 0x48, 0x13, 0xaa, 0x69, 0xb7, 0x94, 0xb7, 0x63, 0xcb, 0xd9,
  0x3c, 0xb0, 0x79, 0xb4, 0x1f, 0x69, 0x2a, 0x0a, 0xc2, 0xd5, 0x5b, 0x8c,
  0x1a, 0xb5, 0xff, 0x73, 0x4b, 0xf1, 0x4f, 0xd8, 0xe4, 0x88, 0xdf, 0x4d,
  0x91, 0x27, 0x48, 0xa9, 0xd4, 0x2b, 0x78, 0x5c, 0x05, 0x5a, 0x95, 0x77,
  0xcc, 0x24, 0xda, 0x8f, 0x63, 0x1e, 0x5d, 0x88, 0xc5, 0xa3, 0xe4, 0xc8,
  0xaf, 0xf2, 0x3b, 0x03, 0xac, 0x38, 0x49, 0x15, 0xc2, 0xd7, 0x37, 0x3d,
  0x7c, 0xd4, 0xaf, 0x5d, 0x0d, 0x3b, 0x6b, 0xc0, 0x82, 0xb9, 0x11, 0xac,
  0x74, 0x77, 0xfa, 0xf0, 0x9c, 0xb1, 0x3e, 0x0a, 0xd8, 0x00, 0xb3, 0xd6,
  0x2a, 0x2b, 0x4d, 0x04, 0x05, 0xae, 0xef, 0xa3, 0x1c, 0xf6, 0x2d, 0x33,
  0x3a, 0x5d, 0xe1, 0x48, 0xb0, 0x17, 0xe1, 0xd4, 0xf5, 0xdf, 0x72, 0x4b,
  0xbb, 0x6c, 0x8c, 0x34, 0x59, 0x70, 0xd5, 0x56, 0xc5, 0x2b, 0xcc, 0x27,
  0xe0, 0x65, 0x96, 0xda, 0x99, 0x24, 0x40, 0xc3, 0x5e, 0xdd, 0xcc, 0xba,
  0x23, 0x9a, 0xff, 0x4f, 0xc6, 0xda, 0x2e, 0x4f, 0x6a, 0x70, 0x40, 0xc4,
  0x29, 0xaf, 0x5e, 0x8f, 0x75, 0xa6, 0x3b, 0xd8, 0x28, 0xb2, 0xf2, 0x0a,
  0x0e, 0x73, 0x17, 0xb7, 0xe9, 0x2c, 0xdb, 0x11, 0x5b, 0xed, 0x43, 0xfa,
  0xf8, 0x30, 0xf8, 0xd7, 0x47, 0xf9, 0x74, 0x2f, 0x5b, 0x9a, 0x25, 0xb7,
  0x77, 0x90, 0xb7, 0x3a, 0x6d, 0x6a, 0x2b, 0xfd, 0x17, 0x04, 0xea, 0x9d,
  0x10, 0x7a, 0x2b, 0xda, 0x6b, 0xf2, 0x3b, 0xa5, 0x32, 0xb1, 0x91, 0xb6,
  0x30, 0xf7, 0x09, 0xb7, 0x15, 0xcd, 0x5c, 0xd9, 0x6e, 0x8c, 0xd0, 0xfc,
  0x93, 0x96, 0xad, 0xd7, 0xf2, 0x43, 0x97, 0xbf, 0xac, 0x00, 0x35, 0x58,
  0xce, 0xa1, 0xd4, 0xd3, 0x35, 0x8c, 0x55, 0xca, 0x28, 0x10, 0x67, 0x77,
  0xce, 0x9c, 0xb6, 0xeb, 0x01, 0x29, 0x43, 0xe5, 0x02, 0xc7, 0x99, 0x36,
  0xf7, 0x4e, 0x7f, 0xdf, 0xf1, 0x3a, 0x11, 0x27, 0x75, 0x5d, 0x61, 0x1d,
  0x56, 0xf2, 0x58, 0x3b, 0xd7, 0x01, 0xc5, 0x57, 0xd1, 0x55, 0x02, 0x01,
  0x3f, 0x9f, 0x2f, 0x0d, 0xe5, 0x6b, 0x5d, 0xcf, 0x1c, 0x54, 0x4c, 0x9c,
  0x9f, 0xb3, 0x0e, 0x11, 0x6a, 0xf2, 0xae, 0x8b, 0x19, 0x31, 0x46, 0x8b,
  0x62, 0x1e, 0xe7, 0xc1, 0x36, 0xa6, 0xd9, 0x42, 0x35, 0xfa, 0x0b, 0x73,
  0xb5, 0x2f, 0xbc, 0xae, 0x06, 0x68, 0x49, 0xbf, 0xfa, 0xe0, 0x4e, 0x6d,
  0x17, 0x5c, 0xda, 0x1a, 0xf2, 0x2f, 0x03, 0x4c, 0xb1, 0x8a, 0xf7, 0x0b,
  0x1a, 0x08, 0xed, 0xd6, 0x67, 0x9d, 0x00, 0x44, 0xc4, 0x67, 0x98, 0xe8,
  0x24, 0xb9, 0xb2, 0x1f, 0x8f, 0x0f, 0x00, 0xd1, 0x30, 0xbe, 0x35, 0x03,
  0xf9, 0xfe, 0xc6, 0xcf, 0xb0, 0x23, 0x2b, 0xce, 0x40, 0x62, 0xb6, 0x48,
  0xe7, 0x31, 0xd3, 0xb0, 0x6d, 0xeb, 0xd6, 0x1d, 0x3a, 0xa3, 0x5a, 0x96,
  0x2d, 0x4c, 0xef, 0x2f, 0x43, 0x38, 0xe2, 0xff, 0x25, 0x35, 0x67, 0x4e,
  0x98, 0x03, 0xee, 0x0e, 0x51, 0x0a, 0x58, 0x3c, 0x5d, 0x3d, 0x69, 0x49,
  0xe6, 0xbd, 0x56, 0x07, 0x08, 0x20, 0xf0, 0xbb, 0x64, 0x15, 0xaa, 0xb9,
  0xf4, 0xe6, 0x20, 0xfb, 0xfb, 0x3c, 0x95, 0x58, 0xe1, 0xe2, 0xa3, 0x60,
  0x37, 0xcf, 0xd3, 0x2e, 0x58, 0xc2, 0xd3, 0xfc, 0xf8, 0x14, 0x3c, 0x2a,
  0x25, 0xc5, 0xdc, 0x51, 0x28, 0xf1, 0x00, 0x69, 0xdf, 0x2c, 0x33, 0x5c,
  0xac, 0xde, 0x45, 0xf5, 0x71, 0xe8, 0x42, 0x0a, 0x34, 0x34, 0xd6, 0x9a,
  0xe5, 0x03, 0x38, 0x66, 0xfc, 0xc1, 0xcd, 0x6f, 0xc2, 0xd6, 0xcf, 0xcd,
  0x96, 0xb2, 0x3a, 0xd5, 0x0f, 0x45, 0xe7, 0x16, 0x06, 0x29, 0x3c, 0x72,
  0xf7, 0x02, 0xed, 0xd9, 0x08, 0xfa, 0xbb, 0x1a, 0xda, 0x23, 0x06, 0x26,
  0xda, 0xbd, 0xd9, 0x51, 0x9d, 0x98, 0xf5, 0x3b, 0xae, 0x24, 0xb1, 0xc2,
  0xe1, 0xb7, 0x04, 0x30, 0x08, 0x54, 0x21, 0x2b, 0xf0, 0x56, 0xd0, 0x94,
  0x0e, 0xaa, 0x0b, 0x4e, 0xfb, 0x02, 0x4b, 0xaf, 0xac, 0x79, 0x60, 0xf3,
  0xf5, 0xef, 0xef, 0x06, 0xd9, 0xa3, 0x43, 0xa1, 0x52, 0x59, 0x5c, 0xf6,
  0x6b, 0xe4, 0xf4, 0xd8, 0x6d, 0xd6, 0x3d, 0x17, 0x91, 0x11, 0x47, 0xd7,
  0x34, 0x38, 0xe0, 0x0d, 0x1e, 0xdf, 0xb1, 0xce, 0x5b, 0x7f, 0xb8, 0xca,
  0x5d, 0x36, 0xa2, 0xf2, 0x2c, 0x3c, 0xf8, 0x02, 0xa2, 0x62, 0x11, 0x6b,
  0x36, 0x51, 0x0c, 0x6d, 0xb7, 0x99, 0x0b, 0x3a, 0xd2, 0x2d, 0xbd, 0x8d,
  0x67, 0x1f, 0xbc, 0x40, 0x8a, 0x50, 0x53, 0x55, 0xaa, 0xa6, 0x34, 0x5b,
  0x92, 0xea, 0x8e, 0xa5, 0x34, 0x2b, 0xd8, 0x1e, 0x4c, 0x46, 0xcc, 0xd8,
  0x56, 0x99, 0x07, 0xe6, 0xd5, 0x0f, 0xba, 0x94, 0x96, 0xc3, 0xdc, 0x1c,
  0x56, 0x60, 0x46, 0x55, 0xdb, 0x41, 0x52, 0xad, 0x11, 0x4f, 0x03, 0x6d,
  0xc4, 0xc3, 0x1e, 0x3b, 0x04, 0x37, 0x08, 0x65, 0x81, 0x50, 0x11, 0xa6,
  0xee, 0xc3, 0x3a, 0x0c, 0x1a, 0x97, 0xef, 0x44, 0xc1, 0xe0, 0x8e, 0x22,
  0xf7, 0xa5, 0x21, 0x39, 0x62, 0xf8, 0xa1, 0x70, 0xaa, 0x59, 0x69, 0x26,
  0xa3, 0xf8, 0x19, 0xf0, 0xc6, 0xd3, 0xd0, 0xee, 0x6b, 0xc2, 0xf6, 0xa2,
  0xa0, 0xde, 0x38, 0x3b, 0xbf, 0xc2, 0xf2, 0x13, 0xa3, 0x4d, 0x43, 0xa0,
  0x4d, 0x9e, 0xdb, 0x4d, 0xf3, 0xa6, 0x18, 0x4b, 0xe8, 0xc2, 0x27, 0xd7,
  0x10, 0xe8, 0x83, 0xd1, 0x9e, 0xfa, 0x9b, 0xd2, 0x18, 0xa1, 0x50, 0xac,
  0x95, 0x41, 0x9b, 0x9d, 0x2e, 0x18, 0xe1, 0x4b, 0xdc, 0x33, 0x67, 0xb7,
  0x07, 0xca, 0x98, 0x3a, 0xa0, 0x08, 0xd5, 0xc5, 0x28, 0x42, 0x6d, 0x61,
  0x46, 0xb3, 0x19, 0xdc, 0xa1, 0x6c, 0xdc, 0x5c, 0xff, 0xd6, 0x2c, 0x0f,
  0x4c, 0x1d, 0x0a, 0x1e, 0xe1, 0xca, 0x8b, 0x32, 0x17, 0x05, 0x3d, 0xbf,
  0xbd, 0x1c, 0x1e, 0x0f, 0xdd, 0x08, 0x5c, 0xfc, 0x41, 0x42, 0x2a, 0xc8,
  0x51, 0x20, 0x50, 0xcc, 0x49, 0x73, 0x4e, 0x60, 0x36, 0x9e, 0xf0, 0x2e,
  0xd5, 0x72, 0xd8, 0x13, 0x2e, 0xc6, 0x09, 0xe8, 0x7e, 0xfe, 0xa2, 0xd6,
  0x2f, 0xdd, 0xdc, 0x16, 0x2e, 0xc5, 0x6f, 0x3e, 0x51, 0xcd, 0x27, 0x8e,
  0x7b, 0x38, 0x95, 0x68, 0x9e, 0xb9, 0x55, 0x74, 0x2a, 0xf4, 0x58, 0xf5,
  0x36, 0x4b, 0x23, 0xff, 0xcb, 0x19, 0x4e, 0x51, 0x93, 0x8c, 0x2a, 0xe1,
  0x35, 0xcc, 0xa9, 0x8b, 0x5a, 0xfb, 0x70, 0xa4, 0xc7, 0x01, 0x45, 0xa2,
  0xc3, 0x42, 0x76, 0xde, 0x5e, 0x58, 0x28, 0x06, 0xf2, 0x96, 0xae, 0x6d,
  0x89, 0xcf, 0xb8, 0x24, 0x72, 0x87, 0x8d, 0x5f, 0xd0, 0xa9, 0xd1, 0xfa,
  0x1c, 0x9e, 0x86, 0x5f, 0xc3, 0x07, 0xe1, 0x2a, 0xae, 0x62, 0x33, 0x07,
  0x8a, 0x4d, 0x4f, 0xcf, 0x0f, 0x4a, 0x7c, 0x92, 0x37, 0xb5, 0xe7, 0xfe,
  0xe2, 0x44, 0x73, 0xb7, 0x7a, 0x06, 0xa3, 0x99, 0x85, 0xa0, 0x34, 0x43,
  0x5d, 0xbc, 0xb1, 0x9b, 0xbf, 0x12, 0xe8, 0xed, 0x50, 0xe8, 0xc1, 0xd3,
  0x1a, 0x5c, 0x40, 0x12, 0x0c, 0x76, 0x0d, 0x23, 0xa0, 0x34, 0xf1, 0x13,
  0x1f, 0x17, 0x9f, 0x30, 0x7c, 0x01, 0xa0, 0xfa, 0x46, 0x3e, 0x1e, 0x91,
  0x1a, 0x3b, 0x77, 0x57, 0x33, 0xf6, 0xd8, 0x59, 0xfe, 0xf0, 0xb4, 0x9d,
  0x96, 0x48, 0x05, 0xe1, 0x9b, 0x8f, 0x06, 0x48, 0x2e, 0x7f, 0xe5, 0x53,
  0xe8, 0xc3, 0x90, 0x95, 0x34, 0x4a, 0x8b, 0xc8, 0x77, 0x62, 0xf1, 0x68,
  0x30, 0x7c, 0x97, 0xf6, 0x08, 0x22, 0xb5, 0x0d, 0x1b, 0xef, 0xf1, 0x1f,
  0x14, 0x3e, 0xed, 0x3b, 0x1b, 0x61, 0xb2, 0xfb, 0x11, 0x00, 0xeb, 0x37,
  0xc9, 0xfa, 0xc1, 0x15, 0x42, 0xe1, 0x86, 0x08, 0x50, 0xb1, 0xbd, 0x73,
  0xc4, 0x15, 0x13, 0xa9, 0x86, 0xc2, 0x1e, 0x22, 0xbd, 0x0c, 0xc6, 0x24,
  0x0e, 0x50, 0x2e, 0x7c, 0xcb, 0xe5, 0x1b, 0xec, 0x86, 0x3e, 0x49, 0x8e,
  0x9b, 0x10, 0xe4, 0xe0, 0x3f, 0xf9, 0x2d, 0x88, 0x40, 0x5d, 0xd9, 0xee,
  0x42, 0x20, 0x59, 0x64, 0x53, 0x1f, 0xcb, 0x6e, 0x2e, 0x6c, 0xfe, 0x23,
  0xcb, 0x3e, 0xae, 0xf6, 0xa7, 0x20, 0x35, 0xfb, 0x98, 0xde, 0xb4, 0x81,
  0x1d, 0xbb, 0xfb, 0x1e, 0xbd, 0x1e, 0x0e, 0x7d, 0xb0, 0xa8, 0x78, 0xe6,
  0x63, 0x84, 0x41, 0xde, 0x7e, 0xde, 0x9f, 0x8b, 0x9d, 0xd5, 0x33, 0xba,
  0x05, 0x91, 0x75, 0x67, 0xc6, 0xbe, 0x91, 0xdd, 0x9f, 0x3f, 0xad, 0xf0,
  0xc0, 0x3d, 0xeb, 0x71, 0xa4, 0xe2, 0x86, 0x9c, 0x3c, 0x8d, 0xd2, 0xb0,
  0x32, 0x67, 0xe4, 0x9e, 0x40, 0xc8, 0xfe, 0x89, 0xd4, 0x23, 0x4f, 0xb7,
  0xd0, 0xa7, 0xe5, 0xb1, 0x89, 0x46, 0xa5, 0x9c, 0x1e, 0xcb, 0x24, 0x71,
  0x4c, 0x84, 0x5d, 0xf8, 0x31, 0x02, 0xfa, 0x2d, 0x30, 0xe4, 0xe6, 0xda,
  0x1d, 0x5f, 0x62, 0xbc, 0x07, 0x92, 0x39, 0xff, 0x1f, 0x08, 0xc7, 0x2a,
  0x86, 0x30, 0xb2, 0x6c, 0xa5, 0xc3, 0x83, 0xad, 0x11, 0xee, 0x93, 0xfd,
  0x35, 0x9b, 0x6d, 0x1b, 0xcd, 0xf3, 0xd7, 0x55, 0x55, 0x2d, 0xe6, 0x77,
  0x0a, 0x3f, 0xba, 0xa1, 0x59, 0xf2, 0x13, 0x29, 0x8b, 0x41, 0xc1, 0xe0,
  0x05, 0x2b, 0x70, 0x1a, 0x30, 0xdc, 0xa4, 0xd8, 0x70, 0x90, 0xbe, 0xa2,
  0xa7, 0x2b, 0x5b, 0x21, 0xd1, 0x97, 0x6d, 0x08, 0x62, 0xad, 0xc5, 0x50,
  0x74, 0x19, 0xd4, 0xbd, 0xd4, 0x8f, 0x6f, 0x23, 0xc3, 0x1a, 0x27, 0x34,
  0x65, 0xa1, 0x2d, 0x97, 0xb5, 0xd9, 0x41, 0x07, 0x08, 0x1e, 0x2a, 0xa0,
  0xfc, 0xe7, 0x19, 0xd5, 0xf0, 0xbe, 0x2e, 0xe5, 0xcb, 0xf7, 0x9d, 0x63,
  0x70, 0xfa, 0xce, 0x8a, 0xa1, 0x9e, 0x71, 0xf4, 0x54, 0xa7, 0xe6, 0x4d,
  0x11, 0x4c, 0xf6, 0x90, 0xf5, 0x87, 0x32, 0x1a, 0x01, 0x0c, 0x94, 0x1d,
  0x81, 0x12, 0x3a, 0x4a, 0x2a, 0xb3, 0x5e, 0xd5, 0xf7, 0x05, 0x0f, 0x84,
  0x85, 0x90, 0x3d, 0x0e, 0x43, 0x3d, 0xfc, 0x8f, 0x15, 0xed, 0x1e, 0xcc,
  0x00, 0x8c, 0x02, 0x78, 0xf7, 0x62, 0x20, 0x64, 0xca, 0xb7, 0x85, 0xe8,
  0xa0, 0x1f, 0x16, 0x93, 0xfa, 0x67, 0xdd, 0x0b, 0xfd, 0xe0, 0xba, 0x6d,
  0xfc, 0x96, 0x4c, 0x73, 0x07, 0xb7, 0x22, 0x1f, 0xa5, 0x32, 0x1f, 0x64,
  0xb7, 0xe8, 0x05, 0x6a, 0xba, 0x64, 0xd8, 0xde, 0x8f, 0xed, 0xf0, 0xb0,
  0xdf, 0x95, 0x06, 0x58, 0x52, 0x0a, 0x68, 0xcb, 0x2c, 0xab, 0xb4, 0xd8,
  0xf9, 0x15, 0xf5, 0x04, 0x8d, 0x4c, 0xcd, 0x40, 0xa0, 0xcb, 0xdc, 0xb3,
  0x6e, 0x07, 0xc7, 0x20, 0xf0, 0x02, 0xed, 0xdd, 0xa9, 0xbe, 0x60, 0x14,
  0xf2, 0x86, 0xad, 0xa5, 0xfa, 0x6f, 0x0c, 0x4a, 0xe0, 0x5f, 0xaf, 0xf0,
  0xa6, 0x62, 0x2a, 0xb5, 0x18, 0x10, 0xbd, 0xa3, 0x38, 0xb0, 0xf8, 0x4c,
  0xd5, 0x4c, 0xbd, 0x0a, 0xe1, 0xb8, 0xce, 0x5e, 0xb4, 0x27, 0x4c, 0x69,
  0x1f, 0x96, 0x6d, 0xda, 0xfb, 0xa1, 0xfc, 0xa3, 0xa2, 0x70, 0x90, 0xd5,
  0xae, 0x81, 0x6a, 0xb1, 0x20, 0xe5, 0x57, 0x93, 0x31, 0x01, 0x34, 0x24,
  0x50, 0x16, 0x61, 0x90, 0xe2, 0xe7, 0x8c, 0xad, 0x00, 0xc6, 0xf7, 0x75,
  0xa5, 0xd4, 0xf6, 0xf5, 0x20, 0x65, 0xb8, 0xa6, 0x25, 0x94, 0x03, 0xc0,
  0xca, 0xb4, 0xf8, 0x33, 0xe6, 0x13, 0x3c, 0x2c, 0xc2, 0xdd, 0xed, 0x63,
  0x42, 0xdf, 0x96, 0xca, 0xdb, 0x60, 0x27, 0x49, 0xea, 0x6f, 0xd3, 0x08,
  0xe7, 0x27, 0xdb, 0x8f, 0xb2, 0xd4, 0x41, 0x90, 0xe8, 0x2e, 0xfd, 0x87,
  0xa5, 0xb8, 0xc7, 0xcc, 0x22, 0xf9, 0xd9, 0x09, 0xd9, 0x19, 0xf3, 0x3a,
  0x6c, 0xd1, 0xe3, 0xd6, 0xb8, 0x6d, 0x5b, 0xe8, 0x9c, 0x83, 0x0a, 0xf8,
  0x6a, 0x59, 0x91, 0xac, 0x45, 0x97, 0x3a, 0x25, 0xb1, 0x22, 0x8e, 0xcc,
  0xe3, 0xdb, 0x69, 0x2d, 0x2c, 0x0a, 0x64, 0x0d, 0xd0, 0x9f, 0x97, 0x09,
  0xea, 0xd4, 0xa7, 0xe5, 0xfd, 0xa3, 0x4c, 0xd9, 0x48, 0x81, 0x07, 0x96,
  0xe9, 0xd0, 0x52, 0xa9, 0xec, 0x5a, 0xbd, 0x15, 0x92, 0x9a, 0x1a, 0x6a,
  0xde, 0x1e, 0x02, 0x62, 0x60, 0xb9, 0xd4, 0x3e, 0xf5, 0x72, 0x1d, 0xb0,
  0x2a, 0xc9, 0xd1, 0xd4, 0xfa, 0x55, 0x5f, 0x60, 0x9b, 0xa7, 0x3d, 0xc4,
  0x89, 0x8e, 0x01, 0x98, 0x70, 0xc4, 0x45, 0xf9, 0x61, 0x15, 0xcf, 0x3b,
  0x33, 0x39, 0x6e, 0x6b, 0xba, 0x05, 0xca, 0xf2, 0x8c, 0xed, 0x97, 0x8c,
  0xe2, 0xa1, 0x06, 0x89, 0xe8, 0xf2, 0x2e, 0x6e, 0xfe, 0xf1, 0xa9, 0xb0,
  0xdf, 0x0f, 0xed, 0x26, 0xce, 0x33, 0x29, 0x96, 0xc3, 0x2d, 0xc9, 0x24,
  0x72, 0xf6, 0x55, 0x42, 0x94, 0xe2, 0x35, 0xab, 0x46, 0x4d, 0xa4, 0x26,
  0x17, 0x94, 0x4c, 0x6b, 0x34, 0x12, 0xa8, 0xdb, 0xcd, 0x4a, 0x2e, 0xec,
  0x0e, 0x15, 0xb3, 0x5b, 0x4e, 0xb1, 0x8f, 0x5e, 0x3e, 0x49, 0x2e, 0x1e,
  0x41, 0x2a, 0xb5, 0x71, 0x14, 0x63, 0xb4, 0xed, 0x93, 0x93, 0x35, 0x1c,
  0xc2, 0x54, 0xb6, 0x38, 0xdd, 0x0e, 0x0e, 0xa9, 0x6c, 0xba, 0xbe, 0x6a,
  0xac, 0xa4, 0x8c, 0xf8, 0xf0, 0x08, 0x09, 0x35, 0x9f, 0x05, 0x4f, 0xe1,
  0xc2, 0x67, 0xce, 0x81, 0x35, 0x15, 0x09, 0xb6, 0x04, 0x71, 0x92, 0x54,
  0x25, 0xb5, 0x94, 0xa4, 0x0e, 0x29, 0xb4, 0x68, 0x25, 0x97, 0x12, 0x49,
  0x2f, 0x49, 0x53, 0xc1, 0xd5, 0x73, 0xa0, 0x63, 0xb8, 0x9a, 0xbf, 0xb6,
  0xf4, 0x45, 0xd3, 0x12, 0x4b, 0x38, 0x6e, 0x3c, 0xeb, 0x1b, 0xe3, 0xc6,
  0x65, 0xce, 0xd0, 0x46, 0xaf, 0xd2, 0xb5, 0x6e, 0xbd, 0x9b, 0xd9, 0xf3,
  0x9e, 0x33, 0xc2, 0x33, 0xb6, 0xd5, 0x16, 0xd9, 0xcc, 0x55, 0x97, 0x6c,
  0x38, 0x45, 0x58, 0xc3, 0xdb, 0xe8, 0x36, 0xa8, 0x05, 0xb8, 0x17, 0xa1,
  0x67, 0x64, 0xda, 0x3c, 0x6c, 0x93, 0xbf, 0xc3, 0xc6, 0x20, 0xcc, 0x44,
  0x57, 0x85, 0x68, 0x01, 0xcf, 0xc4, 0xfb, 0x0e, 0xb2, 0xd9, 0x2b, 0xcb,
  0xe4, 0xf7, 0x42, 0x04, 0x20, 0x2d, 0xc0, 0x06, 0xb6, 0xa7, 0x3c, 0x2f,
  0xe6, 0x52, 0xae, 0xd6, 0xa5, 0x0a, 0x49, 0x86, 0xa4, 0x4a, 0xd7, 0x19,
  0x9b, 0x4f, 0x83, 0x0f, 0xda, 0x1c, 0xf1, 0x46, 0x08, 0x5c, 0xca, 0x04,
  0x8c, 0x0e, 0x08, 0xce, 0xe5, 0x8b, 0x55, 0x1d, 0xc8, 0xb2, 0x1e, 0x9f,
  0xff, 0x22, 0xaa, 0xe4, 0x38, 0x8d, 0xe1, 0xef, 0x2e, 0xe6, 0xf2, 0x4e,
  0x3c, 0xf1, 0xd0, 0x34, 0x9d, 0xa1, 0x62, 0x60, 0x4a, 0xb7, 0x09, 0xe0,
  0x4c, 0x2e, 0xde, 0xc8, 0x18, 0x35, 0x5b, 0x5a, 0xba, 0x13, 0x34, 0x5a,
  0xf4, 0x13, 0x2b, 0x3b, 0xad, 0x44, 0x14, 0xa6, 0xb9, 0xcb, 0xf9, 0x98,
  0x43, 0x9a, 0x89, 0xd3, 0xea, 0xb9, 0x28, 0x0f, 0xbc, 0x39, 0xad, 0xff,
  0x9e, 0x9b, 0xe6, 0x49, 0x57, 0xaf, 0x62, 0x58, 0xe3, 0x13, 0xe8, 0x3a,
  0xc6, 0x9d, 0xa2, 0x5a, 0xb8, 0xe4, 0x02, 0x27, 0x8a, 0xc1, 0xa5, 0xdb,
  0xdf, 0x96, 0xfa, 0x4c, 0xe1, 0xc6, 0x28, 0xb3, 0x97, 0x79, 0xb6, 0xf0,
  0xbb, 0x51, 0xc9, 0x3d, 0x40, 0xf8, 0x64, 0x6a, 0xe1, 0x06, 0x8b, 0x07,
  0xbc, 0x72, 0x76, 0xd5, 0xc0, 0x01, 0xd1, 0x8d, 0xfc, 0x64, 0x60, 0xa0,
  0x0c, 0x90, 0x5a, 0xec, 0x21, 0x78, 0x4d, 0x75, 0xed, 0xbf, 0xc4, 0xe5,
  0x49, 0xeb, 0x66, 0xf6, 0x06, 0x29, 0xb7, 0x0c, 0xfa, 0x3f, 0xa5, 0x37,
  0x21, 0xb0, 0xda, 0xe8, 0xbc, 0x7d, 0x00, 0x89, 0x23, 0xca, 0x5f, 0x10,
  0x9f, 0x64, 0x97, 0xb6, 0xb0, 0xe8, 0xeb, 0x2b, 0xd2, 0x3e, 0x97, 0x62,
  0xc2, 0x2e, 0x4e, 0xaf, 0xb0, 0x8f, 0x9e, 0x0a, 0xc3, 0xda, 0x54, 0x02,
  0xe8, 0xd7, 0x77, 0x32, 0x11, 0x47, 0xbf, 0x6d, 0xe8, 0x52, 0x28, 0xc2,
  0xbf, 0x15, 0x81, 0x52, 0x93, 0x06, 0x51, 0x1a, 0xcd, 0x48, 0xe6, 0x21,
  0xe3, 0x62, 0x39, 0x58, 0x72, 0x23, 0x4e, 0x65, 0x11, 0x55, 0x20, 0x41,
  0x3f, 0x6c, 0x76, 0x93, 0x2a, 0x43, 0x00, 0x3c, 0x51, 0xe0, 0xdf, 0x9a,
  0xdb, 0xcb, 0xf4, 0x82, 0x42, 0xf8, 0x85, 0xeb, 0xf5, 0x27, 0x02, 0x9f,
  0x70, 0x96, 0xab, 0xc5, 0x86, 0xfc, 0xd2, 0x12, 0xcf, 0x1b, 0x5d, 0xf1,
  0x67, 0x83, 0xf8, 0x0f, 0x37, 0xd4, 0xba, 0xca, 0x05, 0x22, 0x70, 0xec,
  0x6d, 0x70, 0x26, 0x55, 0x86, 0x4b, 0x4d, 0x8b, 0xee, 0x5c, 0x9d, 0xbc,
  0x24, 0x26, 0xe3, 0x5f, 0xb4, 0xfb, 0xe2, 0x56, 0xf8, 0x0e, 0x3e, 0x77,
  0x55, 0xe5, 0x61, 0xce, 0xf8, 0xe5, 0x3e, 0x08, 0x74, 0xb8, 0x1a, 0x90,
  0xf3, 0x75, 0xd9, 0x1c, 0x74, 0xbb, 0x3f, 0x1f, 0x4b, 0x66, 0x44, 0x1b,
  0xa6, 0x01, 0xb6, 0x82, 0x75, 0x39, 0xa3, 0x67, 0xa7, 0x51, 0x50, 0x6c,
  0xa4, 0x8c, 0x47, 0x51, 0x6f, 0xe2, 0x19, 0x68, 0xdc, 0x6b, 0x40, 0xc6,
  0x1f, 0xa0, 0xca, 0x1d, 0x9f, 0x3a, 0xae, 0xb7, 0x0e, 0xfd, 0x84, 0x0c,
  0xb3, 0x25, 0x0d, 0x67, 0x4e, 0x94, 0xee, 0x63, 0xaa, 0x57, 0xa3, 0xf1,
  0x28, 0x85, 0xc7, 0x6e, 0x8d, 0x2b, 0xa6, 0x69, 0x41, 0x4a, 0xbf, 0xb8,
  0x53, 0xa2, 0x49, 0x60, 0xe0, 0xf2, 0x91, 0xe6, 0x86, 0xf2, 0x04, 0xed,
  0x51, 0x1d, 0x2a, 0x39, 0xeb, 0xe8, 0x95, 0x3f, 0xdf, 0xa6, 0xc0, 0xa0,
  0xd7, 0xfd, 0x18, 0x5b, 0xba, 0x5d, 0xe7, 0xf1, 0x76, 0x65, 0x2b, 0xcd,
  0x04, 0xfd, 0x00, 0x54, 0xac, 0x9a, 0xf9, 0xf0, 0xb1, 0x43, 0xb7, 0xdf,
  0xcc, 0x3b, 0x28, 0x22, 0xbb, 0xa0, 0x81, 0xd0, 0x57, 0xa6, 0x79, 0x2d,
  0x91, 0x38, 0x7a, 0xb9, 0x9d, 0x14, 0xa6, 0xab, 0x2c, 0x34, 0x15, 0xcf,
  0x6e, 0x94, 0xd3, 0x40, 0x16, 0x2b, 0xc9, 0x1f, 0x3c, 0x91, 0x43, 0x5f,
  0x62, 0x73, 0xae, 0x42, 0x67, 0x72, 0x05, 0x78, 0x8c, 0x8a, 0x53, 0xe1,
  0xb2, 0xe6, 0xd1, 0x53, 0xec, 0x68, 0xf5, 0x8a, 0x0c, 0x2c, 0x08, 0x9e,
  0x58, 0x8a, 0x18, 0xed, 0xb2, 0x30, 0x0b, 0xd1, 0x25, 0xb7, 0x61, 0xd5,
  0x56, 0x00, 0xd7, 0x51, 0x14, 0x22, 0xcf, 0x33, 0x30, 0x6e, 0xae, 0x90,
  0xa4, 0x62, 0xf3, 0x91, 0xcf, 0x04, 0xcf, 0x0d, 0xd1, 0xba, 0xbb, 0x0a,
  0x2d, 0x20, 0xaa, 0x56, 0xdf, 0xd9, 0x45, 0xc0, 0xc4, 0xc7, 0xb5, 0x18,
  0xa0, 0x3d, 0xd6, 0x6a, 0x37, 0xe8, 0xe0, 0x4a, 0x30, 0x12, 0xb9, 0x40,
  0x14, 0x3f, 0x9d, 0x41, 0xa3, 0x3f, 0xe3, 0xe1, 0x33, 0x21, 0x48, 0xa1,
  0xa5, 0xcf, 0x9b, 0x9b, 0x07, 0x1b, 0xbb, 0x0d, 0xbd, 0xf3, 0x38, 0x59,
  0xde, 0x25, 0xa8, 0x65, 0x6c, 0x58, 0x2e, 0x32, 0xc3, 0x61, 0xd7, 0x1b,
  0x24, 0xd1, 0x24, 0xca, 0xa0, 0x9f, 0x2c, 0x38, 0xbe, 0x56, 0x63, 0xba,
  0x9c, 0xd5, 0xcd, 0x67, 0x58, 0x1f, 0x25, 0x73, 0x20, 0x25, 0x0a, 0x9f,
  0xc3, 0xa2, 0x3a, 0x91, 0xb9, 0xc4, 0xa4, 0xdf, 0x68, 0x44, 0xfa, 0x44,
  0xa1, 0xad, 0x2d, 0xe0, 0x11, 0x2e, 0x47, 0x32, 0x06, 0x6d, 0xf4, 0x9e,
  0xc9, 0xe3, 0xb2, 0xf8, 0x44, 0x98, 0x03, 0x05, 0xec, 0x12, 0xf8, 0x05,
  0x57, 0xed, 0x0d, 0xab, 0x0e, 0xa7, 0x69, 0x9e, 0x2f, 0x0c, 0x37, 0x95,
  0x2b, 0x66, 0x27, 0x3a, 0xe0, 0x59, 0xc4, 0x8f, 0xc5, 0x38, 0x6b, 0x1e,
  0x00, 0x75, 0x00, 0x26, 0xfc, 0x5a, 0xfb, 0x45, 0x70, 0x93, 0xee, 0x95,
  0x30, 0xaf, 0x4a, 0xfd, 0xb5, 0x62, 0x92, 0x50, 0x41, 0xd0, 0xff, 0xf2,
  0xe6, 0xac, 0x4e, 0xd0, 0xce, 0x27, 0x90, 0x83, 0xef, 0xb3, 0xff, 0x21,
  0xa3, 0x07, 0xcb, 0x89, 0x0f, 0xa0, 0x02, 0x4f, 0x11, 0xc0, 0x81, 0x1f,
  0x0a, 0x4c, 0xa6, 0x27, 0xe0, 0xde, 0xbd, 0x1b, 0x61, 0x50, 0xe7, 0xcd,
  0x04, 0x38, 0xc8, 0x15, 0x54, 0xc5, 0x10, 0x3f, 0xa5, 0x23, 0x5d, 0x36,
  0xb9, 0x28, 0x08, 0xd1, 0x89, 0xa7, 0x82, 0xc6, 0x8e, 0x07, 0xd7, 0xe6,
  0x9f, 0xc6, 0x39, 0x28, 0x8a, 0x34, 0xd7, 0xae, 0xf2, 0xc4, 0x68, 0x1f,
  0x8d, 0x30, 0x95, 0x4c, 0x44, 0x01, 0x35, 0xb3, 0x75, 0xa7, 0x2c, 0xc9,
  0x0c, 0x93, 0x1e, 0x53, 0xc5, 0x90, 0x84, 0x9e, 0x84, 0x74, 0xca, 0xf3,
  0xd0, 0x7d, 0x6c, 0x51, 0x43, 0xf3, 0xe6, 0x93, 0xa0, 0xf5, 0xe8, 0xba,
  0xdb, 0xf3, 0x9d, 0xaa, 0x2f, 0x33, 0xff, 0x2e, 0x58, 0x13, 0xf4, 0x28,
  0x37, 0xaa, 0xf4, 0xe1, 0x97, 0x03, 0x4f, 0x82, 0x07, 0xf0, 0x4e, 0xf8,
  0x06, 0x2d, 0xc3, 0x93, 0xea, 0xf1, 0x13, 0xb1, 0xb3, 0x36, 0xbb, 0xe2,
  0xf7, 0xbf, 0x11, 0x89, 0x0b, 0x3c, 0x39, 0xe6, 0xc3, 0x91, 0xbf, 0x06,
  0xd5, 0x30, 0x21, 0xef, 0xee, 0x8f, 0xa3, 0xa6, 0x1d, 0x24, 0x70, 0xe6,
  0x04, 0x53, 0x37, 0x7f, 0x96, 0xce, 0x8b, 0xaa, 0x30, 0x91, 0x58, 0x31,
  0x46, 0x2e, 0x57, 0x75, 0xd9, 0x03, 0x73, 0x7a, 0x34, 0x18, 0x1b, 0xdc,
  0x15, 0x20, 0x4b, 0x15, 0xd7, 0x10, 0xc6, 0xe0, 0xe6, 0x40, 0x84, 0xe9,
  0x9c, 0x07, 0x4e, 0x2c, 0x45, 0x4f, 0x7a, 0x14, 0xc1, 0x95, 0x19, 0xec,
  0xfd, 0x8d, 0x3d, 0xbb, 0xe0, 0xfa, 0xb7, 0x3d, 0x7b, 0xd2, 0xe6, 0x3b,
  0x73, 0x62, 0x66, 0xdd, 0xba, 0xa7, 0x66, 0x8d, 0xc3, 0xc1, 0xe2, 0x35,
  0x3a, 0xf9, 0xdd, 0x96, 0xbf, 0x66, 0x5e, 0xee, 0xa0, 0x0d, 0x3e, 0x68,
  0x69, 0xd6, 0xf0, 0x51, 0xe4, 0xfb, 0x35, 0xf3, 0x30, 0x02, 0x71, 0x9c,
  0x8d, 0x11, 0x0d, 0x35, 0xe7, 0xd2, 0xe5, 0x6b, 0xde, 0x78, 0xdf, 0x31,
  0x2e, 0x8a, 0xe3, 0x4e, 0x5d, 0xd6, 0x9c, 0xed, 0xcf, 0x4e, 0x29, 0x02,
  0xd9, 0x44, 0x42, 0x5c, 0xfb, 0x3d, 0xb9, 0x9b, 0x01, 0xa4, 0x49, 0x5b,
  0xb4, 0xe0, 0xba, 0x14, 0x7f, 0xd6, 0xd5, 0x56, 0x51, 0x2d, 0x77, 0x9e,
  0x37, 0xd0, 0x05, 0xfd, 0xd7, 0x66, 0xac, 0x37, 0x81, 0xfc, 0xa1, 0x8c,
  0xd8, 0x1a, 0x1c, 0xd4, 0x9f, 0x60, 0x40, 0x87, 0x33, 0xe6, 0x24, 0x8a,
  0x75, 0x4c, 0x2e, 0x8f, 0xef, 0x2b, 0xae, 0xe7, 0x59, 0xb3, 0xdd, 0xa7,
  0x4c, 0x8a, 0xaf, 0xde, 0x50, 0x62, 0x87, 0x7b, 0x52, 0x8f, 0x59, 0x20,
  0x8e, 0xb7, 0xd1, 0x91, 0x8e, 0x66, 0x4d, 0x73, 0x96, 0x70, 0x38, 0x4c,
  0xe7, 0x66, 0xc6, 0x1a, 0xb4, 0x8f, 0x83, 0x66, 0x34, 0x9c, 0x2a, 0x50,
  0xa1, 0xce, 0x03, 0x48, 0x09, 0xc9, 0xc5, 0x5b, 0xa8, 0xfa, 0xf3, 0x76,
  0xd8, 0x03, 0xde, 0xb1, 0x6b, 0x9d, 0x75, 0x61, 0xe3, 0x67, 0x84, 0x18,
  0xe3, 0x62, 0x14, 0xea, 0xaf, 0xc5, 0x24, 0xb8, 0xd5, 0x42, 0x42, 0x0c,
  0xaa, 0x07, 0x61, 0x40, 0xd4, 0x75, 0x20, 0x90, 0x96, 0xce, 0x9e, 0xaa,
  0x22, 0xdc, 0x19, 0xf4, 0xf0, 0xe0, 0x79, 0xab, 0x48, 0xf0, 0x23, 0x3a,
  0x3c, 0x66, 0xf0, 0x95, 0xd1, 0x86, 0x50, 0x20, 0xfa, 0x9c, 0x42, 0xd1,
  0x09, 0x45, 0x3d, 0xc1, 0x36, 0x26, 0xa5, 0x8a, 0x0d, 0x7d, 0x9f, 0x09,
  0x68, 0xb0, 0x74, 0x34, 0x27, 0xbb, 0x55, 0x8d, 0x42, 0xf6, 0x86, 0x74,
  0xa9, 0x5e, 0xa0, 0xaf, 0xef, 0x8e, 0xad, 0x7a, 0xdf, 0xfa, 0x9a, 0x16,
  0x5c, 0xce, 0x9f, 0x42, 0xb6, 0x6f, 0x09, 0x49, 0x32, 0x1a, 0x68, 0x3c,
  0x7b, 0xae, 0x08, 0x27, 0xc2, 0x8c, 0x3a, 0xd8, 0xbc, 0xd8, 0x55, 0xc5,
  0xcb, 0xe5, 0x9b, 0xa0, 0xa0, 0x90, 0x74, 0x4f, 0x1c, 0xe2, 0x36, 0x27,
  0xe2, 0xa2, 0xdc, 0x5f, 0xc4, 0x99, 0x06, 0xd1, 0xbe, 0xd5, 0x61, 0xc0,
  0xdf, 0x0b, 0xd1, 0x99, 0x32, 0xb2, 0x2e, 0xfa, 0x98, 0xd6, 0x1a, 0x8a,
  0xaf, 0x6c, 0xc2, 0x10, 0x92, 0xed, 0xfd, 0x64, 0xb7, 0x55, 0x4b, 0xaf,
  0x08, 0x5d, 0x17, 0x85, 0x00, 0x52, 0x30, 0x40, 0x0c, 0xfb, 0x11, 0x81,
  0x4d, 0x22, 0x1b, 0xbc, 0x46, 0xbb, 0xb1, 0x8d, 0xe6, 0xb0, 0x39, 0xcd,
  0x44, 0xee, 0xd5, 0x21, 0x40, 0x5d, 0x5a, 0xd5, 0xeb, 0xf7, 0x61, 0xa5,
  0xa7, 0xd5, 0x39, 0x46, 0x47, 0x45, 0xff, 0x5b, 0xfa, 0xd4, 0xc7, 0x53,
  0xed, 0x29, 0xfd, 0x41, 0xf5, 0xa3, 0x3f, 0x4d, 0xe0, 0xe1, 0x6c, 0xf6,
  0xa5, 0xc1, 0xd2, 0x88, 0xd2, 0xff, 0x92, 0x53, 0x1b, 0x2a, 0x9b, 0xee,
  0xe7, 0x2c, 0x92, 0xf1, 0x42, 0x9f, 0x49, 0xf9, 0x4c, 0x34, 0xff, 0xd6,
  0x93, 0xc2, 0x21, 0x07, 0xdb, 0xc2, 0xab, 0x47, 0x34, 0x12, 0xa7, 0xaa,
  0x9a, 0xfe, 0xfa, 0x64, 0xb8, 0x41, 0xe2, 0x3b, 0x68, 0xbc, 0x96, 0xc3,
  0x07, 0x9c, 0xdd, 0xea, 0xfb, 0xd1, 0x06, 0xfc, 0x07, 0xd1, 0xb6, 0x51,
  0xb4, 0xb3, 0xf4, 0x0a, 0x59, 0xf1, 0xb1, 0xd1, 0xf2, 0x4d, 0xd9, 0xd1,
  0x03, 0xf5, 0x55, 0x19, 0x2a, 0xdb, 0xfc, 0x32, 0xc9, 0x91, 0x52, 0xf5,
  0xcf, 0x17, 0x2f, 0x2f, 0xec, 0xcf, 0x17, 0x27, 0x22, 0x99, 0x1b, 0x67,
  0x49, 0x40, 0x40, 0x40, 0x3b, 0x3a, 0xed, 0xe5, 0xa9, 0x8a, 0xfc, 0x10,
  0x98, 0x0c, 0xa0, 0xb7, 0x0e, 0x27, 0x90, 0xd6, 0x9c, 0x31, 0x46, 0xc6,
  0xcd, 0xd4, 0x56, 0x87, 0xef, 0x90, 0xa3, 0x56, 0x16, 0x87, 0x43, 0x0c,
  0xe7, 0x2d, 0xef, 0xd5, 0xfa, 0xab, 0xfb, 0xe0, 0x98, 0x00, 0x20, 0x31,
  0x9e, 0xb3, 0x40, 0xf1, 0x29, 0x14, 0x96, 0xcf, 0x05, 0x3b, 0x8d, 0x71,
  0xe7, 0xde, 0xa8, 0x55, 0x66, 0xa9, 0xdd, 0x8e, 0x11, 0x0f, 0x6a, 0x43,
  0x59, 0xdb, 0xe0, 0x32, 0x72, 0x72, 0x40, 0xfd, 0x2d, 0x48, 0xab, 0xec,
  0x6c, 0x5c, 0xe7, 0xd0, 0x39, 0x70, 0x02, 0xf8, 0x07, 0x56, 0x3f, 0xa3,
  0xc0, 0x8c, 0x3b, 0xc7, 0xe8, 0xa9, 0xf7, 0xce, 0x0f, 0x59, 0x5c, 0xbb,
  0xed, 0x52, 0x39, 0xf7, 0x61, 0x22, 0xee, 0xc8, 0x93, 0x33, 0x0e, 0x94,
  0x2c, 0xb6, 0x53, 0x69, 0x40, 0xa0, 0xd4, 0xff, 0x65, 0x42, 0xa2, 0x9d,
  0x4b, 0x3a, 0x41, 0x9f, 0x29, 0xc8, 0xda, 0x37, 0x38, 0xe6, 0x8e, 0x19,
  0x40, 0x4d, 0xa3, 0xa2, 0x4d, 0x63, 0x5a, 0xe5, 0x29, 0x4c, 0xc4, 0xa6,
  0x15, 0x45, 0xa0, 0xa8, 0xa9, 0xe3, 0x28, 0x96, 0x1d, 0xd1, 0x9e, 0xe0,
  0x65, 0x93, 0x98, 0x53, 0xa7, 0xad, 0xf0, 0x6e, 0x64, 0xbd, 0x22, 0x99,
  0xb5, 0x5b, 0x66, 0x3f, 0xb3, 0x5d, 0x6a, 0xad, 0x3e, 0x97, 0x24, 0x33,
  0x75, 0xa4, 0xb2, 0xd9, 0xe3, 0xa9, 0x42, 0xdb, 0x57, 0xc5, 0xda, 0xee,
  0x04, 0x4b, 0x29, 0x1d, 0xd7, 0xe1, 0x08, 0x36, 0x9b, 0x66, 0xa5, 0xf9,
  0x61, 0x5b, 0xcd, 0x61, 0xc1, 0xc7, 0xbd, 0x2f, 0x3d, 0xfd, 0x3a, 0x8e,
  0xd7, 0x24, 0x9f, 0x2e, 0x4a, 0xd5, 0x01, 0x0a, 0x35, 0x0a, 0x8f, 0x42,
  0x09, 0x6a, 0xb2, 0x10, 0x31, 0x6c, 0xfd, 0xb0, 0x55, 0xf0, 0xd7, 0xf6,
  0x4e, 0x1e, 0x41, 0x03, 0xb0, 0x2a, 0xc1, 0x22, 0xab, 0x28, 0x11, 0x0b,
  0xff, 0x37, 0x2b, 0x78, 0xdb, 0x5e, 0xe5, 0x42, 0xb8, 0xc8, 0xcb, 0xce,
  0xf4, 0x6b, 0xd8, 0xbd, 0x6a, 0x15, 0x6e, 0xfc, 0x33, 0x08, 0x18, 0xcc,
  0xb3, 0x4b, 0xbf, 0x2f, 0xc9, 0x25, 0x16, 0x59, 0xd7, 0xd6, 0xc4, 0x9c,
  0xc8, 0x94, 0x43, 0x4c, 0x0c, 0xc6, 0xa3, 0x65, 0xae, 0x53, 0x48, 0xd4,
  0xd2, 0xec, 0x2f, 0xd4, 0x39, 0xeb, 0xfc, 0x12, 0xdd, 0xfd, 0x28, 0x1e,
  0x2e, 0x98, 0x12, 0xb2, 0xa1, 0x81, 0xd3, 0x5b, 0xdf, 0x43, 0xe4, 0xde,
  0x9a, 0x05, 0x24, 0xa1, 0xaa, 0x66, 0x8d, 0x02, 0x45, 0x94, 0x05, 0xeb,
  0x2f, 0xd9, 0x61, 0xdd, 0xe7, 0xd6, 0x6c, 0x99, 0xd4, 0x27, 0x79, 0xb2,
  0x02, 0x8a, 0xea, 0xdd, 0x4e, 0xab, 0x5e, 0x04, 0x1d, 0x48, 0x73, 0x90,
  0xfd, 0xd5, 0x86, 0x9f, 0xd8, 0x4f, 0x5d, 0x0a, 0xb3, 0x20, 0x21, 0xe9,
  0x1d, 0xbc, 0x3d, 0x1c, 0xa3, 0xb0, 0xbf, 0xf8, 0x45, 0x47, 0xe0, 0x2f,
  0x4f, 0xc9, 0x1c, 0x61, 0x94, 0x1e, 0xb8, 0xf3, 0x8f, 0x9d, 0x15, 0x99,
  0x58, 0xfc, 0x59, 0xd0, 0xc6, 0x5a, 0x5b, 0xe3, 0xae, 0x53, 0x9b, 0x1d,
  0xae, 0x8f, 0x93, 0x1f, 0x3d, 0xe5, 0xf5, 0x0d, 0x20, 0x0f, 0xe2, 0xa4,
  0x41, 0xb0, 0xf8, 0x12, 0x98, 0x08, 0x27, 0x54, 0x61, 0xf0, 0xa5, 0x5d,
  0x11, 0x6b, 0xf2, 0x74, 0x1d, 0x75, 0x94, 0xa3, 0x71, 0x10, 0x9d, 0x92,
  0x04, 0x25, 0xf2, 0xd1, 0x19, 0x11, 0x9b, 0x58, 0x3d, 0x1d, 0x0b, 0xe7,
  0x5d, 0xd1, 0x4e, 0x62, 0xa3, 0x38, 0x3f, 0x34, 0xdc, 0xe5, 0x81, 0x99,
  0xba, 0x28, 0x07, 0x94, 0x16, 0x1f, 0x51, 0xd4, 0xf8, 0xcf, 0x97, 0x82,
  0xec, 0xc6, 0xe4, 0xb3, 0x0d, 0x77, 0xfa, 0xa9, 0x37, 0x44, 0xd5, 0xf2,
  0x74, 0xa8, 0x62, 0x40, 0x12, 0x64, 0xcd, 0x6a, 0xa6, 0x99, 0x45, 0x67,
  0x6a, 0x6c, 0x8d, 0xa7, 0xe1, 0xfc, 0x97, 0x86, 0x1d, 0xc8, 0xe3, 0xac,
  0xdc, 0xd5, 0x28, 0xe5, 0xb8, 0x6b, 0xc8, 0x17, 0xac, 0x71, 0xbb, 0xf1,
  0xa0, 0x42, 0x06, 0x6d, 0xf5, 0x03, 0x9a, 0x12, 0x7a, 0x20, 0x1d, 0x5a,
  0xad, 0x3b, 0xbb, 0x56, 0x13, 0x43, 0xff, 0x9f, 0xd7, 0x98, 0x4e, 0xf6,
  0x6a, 0xd2, 0x0d, 0x99, 0xb1, 0xcb, 0x6c, 0x49, 0xbc, 0x65, 0x39, 0x63,
  0xad, 0xcf, 0xcb, 0xa7, 0xe6, 0x6e, 0x35, 0xbb, 0x22, 0x3e, 0x0a, 0x16,
  0x5c, 0x10, 0xff, 0x0e, 0xb9, 0xed, 0x35, 0x6d, 0x3c, 0xd5, 0x63, 0xe1,
  0x9d, 0x9a, 0x37, 0xb7, 0x5d, 0x82, 0x58, 0x32, 0xf7, 0xa2, 0x99, 0xa7,
  0x0f, 0x71, 0x29, 0x59, 0xbf, 0xb4, 0x29, 0xef, 0x53, 0xbd, 0xb0, 0x3f,
  0x2b, 0x7b, 0x45, 0x49, 0x5e, 0x86, 0xba, 0x35, 0xfe, 0x47, 0x2d, 0x09,
  0x26, 0xfe, 0x59, 0xf0, 0x00, 0xe9, 0xa8, 0xf0, 0xeb, 0xd3, 0x57, 0x96,
  0xdd, 0x19, 0xb2, 0xab, 0xc1, 0x02, 0x91, 0x9e, 0x1e, 0xb6, 0x55, 0xb6,
  0x4d, 0x24, 0x72, 0xe1, 0xa6, 0xdd, 0x31, 0x6e, 0x7f, 0x1e, 0xb5, 0x1d,
  0x46, 0xd6, 0x1e, 0x99, 0x96, 0x96, 0xe2, 0x1e, 0x54, 0xdc, 0xe8, 0xe2,
  0x08, 0xf1, 0x6e, 0x46, 0x8c, 0xee, 0x01, 0x45, 0x42, 0x54, 0xb9, 0x06,
  0xfb, 0xb8, 0x31, 0x38, 0x33, 0x0c, 0x6f, 0x94, 0x48, 0x1f, 0xf3, 0x08,
  0xbc, 0xfc, 0x0d, 0x63, 0x2a, 0x09, 0xf0, 0x53, 0xf6, 0xa7, 0xdf, 0x8e,
  0x6a, 0x4b, 0xe5, 0xb4, 0x5d, 0x49, 0x69, 0x0b, 0xfc, 0x9c, 0x97, 0x26,
  0xd0, 0x9e, 0xa5, 0xe3, 0x0e, 0x3f, 0x99, 0xcf, 0x23, 0xd3, 0x74, 0xe9,
  0x43, 0x3d, 0x1a, 0xcc, 0xf3, 0x66, 0x33, 0x39, 0xb0, 0x1e, 0x26, 0xa3,
  0xa9, 0xb7, 0x70, 0x9c, 0x06, 0x1c, 0xa9, 0x01, 0xf7, 0xf9, 0x09, 0x2a,
  0xc8, 0x56, 0x41, 0xda, 0xc4, 0x20, 0x3c, 0xbf, 0x04, 0x66, 0xdc, 0x01,
  0x4b, 0x05, 0x1c, 0xa6, 0xcd, 0x4f, 0x14, 0xfa, 0xcd, 0x6c, 0x18, 0xb2,
  0x49, 0xe0, 0xd8, 0xea, 0xbf, 0x47, 0xe1, 0xff, 0x61, 0x45, 0x77, 0x21,
  0xe6, 0xfa, 0xfc, 0x3e, 0x49, 0x0e, 0x62, 0xb1, 0x51, 0xea, 0x66, 0x56,
  0x0d, 0x59, 0xae, 0x09, 0xbc, 0x4d, 0x11, 0xb5, 0xdf, 0x4f, 0x7c, 0x56,
  0xd6, 0x8e, 0x08, 0x52, 0x57, 0x60, 0x35, 0x5a, 0x90, 0xa7, 0x23, 0xf9,
  0x18, 0x51, 0x02, 0x69, 0x94, 0x32, 0xa2, 0x39, 0x5d, 0xf8, 0xda, 0x52,
  0xdf, 0xa6, 0x57, 0xe5, 0x4c, 0x4d, 0xbc, 0x02, 0xba, 0xb6, 0xad, 0xa1,
  0xa1, 0xe0, 0x12, 0x99, 0xed, 0x93, 0x8b, 0xa6, 0xf8, 0x1e, 0x2b, 0x02,
  0x33, 0xc4, 0xa5, 0xba, 0xd3, 0x50, 0x1d, 0x23, 0x0f, 0xaf, 0xa0, 0xdd,
  0x60, 0x01, 0xf3, 0x3d, 0x15, 0xc1, 0x6f, 0x0c, 0xc6, 0x4a, 0x03, 0x9d,
  0x9b, 0x95, 0x9d, 0xea, 0x0a, 0x30, 0xe8, 0x50, 0x43, 0xce, 0xeb, 0xe7,
  0x6c, 0xf9, 0x67, 0x40, 0xdf, 0x11, 0xb4, 0x08, 0x35, 0x59, 0xeb, 0xd8,
  0x2e, 0xf0, 0x9f, 0xd4, 0x34, 0x2f, 0xa2, 0xca, 0x6d, 0xe3, 0x0a, 0x65,
  0x0f, 0x2f, 0xed, 0x16, 0x2b, 0x29, 0xa3, 0x4f, 0xeb, 0x7d, 0xf8, 0xef,
  0x51, 0x7a, 0x20, 0xc5, 0x2f, 0xd4, 0xfc, 0x1f, 0xe9, 0x38, 0x33, 0xec,
  0x33, 0x13, 0x06, 0xfc, 0xd1, 0x6c, 0xa6, 0xcc, 0x4f, 0xf9, 0x4c, 0x4f,
  0x98, 0xb9, 0x34, 0x4f, 0x48, 0x03, 0x39, 0x00, 0xf8, 0xa3, 0xd1, 0xaa,
  0x58, 0xa6, 0x1c, 0x9c, 0xbc, 0x52, 0xc3, 0x6a, 0x28, 0x52, 0xf2, 0x12,
  0xd8, 0x9d, 0x6c, 0xa9, 0x15, 0x49, 0xaa, 0x97, 0xa2, 0x3c, 0x11, 0xaa,
  0x13, 0x94, 0x2f, 0xa0, 0x06, 0xd1, 0xb2, 0xfd, 0x59, 0xbd, 0xcc, 0xc8,
  0x56, 0x65, 0x5c, 0x10, 0xdd, 0x91, 0x06, 0xd6, 0x03, 0x68, 0x01, 0xb5,
  0x48, 0xc7, 0xfe, 0x6c, 0xc0, 0xee, 0xe8, 0xde, 0x5c, 0x6a, 0xb1, 0x29,
  0x58, 0xd1, 0x5e, 0x4c, 0x89, 0x9c, 0x22, 0xcd, 0xc6, 0x6e, 0xeb, 0x95,
  0x02, 0xe9, 0x91, 0xa1, 0xcf, 0x65, 0x2e, 0xa5, 0x37, 0x2e, 0x16, 0x48,
  0xc9, 0x33, 0x4b, 0xdc, 0xc2, 0x10, 0x44, 0xd8, 0x63, 0xe6, 0xa6, 0x53,
  0xa2, 0x03, 0x14, 0x8b, 0x54, 0xcf, 0x99, 0xa9, 0xf4, 0xc9, 0xa6, 0xdf,
  0x8e, 0x11, 0x71, 0x31, 0x55, 0x81, 0x4e, 0xa6, 0xe4, 0x5f, 0xbc, 0x07,
  0xa8, 0xb0, 0xc5, 0x69, 0x63, 0x3b, 0x6b, 0x39, 0xd4, 0x9a, 0xc9, 0x59,
  0x78, 0x22, 0xfe, 0x46, 0xed, 0x98, 0xd0, 0x10, 0x4e, 0xbd, 0x71, 0xce,
  0x50, 0x61, 0xe5, 0xa3, 0x6c, 0xb5, 0x22, 0x22, 0x0c, 0x36, 0x20, 0xa8,
  0xd2, 0x44, 0x8c, 0x34, 0xa2, 0xe1, 0x32, 0xb0, 0xac, 0xb2, 0xd8, 0xa2,
  0x37, 0x73, 0x90, 0x9b, 0x18, 0x2e, 0x33, 0x92, 0xda, 0x1d, 0xf9, 0x00,
  0xbd, 0xd7, 0xa3, 0x0c, 0xcb, 0x9b, 0xe0, 0xe2, 0x42, 0x73, 0x65, 0x4c,
  0xb8, 0x92, 0xcd, 0x99, 0xc5, 0xc8, 0xa1, 0xb7, 0xdf, 0xf5, 0x4e, 0x02,
  0xd3, 0x6e, 0x10, 0x95, 0xb9, 0x25, 0xcb, 0x1c, 0x4d, 0x65, 0x5c, 0x95,
  0x8f, 0x9b, 0xf8, 0x59, 0x9c, 0xdb, 0xe5, 0x47, 0xc8, 0x81, 0x58, 0xfb,
  0x3d, 0x1b, 0xb0, 0x59, 0x73, 0x76, 0x2b, 0x9a, 0xb3, 0x42, 0xc7, 0x30,
  0x0c, 0x93, 0xc2, 0x1d, 0x56, 0xa0, 0x03, 0xa4, 0x76, 0x6f, 0x4b, 0xb2,
  0x6c, 0xbc, 0x60, 0x1c, 0xd2, 0x72, 0x19, 0x52, 0x1d, 0xf6, 0x64, 0xe5,
  0xa7, 0xbc, 0xcb, 0x5a, 0x9f, 0xa8, 0xe5, 0x4d, 0x68, 0xc3, 0x89, 0xf2,
  0x2e, 0x66, 0xfd, 0x34, 0xbe, 0x51, 0x71, 0x6e, 0x36, 0x38, 0xf1, 0xcb,
  0xb0, 0x39, 0xc9, 0xf1, 0x95, 0x98, 0x36, 0xfe, 0xf5, 0xe3, 0xb4, 0xed,
  0x58, 0x90, 0x95, 0x3b, 0x6a, 0xcc, 0x51, 0x6d, 0x84, 0x1a, 0x5f, 0x57,
  0xe8, 0x1c, 0x8d, 0x58, 0x27, 0x2d, 0x95, 0x8c, 0x3e, 0xae, 0x9c, 0xb9,
  0x23, 0x64, 0xd7, 0xaa, 0xd7, 0x35, 0xbb, 0xb0, 0x9d, 0x91, 0x82, 0xc3,
  0xcc, 0x15, 0xdc, 0x5c, 0xa4, 0x8e, 0xbc, 0x96, 0xc3, 0x6d, 0xde, 0x73,
  0xa9, 0x87, 0xfe, 0x1e, 0x0c, 0x9e, 0xec, 0x54, 0x84, 0x4a, 0xf9, 0x97,
  0xf4, 0xaa, 0xfa, 0xa8, 0xb1, 0xb5, 0x70, 0x57, 0x46, 0x03, 0x63, 0x64,
  0xb1, 0xd8, 0x6b, 0x2e, 0xc2, 0xf2, 0x6f, 0x86, 0xe3, 0xe0, 0xb7, 0x34,
  0xb1, 0x5b, 0x0d, 0xd0, 0xcc, 0x57, 0xc4, 0x45, 0xa3, 0x52, 0x04, 0x53,
  0x58, 0xee, 0x24, 0xd5, 0x51, 0x8d, 0x9e, 0x36, 0x43, 0x17, 0x50, 0xb4,
  0x0b, 0xb4, 0x2f, 0x32, 0xeb, 0xc3, 0x81, 0x15, 0xc6, 0x10, 0xaa, 0x57,
  0xe0, 0x21, 0xa8, 0xd0, 0x2f, 0x18, 0x04, 0xb2, 0xa9, 0x67, 0x93, 0x2c,
  0x87, 0xe7, 0x19, 0x69, 0x38, 0xf0, 0xa2, 0x66, 0xac, 0x91, 0xe8, 0xc1,
  0x95, 0xfd, 0x4b, 0xf6, 0x11, 0x39, 0x14, 0x70, 0xb0, 0xcb, 0x2f, 0x65,
  0xeb, 0x18, 0x28, 0xd9, 0x1b, 0xdf, 0x4d, 0x9f, 0xdb, 0x6b, 0x92, 0x15,
  0xa8, 0xc4, 0x20, 0x25, 0x00, 0x42, 0x87, 0xee, 0xdf, 0x56, 0x34, 0x55,
  0x4a, 0xc6, 0x2f, 0x97, 0xe7, 0x3e, 0xb7, 0x51, 0x09, 0xe3, 0x19, 0x0c,
  0xc7, 0x4d, 0xdf, 0x85, 0xca, 0xbb, 0xb1, 0x67, 0xa0, 0xb1, 0xe1, 0xd6,
  0x12, 0x36, 0x85, 0x71, 0xe2, 0x37, 0xa6, 0xc2, 0x07, 0x67, 0xf8, 0x26,
  0x02, 0x8c, 0xad, 0x86, 0xe2, 0xda, 0x04, 0xd1, 0xd7, 0xbd, 0x14, 0xf0,
  0x9a, 0x1f, 0xe6, 0x16, 0xb4, 0xe0, 0xf4, 0xb1, 0x88, 0x6c, 0x56, 0x35,
  0xd4, 0x4b, 0x82, 0x3c, 0x0e, 0x21, 0xcb, 0xe0, 0x28, 0x4f, 0xd3, 0x2b,
  0x5b, 0x29, 0xd6, 0xc9, 0xae, 0x0d, 0xf4, 0x24, 0xce, 0x2c, 0x29, 0xb1,
  0xa9, 0xce, 0xc2, 0x2a, 0x59, 0x53, 0xad, 0x69, 0x43, 0x9b, 0x85, 0x11,
  0x0c, 0xbc, 0x8d, 0x4d, 0xf2, 0xcd, 0x22, 0xf5, 0x13, 0xc6, 0x22, 0x65,
  0x65, 0x38, 0x94, 0x3c, 0x69, 0x6c, 0xd7, 0x10, 0xc1, 0x39, 0x4f, 0x16,
  0x4e, 0x1f, 0xd2, 0xb1, 0x11, 0xcb, 0x56, 0xc3, 0xf5, 0x88, 0x72, 0xe4,
  0x9b, 0x65, 0x3b, 0x03, 0x8e, 0x49, 0xfc, 0xf2, 0xf1, 0x70, 0x46, 0x9f,
  0x18, 0x49, 0x59, 0x51, 0xd6, 0x5e, 0xe7, 0xca, 0x04, 0x66, 0xf3, 0xee,
  0xe1, 0xe5, 0x30, 0x53, 0xe4, 0x83, 0xf1, 0x19, 0xaa, 0x0e, 0x89, 0xa0,
  0x2f, 0xdf, 0x16, 0x4b, 0x81, 0xf3, 0xdc, 0x1d, 0xec, 0x10, 0x23, 0x08,
  0xe8, 0xed, 0xce, 0xfd, 0xde, 0x0c, 0xdc, 0x47, 0xc6, 0x38, 0x40, 0xef,
  0xea, 0x23, 0x33, 0xe8, 0xcf, 0x49, 0x35, 0x2e, 0xc3, 0x20, 0x46, 0xee,
  0x36, 0xee, 0x43, 0x00, 0x0e, 0xdd, 0xd4, 0x0b, 0xd3, 0xd2, 0xe8, 0x15,
  0x2c, 0x0a, 0x08, 0xf6, 0xd2, 0xc3, 0x19, 0xc5, 0xc0, 0x35, 0x17, 0xda,
  0x3a, 0xe8, 0xda, 0xdc, 0x2a, 0x23, 0x21, 0xc5, 0x30, 0xed, 0xdc, 0x40,
  0x2e, 0xfa, 0xc9, 0xf9, 0xde, 0x3d, 0x09, 0xf6, 0x04, 0xe3, 0x34, 0xfe,
  0xff, 0x4c, 0x49, 0x03, 0xc5, 0x42, 0x4f, 0x48, 0x29, 0xff, 0x0a, 0x37,
  0x18, 0xc6, 0x0d, 0xcd, 0x2d, 0x2e, 0xf3, 0x20, 0x3e, 0x40, 0xd5, 0xda,
  0x13, 0xf2, 0x01, 0x2b, 0x42, 0x19, 0xc3, 0x40, 0xe3, 0xcb, 0xec, 0xdf,
  0xfa, 0xc9, 0xc1, 0xc2, 0xed, 0xbe, 0x2b, 0xba, 0xe7, 0x19, 0xba, 0xd6,
  0xc9, 0xc4, 0x2d, 0x0e, 0x44, 0xf7, 0x25, 0x06, 0x1a, 0xe8, 0xc2, 0xe3,
  0x3f, 0xd4, 0xe8, 0x39, 0x0b, 0xdd, 0xf7, 0xec, 0x35, 0x11, 0xe1, 0xdf,
  0x14, 0xe8, 0x05, 0x09, 0xe2, 0x3a, 0x40, 0x1e, 0xd6, 0x37, 0xce, 0xd3,
  0x14, 0xcf, 0x30, 0x14, 0xfc, 0xbb, 0xde, 0xd0, 0x30, 0x2a, 0x1b, 0xee,
  0x02, 0xc5, 0xbb, 0xc6, 0x2b, 0x16, 0x19, 0xa7, 0xc3, 0x1b, 0xcb, 0xbf,
  0xcb, 0x49, 0xdc, 0xf5, 0xe1, 0x10, 0xd4, 0x1c, 0xdf, 0x13, 0x1e, 0xf5,
  0xdf, 0x04, 0x2c, 0xe4, 0xba, 0xcf, 0x25, 0xee, 0x44, 0x05, 0x2b, 0xc5,
  0xf1, 0xcb, 0x26, 0x2d, 0x03, 0x2a, 0x04, 0x37, 0x2c, 0x3f, 0x3d, 0xc7,
  0x44, 0x41, 0x38, 0x0e, 0xd8, 0x0d, 0x01, 0x0b, 0xcd, 0x3e, 0xf2, 0x4a,
  0x0e, 0x38, 0xed, 0xbe, 0x0a, 0x13, 0xc0, 0x19, 0x2b, 0xf3, 0xe8, 0x22,
  0x5b, 0x22, 0xe3, 0xd0, 0x49, 0xcd, 0xe0, 0xbd, 0xe4, 0xb8, 0x49, 0x47,
  0xf4, 0xc3, 0xf7, 0xb5, 0x56, 0x3e, 0xe1, 0x4a, 0xf9, 0x3b, 0xce, 0x4f,
  0xc8, 0xeb, 0x1c, 0xf1, 0x50, 0xe2, 0xc6, 0xd8, 0x40, 0xd4, 0x5e, 0x9e,
  0x3b, 0xd4, 0xa0, 0xc7, 0x25, 0x35, 0xfb, 0x60, 0x4a, 0x3e, 0x66, 0x0c,
  0xaa, 0xb3, 0x2e, 0x7f, 0x6b, 0xe3, 0x1b, 0xfa, 0x59, 0x50, 0xfe, 0xf6,
  0x5f, 0x4e, 0xe4, 0x34, 0x60, 0xc2, 0x47, 0xfc, 0x45, 0xa6, 0x06, 0xca,
  0x26, 0xf7, 0x1d, 0xcb, 0x25, 0x04, 0xfc, 0x2f, 0xf4, 0xa9, 0xa0, 0x2b,
  0x02, 0xb0, 0x51, 0x22, 0xe2, 0xf7, 0xe0, 0xc7, 0x5e, 0x22, 0xdf, 0xa3,
  0xf5, 0xd1, 0x66, 0x1d, 0x38, 0xd7, 0x17, 0xa1, 0x5b, 0x3e, 0xa7, 0x28,
  0xe5, 0xdf, 0x19, 0xd0, 0x8f, 0xc2, 0xfc, 0x0e, 0x17, 0xaf, 0x18, 0xc5,
  0x43, 0x9e, 0xd6, 0x32, 0xcd, 0xff, 0xa4, 0x09, 0xb8, 0x50, 0x36, 0x27,
  0xcc, 0xaa, 0x91, 0x22, 0xc3, 0xba, 0x09, 0x24, 0xfa, 0xfb, 0xad, 0xcb,
  0x4e, 0xbd, 0xa9, 0x13, 0x1e, 0x08, 0x6a, 0xa2, 0xe9, 0x1f, 0x03, 0x53,
  0x04, 0xb0, 0xc1, 0x56, 0x1a, 0x8a, 0x5f, 0xc5, 0x14, 0xc3, 0xf7, 0xcc,
  0x33, 0x16, 0x33, 0xf9, 0x68, 0x39, 0x51, 0x6c, 0xba, 0x1b, 0x6c, 0x6a,
  0x1f, 0x97, 0xed, 0x26, 0x95, 0x75, 0xb6, 0x09, 0x47, 0x4b, 0xa5, 0x5e,
  0x36, 0xaa, 0x1f, 0x9c, 0xf9, 0xce, 0xce, 0xec, 0xd3, 0xd5, 0x3c, 0x98,
  0xc0, 0x34, 0xdd, 0xed, 0xe4, 0x8a, 0x99, 0xbe, 0xef, 0xd6, 0x9b, 0xcb,
  0x26, 0x2b, 0x28, 0x20, 0xbe, 0x9c, 0x9a, 0x55, 0x38, 0x0f, 0xab, 0x9a,
  0xde, 0xbe, 0x1f, 0xd9, 0xc3, 0x31, 0x07, 0x86, 0x34, 0xd6, 0x7c, 0x09,
  0xdc, 0x18, 0x4d, 0x3a, 0x75, 0x17, 0x2f, 0xb8, 0x02, 0x69, 0xfa, 0xe6,
  0x26, 0xe9, 0xb0, 0xf3, 0x99, 0xc7, 0x27, 0x8d, 0x4a, 0x10, 0xa0, 0x6c,
  0x38, 0xc4, 0xed, 0xf6, 0x4c, 0x2f, 0xb3, 0x3d, 0x43, 0xbe, 0xf2, 0x54,
  0xa9, 0x50, 0xaa, 0xfc, 0xb4, 0xdf, 0xe5, 0x18, 0x36, 0x00, 0x2c, 0xf5,
  0x59, 0x57, 0xc8, 0x37, 0x17, 0xf3, 0x58, 0x69, 0xae, 0x63, 0x9d, 0xcc,
  0x26, 0xba, 0xb5, 0xfe, 0x16, 0x06, 0x41, 0xa9, 0x73, 0x5d, 0x1a, 0x61,
  0x22, 0xde, 0x24, 0x48, 0x32, 0xb9, 0x35, 0xe9, 0x03, 0x40, 0x2f, 0x43,
  0xe2, 0xa9, 0x65, 0xaa, 0x20, 0xd1, 0xaa, 0x06, 0xc8, 0x36, 0xd3, 0x35,
  0x2c, 0x66, 0x74, 0x6b, 0x33, 0x57, 0x16, 0xf1, 0x32, 0x9b, 0x07, 0x54,
  0xb3, 0x07, 0xd8, 0x28, 0xd5, 0x70, 0xcd, 0x39, 0xdf, 0xf2, 0x32, 0x36,
  0xf9, 0x00, 0x1a, 0x0a, 0x03, 0x43, 0x28, 0xf8, 0x2a, 0xa5, 0x69, 0x02,
  0xaf, 0xa9, 0xdb, 0xf6, 0x3a, 0xcf, 0xf9, 0xba, 0xdb, 0x0d, 0xc3, 0xeb,
  0x4c, 0x10, 0xce, 0xc7, 0xaa, 0xa4, 0xf2, 0x58, 0xcd, 0xb6, 0xce, 0x95,
  0xa6, 0x3f, 0xa8, 0xcd, 0xca, 0xaa, 0x4d, 0xc7, 0x5c, 0x40, 0x06, 0x5a,
  0xe1, 0xc5, 0xda, 0xb1, 0x1d, 0xfb, 0xad, 0x5a, 0xc8, 0xe7, 0xf5, 0xdd,
  0xa7, 0xfb, 0x28, 0x07, 0x49, 0x23, 0x46, 0x5c, 0xd0, 0x53, 0x4c, 0xb1,
  0x64, 0xf6, 0x03, 0xa3, 0x1c, 0x30, 0xb4, 0xd3, 0x4f, 0x4a, 0xb0, 0xea,
  0xb6, 0xe4, 0xea, 0xda, 0xd2, 0xe4, 0x41, 0xaa, 0x68, 0xc4, 0xd4, 0x59,
  0xe7, 0xc9, 0x64, 0xb1, 0xc7, 0xef, 0x03, 0x28, 0xd9, 0x2e, 0x39, 0xd2,
  0x29, 0x1d, 0x0c, 0x60, 0xb8, 0x59, 0xcb, 0x52, 0x51, 0x5f, 0xd6, 0xff,
  0x2c, 0xbd, 0x76, 0x74, 0xee, 0xa0, 0xc3, 0xf8, 0x55, 0xb8, 0xd3, 0xb9,
  0xb1, 0xcb, 0x43, 0xb8, 0xbc, 0xee, 0x7f, 0x6a, 0xc8, 0x12, 0xe6, 0x30,
  0x38, 0xc0, 0xae, 0xa8, 0xfe, 0xde, 0x00, 0xc7, 0x0b, 0xda, 0xd7, 0x54,
  0x38, 0xcd, 0xad, 0x3c, 0x96, 0xde, 0x67, 0xa5, 0x07, 0x24, 0x52, 0xf7,
  0xad, 0x52, 0x0f, 0x2d, 0xab, 0xaf, 0x10, 0x1d, 0xbd, 0x57, 0x1f, 0xeb,
  0xd0, 0x24, 0xa8, 0x36, 0x48, 0x41, 0x08, 0x08, 0x38, 0x50, 0xb1, 0xb9,
  0xce, 0x32, 0xfa, 0xcd, 0x32, 0x5d, 0xb4, 0xba, 0xef, 0x4b, 0x50, 0x0a,
  0x79, 0xc2, 0xfb, 0x4a, 0xfd, 0xeb, 0x98, 0xb7, 0x90, 0xe0, 0x5c, 0x9d,
  0x40, 0x39, 0xdb, 0x2c, 0xc5, 0x79, 0x4e, 0xe3, 0x1f, 0x68, 0x64, 0x47,
  0x09, 0x9c, 0xf8, 0x4f, 0x25, 0xd9, 0x60, 0x30, 0xf1, 0x44, 0xb1, 0xaf,
  0x59, 0xaf, 0x4b, 0x48, 0x24, 0x2e, 0x00, 0x3b, 0xaf, 0x4f, 0xa3, 0x19,
  0xf6, 0x5a, 0x2a, 0x6c, 0x6a, 0xb6, 0x5d, 0x32, 0x50, 0x0f, 0xc9, 0xd9,
  0xef, 0xc8, 0x94, 0xaf, 0xb2, 0x2a, 0x3e, 0x25, 0x9e, 0x33, 0xb6, 0x1f,
  0x90, 0xef, 0xa8, 0xfe, 0xe7, 0x55, 0x95, 0x44, 0x0b, 0x45, 0x21, 0xe3,
  0xa4, 0x6a, 0x02, 0xec, 0x5a, 0x4f, 0x5f, 0x3b, 0x2d, 0x4d, 0xce, 0x2a,
  0x99, 0xea, 0x15, 0x0e, 0x4e, 0xe3, 0xf6, 0x3a, 0x15, 0x1f, 0xe8, 0x06,
  0xce, 0xa2, 0xee, 0x08, 0x02, 0xd8, 0x57, 0xe3, 0xc4, 0x3f, 0xd6, 0x6e,
  0x13, 0x13, 0x49, 0x48, 0x42, 0x0e, 0x3a, 0x7f, 0x3f, 0x30, 0x4f, 0x9e,
  0xba, 0x2f, 0x1e, 0x5c, 0x3f, 0xdc, 0x16, 0x3a, 0x23, 0xf5, 0x3e, 0x0e,
  0xbe, 0x2c, 0x4f, 0x99, 0x91, 0xe7, 0xde, 0x0f, 0x54, 0x2d, 0x94, 0xca,
  0xf1, 0x16, 0xcb, 0x0d, 0xb9, 0x07, 0xf9, 0x97, 0x17, 0x5e, 0x04, 0xc5,
  0xe7, 0xff, 0x88, 0x60, 0xb0, 0x0c, 0xeb, 0x11, 0x50, 0x15, 0xf4, 0x70,
  0x0f, 0x59, 0xad, 0xcc, 0x1f, 0x59, 0xd7, 0xbc, 0x1c, 0xd1, 0xde, 0xb8,
  0xa1, 0x51, 0x56, 0xc1, 0x71, 0xd4, 0x0a, 0xa9, 0xbd, 0xe0, 0xac, 0x11,
  0x64, 0x18, 0xf2, 0xc5, 0xc9, 0x22, 0x5a, 0xc2, 0x7f, 0xd9, 0x67, 0x3b,
  0x9a, 0x8c, 0xd7, 0x34, 0x11, 0xeb, 0xa2, 0xac, 0x0a, 0x74, 0x18, 0x0d,
  0x87, 0x53, 0x70, 0x2a, 0xd8, 0x1f, 0xd5, 0xed, 0x2e, 0x27, 0x91, 0x8f,
  0x91, 0x0c, 0xdf, 0xe5, 0x2d, 0x19, 0xe3, 0x54, 0x5e, 0x46, 0x31, 0x19,
  0x0f, 0x3d, 0x1b, 0x9c, 0xe0, 0x68, 0x50, 0xdd, 0x24, 0x3b, 0xa7, 0xb2,
  0xc7, 0xe2, 0x90, 0x02, 0x78, 0xe4, 0x3e, 0xb2, 0x5f, 0xd6, 0xe7, 0x43,
  0x36, 0xda, 0xa9, 0xd2, 0x21, 0xd3, 0x5d, 0xac, 0x20, 0x72, 0x3f, 0x20,
  0x26, 0x3a, 0x4d, 0xe9, 0xa1, 0xd6, 0xb7, 0xd8, 0x9d, 0x63, 0xac, 0xda,
  0xc5, 0x92, 0xd6, 0xa2, 0xd2, 0x9a, 0xdb, 0xb6, 0xbe, 0xbb, 0xae, 0x99,
  0xae, 0x39, 0x95, 0xf1, 0x09, 0xb0, 0x65, 0xf3, 0x10, 0x52, 0x8c, 0xe5,
  0x49, 0xce, 0x6f, 0xc4, 0xe5, 0xcb, 0x53, 0x75, 0x2e, 0x4f, 0xc9, 0x69,
  0x3e, 0xa1, 0x4d, 0x8b, 0xaa, 0xf0, 0xd0, 0x47, 0x21, 0xae, 0xef, 0xff,
  0xcf, 0x6b, 0xfc, 0xb5, 0x7c, 0xbf, 0xab, 0xde, 0x49, 0x11, 0x2a, 0xbc,
  0x56, 0xd5, 0xb4, 0xf0, 0x1b, 0xc7, 0x9b, 0x97, 0xb7, 0x1a, 0x56, 0xcb,
  0x0d, 0xda, 0x28, 0xb4, 0x3c, 0x11, 0x68, 0xf9, 0x8f, 0xe2, 0xf3, 0x23,
  0xf3, 0x96, 0xab, 0x3f, 0xa5, 0x74, 0x4c, 0x9d, 0x89, 0xbb, 0xc4, 0x11,
  0x2b, 0xfb, 0x07, 0x39, 0x4e, 0x6a, 0xc2, 0x02, 0x65, 0xd4, 0xb5, 0xde,
  0x0f, 0xc9, 0xa4, 0x32, 0xca, 0x21, 0x89, 0xf3, 0xd2, 0x54, 0x79, 0xea,
  0xde, 0xc7, 0x78, 0x29, 0x50, 0x2f, 0x71, 0x00, 0xa7, 0xc2, 0xb5, 0x55,
  0xcd, 0xe4, 0xbc, 0xbb, 0x3d, 0x57, 0xf4, 0x51, 0xfd, 0x3d, 0xb6, 0x38,
  0x5d, 0x49, 0x0d, 0xae, 0x87, 0x40, 0xfa, 0x02, 0x29, 0x66, 0xa4, 0x04,
  0xbf, 0xc1, 0x29, 0x8b, 0xa5, 0xa6, 0x33, 0x0f, 0x60, 0xf0, 0x7b, 0x1a,
  0x75, 0x47, 0x37, 0xdb, 0xe8, 0x5f, 0x4c, 0x75, 0xcd, 0xd7, 0xfe, 0x32,
  0xff, 0x08, 0x46, 0xb3, 0x38, 0x5c, 0x5d, 0x4a, 0x5a, 0xe4, 0x54, 0xae,
  0xdf, 0xff, 0xac, 0x10, 0x97, 0xfa, 0x54, 0x2b, 0xfd, 0x37, 0xf5, 0xe4,
  0xd3, 0xcd, 0xcf, 0xef, 0x11, 0xd3, 0xf9, 0xdd, 0xb6, 0x14, 0xc7, 0x0a,
  0x29, 0xa6, 0xb8, 0xa7, 0xbe, 0xfc, 0x58, 0x46, 0x31, 0x05, 0xde, 0x54,
  0x5a, 0x26, 0x5a, 0x4b, 0xa2, 0x4d, 0x26, 0xda, 0xe9, 0x51, 0xbc, 0xcc,
  0x1d, 0x45, 0xa8, 0x49, 0xe5, 0xd5, 0x32, 0xda, 0x19, 0x5e, 0x07, 0xf8,
  0xf8, 0xe8, 0xa4, 0x2b, 0x19, 0x08, 0xce, 0x3d, 0x5a, 0xde, 0x26, 0x5f,
  0x36, 0x3b, 0x5d, 0xec, 0x41, 0xc3, 0xa4, 0x0c, 0xa8, 0xbd, 0x36, 0x0b,
  0x53, 0x99, 0x13, 0x2d, 0x57, 0xfe, 0xc4, 0xd8, 0x97, 0xb2, 0x2e, 0x53,
  0x20, 0x68, 0xbb, 0xe2, 0x4d, 0xef, 0x05, 0xb2, 0xe8, 0x37, 0xbe, 0x2e,
  0xfe, 0x2c, 0x6e, 0xbc, 0x51, 0xa5, 0x02, 0x3a, 0x1f, 0xae, 0x40, 0x4b,
  0x2f, 0x8e, 0xd1, 0x4d, 0x3c, 0x11, 0x06, 0xfe, 0x43, 0x75, 0xb3, 0x51,
  0x4e, 0xd5, 0x23, 0xf0, 0x47, 0xe1, 0x4c, 0x00, 0xea, 0x11, 0xe1, 0x5e,
  0x58, 0x29, 0x0b, 0xf5, 0xd9, 0x9c, 0xe1, 0x0f, 0xff, 0x54, 0xe4, 0x94,
  0xbc, 0xe0, 0x95, 0xe4, 0x05, 0x39, 0x0c, 0x5a, 0x42, 0x4f, 0x40, 0xf9,
  0xa1, 0x0f, 0xf4, 0x48, 0x02, 0x1e, 0xc3, 0xfb, 0x11, 0xa2, 0x45, 0xe8,
  0xac, 0x2b, 0xa4, 0x33, 0x98, 0x67, 0x66, 0xd5, 0x73, 0x4a, 0x07, 0xfc,
  0xbf, 0x16, 0x32, 0xff, 0x44, 0x16, 0xc8, 0x3b, 0x23, 0x08, 0x5e, 0x5a,
  0x7f, 0x13, 0xf3, 0x4c, 0x69, 0x20, 0xdc, 0x12, 0x28, 0xc9, 0xa1, 0xc8,
  0x3c, 0x43, 0x06, 0xd9, 0x39, 0x1c, 0xe6, 0xea, 0xc4, 0xbc, 0x0f, 0x21,
  0xfb, 0x58, 0x63, 0xe2, 0xfc, 0xa7, 0x51, 0x00, 0xc8, 0x45, 0x34, 0x4a,
  0x8a, 0xa5, 0xcd, 0xa7, 0xfe, 0x37, 0xa0, 0x68, 0xbf, 0xaf, 0x54, 0xe6,
  0x52, 0x65, 0x06, 0x07, 0x2b, 0xf5, 0xfb, 0x01, 0xb6, 0x4b, 0xd8, 0xeb,
  0xa1, 0xcf, 0xec, 0xc9, 0xaf, 0xb0, 0x67, 0x21, 0xad, 0x51, 0xcb, 0xb0,
  0x12, 0x38, 0x52, 0xeb, 0x1a, 0xf6, 0xa9, 0x63, 0x40, 0x15, 0x25, 0x23,
  0x1a, 0x38, 0x1b, 0x6b, 0x12, 0x0c, 0x2b, 0x11, 0xb8, 0xa1, 0xf1, 0x5f,
  0xdd, 0x34, 0x64, 0x27, 0xf7, 0x0e, 0x54, 0xb2, 0x76, 0xae, 0x75, 0x99,
  0x07, 0xce, 0xea, 0xa9, 0x48, 0x9b, 0x0e, 0xd2, 0x0b, 0x0f, 0x1a, 0xf3,
  0x46, 0x39, 0xb8, 0xeb, 0xb2, 0x09, 0xe5, 0xfb, 0x1b, 0xdb, 0x63, 0x5b,
  0x30, 0xfc, 0x14, 0xf8, 0xad, 0x56, 0x9f, 0xf1, 0x01, 0x56, 0x4b, 0x9d,
  0x73, 0xf4, 0x54, 0x44, 0x48, 0x5e, 0x13, 0x42, 0x0b, 0x21, 0xbc, 0x41,
  0x4b, 0x30, 0x05, 0x19, 0x04, 0x58, 0x9a, 0xcc, 0x96, 0x19, 0xc7, 0x63,
  0x03, 0x67, 0x48, 0xa4, 0x5c, 0xb0, 0xdb, 0xe1, 0x91, 0x64, 0x9e, 0xc4,
  0xc1, 0x60, 0xf3, 0x14, 0x69, 0x12, 0xe5, 0x53, 0x29, 0xae, 0x1f, 0x32,
  0x60, 0x1c, 0x02, 0x00, 0xa7, 0x48, 0x99, 0x04, 0xfd, 0xf1, 0x24, 0x11,
  0x02, 0xa9, 0x60, 0x94, 0xae, 0x39, 0x7f, 0x9f, 0x25, 0x92, 0x0c, 0x57,
  0xcf, 0xa3, 0x1e, 0xc6, 0x2b, 0xa4, 0xd3, 0x59, 0xe2, 0xde, 0xdc, 0xec,
  0x2c, 0xb3, 0xda, 0x9e, 0x2a, 0x15, 0x2d, 0x2f, 0x22, 0xd7, 0x1f, 0xed,
  0xd2, 0x16, 0x34, 0xed, 0xfd, 0x92, 0x1d, 0x39, 0xdf, 0xc8, 0x16, 0x2b,
  0xc1, 0x63, 0xbd, 0xcd, 0x10, 0xa3, 0xc9, 0xe1, 0x45, 0x1c, 0xfa, 0xfd,
  0x18, 0x1f, 0xf1, 0x0f, 0x5e, 0x11, 0xc8, 0x0e, 0x3b, 0xac, 0xf4, 0x19,
  0x3c, 0x67, 0xde, 0xdd, 0xc4, 0xfa, 0x53, 0x04, 0x0e, 0xc7, 0x45, 0x2a,
  0x4c, 0x64, 0x3f, 0x17, 0xea, 0x21, 0xcd, 0x56, 0x89, 0x8f, 0xba, 0xf5,
  0xf2, 0x09, 0x00, 0x57, 0xe5, 0xae, 0x5f, 0xf6, 0xc5, 0xc6, 0x91, 0x65,
  0x6d, 0x63, 0xd4, 0x68, 0xf6, 0x63, 0xf5, 0x76, 0x94, 0xe9, 0x5c, 0x0e,
  0x90, 0xb5, 0x09, 0x2b, 0x8a, 0x08, 0xae, 0xe3, 0xfe, 0x30, 0x82, 0x23,
  0xc0, 0x08, 0xfe, 0x41, 0x44, 0x97, 0xfa, 0xf2, 0x94, 0x76, 0x7b, 0x72,
  0xef, 0x4e, 0x05, 0x68, 0x8b, 0x6f, 0x7e, 0x2a, 0xcd, 0x7f, 0xf4, 0x36,
  0x1a, 0x03, 0xcd, 0x4a, 0xa3, 0x9a, 0x6d, 0x7b, 0x04, 0xcd, 0xbf, 0xb5,
  0x77, 0xa3, 0x26, 0x0e, 0x5b, 0x72, 0x20, 0x6d, 0x30, 0x3a, 0x5a, 0x17,
  0x91, 0xbe, 0x26, 0x11, 0x93, 0x21, 0xea, 0xa9, 0xd9, 0x31, 0xc5, 0xbf,
  0xaa, 0x60, 0xca, 0x68, 0x9a, 0x5f, 0x64, 0x5c, 0xfc, 0xdf, 0x41, 0x36,
  0x14, 0x28, 0xc3, 0xfd, 0x40, 0x98, 0xb5, 0x0e, 0x1e, 0x66, 0xd1, 0x76,
  0x16, 0xc1, 0x4b, 0xf4, 0xe9, 0x8b, 0xc2, 0xae, 0x85, 0xb3, 0x3f, 0xbd,
  0x02, 0xb8, 0xe0, 0xc9, 0xe5, 0xca, 0x81, 0xdc, 0x56, 0xeb, 0x40, 0x36,
  0x99, 0xbe, 0x57, 0x93, 0x33, 0x04, 0xae, 0xb8, 0xf8, 0xe6, 0x62, 0x39,
  0x3e, 0x5d, 0x37, 0xe4, 0x17, 0x32, 0x4f, 0xbb, 0x64, 0xef, 0xcd, 0xf2,
  0xfd, 0x69, 0xab, 0x36, 0xfd, 0xf0, 0xd1, 0x48, 0xc6, 0x44, 0xb7, 0x37,
  0x7a, 0x5c, 0x6a, 0xa9, 0x16, 0xe1, 0xec, 0xfa, 0x38, 0x53, 0x37, 0xce,
  0xda, 0x92, 0xe0, 0xd3, 0x4a, 0x6b, 0x57, 0xc8, 0x1f, 0xe5, 0xfa, 0xe2,
  0xd1, 0x2e, 0x29, 0x0b, 0xc5, 0x24, 0x3c, 0x44, 0xd0, 0xc9, 0xe0, 0x4c,
  0xc7, 0xe8, 0x98, 0x6a, 0x7c, 0x35, 0x11, 0x95, 0x93, 0x5f, 0xfb, 0x42,
  0xe9, 0x2c, 0x5f, 0x20, 0xb7, 0xf2, 0x2c, 0xe2, 0x1e, 0xfc, 0xa7, 0x1b,
  0xb9, 0xcc, 0x62, 0xf9, 0x11, 0x8c, 0x5d, 0xe7, 0x9c, 0xfe, 0xb2, 0x94,
  0xdf, 0xf7, 0x9f, 0xe9, 0xf8, 0x07, 0xe6, 0x51, 0x3b, 0xbe, 0xb7, 0xe9,
  0x3c, 0x1a, 0x1a, 0x20, 0xfb, 0xda, 0xdd, 0xfe, 0xe1, 0xee, 0xe1, 0x4a,
  0xd3, 0xb6, 0xe6, 0x91, 0x0b, 0xcc, 0xa7, 0x6c, 0x78, 0xb6, 0x14, 0xc5,
  0x00, 0x04, 0xbe, 0xc1, 0xe4, 0x4d, 0xa9, 0x40, 0xb6, 0xe4, 0xf7, 0x63,
  0x2f, 0x49, 0xb8, 0x4c, 0x0c, 0x11, 0xda, 0x23, 0xc7, 0xe7, 0x46, 0x08,
  0xe7, 0xc8, 0x56, 0x35, 0xce, 0xf6, 0xb0, 0xc0, 0xe5, 0x91, 0xcf, 0x6a,
  0x17, 0x2b, 0xdd, 0xaa, 0xf3, 0x25, 0xe0, 0x53, 0xa7, 0x5e, 0xee, 0x99,
  0xa7, 0x66, 0x25, 0xda, 0x7f, 0x5c, 0x04, 0x14, 0x49, 0xa5, 0x5e, 0xb3,
  0x2e, 0xe9, 0x63, 0x64, 0x3d, 0x1c, 0x0a, 0x6a, 0x6f, 0x22, 0x52, 0xa1,
  0x67, 0x20, 0x0c, 0x03, 0x00, 0xce, 0x5c, 0x1a, 0x18, 0x49, 0x02, 0x23,
  0xcc, 0xd8, 0x00, 0x36, 0x2d, 0xd7, 0x63, 0x43, 0xf9, 0x70, 0xd4, 0x22,
  0x69, 0x73, 0x9d, 0xce, 0x67, 0x13, 0x79, 0xf0, 0xb1, 0x6a, 0xba, 0xf0,
  0xf1, 0xf3, 0xfb, 0x5f, 0x53, 0xe0, 0x4c, 0xe9, 0x45, 0x25, 0x05, 0x48,
  0xf0, 0xa3, 0x08, 0x98, 0xb0, 0xac, 0xc8, 0xef, 0x47, 0x20, 0x37, 0xcb,
  0x11, 0x63, 0x54, 0xd2, 0x6a, 0x05, 0x08, 0x00, 0x0e, 0xaa, 0x3d, 0x0c,
  0x16, 0xd6, 0xad, 0x0b, 0x5e, 0x63, 0x5c, 0x97, 0xd2, 0x4f, 0xe8, 0xde,
  0x4b, 0xf6, 0xaf, 0x39, 0x54, 0x97, 0x44, 0x90, 0x1c, 0x9e, 0x22, 0x3d,
  0x3c, 0xe4, 0xc3, 0x98, 0xd8, 0xfc, 0xef, 0xca, 0xb2, 0xd8, 0xbd, 0xc7,
  0xbf, 0xe5, 0x58, 0x4e, 0x30, 0xef, 0x3e, 0xba, 0x98, 0xd3, 0x2e, 0xfd,
  0xfe, 0xcc, 0x4d, 0x3c, 0xc8, 0x4f, 0x17, 0xa7, 0x68, 0x9a, 0x63, 0x1c,
  0x42, 0x48, 0xa6, 0x57, 0xfe, 0xbb, 0x30, 0x06, 0xa8, 0x28, 0x44, 0x1b,
  0x3e, 0x94, 0x51, 0x15, 0x01, 0x58, 0xf4, 0x39, 0xfb, 0xa4, 0x0c, 0xc7,
  0x59, 0xf5, 0xc0, 0xc9, 0xc5, 0xc0, 0x4a, 0xe7, 0x48, 0x2d, 0xdd, 0xcd,
  0xf1, 0x3b, 0x5e, 0xf4, 0x00, 0x18, 0x30, 0x25, 0x30, 0xaf, 0x4c, 0xb4,
  0xeb, 0xb8, 0x52, 0xd9, 0x2b, 0xd1, 0xd1, 0x4f, 0x38, 0x14, 0xe4, 0x31,
  0xee, 0x09, 0x39, 0x2f, 0x96, 0x24, 0x60, 0xa9, 0x4e, 0xa7, 0xe3, 0x33,
  0x9b, 0xdf, 0xf9, 0xfc, 0xfe, 0xd6, 0xcd, 0xae, 0xfc, 0xd6, 0xaa, 0x59,
  0xf3, 0xcb, 0xff, 0xca, 0x60, 0xf5, 0xf1, 0x36, 0xee, 0xc1, 0xd0, 0xcd,
  0xf2, 0x1f, 0x5b, 0x30, 0x48, 0xa4, 0x16, 0xfa, 0x43, 0xe8, 0x13, 0xf5,
  0x62, 0xab, 0x25, 0x48, 0x3d, 0x2c, 0x07, 0x96, 0x4d, 0x44, 0xeb, 0xf0,
  0x42, 0x37, 0x9f, 0x13, 0x1f, 0x36, 0xdf, 0xdf, 0xd5, 0x56, 0x61, 0x1b,
  0xda, 0xb2, 0x1d, 0xea, 0xa6, 0x50, 0x40, 0xb9, 0x0d, 0x18, 0x50, 0xad,
  0x5b, 0x1a, 0x4c, 0x56, 0xfa, 0xa5, 0x0f, 0xdc, 0x0f, 0x2a, 0x3a, 0x21,
  0x11, 0x2d, 0x4b, 0xd9, 0xaf, 0xd6, 0x01, 0xc7, 0x35, 0xe5, 0xbe, 0xca,
  0xd2, 0xab, 0x9f, 0xd9, 0x05, 0x4e, 0x02, 0x36, 0x2e, 0x9d, 0xff, 0x29,
  0xff, 0xf1, 0x52, 0x43, 0x4a, 0xb2, 0x02, 0xa8, 0xb4, 0x63, 0x1c, 0xff,
  0x50, 0x47, 0xe5, 0xca, 0x07, 0xf1, 0xd7, 0x22, 0xdc, 0x13, 0x59, 0x52,
  0xe9, 0xeb, 0x1c, 0xa5, 0x07, 0x1b, 0x1f, 0xe1, 0x9c, 0x6d, 0x29, 0xc9,
  0x43, 0xfd, 0xea, 0xfc, 0xdd, 0xd9, 0x2b, 0x0a, 0xdb, 0x1c, 0x16, 0x1e,
  0x1d, 0x54, 0xf9, 0x4c, 0xa3, 0x5e, 0xe4, 0xb0, 0x4c, 0x32, 0x6d, 0xd8,
  0xb7, 0x0b, 0xf2, 0x62, 0x64, 0xf5, 0xd6, 0x27, 0xc9, 0x7f, 0x2b, 0x58,
  0x3a, 0xd6, 0xed, 0x23, 0xad, 0xcc, 0x1c, 0x21, 0x1a, 0x63, 0x3d, 0xa6,
  0x3d, 0x47, 0xc8, 0x3f, 0x66, 0xc7, 0xde, 0xb0, 0x62, 0xef, 0xc2, 0xc6,
  0x96, 0x30, 0x14, 0x9d, 0x56, 0xd9, 0x4e, 0xb6, 0xee, 0x96, 0x45, 0x63,
  0xd7, 0xc6, 0x3f, 0x28, 0x5c, 0x14, 0x34, 0xa6, 0x39, 0x4f, 0xc2, 0xff,
  0x00, 0x1c, 0x58, 0x9b, 0x28, 0x54, 0x2e, 0xbd, 0x3c, 0x36, 0x20, 0x67,
  0xd6, 0x20, 0x48, 0x58, 0xa9, 0xe8, 0x36, 0x6c, 0xb3, 0x19, 0xc1, 0x41,
  0x35, 0xc1, 0xef, 0xde, 0xcb, 0xd2, 0x97, 0xe3, 0x1c, 0x02, 0xd3, 0x1b,
  0x08, 0x41, 0xea, 0xb2, 0xd7, 0xdc, 0x2a, 0x21, 0x53, 0xe9, 0x08, 0x4c,
  0x95, 0xcb, 0x1c, 0x4d, 0xc6, 0xfa, 0xd2, 0x37, 0xac, 0x3e, 0x9b, 0x3a,
  0xf7, 0xb6, 0xee, 0xd5, 0xfa, 0x9c, 0xf7, 0xcd, 0x1a, 0xac, 0x46, 0xb2,
  0x46, 0x3e, 0x1e, 0x5e, 0x26, 0x5f, 0xd3, 0x45, 0x52, 0xb0, 0x4f, 0xcb,
  0x58, 0xa3, 0xcd, 0x49, 0xeb, 0x43, 0xb8, 0x4c, 0x26, 0x71, 0x04, 0x16,
  0xf3, 0x32, 0x24, 0x3f, 0xc4, 0x26, 0x47, 0x34, 0x20, 0xbc, 0xd5, 0x40,
  0xce, 0xfb, 0xed, 0x00, 0x52, 0x67, 0x5c, 0x27, 0x6b, 0xe0, 0x0c, 0xda,
  0xa3, 0x81, 0xbf, 0xe4, 0x2f, 0xa4, 0xb2, 0x40, 0xe3, 0xcf, 0xb4, 0x46,
  0xcd, 0x09, 0xda, 0xa0, 0xb6, 0xa4, 0xaa, 0x1f, 0x34, 0x9e, 0xf8, 0xa9,
  0xe2, 0x49, 0x1a, 0xd1, 0xdf, 0x71, 0xe1, 0xb9, 0x19, 0xb4, 0x30, 0xe3,
  0x17, 0x43, 0x27, 0xf5, 0x9f, 0x35, 0x27, 0xd4, 0x13, 0x6c, 0x69, 0xc6,
  0xfd, 0xd2, 0xcc, 0x34, 0x0e, 0x50, 0x3b, 0x40, 0x57, 0x3c, 0xe4, 0xc4,
  0x67, 0xc5, 0x45, 0xd6, 0x0c, 0xbb, 0xb9, 0xd8, 0x05, 0xee, 0x1c, 0xe9,
  0x0e, 0x50, 0x97, 0xd1, 0x9b, 0x13, 0xea, 0x23, 0xbc, 0xa2, 0xf2, 0xb1,
  0x02, 0xc9, 0x40, 0x20, 0x9f, 0x06, 0xdb, 0x8b, 0x18, 0x52, 0xff, 0xc6,
  0x8a, 0xb4, 0x36, 0xc5, 0xdf, 0x1c, 0x95, 0x30, 0x21, 0xc8, 0xdb, 0xe9,
  0x57, 0x17, 0x68, 0x07, 0x14, 0x42, 0x9b, 0x1b, 0xee, 0x47, 0x26, 0xba,
  0xba, 0x5d, 0x22, 0xea, 0x3e, 0x37, 0xca, 0xf6, 0x4c, 0x02, 0x4b, 0x8e,
  0x12, 0xc4, 0xe5, 0xc0, 0x35, 0xa9, 0x32, 0x3d, 0x07, 0x61, 0xc7, 0x54,
  0xd0, 0x76, 0x1c, 0xb3, 0x2b, 0x32, 0x76, 0xc3, 0xfe, 0xe5, 0xe6, 0x43,
  0x15, 0x46, 0x4b, 0xaf, 0x7a, 0x78, 0x2e, 0x94, 0xd3, 0xce, 0x33, 0xf7,
  0xa6, 0x3f, 0x9b, 0xb6, 0x29, 0x3e, 0x8a, 0xe3, 0x96, 0xde, 0x71, 0xf5,
  0xec, 0x9a, 0x9c, 0x6f, 0x2d, 0xef, 0x03, 0x76, 0xb9, 0x28, 0x88, 0x04,
  0x38, 0xea, 0xe3, 0x14, 0xa4, 0x8c, 0xcf, 0xa5, 0x09, 0x0d, 0x31, 0x87,
  0xc6, 0xf0, 0xbb, 0x0b, 0xe8, 0x3a, 0xc2, 0x97, 0x8f, 0x61, 0xb3, 0xf7,
  0x2d, 0x86, 0x28, 0xac, 0xaf, 0x8e, 0x88, 0xc7, 0x30, 0xf3, 0x26, 0x04,
  0xde, 0xca, 0x8b, 0x85, 0xb8, 0xc9, 0x8c, 0xda, 0x34, 0x49, 0x07, 0x39,
  0x30, 0x3c, 0x56, 0x10, 0x3d, 0xb1, 0x5f, 0xe0, 0xa3, 0x4b, 0x30, 0x45,
  0xb0, 0x26, 0xf4, 0x4f, 0x9d, 0x68, 0x3d, 0xf9, 0xb1, 0xed, 0x91, 0xc5,
  0xf9, 0xe5, 0x96, 0x30, 0xc6, 0xa4, 0x87, 0xe2, 0xc7, 0x81, 0x4d, 0xfd,
  0xed, 0xda, 0xa6, 0xc7, 0x39, 0x47, 0xb9, 0xb2, 0x99, 0xc7, 0x3a, 0x88,
  0xe4, 0xf0, 0x45, 0x57, 0xb2, 0x31, 0x02, 0xbe, 0x75, 0x4f, 0xc3, 0xc6,
  0x9c, 0xea, 0x62, 0x1e, 0x88, 0xcd, 0x2c, 0x1f, 0x15, 0x72, 0xdd, 0xe4,
  0xf8, 0xac, 0xb8, 0x68, 0x50, 0xee, 0x12, 0xc5, 0xce, 0xfc, 0x15, 0x13,
  0x04, 0x0c, 0x6d, 0x9a, 0xa0, 0xf3, 0x63, 0x78, 0xd8, 0xba, 0xea, 0x56,
  0xa4, 0x9c, 0xb5, 0xcf, 0x61, 0x5d, 0x99, 0x12, 0xc5, 0xc3, 0x61, 0xff,
  0x9b, 0x4e, 0x47, 0x21, 0x9e, 0x46, 0x98, 0x26, 0x13, 0xed, 0x25, 0x4d,
  0xde, 0xe7, 0xb1, 0x63, 0x04, 0x2e, 0x9b, 0x9e, 0x61, 0x36, 0x62, 0x4d,
  0xcd, 0x57, 0x1e, 0x47, 0x8a, 0x0c, 0x4e, 0x2f, 0x20, 0x86, 0x5a, 0x85,
  0xb2, 0x31, 0x36, 0xf3, 0xdb, 0x90, 0xb8, 0x92, 0xd9, 0xdb, 0x37, 0x17,
  0xc7, 0x90, 0x62, 0x65, 0xd5, 0x8f, 0xab, 0xba, 0xb8, 0x5b, 0x2b, 0xcc,
  0x7e, 0xad, 0x45, 0x85, 0xd2, 0x3b, 0x18, 0x5d, 0x2b, 0x8b, 0xea, 0x17,
  0x22, 0xae, 0xc2, 0xf6, 0x46, 0x4a, 0x98, 0xe7, 0xf7, 0xa2, 0x13, 0x99,
  0x3e, 0x2e, 0x2d, 0xd1, 0x3c, 0x01, 0x4a, 0xd5, 0x30, 0x0c, 0xf9, 0x70,
  0xa1, 0xe6, 0x9e, 0x4f, 0xba, 0xb1, 0xb4, 0x1f, 0xaa, 0xae, 0x58, 0xd2,
  0xdc, 0xe0, 0xb5, 0x49, 0x63, 0xe2, 0x1c, 0xbc, 0xe0, 0x7d, 0xe4, 0xa3,
  0xf0, 0x2c, 0x2f, 0xfc, 0x50, 0x60, 0xd6, 0xf7, 0xbe, 0x02, 0xb7, 0xd8,
  0x02, 0x1a, 0xcf, 0x7b, 0x8c, 0xc2, 0x89, 0xdd, 0xb3, 0xc3, 0xb0, 0x59,
  0x10, 0x71, 0xc9, 0x7e, 0x6b, 0xad, 0xde, 0x88, 0xf0, 0x10, 0x9f, 0x71,
  0xd9, 0x3d, 0xf4, 0x8f, 0x1e, 0x1d, 0xd5, 0x40, 0x63, 0x3b, 0x6f, 0x8d,
  0x05, 0x34, 0x02, 0x41, 0xff, 0xbd, 0xf3, 0xf5, 0x38, 0x6e, 0xba, 0x44,
  0x24, 0x5d, 0xaf, 0x28, 0x74, 0x22, 0x8e, 0xd7, 0x92, 0x0d, 0x83, 0x54,
  0x3c, 0x0b, 0xc0, 0xd1, 0x84, 0x6a, 0x47, 0xba, 0x63, 0xad, 0xc1, 0x3e,
  0x43, 0x9b, 0x44, 0x2b, 0x97, 0x98, 0xfd, 0x36, 0x8f, 0xb6, 0x12, 0x81,
  0x5e, 0xba, 0x90, 0xae, 0xf7, 0x52, 0x7c, 0xdf, 0xba, 0xb0, 0xe8, 0xd2,
  0xd1, 0x73, 0x7b, 0x57, 0xd3, 0xf4, 0x32, 0x44, 0x97, 0xb1, 0x86, 0x99,
  0xa9, 0x05, 0xdc, 0x5b, 0x3e, 0xa9, 0x1f, 0x2e, 0xa6, 0x11, 0x26, 0x21,
  0xc4, 0xc5, 0x15, 0xfd, 0xb9, 0x4e, 0xe9, 0xff, 0xd2, 0xe0, 0xc5, 0xb7,
  0x29, 0xa9, 0x42, 0x0b, 0x34, 0xd5, 0x8b, 0x02, 0x81, 0x5c, 0xe5, 0x6d,
  0xe7, 0xbc, 0xdd, 0x99, 0x8d, 0x21, 0x61, 0x43, 0xef, 0xf5, 0x5f, 0xd3,
  0x28, 0x56, 0x58, 0x1b, 0xe4, 0x09, 0xde, 0xf7, 0x85, 0x64, 0xa2, 0x48,
  0x97, 0x04, 0x63, 0xfa, 0xb2, 0x82, 0x86, 0xe0, 0xac, 0xd6, 0x37, 0x0e,
  0x52, 0xfd, 0xd8, 0xe6, 0xc1, 0xd0, 0xf4, 0x5d, 0xc3, 0x3d, 0x5c, 0xe6,
  0x68, 0xcf, 0x7a, 0x6b, 0x4c, 0x3d, 0xe5, 0x24, 0x2b, 0xd9, 0x94, 0xd9,
  0x04, 0xea, 0x6c, 0x64, 0x51, 0xc7, 0x49, 0xef, 0x09, 0x12, 0xa7, 0x66,
  0x5e, 0x5c, 0xfa, 0x64, 0xc9, 0xc9, 0xd7, 0x54, 0x37, 0x45, 0x43, 0xad,
  0x07, 0xe2, 0xc4, 0x5e, 0xd1, 0xab, 0x0d, 0x14, 0x66, 0x5b, 0x5c, 0x4d,
  0xa5, 0xdc, 0xe6, 0xa1, 0xcd, 0x8d, 0x24, 0x50, 0xab, 0x3f, 0x3f, 0x89,
  0xb8, 0xeb, 0xe3, 0x08, 0x96, 0x73, 0xe2, 0x3f, 0x61, 0x01, 0xb4, 0x48,
  0x1b, 0xdd, 0xfa, 0x23, 0x8d, 0x0b, 0xbd, 0x9b, 0x34, 0x92, 0xc6, 0xbf,
  0x8c, 0x0e, 0x66, 0xe4, 0x7b, 0x45, 0x07, 0x09, 0xd0, 0xc2, 0xc0, 0xe8,
  0x91, 0xa2, 0xa9, 0xa1, 0x2f, 0x0c, 0x1b, 0x2e, 0x70, 0x67, 0xea, 0xa0,
  0xb9, 0x0e, 0x36, 0xa1, 0x11, 0x1e, 0x67, 0xfb, 0x4f, 0x9c, 0xcb, 0x97,
  0x1d, 0x57, 0xe1, 0xea, 0x59, 0x5b, 0x4e, 0x43, 0xb4, 0xd2, 0xf3, 0x66,
  0x01, 0xf0, 0x9c, 0x41, 0x33, 0xb6, 0x07, 0x4d, 0x84, 0xca, 0x9b, 0x4b,
  0xf1, 0xb8, 0x42, 0xda, 0x2e, 0x23, 0xca, 0x09, 0x76, 0x54, 0xca, 0x09,
  0x05, 0x2a, 0x20, 0x4e, 0xd0, 0xdc, 0xf5, 0x60, 0xc6, 0x2a, 0x5a, 0x06,
  0x55, 0x6a, 0x2d, 0xe6, 0x2e, 0x2d, 0xed, 0xf0, 0x61, 0x29, 0xc8, 0x0b,
  0x3d, 0x25, 0xd3, 0xc4, 0xa5, 0xac, 0x06, 0xdf, 0x35, 0xdc, 0x64, 0xea,
  0x66, 0x4e, 0xac, 0x14, 0x42, 0xde, 0x78, 0x47, 0xd0, 0x3f, 0x24, 0xe6,
  0x30, 0x31, 0xd9, 0x0b, 0x13, 0x15, 0x4a, 0x08, 0x63, 0x43, 0xd7, 0x9a,
  0xc5, 0xa6, 0x5c, 0x0c, 0x0c, 0xa5, 0x46, 0x36, 0xbf, 0xb8, 0xf5, 0xca,
  0xd6, 0xe9, 0x00, 0x3b, 0x59, 0x02, 0xe8, 0x59, 0x5f, 0x21, 0x47, 0x4a,
  0xc9, 0x09, 0xc6, 0xb5, 0x09, 0x1c, 0x47, 0xb0, 0xe2, 0xbf, 0x3c, 0x3c,
  0xe5, 0x04, 0xf6, 0xee, 0x33, 0xfd, 0xbd, 0xf0, 0x2d, 0x39, 0x57, 0x4e,
  0xb5, 0x08, 0xa9, 0x3c, 0xf6, 0x5e, 0x0c, 0xbb, 0x9d, 0xd2, 0x53, 0x5e,
  0x04, 0x38, 0x55, 0x95, 0x0d, 0xe1, 0xf9, 0xe5, 0xd6, 0xd1, 0x14, 0xf8,
  0xce, 0xea, 0xfd, 0xae, 0x59, 0x20, 0x95, 0x14, 0xf2, 0x42, 0x3d, 0x01,
  0x53, 0x04, 0xfe, 0x58, 0xa4, 0x5f, 0x12, 0xcb, 0x28, 0x20, 0xf4, 0x64,
  0xf8, 0xc2, 0x64, 0xc7, 0x08, 0x18, 0x51, 0xb4, 0x39, 0x2e, 0x2d, 0x43,
  0xae, 0x7f, 0x66, 0xbe, 0x7d, 0x03, 0xe1, 0x17, 0xc3, 0x5f, 0xf0, 0xa2,
  0x4a, 0x55, 0xf7, 0xc6, 0xb9, 0xb1, 0x5d, 0x26, 0xbb, 0x6f, 0xb5, 0x38,
  0x52, 0xf9, 0xfc, 0x4c, 0x40, 0x25, 0xdc, 0xcb, 0xb0, 0x00, 0xa5, 0xb3,
  0xc0, 0x24, 0x48, 0xe3, 0xcf, 0xcc, 0xed, 0xc7, 0x0d, 0xc8, 0xe7, 0xf4,
  0x3f, 0xa9, 0x5e, 0xd5, 0xc2, 0xac, 0xfd, 0xcc, 0x15, 0x60, 0xfd, 0xd9,
  0xd2, 0xb5, 0x10, 0xda, 0x50, 0xe3, 0xd2, 0xd2, 0xbc, 0x9c, 0xe6, 0xd5,
  0x2a, 0x03, 0xa1, 0xa7, 0x42, 0xcf, 0x5c, 0x61, 0x4a, 0xea, 0xd6, 0xb2,
  0x3d, 0xb3, 0x1a, 0x14, 0xe1, 0xe5, 0xbf, 0xcd, 0xcb, 0xf0, 0xc0, 0xa5,
  0xbf, 0xed, 0xec, 0x8c, 0xbf, 0x28, 0x9d, 0x36, 0x56, 0x3e, 0x18, 0x9c,
  0xf1, 0x2f, 0x93, 0xea, 0x12, 0x45, 0x41, 0xc9, 0xdf, 0xa5, 0xf3, 0x11,
  0x3c, 0x48, 0x13, 0xea, 0xd4, 0x1d, 0xe8, 0x09, 0x25, 0xc8, 0x9d, 0x42,
  0xf0, 0x89, 0xa5, 0x1b, 0xdf, 0x85, 0x73, 0x54, 0xc2, 0x32, 0xaf, 0x9b,
  0x25, 0xeb, 0x49, 0xd6, 0xb0, 0xd0, 0x7c, 0xa9, 0xe4, 0x18, 0x70, 0xde,
  0x15, 0x2f, 0x45, 0xd6, 0xa8, 0xb9, 0x38, 0x88, 0x4b, 0xd9, 0x74, 0xf6,
  0x2b, 0x64, 0xdf, 0x46, 0xe3, 0x5b, 0x30, 0xa8, 0x39, 0xa4, 0x15, 0xf6,
  0x44, 0xec, 0xac, 0xcb, 0x18, 0xd4, 0xfa, 0xe4, 0x9c, 0xe6, 0x1e, 0x1d,
  0x11, 0x2a, 0x78, 0x17, 0x05, 0xeb, 0xca, 0x9c, 0xcb, 0x47, 0x08, 0x50,
  0xa1, 0xc2, 0x0c, 0xe2, 0x98, 0xba, 0x55, 0xa9, 0x28, 0xa1, 0xbc, 0x8b,
  0xc7, 0xfa, 0xa7, 0x87, 0xb5, 0x8f, 0xe8, 0xde, 0x06, 0xb0, 0x99, 0xdd,
  0x92, 0xdb, 0x22, 0x98, 0x91, 0xcb, 0xc3, 0x0d, 0x42, 0xa8, 0x37, 0x49,
  0x08, 0x03, 0x66, 0x1c, 0x45, 0x24, 0x76, 0x1e, 0x8a, 0x25, 0x0c, 0xa7,
  0x94, 0xbd, 0x27, 0x07, 0x55, 0xd1, 0x49, 0x62, 0xc8, 0x9f, 0xc8, 0xd8,
  0x3a, 0x33, 0x29, 0xf4, 0xf6, 0xaa, 0xbe, 0xf2, 0x3a, 0xf8, 0x72, 0x3a,
  0xef, 0x81, 0xa1, 0xc6, 0xfc, 0x00, 0xcf, 0xf6, 0x47, 0x6b, 0xb0, 0x3b,
  0x28, 0xb9, 0x02, 0x6b, 0x40, 0xf9, 0xcb, 0xc0, 0xe0, 0x33, 0x9a, 0xe9,
  0xaa, 0x4f, 0x09, 0x46, 0x23, 0x31, 0xd3, 0x30, 0x0f, 0x08, 0x29, 0x5f,
  0x01, 0x0a, 0xb2, 0xe2, 0xa4, 0x1c, 0x02, 0x10, 0xa0, 0xd2, 0x3e, 0x99,
  0xdc, 0x30, 0xe9, 0xe7, 0x1f, 0x59, 0x6a, 0x8f, 0xb3, 0x47, 0xae, 0x6b,
  0x3c, 0x8d, 0x4d, 0x96, 0xbb, 0x39, 0x2b, 0x33, 0x46, 0x01, 0xf7, 0xc6,
  0x70, 0xc4, 0x91, 0x72, 0x70, 0x8d, 0x87, 0xf5, 0x2f, 0xf5, 0x2d, 0x6a,
  0xe0, 0x3b, 0xa3, 0x65, 0x16, 0xce, 0x34, 0x00, 0x38, 0xb0, 0x2e, 0xde,
  0x1e, 0xab, 0xe2, 0x33, 0xbc, 0x9b, 0xe2, 0x4f, 0xe8, 0xc2, 0x83, 0x1c,
  0xb1, 0x35, 0x29, 0x50, 0xb4, 0xbc, 0x29, 0xa3, 0xfc, 0xf1, 0x4a, 0xf9,
  0xf0, 0xec, 0x0b, 0xd8, 0x60, 0xf6, 0x2d, 0x31, 0x7f, 0xa4, 0x10, 0xd3,
  0xa5, 0x8d, 0x90, 0x04, 0x07, 0x91, 0xab, 0x0a, 0x18, 0x76, 0xa8, 0xb6,
  0x72, 0xfc, 0x50, 0xe7, 0x22, 0x6c, 0x0e, 0xef, 0x06, 0xd6, 0xe2, 0xac,
  0x63, 0x8d, 0x90, 0xae, 0x91, 0x83, 0x89, 0x92, 0x48, 0x7d, 0x19, 0x0c,
  0x0a, 0x69, 0xce, 0x17, 0x94, 0xd5, 0xd4, 0x31, 0x91, 0x87, 0x4b, 0x07,
  0x4b, 0x1f, 0x31, 0x4b, 0xc5, 0x51, 0x96, 0x81, 0xad, 0x3e, 0x1c, 0xc5,
  0x85, 0x57, 0xc4, 0x91, 0x44, 0xbe, 0x26, 0x2f, 0x1b, 0xfe, 0x44, 0xc5,
  0xb1, 0x69, 0xd3, 0xc0, 0xad, 0x06, 0x09, 0x97, 0xbb, 0xc5, 0xdb, 0x23,
  0x7a, 0xd7, 0x48, 0x2f, 0x95, 0x59, 0x87, 0xf4, 0x07, 0x58, 0xf7, 0x61,
  0x89, 0x15, 0x94, 0xb0, 0xff, 0x87, 0x31, 0x00, 0x78, 0xef, 0x5e, 0xd8,
  0x86, 0x5b, 0xb2, 0x11, 0x76, 0x6b, 0x4f, 0x6e, 0x67, 0x03, 0x86, 0x38,
  0xae, 0xe7, 0xeb, 0x71, 0x60, 0x37, 0x9d, 0x50, 0x40, 0xd6, 0xfb, 0x85,
  0x1b, 0x22, 0xb2, 0x57, 0x9a, 0xcd, 0x75, 0x4c, 0xa9, 0xb0, 0x60, 0x98,
  0x84, 0x12, 0x18, 0xcf, 0xbd, 0x7d, 0x44, 0x5e, 0xe5, 0xbc, 0x03, 0xbe,
  0x01, 0xf6, 0xe7, 0xbb, 0x28, 0xf9, 0x95, 0xa3, 0x61, 0x43, 0x2e, 0xdf,
  0xb6, 0x1a, 0x7c, 0x02, 0xe3, 0x13, 0xed, 0x35, 0xf4, 0x78, 0xd9, 0x6b,
  0xa0, 0x9c, 0x4a, 0x94, 0xa6, 0x83, 0xbc, 0x9e, 0xe4, 0x19, 0xf3, 0xeb,
  0x9b, 0x73, 0xc3, 0x58, 0x9e, 0x95, 0x4c, 0x5c, 0xc5, 0x94, 0x37, 0xb2,
  0x7c, 0xd5, 0x1d, 0xd9, 0x20, 0xcd, 0x39, 0x15, 0xa5, 0x38, 0x29, 0x75,
  0xee, 0x37, 0xd1, 0x19, 0x72, 0xfe, 0x31, 0x29, 0x39, 0x26, 0x0e, 0x16,
  0xb7, 0x9f, 0xdc, 0xf6, 0x46, 0x06, 0x8e, 0x15, 0x84, 0x4a, 0x83, 0xea,
  0xea, 0x0d, 0xa8, 0x72, 0xf5, 0xb8, 0x71, 0x83, 0x02, 0xb5, 0xef, 0x55,
  0xe9, 0xb7, 0xf5, 0xb5, 0x3c, 0x7f, 0x2a, 0x17, 0x83, 0x86, 0xeb, 0x0e,
  0xa4, 0x43, 0x32, 0xcf, 0x64, 0x16, 0x4e, 0xf2, 0xc9, 0x2c, 0x64, 0x60,
  0xe8, 0x3a, 0x5b, 0x8d, 0x4e, 0x78, 0x1a, 0xe6, 0x6c, 0x9b, 0xc4, 0x9c,
  0xc9, 0x91, 0x8b, 0x48, 0x72, 0xbe, 0x64, 0x37, 0xf9, 0xd8, 0x2b, 0x21,
  0x59, 0x8d, 0x15, 0x6f, 0x04, 0x7e, 0x36, 0x4b, 0x6c, 0x8a, 0xf2, 0x58,
  0xe5, 0xbc, 0xdf, 0x74, 0x66, 0x9a, 0xa9, 0xef, 0x49, 0x4d, 0x17, 0x2a,
  0x5c, 0xbe, 0xc2, 0x2e, 0x65, 0xce, 0x40, 0x91, 0xe3, 0x5e, 0xe1, 0xcc,
  0x1f, 0x06, 0x9b, 0x62, 0xf8, 0xe1, 0xe4, 0xa7, 0xfa, 0xb6, 0x11, 0x15,
  0xdb, 0x99, 0x91, 0x53, 0x93, 0xee, 0xc7, 0x65, 0xed, 0x0d, 0xe1, 0xb7,
  0x54, 0x2d, 0xed, 0xe9, 0x67, 0x0e, 0xbc, 0xc7, 0xdb, 0xdf, 0x52, 0x74,
  0xe2, 0x55, 0x4e, 0xbc, 0x02, 0xf3, 0x16, 0x2f, 0xac, 0x2a, 0xae, 0x4c,
  0x45, 0xf3, 0x30, 0xf3, 0x8c, 0x0e, 0xbd, 0x26, 0xd4, 0xb4, 0x82, 0x5d,
  0xc6, 0x83, 0x5c, 0x9c, 0xa6, 0xe9, 0xfe, 0xad, 0xf2, 0xb4, 0xbc, 0x00,
  0xd4, 0xce, 0xfb, 0x47, 0x1f, 0xb5, 0x4c, 0x43, 0x56, 0x75, 0x7f, 0xc4,
  0xaa, 0xb0, 0xa1, 0xfc, 0x93, 0x56, 0xc6, 0x27, 0x1b, 0x69, 0xe4, 0x0b,
  0xb7, 0xc7, 0x0c, 0x5c, 0x84, 0x85, 0x9b, 0x2e, 0xb2, 0x51, 0x82, 0x54,
  0x4e, 0xa7, 0x5d, 0xbf, 0x26, 0xf4, 0x17, 0x7a, 0x08, 0x91, 0xcf, 0xbe,
  0x8d, 0x2b, 0x6c, 0xa0, 0x8f, 0x0d, 0x6f, 0x1f, 0xdf, 0xe4, 0x28, 0xff,
  0x3a, 0xd5, 0x0e, 0xbf, 0x31, 0xe9, 0x9f, 0x8e, 0x4d, 0x47, 0x11, 0x19,
  0x7b, 0x51, 0xda, 0xaa, 0x81, 0x4f, 0x47, 0xe9, 0x59, 0x02, 0xb2, 0x56,
  0x05, 0xc8, 0x13, 0xed, 0x0f, 0xfa, 0x02, 0xf5, 0xbf, 0x43, 0xed, 0x01,
