const unsigned char modelo[] = {
  0x20, 0x00, 0x00, 0x00, 0x54, 0x46, 0x4c, 0x33, 0x00, 0x00, 0x00, 0x00,
  0x14, 0x00, 0x20, 0x00, 0x1c, 0x00, 0x18, 0x00, 0x14, 0x00, 0x10, 0x00,
  0x0c, 0x00, 0x00, 0x00, 0x08, 0x00, 0x04, 0x00, 0x14, 0x00, 0x00, 0x00,
  0x1c, 0x00, 0x00, 0x00, 0x88, 0x00, 0x00, 0x00, 0x08, 0x01, 0x00, 0x00,
  0x40, 0x44, 0x00, 0x00, 0x50, 0x44, 0x00, 0x00, 0xe8, 0x50, 0x00, 0x00,
  0x03, 0x00, 0x00, 0x00, 0x01, 0x00, 0x00, 0x00, 0x04, 0x00, 0x00, 0x00,
  0x6e, 0xbb, 0xff, 0xff, 0x0c, 0x00, 0x00, 0x00, 0x1c, 0x00, 0x00, 0x00,
  0x3c, 0x00, 0x00, 0x00, 0x0f, 0x00, 0x00, 0x00, 0x73, 0x65, 0x72, 0x76,
  0x69, 0x6e, 0x67, 0x5f, 0x64, 0x65, 0x66, 0x61, 0x75, 0x6c, 0x74, 0x00,
  0x01, 0x00, 0x00, 0x00, 0x04, 0x00, 0x00, 0x00, 0x6c, 0xff, 0xff, 0xff,
  0x09, 0x00, 0x00, 0x00, 0x04, 0x00, 0x00, 0x00, 0x08, 0x00, 0x00, 0x00,
  0x6f, 0x75, 0x74, 0x70, 0x75, 0x74, 0x5f, 0x30, 0x00, 0x00, 0x00, 0x00,
  0x01, 0x00, 0x00, 0x00, 0x04, 0x00, 0x00, 0x00, 0x7a, 0xbb, 0xff, 0xff,
  0x04, 0x00, 0x00, 0x00, 0x0b, 0x00, 0x00, 0x00, 0x69, 0x6e, 0x70, 0x75,
  0x74, 0x5f, 0x6c, 0x61, 0x79, 0x65, 0x72, 0x00, 0x03, 0x00, 0x00, 0x00,
  0x5c, 0x00, 0x00, 0x00, 0x2c, 0x00, 0x00, 0x00, 0x04, 0x00, 0x00, 0x00,
  0xb8, 0xff, 0xff, 0xff, 0x0d, 0x00, 0x00, 0x00, 0x04, 0x00, 0x00, 0x00,
  0x13, 0x00, 0x00, 0x00, 0x43, 0x4f, 0x4e, 0x56, 0x45, 0x52, 0x53, 0x49,
  0x4f, 0x4e, 0x5f, 0x4d, 0x45, 0x54, 0x41, 0x44, 0x41, 0x54, 0x41, 0x00,
  0xdc, 0xff, 0xff, 0xff, 0x0c, 0x00, 0x00, 0x00, 0x04, 0x00, 0x00, 0x00,
  0x13, 0x00, 0x00, 0x00, 0x6d, 0x69, 0x6e, 0x5f, 0x72, 0x75, 0x6e, 0x74,
  0x69, 0x6d, 0x65, 0x5f, 0x76, 0x65, 0x72, 0x73, 0x69, 0x6f, 0x6e, 0x00,
  0x08, 0x00, 0x0c, 0x00, 0x08, 0x00, 0x04, 0x00, 0x08, 0x00, 0x00, 0x00,
  0x0b, 0x00, 0x00, 0x00, 0x04, 0x00, 0x00, 0x00, 0x13, 0x00, 0x00, 0x00,
  0x6d, 0x69, 0x6e, 0x5f, 0x72, 0x75, 0x6e, 0x74, 0x69, 0x6d, 0x65, 0x5f,
  0x76, 0x65, 0x72, 0x73, 0x69, 0x6f, 0x6e, 0x00, 0x0e, 0x00, 0x00, 0x00,
  0x34, 0x43, 0x00, 0x00, 0x2c, 0x43, 0x00, 0x00, 0x0c, 0x43, 0x00, 0x00,
  0xfc, 0x41, 0x00, 0x00, 0xec, 0x40, 0x00, 0x00, 0xdc, 0x00, 0x00, 0x00,
  0xd4, 0x00, 0x00, 0x00, 0xcc, 0x00, 0x00, 0x00, 0xc4, 0x00, 0x00, 0x00,
  0xbc, 0x00, 0x00, 0x00, 0xb4, 0x00, 0x00, 0x00, 0x94, 0x00, 0x00, 0x00,
  0x74, 0x00, 0x00, 0x00, 0x04, 0x00, 0x00, 0x00, 0x52, 0xbc, 0xff, 0xff,
  0x04, 0x00, 0x00, 0x00, 0x60, 0x00, 0x00, 0x00, 0x0c, 0x00, 0x00, 0x00,
  0x08, 0x00, 0x0e, 0x00, 0x08, 0x00, 0x04, 0x00, 0x08, 0x00, 0x00, 0x00,
  0x10, 0x00, 0x00, 0x00, 0x28, 0x00, 0x00, 0x00, 0x00, 0x00, 0x06, 0x00,
  0x08, 0x00, 0x04, 0x00, 0x06, 0x00, 0x00, 0x00, 0x04, 0x00, 0x00, 0x00,
  0x01, 0x00, 0x00, 0x00, 0xeb, 0x03, 0x00, 0x00, 0x0c, 0x00, 0x18, 0x00,
  0x14, 0x00, 0x10, 0x00, 0x0c, 0x00, 0x04, 0x00, 0x0c, 0x00, 0x00, 0x00,
  0xaf, 0x8f, 0x0e, 0x93, 0x06, 0x2c, 0x0f, 0xb5, 0x02, 0x00, 0x00, 0x00,
  0x02, 0x00, 0x00, 0x00, 0x04, 0x00, 0x00, 0x00, 0x06, 0x00, 0x00, 0x00,
  0x32, 0x2e, 0x31, 0x39, 0x2e, 0x30, 0x00, 0x00, 0xbe, 0xbc, 0xff, 0xff,
  0x04, 0x00, 0x00, 0x00, 0x10, 0x00, 0x00, 0x00, 0x00, 0x00, 0x00, 0x00,
  0x00, 0x00, 0x00, 0x00, 0x00, 0x00, 0x00, 0x00, 0x00, 0x00, 0x00, 0x00,
  0xda, 0xbc, 0xff, 0xff, 0x04, 0x00, 0x00, 0x00, 0x10, 0x00, 0x00, 0x00,
  0x31, 0x2e, 0x31, 0x34, 0x2e, 0x30, 0x00, 0x00, 0x00, 0x00, 0x00, 0x00,
  0x00, 0x00, 0x00, 0x00, 0x2c, 0xb1, 0xff, 0xff, 0x30, 0xb1, 0xff, 0xff,
  0x34, 0xb1, 0xff, 0xff, 0x38, 0xb1, 0xff, 0xff, 0x3c, 0xb1, 0xff, 0xff,
  0x0a, 0xbd, 0xff, 0xff, 0x04, 0x00, 0x00, 0x00, 0x00, 0x40, 0x00, 0x00,
  0xcb, 0xd1, 0xbe, 0x40, 0x01, 0xf8, 0x2d, 0x24, 0xfe, 0x26, 0x32, 0xae,
  0x47, 0x4e, 0xf5, 0x20, 0xe7, 0xe3, 0xf7, 0x43, 0x36, 0x32, 0x58, 0xbc,
  0x34, 0x4c, 0x0c, 0xdd, 0x2b, 0x0c, 0x08, 0xa4, 0x57, 0x51, 0xe0, 0x2c,
  0xbc, 0xf7, 0x0f, 0xf5, 0x43, 0xb6, 0xd1, 0x4e, 0x2e, 0x40, 0xfd, 0x57,
  0x55, 0x49, 0xca, 0xed, 0xf4, 0xc0, 0x18, 0x30, 0xff, 0x17, 0xce, 0x33,
  0xad, 0xec, 0xd1, 0x2f, 0x07, 0xe3, 0xc5, 0x55, 0x13, 0xbe, 0x0a, 0x32,
  0x30, 0xe4, 0xf0, 0xd7, 0x5c, 0xb9, 0xeb, 0xce, 0xc1, 0xae, 0xb3, 0x49,
  0x4c, 0x4c, 0xcc, 0x04, 0xf6, 0x28, 0xef, 0xf8, 0x5b, 0xf3, 0xf7, 0x14,
  0x0f, 0x54, 0xe6, 0x5d, 0x1c, 0xa0, 0xb9, 0xde, 0xbe, 0x31, 0x2d, 0x17,
  0x19, 0x08, 0xd2, 0x25, 0x4e, 0x3d, 0xda, 0xe8, 0xb7, 0xc6, 0x1d, 0xfd,
  0x4c, 0xc9, 0xbb, 0x07, 0xa3, 0x07, 0x3b, 0xd6, 0xf9, 0x22, 0xc8, 0x56,
  0xd1, 0xe9, 0x3e, 0xfa, 0xf0, 0x42, 0xb0, 0xb9, 0x12, 0xc5, 0x33, 0xbf,
  0x56, 0xf1, 0x1e, 0x2c, 0xc0, 0xf9, 0xb9, 0x15, 0xf2, 0xce, 0x13, 0xf2,
  0xe7, 0x38, 0xfe, 0x38, 0xfc, 0x5b, 0x8c, 0xf3, 0x1c, 0x4e, 0x2e, 0xe8,
  0xb2, 0x22, 0xd1, 0xf5, 0xdf, 0x56, 0x65, 0xee, 0xda, 0x5b, 0x81, 0x3e,
  0xd0, 0x17, 0xe5, 0xcb, 0x11, 0xdc, 0x2f, 0x5f, 0x0b, 0xb4, 0xe8, 0xe5,
  0xb6, 0x34, 0x27, 0x26, 0xbc, 0xa9, 0x59, 0x36, 0xde, 0x32, 0xea, 0xff,
  0xcb, 0xd8, 0xfc, 0xc3, 0x2e, 0x05, 0xce, 0xcd, 0xe9, 0xbc, 0x1f, 0x18,
  0xf4, 0xbf, 0x36, 0xbb, 0x1e, 0x15, 0x61, 0xb7, 0x48, 0xc3, 0x5d, 0xe3,
  0xe0, 0x53, 0xc1, 0x58, 0x1d, 0x01, 0x1d, 0x52, 0x21, 0xb1, 0xc6, 0x3f,
  0xad, 0x3e, 0xcd, 0x56, 0x1c, 0xee, 0xbe, 0xe5, 0x18, 0xa6, 0xc7, 0xc2,
  0x4a, 0x4f, 0x29, 0xc7, 0xe7, 0x50, 0x16, 0xbc, 0xbf, 0xab, 0xdd, 0xd1,
  0xd9, 0x31, 0x3b, 0x44, 0x4d, 0x5a, 0x18, 0xe6, 0x5d, 0x18, 0x02, 0x62,
  0x5b, 0x48, 0xc2, 0x13, 0x66, 0xfd, 0x37, 0x27, 0xbc, 0x77, 0x3f, 0xef,
  0x87, 0xb7, 0x82, 0xf8, 0x65, 0x06, 0x8e, 0xab, 0xad, 0xc4, 0xe8, 0xba,
  0xeb, 0xce, 0x3b, 0x6b, 0x65, 0xf4, 0xb2, 0x39, 0xf2, 0x8e, 0x51, 0xf6,
  0xf7, 0x6d, 0x57, 0xf0, 0xa4, 0xae, 0xb1, 0x26, 0x93, 0xbb, 0x83, 0x07,
  0x5d, 0xa1, 0x89, 0x5e, 0xb0, 0x68, 0x05, 0xe0, 0x1e, 0xd2, 0xe1, 0xdb,
  0x63, 0x44, 0x2a, 0x00, 0x83, 0x3f, 0x58, 0x88, 0x74, 0xb7, 0x21, 0x4f,
  0xf0, 0x88, 0xb4, 0xcb, 0xfe, 0x44, 0xa3, 0x66, 0x9b, 0x10, 0x91, 0x81,
  0x63, 0xd9, 0x23, 0xa6, 0x1b, 0xa0, 0x7a, 0xed, 0x9d, 0x3a, 0xee, 0x66,
  0xad, 0x5d, 0xb4, 0xed, 0xcf, 0x33, 0x20, 0xf4, 0xef, 0xb3, 0x66, 0x20,
  0xa0, 0x3f, 0x6f, 0xd4, 0x0f, 0xe4, 0x57, 0xd5, 0x9e, 0xed, 0x88, 0xde,
  0xd1, 0x91, 0x59, 0x97, 0xed, 0xe9, 0xae, 0xbb, 0xee, 0xfc, 0x72, 0xae,
  0xe5, 0x86, 0x1a, 0x5a, 0x99, 0x5a, 0x98, 0x17, 0x69, 0xf2, 0xfd, 0xc6,
  0x95, 0xb5, 0x46, 0xf4, 0xcf, 0x05, 0xdc, 0x19, 0x94, 0x41, 0xaa, 0x91,
  0xac, 0xd0, 0x33, 0xa2, 0x99, 0xce, 0xff, 0x66, 0x4d, 0x53, 0xbc, 0x77,
  0x48, 0x42, 0x70, 0x52, 0xd2, 0xaf, 0x23, 0x1f, 0xa8, 0x65, 0x33, 0x01,
  0x52, 0x44, 0x58, 0x0a, 0xb7, 0xf6, 0xb0, 0xad, 0x73, 0xe7, 0x25, 0x40,
  0x9a, 0x13, 0xcc, 0xd1, 0xfe, 0xf8, 0x01, 0x49, 0x8e, 0x8b, 0xa5, 0x9d,
  0x5a, 0xa6, 0xde, 0xb0, 0x07, 0x8f, 0x73, 0x33, 0x13, 0xe8, 0x41, 0xbf,
  0x0e, 0x21, 0x55, 0xbf, 0xf6, 0xa5, 0xdc, 0x61, 0x1a, 0x21, 0x7a, 0x66,
  0x58, 0x49, 0x03, 0xd5, 0x13, 0xcb, 0xfa, 0xac, 0x0c, 0x1e, 0xa1, 0x14,
  0x3e, 0x45, 0xeb, 0x02, 0x12, 0x22, 0xdf, 0x3d, 0x9b, 0x78, 0xec, 0x29,
  0x94, 0x76, 0xe0, 0x24, 0xdf, 0xd7, 0x85, 0x6d, 0x86, 0x6c, 0xe3, 0x8d,
  0x17, 0xda, 0xed, 0x16, 0x2c, 0x4b, 0xe5, 0x63, 0x46, 0xf5, 0x4d, 0x59,
  0x22, 0xae, 0x3e, 0x1a, 0xb8, 0xdd, 0x2b, 0x33, 0x53, 0xd7, 0xa4, 0x81,
  0xed, 0x0d, 0xa8, 0x8d, 0x82, 0x99, 0x00, 0x18, 0xa3, 0x9b, 0x84, 0xe8,
  0x76, 0xbd, 0xa0, 0xbb, 0xc5, 0xa4, 0x9a, 0x45, 0x49, 0x9b, 0x8a, 0x23,
  0xcf, 0x60, 0xb3, 0xa4, 0x72, 0xf6, 0x65, 0xb2, 0x5c, 0xc8, 0x40, 0xaf,
  0x58, 0xe9, 0x1a, 0xa1, 0x62, 0x70, 0x53, 0xed, 0xba, 0x94, 0x75, 0x36,
  0x58, 0x94, 0x09, 0x06, 0xfb, 0x08, 0x6a, 0x26, 0xfe, 0xde, 0x3b, 0xa8,
  0x4a, 0xa4, 0xff, 0x0c, 0x6b, 0xfc, 0x72, 0x98, 0x79, 0xf7, 0x40, 0x5d,
  0x38, 0x27, 0x58, 0x8e, 0xf8, 0x52, 0x64, 0xf6, 0xd2, 0x6e, 0x74, 0x11,
  0xb1, 0xea, 0x05, 0x65, 0x91, 0xac, 0x4b, 0xfc, 0x37, 0xeb, 0xf7, 0xb4,
  0xde, 0xb9, 0x6c, 0x6c, 0xb5, 0xf4, 0x1b, 0xd1, 0x5f, 0xf1, 0x34, 0xcc,
  0x2b, 0xd0, 0xc3, 0xa8, 0xc4, 0x21, 0x34, 0xdc, 0xae, 0x90, 0xfd, 0x37,
  0x37, 0xf1, 0x98, 0x1e, 0x1c, 0x38, 0x6f, 0xb0, 0x08, 0x89, 0x18, 0x18,
  0x23, 0x51, 0x61, 0x94, 0x0e, 0x07, 0xb8, 0x47, 0x3f, 0x54, 0xc7, 0x90,
  0x40, 0xf0, 0xa5, 0x1f, 0xfb, 0xa4, 0xf3, 0xf1, 0x10, 0x0a, 0x20, 0x88,
  0x2b, 0x12, 0x45, 0x2d, 0x3d, 0xd4, 0xdf, 0x9c, 0xf2, 0x13, 0xf5, 0x14,
  0x77, 0x31, 0xaa, 0x6a, 0x64, 0xe6, 0xf3, 0xf8, 0x55, 0x55, 0x22, 0x0e,
  0x96, 0x04, 0x2b, 0x3d, 0x29, 0x56, 0xf3, 0x2b, 0xe5, 0x2d, 0xd9, 0x32,
  0xe5, 0xf6, 0x76, 0xa7, 0x2a, 0xfe, 0x9c, 0x16, 0x8a, 0x82, 0x28, 0xa4,
  0x27, 0x25, 0xd8, 0x99, 0x1e, 0xf4, 0x64, 0x09, 0x04, 0xdc, 0x17, 0x53,
  0x18, 0x18, 0x0c, 0x4c, 0xaf, 0xbe, 0xf4, 0x06, 0xcc, 0x6d, 0xc6, 0xbd,
  0x1f, 0x2e, 0xc6, 0xe0, 0xe7, 0x9d, 0xf1, 0xe1, 0xdc, 0x45, 0x7e, 0x2f,
  0xfd, 0xf1, 0xcf, 0xfa, 0xb7, 0xd5, 0x5a, 0x10, 0x0e, 0x25, 0xd9, 0x13,
  0x0f, 0xb1, 0xd1, 0xdd, 0xd8, 0x55, 0x43, 0x3d, 0x52, 0x4f, 0x22, 0xb4,
  0xfc, 0xde, 0xe5, 0x54, 0x20, 0xa3, 0xea, 0x4b, 0xe8, 0xb6, 0x18, 0x2a,
  0xb0, 0x5b, 0x2e, 0xbf, 0x3b, 0xfe, 0x52, 0x31, 0x35, 0xdc, 0x3c, 0x9a,
  0xfa, 0x2e, 0xaa, 0xed, 0xa0, 0x16, 0xcd, 0xa6, 0xa5, 0x72, 0xb9, 0xc0,
  0xc5, 0xdc, 0xdd, 0xef, 0xc8, 0x2c, 0xa2, 0x57, 0x5c, 0xcb, 0x32, 0xd2,
  0x48, 0xa1, 0x0d, 0xb3, 0xc4, 0xc5, 0xf1, 0x21, 0xcc, 0x6f, 0x39, 0x20,
  0xe0, 0xaf, 0xaa, 0x41, 0x29, 0x25, 0xd2, 0x28, 0x36, 0x33, 0xe7, 0xb9,
  0x4e, 0x46, 0xe0, 0x1e, 0x34, 0x24, 0xb6, 0x32, 0xda, 0x2b, 0x4d, 0xe4,
  0x27, 0x0e, 0x1c, 0xc4, 0xeb, 0xcc, 0x3b, 0xd1, 0xbb, 0x1b, 0x41, 0xc1,
  0x41, 0x05, 0xf9, 0xf4, 0x68, 0x13, 0xf0, 0x4a, 0xf3, 0xda, 0xf7, 0xd2,
  0xe6, 0x44, 0xc4, 0xc1, 0xb5, 0xe2, 0x64, 0xe6, 0xd3, 0xb2, 0xa6, 0x18,
  0x10, 0x54, 0x00, 0x07, 0x77, 0x2e, 0x2e, 0x62, 0xc9, 0xc2, 0x47, 0x4c,
  0xc9, 0xcb, 0x26, 0xb5, 0xa9, 0x35, 0x17, 0xd5, 0x65, 0x38, 0x02, 0xbb,
  0xae, 0x27, 0xe3, 0xc0, 0xa0, 0x05, 0x0c, 0x32, 0x8d, 0x48, 0xec, 0xaf,
  0xa8, 0x37, 0x31, 0xa9, 0xc7, 0x3d, 0x45, 0xfe, 0x52, 0xd5, 0x8d, 0x99,
  0x44, 0xbb, 0xf9, 0x1a, 0xf1, 0x0f, 0xcd, 0xf4, 0x81, 0x10, 0x8f, 0x32,
  0xbb, 0x24, 0x36, 0x74, 0x3d, 0x67, 0x01, 0x59, 0xf3, 0x2a, 0x01, 0x48,
  0x5c, 0x67, 0x42, 0x95, 0x42, 0x9e, 0xa5, 0x9d, 0xc1, 0xdc, 0x54, 0x64,
  0xb9, 0xb4, 0x16, 0x18, 0xe3, 0x60, 0xf7, 0x3b, 0xfc, 0xc1, 0x90, 0x00,
  0xb6, 0xb4, 0x72, 0x73, 0x02, 0x68, 0xa4, 0xa1, 0xe5, 0x5b, 0x46, 0xa3,
  0x08, 0xf3, 0xf8, 0x32, 0x5b, 0x78, 0xce, 0xdb, 0xef, 0x27, 0xdb, 0xfc,
  0x45, 0x61, 0x40, 0x3b, 0xea, 0x37, 0xa9, 0x93, 0xfe, 0x3b, 0x16, 0x6f,
  0xb5, 0x6e, 0xb1, 0x37, 0x0e, 0x62, 0x35, 0x54, 0xb3, 0x28, 0x60, 0x32,
  0xfd, 0x52, 0x5e, 0x6a, 0xff, 0x22, 0x08, 0x48, 0xb4, 0xa1, 0x0f, 0xec,
  0x71, 0xf0, 0xb7, 0x1e, 0xcc, 0x27, 0x52, 0xd0, 0xb2, 0x4f, 0x1e, 0x05,
  0xf5, 0x35, 0x3c, 0x2d, 0x19, 0x25, 0x0e, 0x9b, 0x6c, 0xf4, 0x3b, 0xf0,
  0x1c, 0x59, 0x0d, 0xe3, 0xbd, 0x9a, 0xde, 0x59, 0xeb, 0x12, 0xa3, 0x31,
  0x3a, 0x02, 0x52, 0xa8, 0x9e, 0xad, 0x5d, 0x04, 0xd7, 0xee, 0xb6, 0xc4,
  0x65, 0x5a, 0xbc, 0xdb, 0x36, 0xe6, 0xae, 0x05, 0xd0, 0x05, 0xeb, 0x02,
  0xa4, 0xaa, 0xc5, 0x0e, 0x1b, 0xe1, 0x4f, 0xd2, 0xc0, 0x1d, 0x59, 0xc9,
  0xd0, 0x14, 0x3b, 0xd5, 0x71, 0xcf, 0xaf, 0x6b, 0xd7, 0xd9, 0xd7, 0x83,
  0xc3, 0xfb, 0x50, 0x2c, 0xa6, 0xb0, 0xae, 0xec, 0x10, 0xf5, 0xae, 0x09,
  0x5e, 0xa3, 0xe2, 0x1c, 0xa5, 0x0a, 0xe2, 0xf2, 0x0f, 0x05, 0xe0, 0x07,
  0x3b, 0x54, 0xb6, 0x07, 0xb9, 0x65, 0x5f, 0x5f, 0x4f, 0x2d, 0x32, 0x60,
  0xb6, 0x70, 0x3c, 0xb4, 0xd1, 0x78, 0x6f, 0x7b, 0x29, 0xcf, 0x35, 0x24,
  0x70, 0xed, 0xf7, 0x9f, 0x3c, 0xf9, 0xfe, 0xc4, 0xf6, 0x27, 0x10, 0x65,
  0x1d, 0xb6, 0x3f, 0x2e, 0x03, 0xa7, 0x3d, 0xcf, 0x86, 0xaf, 0x81, 0xb1,
  0x3a, 0xfa, 0x26, 0x25, 0x71, 0x39, 0x51, 0xcd, 0x89, 0xb7, 0xfc, 0x92,
  0x66, 0xf4, 0x52, 0xe8, 0x04, 0xf1, 0x4c, 0x84, 0x99, 0x9c, 0xe0, 0x59,
  0xe8, 0x2d, 0xef, 0x0e, 0xca, 0x05, 0x65, 0xb4, 0xfa, 0x28, 0xbe, 0xa2,
  0x67, 0x15, 0xa9, 0xc4, 0xb4, 0x49, 0x49, 0xe9, 0x9d, 0xd7, 0x21, 0x3d,
  0xe3, 0x2c, 0x61, 0xc1, 0x64, 0xc1, 0xb9, 0x2d, 0xeb, 0xa5, 0xcd, 0xa9,
  0x64, 0x0a, 0x35, 0x51, 0x16, 0xcf, 0xa7, 0x4b, 0x48, 0x5f, 0xe4, 0x4b,
  0x3c, 0xa1, 0x11, 0xfa, 0x0c, 0x61, 0xb2, 0x0f, 0xc1, 0xe6, 0xeb, 0x41,
  0xfe, 0xb1, 0xe9, 0x75, 0xe0, 0x53, 0x4f, 0xbb, 0xea, 0xe5, 0x5d, 0xc7,
  0x07, 0x25, 0x0b, 0x68, 0xd8, 0x08, 0xd7, 0xc8, 0x09, 0x03, 0x3f, 0x00,
  0x6c, 0xf0, 0xd2, 0x39, 0x21, 0x42, 0xdf, 0x45, 0x5b, 0xf6, 0x49, 0xb4,
  0xb9, 0xc2, 0xe3, 0xc4, 0xdd, 0x0b, 0x42, 0xe1, 0xc0, 0xab, 0x08, 0xa7,
  0xb2, 0xe0, 0xc5, 0xc3, 0x2f, 0xa3, 0x55, 0xcb, 0xc1, 0x47, 0xe2, 0x9e,
  0xed, 0x11, 0x58, 0xcd, 0x22, 0xc3, 0x11, 0xdd, 0x3a, 0x9e, 0xb6, 0x50,
  0x38, 0x34, 0x05, 0x52, 0xed, 0x48, 0x60, 0x19, 0xce, 0x21, 0xd4, 0xfe,
  0xf9, 0x39, 0x12, 0xd1, 0x5c, 0xd6, 0x01, 0x31, 0xb3, 0xba, 0xee, 0x1a,
  0x1b, 0xe0, 0xef, 0x50, 0xee, 0xe2, 0x67, 0xd3, 0x18, 0x4b, 0x7f, 0x12,
  0x2d, 0xf6, 0xc1, 0x60, 0x9f, 0xd5, 0xdb, 0xd1, 0xae, 0x99, 0xa5, 0xf2,
  0xfc, 0x1c, 0xfc, 0x67, 0xa2, 0x5d, 0x36, 0xc8, 0x1e, 0xb7, 0x20, 0xec,
  0x12, 0xa2, 0xfc, 0x48, 0x21, 0x55, 0xe2, 0xe7, 0xaf, 0xf5, 0xfe, 0xba,
  0xda, 0x32, 0x5d, 0x31, 0x4a, 0xac, 0x27, 0xdf, 0xef, 0x0a, 0x4d, 0xd3,
  0x4c, 0xbc, 0x68, 0x62, 0x16, 0xcd, 0x6b, 0x05, 0xf8, 0x34, 0x21, 0x55,
  0x25, 0xbd, 0x21, 0xda, 0xe9, 0x16, 0x4e, 0xea, 0x9c, 0x62, 0x53, 0x9f,
  0x13, 0xca, 0xb7, 0x3c, 0x1e, 0xe1, 0x8f, 0x14, 0x98, 0xd0, 0x1f, 0xdd,
  0x5a, 0x38, 0xd2, 0x3d, 0x0d, 0x67, 0x09, 0xaf, 0xb5, 0xac, 0x46, 0x29,
  0x1f, 0x59, 0x5f, 0x16, 0x89, 0xd5, 0x96, 0xdb, 0x9f, 0xd4, 0xe7, 0x5e,
  0xac, 0x29, 0xbb, 0x57, 0xe2, 0x36, 0x61, 0xe2, 0x9c, 0x64, 0xfc, 0x85,
  0xbd, 0xcf, 0x3d, 0xd5, 0x24, 0xf9, 0x8e, 0xa2, 0x07, 0x11, 0xca, 0xce,
  0x0c, 0x67, 0x64, 0x5e, 0xca, 0x62, 0xbf, 0xbf, 0xe7, 0x2d, 0xba, 0xd3,
  0xac, 0x6f, 0xfe, 0x1f, 0x8a, 0xae, 0x34, 0x26, 0xb6, 0x2b, 0xb7, 0x6b,
  0xb6, 0x2c, 0xc6, 0x14, 0x4b, 0x41, 0xbf, 0xd5, 0x5b, 0xbd, 0x31, 0xcf,
  0x31, 0x8b, 0x53, 0x1f, 0xa2, 0x60, 0x5b, 0x5e, 0xa0, 0x93, 0x46, 0x23,
  0x18, 0x5d, 0x49, 0xfc, 0x26, 0xf2, 0x21, 0xf5, 0xfe, 0x71, 0x51, 0xde,
  0x9d, 0xdb, 0xf7, 0x27, 0x3e, 0x2a, 0xb7, 0xdf, 0x8b, 0x0d, 0xb7, 0x84,
  0x53, 0x08, 0x3c, 0xde, 0x0d, 0x1a, 0x8a, 0xe8, 0xdb, 0xf5, 0xe0, 0x3e,
  0x71, 0x30, 0xba, 0x06, 0x86, 0xf9, 0x24, 0xd7, 0xa8, 0x75, 0x3e, 0xa2,
  0x35, 0x76, 0xe1, 0x19, 0x13, 0x0d, 0x0a, 0x8a, 0xed, 0xbb, 0xc7, 0xf3,
  0x26, 0xb5, 0x63, 0xbf, 0xd7, 0x70, 0xb4, 0x9e, 0x33, 0x9f, 0x45, 0x2f,
  0x38, 0x99, 0x57, 0x37, 0x70, 0x27, 0x45, 0x12, 0x3d, 0xfa, 0xab, 0xaa,
  0x41, 0xd1, 0x9c, 0xc4, 0x44, 0x52, 0xd1, 0xde, 0x8a, 0x18, 0xcb, 0xf4,
  0xa8, 0x5a, 0x18, 0xf5, 0x27, 0xa1, 0x61, 0xa6, 0x3b, 0x39, 0xdf, 0xa2,
  0xa0, 0x3f, 0xe8, 0xb1, 0x97, 0x1a, 0x5a, 0x52, 0xf1, 0xaf, 0xe3, 0x5e,
  0x56, 0x28, 0xf1, 0x12, 0x0b, 0x10, 0x66, 0x52, 0x0d, 0x5f, 0xab, 0xb7,
  0xa1, 0xe4, 0x6c, 0x54, 0x13, 0x31, 0x12, 0x33, 0x52, 0x8e, 0x08, 0x6b,
  0x3b, 0x67, 0x9d, 0x89, 0x1c, 0x43, 0x09, 0x4e, 0x81, 0x4c, 0x2f, 0xc0,
  0x54, 0x12, 0x16, 0xf7, 0x6a, 0xe0, 0xb0, 0xfb, 0xb9, 0x11, 0xca, 0xbd,
  0x17, 0xa3, 0x5a, 0x07, 0x16, 0x5e, 0xbf, 0x17, 0xf5, 0x07, 0x5e, 0x1b,
  0x55, 0x19, 0x50, 0xa6, 0xc0, 0xc2, 0xe7, 0xb9, 0xe6, 0xd7, 0xb8, 0xab,
  0x5d, 0x09, 0x4d, 0xef, 0x54, 0x25, 0xb9, 0x56, 0xff, 0xc5, 0x4a, 0xf8,
  0xc5, 0x53, 0xb7, 0x58, 0xbe, 0x9d, 0x57, 0x29, 0xd2, 0x31, 0xeb, 0xf3,
  0x4c, 0x28, 0xf2, 0x52, 0xad, 0xbf, 0x46, 0x45, 0x08, 0x17, 0xe4, 0xc2,
  0xb3, 0x65, 0x67, 0x40, 0x59, 0xbf, 0x31, 0xd7, 0x06, 0x64, 0x04, 0x29,
  0x3d, 0x0a, 0x21, 0x4f, 0xd8, 0xe6, 0xc9, 0x99, 0x16, 0x17, 0x01, 0x67,
  0xc2, 0xda, 0x57, 0x96, 0x2b, 0x1c, 0xc6, 0xe0, 0x38, 0x43, 0x41, 0x43,
  0xdc, 0x30, 0x04, 0x55, 0x21, 0x4d, 0x67, 0x33, 0xc9, 0xb5, 0x04, 0x50,
  0x26, 0xf4, 0x4b, 0x69, 0xb7, 0x5a, 0x3b, 0x38, 0x49, 0x52, 0x38, 0x32,
  0xb6, 0xe1, 0xa5, 0x98, 0x01, 0x33, 0xa8, 0xbe, 0x5b, 0xe7, 0x12, 0xc0,
  0x24, 0x18, 0x03, 0xe3, 0x35, 0xda, 0x2a, 0x31, 0xe2, 0x5b, 0xc0, 0x14,
  0xf0, 0x5d, 0x99, 0xde, 0xb3, 0x13, 0xfa, 0x22, 0x27, 0xb6, 0xec, 0x49,
  0x1a, 0xdf, 0x20, 0x29, 0x59, 0x38, 0xcc, 0x56, 0x5b, 0x10, 0x51, 0x4c,
  0xac, 0x27, 0xec, 0x62, 0xf4, 0xe8, 0x49, 0xe2, 0xfb, 0xfa, 0xcd, 0xec,
  0xc9, 0x22, 0x3f, 0x36, 0x47, 0x1c, 0x7f, 0xb7, 0x51, 0xfe, 0xc7, 0x72,
  0x11, 0x60, 0xfc, 0x35, 0x62, 0xef, 0x6b, 0x14, 0xed, 0xdb, 0x0b, 0xe7,
  0xc1, 0x23, 0xf5, 0x48, 0x5f, 0x5a, 0x40, 0xbe, 0xfe, 0x4d, 0x35, 0xcd,
  0x0b, 0x13, 0x3a, 0x2c, 0x30, 0xeb, 0x24, 0xcd, 0xb3, 0xf5, 0x1a, 0xfa,
  0xfe, 0xc5, 0xf9, 0xac, 0x65, 0xa7, 0xc2, 0xdd, 0x36, 0xbf, 0x03, 0xec,
  0x96, 0x4c, 0x3f, 0x33, 0xa0, 0xc1, 0x95, 0x0e, 0x8d, 0x77, 0x6d, 0x67,
  0x11, 0xb7, 0x9f, 0x92, 0x2e, 0x6e, 0xdc, 0x9b, 0x3b, 0x51, 0x61, 0x2c,
  0x76, 0x90, 0x92, 0x2c, 0x8d, 0xfd, 0x5e, 0xcd, 0x1c, 0xcc, 0x87, 0x18,
  0x6b, 0xef, 0x5e, 0xe4, 0x93, 0x6d, 0xc4, 0x22, 0x6b, 0x88, 0x64, 0x12,
  0xf1, 0xfd, 0xea, 0x0e, 0x2b, 0x8c, 0xd9, 0x02, 0xc8, 0x24, 0x81, 0xbe,
  0xed, 0x15, 0x2a, 0xcd, 0x1c, 0xd5, 0xed, 0x17, 0x05, 0x5c, 0xa5, 0x8d,
  0x44, 0x6a, 0x1b, 0xe7, 0x0d, 0x15, 0x85, 0x37, 0xca, 0x95, 0x46, 0x4e,
  0xc7, 0xf7, 0x1f, 0x01, 0xc6, 0x64, 0xcb, 0x4c, 0x46, 0xcc, 0x9d, 0x64,
  0x26, 0xc6, 0x0b, 0x73, 0xc7, 0x13, 0x34, 0xa1, 0x26, 0x09, 0xcc, 0xe0,
  0xcd, 0x68, 0x67, 0x59, 0x5a, 0x57, 0xb7, 0xaf, 0x41, 0xd1, 0xa0, 0x23,
  0x30, 0x28, 0xaf, 0x22, 0xe1, 0x23, 0x91, 0xb9, 0x42, 0x19, 0x3b, 0x2b,
  0x9e, 0x1b, 0x2f, 0xd6, 0x3c, 0xd4, 0xc2, 0x45, 0x5e, 0xa4, 0xfe, 0xc9,
  0x19, 0x4c, 0xb1, 0x4f, 0xca, 0x43, 0xfc, 0x98, 0xd1, 0x59, 0xe3, 0xf1,
  0xb3, 0x58, 0x31, 0x0e, 0xb2, 0x5b, 0x2b, 0x4b, 0xf2, 0x60, 0xb0, 0x5a,
  0x00, 0xc9, 0xa7, 0x7a, 0xb0, 0xbd, 0x48, 0xb4, 0x37, 0xd1, 0x30, 0x07,
  0xcd, 0xd2, 0x28, 0x4a, 0xb7, 0x33, 0xcf, 0x6c, 0x92, 0xc6, 0xf5, 0xd3,
  0x91, 0x57, 0x97, 0x0c, 0xf8, 0xb3, 0xbb, 0x61, 0x46, 0x62, 0xa9, 0xf5,
  0xfa, 0x28, 0x07, 0x6f, 0xd6, 0xab, 0xd6, 0x90, 0x96, 0x38, 0xe2, 0x53,
  0xc1, 0x0d, 0x27, 0x9c, 0x17, 0x5d, 0xa5, 0xb4, 0xf0, 0x14, 0xe4, 0x58,
  0x1b, 0xca, 0x60, 0xd3, 0x33, 0xf3, 0x5a, 0xc0, 0xe8, 0xfc, 0xe4, 0x5d,
  0xa5, 0xac, 0xfd, 0x5c, 0x25, 0x16, 0x5a, 0x0b, 0x05, 0x38, 0x4e, 0xfd,
  0x49, 0xa8, 0x22, 0x47, 0x7d, 0x3f, 0x15, 0x13, 0x9a, 0xbe, 0x29, 0x82,
  0x93, 0x88, 0xb8, 0x1c, 0xe7, 0xa0, 0x10, 0x3e, 0x54, 0xc6, 0x65, 0xbe,
  0xd5, 0x8e, 0x58, 0xee, 0x6c, 0xb9, 0x7c, 0x5f, 0x96, 0xe3, 0xae, 0xf1,
  0xc3, 0x3f, 0x69, 0xae, 0x4b, 0x3d, 0x29, 0x3b, 0x8c, 0x93, 0xbb, 0xbd,
  0x94, 0xb0, 0xb8, 0xf4, 0xe4, 0x98, 0x20, 0x46, 0xcf, 0x31, 0x6b, 0x0a,
  0xe5, 0xfb, 0x57, 0xe3, 0xe0, 0x72, 0x42, 0x3f, 0x64, 0x5f, 0x51, 0xc1,
  0x6f, 0x33, 0x95, 0x8e, 0xf2, 0x0d, 0xaf, 0x26, 0x1c, 0xf3, 0xcb, 0xbf,
  0xae, 0xf9, 0x98, 0x3c, 0x03, 0xd2, 0x79, 0xb0, 0xaf, 0xca, 0xe6, 0x52,
  0xe3, 0x51, 0xee, 0x3c, 0xa3, 0xbf, 0xa6, 0x01, 0x5c, 0x34, 0x9f, 0x3f,
  0x21, 0x09, 0x44, 0xe3, 0x14, 0x4b, 0x08, 0x95, 0xdd, 0x21, 0x5b, 0xbc,
  0xcc, 0x6c, 0xc7, 0xda, 0xde, 0x5f, 0x08, 0xe9, 0x68, 0x12, 0x99, 0x4b,
  0xf9, 0x45, 0x69, 0xb7, 0xe0, 0xbe, 0x0c, 0x93, 0xa0, 0xbf, 0xe0, 0xc4,
  0xda, 0xe1, 0xff, 0xeb, 0x5d, 0xbf, 0x56, 0x1f, 0x60, 0x30, 0xdb, 0x16,
  0xf8, 0x5c, 0xa0, 0x57, 0x2e, 0x2a, 0x6c, 0x43, 0x1a, 0x29, 0x31, 0xb3,
  0xe0, 0x98, 0xd0, 0x18, 0xba, 0xfa, 0x3a, 0xff, 0x44, 0x58, 0x55, 0x1f,
  0x92, 0x0f, 0x0b, 0xb7, 0x00, 0xb9, 0xbf, 0xcd, 0x2c, 0x30, 0x26, 0x30,
  0xfc, 0x5c, 0xac, 0xb7, 0xd5, 0xe1, 0x91, 0x55, 0x2c, 0x5f, 0xbc, 0xc4,
  0xc6, 0xee, 0x5a, 0x68, 0xc2, 0x07, 0xc3, 0x14, 0x39, 0x10, 0xff, 0xed,
  0x0d, 0x3a, 0xbd, 0x77, 0x68, 0x98, 0xfe, 0xd7, 0xba, 0xfe, 0x08, 0xdf,
  0x08, 0xc5, 0x2a, 0x2e, 0x4d, 0x41, 0x13, 0x34, 0x3b, 0xad, 0x28, 0x86,
  0xb0, 0x4a, 0x2c, 0x25, 0x44, 0x5b, 0x55, 0x09, 0xc3, 0xca, 0xa1, 0xe3,
  0x95, 0x67, 0x75, 0x4a, 0x20, 0x06, 0x07, 0xba, 0x7e, 0xec, 0x7b, 0x7f,
  0xa3, 0xe1, 0xf7, 0x33, 0x97, 0xb3, 0xcc, 0xed, 0x6a, 0xe2, 0xf4, 0xb2,
  0xe0, 0xd7, 0xf2, 0xb1, 0x73, 0x0e, 0x19, 0x52, 0xf6, 0x86, 0xe8, 0xde,
  0x1a, 0x93, 0x4d, 0xab, 0x6f, 0x49, 0x3c, 0x97, 0xa2, 0xe2, 0x46, 0x59,
  0x69, 0x35, 0xc5, 0xfb, 0x90, 0xf2, 0xd0, 0x0f, 0x62, 0x59, 0x07, 0x96,
  0x5a, 0x63, 0xae, 0xdb, 0x0e, 0xea, 0x40, 0x28, 0x1f, 0x73, 0x41, 0xe3,
  0x90, 0x50, 0xae, 0xb7, 0x14, 0x28, 0xd0, 0x1d, 0xd7, 0x27, 0x9b, 0x44,
  0x43, 0xc9, 0xa2, 0x96, 0x0e, 0x37, 0xa4, 0x2b, 0xfe, 0xe3, 0xf3, 0xc3,
  0x5f, 0x31, 0x89, 0x86, 0xae, 0xda, 0x56, 0xd1, 0x6b, 0x29, 0xed, 0xaa,
  0x4d, 0xb7, 0x21, 0x2f, 0xa2, 0x57, 0x06, 0xd4, 0x5c, 0x00, 0xd6, 0x77,
  0x58, 0xb8, 0xad, 0xd7, 0x8d, 0xaf, 0xd0, 0xce, 0xec, 0x22, 0x14, 0x9f,
  0xe5, 0x8f, 0x3c, 0x78, 0x48, 0xc3, 0x24, 0x2d, 0x08, 0xdc, 0x96, 0x00,
  0x35, 0xe4, 0xd8, 0xda, 0x07, 0x28, 0xf4, 0x08, 0xa5, 0x1a, 0x15, 0xde,
  0x2f, 0x19, 0x1d, 0x61, 0xbb, 0x2d, 0x44, 0xb1, 0xf7, 0x46, 0xf1, 0xa9,
  0xe8, 0x4a, 0xba, 0x87, 0x8e, 0xab, 0x45, 0x04, 0xee, 0x4d, 0x22, 0x23,
  0xe4, 0x47, 0x50, 0xf9, 0x94, 0x48, 0xca, 0x34, 0x35, 0x0e, 0x5b, 0x29,
  0x88, 0xa6, 0xd5, 0x03, 0x30, 0xd6, 0x45, 0x49, 0xe3, 0x61, 0xcc, 0x44,
  0x96, 0x32, 0xe5, 0xc1, 0x1c, 0x95, 0xda, 0x19, 0x5b, 0xe6, 0x03, 0x95,
  0xc2, 0x3b, 0x63, 0xac, 0xbf, 0x18, 0xee, 0x39, 0xf6, 0xc6, 0xc2, 0x4b,
  0xc7, 0x81, 0x63, 0x19, 0xbb, 0x14, 0x05, 0x45, 0x0f, 0x14, 0x0e, 0x59,
  0xcb, 0x8c, 0xef, 0x46, 0xcc, 0xf3, 0xb0, 0xd9, 0x51, 0x91, 0x33, 0x01,
  0x94, 0xe1, 0xa5, 0xaf, 0x50, 0xa5, 0x36, 0xb8, 0xb1, 0x14, 0x30, 0x49,
  0xfc, 0xae, 0x30, 0x4d, 0x2f, 0x54, 0xad, 0x62, 0xef, 0xee, 0xd1, 0xf0,
  0xcb, 0x15, 0xc8, 0xb5, 0x06, 0xc0, 0xac, 0x0a, 0x02, 0x2d, 0x4e, 0x1a,
  0x07, 0xde, 0x52, 0xb9, 0xc1, 0x9e, 0x5c, 0x38, 0x03, 0x21, 0x56, 0x22,
  0xf4, 0x46, 0x56, 0x9f, 0xb4, 0x50, 0x5b, 0x9d, 0xd8, 0xdf, 0xb0, 0x62,
  0x9e, 0xa9, 0x5f, 0x52, 0xb5, 0x23, 0x1f, 0xf1, 0xc8, 0x54, 0x36, 0x49,
  0x4d, 0xc1, 0xaf, 0x4a, 0x21, 0x14, 0x4d, 0x14, 0xdc, 0xd1, 0xdf, 0x2f,
  0xa2, 0x18, 0x6d, 0x20, 0x5c, 0x1e, 0xbd, 0xc0, 0x16, 0xe5, 0x35, 0x18,
  0xaa, 0xab, 0x34, 0x35, 0xd4, 0xc7, 0x18, 0xaa, 0xf6, 0x0b, 0x4f, 0xce,
  0xf1, 0x3e, 0x1c, 0xda, 0xb1, 0x26, 0xf7, 0x1b, 0xfa, 0xdc, 0x1b, 0xc2,
  0x51, 0xaf, 0xe2, 0xfe, 0x57, 0xab, 0x17, 0xc1, 0x2a, 0x38, 0x20, 0x49,
  0xa9, 0xd7, 0xbe, 0x09, 0x46, 0x55, 0x38, 0xee, 0x50, 0xae, 0xd3, 0x01,
  0x1d, 0xe7, 0xbe, 0x10, 0x1c, 0x4c, 0x08, 0x6f, 0x21, 0x0d, 0xde, 0x36,
  0x51, 0xda, 0x44, 0x13, 0xab, 0x3c, 0x3e, 0x2e, 0x56, 0xf6, 0x6d, 0x37,
  0x26, 0x49, 0xea, 0x43, 0x41, 0xa6, 0xa7, 0x14, 0x2d, 0x59, 0x2d, 0xd3,
  0x61, 0xa0, 0xca, 0x06, 0x3d, 0xbb, 0x36, 0x69, 0x28, 0xfc, 0xaf, 0x25,
  0xd6, 0xc0, 0xba, 0xd0, 0xc5, 0xfc, 0xd8, 0x4e, 0xd2, 0x48, 0x57, 0xdd,
  0xb7, 0x39, 0x50, 0x66, 0xed, 0xe6, 0x07, 0x25, 0x57, 0xa6, 0xf1, 0x26,
  0x95, 0x5d, 0x24, 0x52, 0xbd, 0xf9, 0xe8, 0xa5, 0x1d, 0xc2, 0xad, 0x3b,
  0xa2, 0x60, 0xf4, 0x48, 0x6a, 0x4f, 0xb2, 0x03, 0xb2, 0xc7, 0xbf, 0xfe,
  0x60, 0x42, 0x3a, 0x36, 0xde, 0xd5, 0x2f, 0x31, 0x5f, 0xf1, 0xcd, 0xb2,
  0xc6, 0xc9, 0xfd, 0xdf, 0xb0, 0xd6, 0xd3, 0xae, 0xa2, 0x04, 0xc3, 0xf8,
  0x43, 0xe2, 0x9e, 0x94, 0xfd, 0xf4, 0x27, 0xbb, 0x81, 0xa1, 0x56, 0xb4,
  0x0d, 0x05, 0x6d, 0x0e, 0x0f, 0xf9, 0x2b, 0x65, 0xed, 0xbb, 0x3b, 0x95,
  0x95, 0x3b, 0x9e, 0xfb, 0x71, 0xaf, 0x57, 0x2c, 0x44, 0x62, 0x2d, 0x55,
  0x5a, 0x2b, 0x8b, 0x53, 0xfd, 0x9d, 0x51, 0xc2, 0x13, 0x90, 0x52, 0xbe,
  0xf8, 0xa2, 0x95, 0x6d, 0xa7, 0x84, 0xb7, 0x6f, 0x76, 0x82, 0x16, 0x4b,
  0x94, 0x76, 0xfa, 0xa2, 0xd0, 0xec, 0xe9, 0xbc, 0xe1, 0x3f, 0x6b, 0xea,
  0xa8, 0x55, 0x5d, 0x91, 0xdc, 0xda, 0x69, 0xbd, 0xb7, 0x77, 0xa3, 0xbe,
  0xfe, 0x41, 0x99, 0xcb, 0x3f, 0x0e, 0x9f, 0xc4, 0xe7, 0xe4, 0xea, 0x03,
  0x85, 0x27, 0x1c, 0xc5, 0xb4, 0x0a, 0xdd, 0xc9, 0x24, 0x16, 0xef, 0x74,
  0xc0, 0x3e, 0xc5, 0x58, 0xa6, 0xcf, 0x4a, 0xe0, 0xe8, 0xf0, 0x86, 0x2c,
  0xf9, 0x81, 0x79, 0x68, 0x5d, 0x0a, 0x2d, 0x9d, 0x63, 0x1e, 0x1d, 0xca,
  0xce, 0x6b, 0x5f, 0x54, 0x1b, 0xdd, 0xe9, 0xc7, 0x1c, 0x06, 0x36, 0xaf,
  0x19, 0x33, 0x86, 0x89, 0xb2, 0x2c, 0xf7, 0xa2, 0x51, 0x59, 0x65, 0x66,
  0x2c, 0x10, 0xa9, 0xe9, 0x76, 0xf8, 0x2e, 0x95, 0xe4, 0x84, 0x5f, 0xd4,
  0x8d, 0x6b, 0x6b, 0x78, 0x5e, 0x02, 0x25, 0x39, 0xcc, 0x9f, 0xc2, 0x4b,
  0xb0, 0xb0, 0xb0, 0xd3, 0x87, 0xde, 0xf0, 0x0c, 0x41, 0x63, 0x51, 0xb9,
  0x6a, 0x51, 0x52, 0x53, 0x86, 0x3f, 0x25, 0xb5, 0x71, 0x5d, 0x05, 0x6a,
  0x5d, 0x7b, 0x1d, 0x5e, 0x17, 0x24, 0xe6, 0x51, 0xfa, 0x3f, 0x91, 0xd5,
  0xf2, 0xdf, 0xb9, 0x95, 0x7c, 0x39, 0x99, 0x39, 0x5a, 0x3b, 0x4d, 0x3c,
  0xc9, 0x3c, 0xe4, 0x4f, 0xda, 0xab, 0xe8, 0x8e, 0x6a, 0xb1, 0x11, 0xcc,
  0xfb, 0x13, 0xf4, 0x04, 0xa2, 0xc9, 0xfe, 0x9d, 0xcd, 0xa6, 0x29, 0xe0,
  0xde, 0xa1, 0xd4, 0xfb, 0xa2, 0x6a, 0x82, 0x04, 0x2d, 0x84, 0xdb, 0xd0,
  0x14, 0x2f, 0xb3, 0xf0, 0xb0, 0xe5, 0xf0, 0x2d, 0x0e, 0xf3, 0x57, 0x90,
  0x70, 0xd8, 0x17, 0x1e, 0xa3, 0xc3, 0x16, 0xa6, 0xba, 0x8f, 0xf7, 0xb6,
  0x8a, 0x8e, 0xc1, 0x58, 0xd5, 0xc1, 0x73, 0xe5, 0xed, 0x55, 0x29, 0xd1,
  0x84, 0xc1, 0x8e, 0xb2, 0xa6, 0x57, 0x29, 0xc7, 0x3a, 0x4f, 0xb2, 0x74,
  0x09, 0x82, 0xbe, 0x87, 0xa9, 0x8e, 0xd6, 0x7d, 0xc9, 0x11, 0x02, 0x35,
  0x07, 0x1c, 0xb9, 0x4a, 0xae, 0x19, 0xc3, 0x41, 0x3f, 0xee, 0xcb, 0xf6,
  0xae, 0x83, 0x4b, 0x90, 0x5b, 0x2c, 0x73, 0x65, 0xe6, 0x27, 0xf4, 0x64,
  0xfd, 0x3e, 0x1c, 0x7c, 0xdc, 0x73, 0x86, 0x9f, 0xf0, 0xb1, 0x87, 0x4f,
  0x70, 0x92, 0x2e, 0xda, 0x23, 0xd5, 0xe8, 0xe5, 0xdf, 0x08, 0x5a, 0xf6,
  0x16, 0xc7, 0xe1, 0x82, 0x54, 0xc0, 0xa1, 0xc3, 0x16, 0x1f, 0x91, 0xa6,
  0x3b, 0xf8, 0x0a, 0xd0, 0xd4, 0x93, 0xa5, 0x0c, 0x1e, 0x1c, 0x57, 0x49,
  0x1a, 0x54, 0xac, 0x4b, 0x8f, 0x4f, 0x00, 0xbd, 0x1d, 0xd2, 0x04, 0x4d,
  0x3c, 0x03, 0xeb, 0x5b, 0x27, 0xc6, 0xef, 0x43, 0x5e, 0x83, 0x17, 0xc3,
  0x9c, 0x13, 0x31, 0x75, 0x02, 0x29, 0x42, 0xbb, 0x05, 0x68, 0xe8, 0x8f,
  0xb4, 0x11, 0x2b, 0xa7, 0xa0, 0x76, 0x79, 0xe4, 0xbb, 0x69, 0x2f, 0x9d,
  0x0c, 0x96, 0x0c, 0x04, 0x1d, 0xf4, 0xb1, 0x6b, 0xd3, 0x16, 0x7d, 0x68,
  0xb1, 0xc5, 0xe2, 0x99, 0x81, 0xd3, 0x6f, 0xd1, 0x34, 0x6d, 0x26, 0xb7,
  0xa5, 0x3d, 0x73, 0x82, 0xb2, 0x40, 0xd5, 0x95, 0x55, 0x78, 0x4b, 0xa3,
  0x46, 0x9a, 0xc7, 0x48, 0x1a, 0x2f, 0xc4, 0x13, 0x43, 0x0c, 0xb5, 0x3a,
  0x3f, 0xe8, 0x39, 0xeb, 0x02, 0xf2, 0x79, 0xaa, 0xe0, 0xc4, 0xf7, 0x9e,
  0x42, 0x25, 0x94, 0x76, 0xaa, 0xc2, 0xd8, 0xa9, 0xb4, 0x99, 0xc8, 0xe3,
  0xe8, 0x43, 0x61, 0xb4, 0x12, 0x23, 0xb7, 0x0f, 0xd4, 0x0e, 0x96, 0x94,
  0xf8, 0xd4, 0x98, 0x26, 0xd4, 0xf6, 0xf5, 0x25, 0x96, 0x65, 0x14, 0x1c,
  0xb7, 0x70, 0x91, 0xe3, 0x20, 0x9b, 0xad, 0x0d, 0xd2, 0x12, 0xf4, 0xd8,
  0x6c, 0x9c, 0x2e, 0xb4, 0xd9, 0x5e, 0x02, 0x2d, 0xe4, 0x38, 0xdc, 0x6d,
  0x86, 0xaf, 0xac, 0xb7, 0xa5, 0xf1, 0xfe, 0x8c, 0x22, 0x6b, 0x90, 0xe9,
  0xf7, 0x29, 0x7d, 0xd2, 0x00, 0x08, 0xcc, 0x22, 0x0f, 0x3a, 0xb0, 0xaa,
  0xae, 0xc3, 0xf7, 0x23, 0x42, 0x63, 0x71, 0x34, 0xc9, 0x25, 0x55, 0xf2,
  0x8d, 0x6e, 0x2a, 0x77, 0x34, 0x0b, 0x22, 0xce, 0xd3, 0x59, 0x11, 0xcb,
  0x29, 0x86, 0xa9, 0x4e, 0x16, 0xe3, 0x94, 0x77, 0x39, 0x57, 0x38, 0xed,
  0x03, 0xa3, 0xa1, 0x11, 0x99, 0xa2, 0x44, 0x34, 0xa2, 0xc9, 0xfd, 0x51,
  0x27, 0x52, 0x45, 0xec, 0xb8, 0x71, 0x54, 0xbd, 0x86, 0xf8, 0x5e, 0xcd,
  0x7f, 0xd1, 0x90, 0x89, 0xe7, 0x7e, 0xce, 0x1e, 0x69, 0x9e, 0x56, 0x7a,
  0xef, 0x44, 0x37, 0xcc, 0x06, 0xce, 0x72, 0x61, 0x1b, 0x93, 0xd4, 0xa1,
  0xb0, 0x2c, 0xea, 0xc7, 0xcd, 0xf0, 0xe9, 0x39, 0x92, 0x0d, 0xf0, 0xcd,
  0xf0, 0x9b, 0xbc, 0xc3, 0x69, 0x53, 0xa8, 0x9f, 0x50, 0x8f, 0x1b, 0x45,
  0x2c, 0xc6, 0xc7, 0x6b, 0x64, 0x59, 0x3d, 0x14, 0x7a, 0x12, 0xaf, 0xe6,
  0xc5, 0x9b, 0x69, 0xa7, 0xcd, 0xc1, 0x35, 0x37, 0x05, 0xd1, 0x40, 0x3f,
  0xc3, 0xab, 0x89, 0x8e, 0xcd, 0x7f, 0x7c, 0x3a, 0xa7, 0x68, 0x8b, 0x62,
  0xba, 0x04, 0xc0, 0xf2, 0xb6, 0xda, 0x6e, 0x67, 0xa8, 0xaf, 0x52, 0x7f,
  0xc4, 0x28, 0xf8, 0xa1, 0xbd, 0x99, 0x5c, 0xf4, 0x71, 0xe3, 0x9c, 0xbb,
  0xa0, 0x52, 0x6a, 0x36, 0x6f, 0x05, 0x27, 0xee, 0x2a, 0x78, 0x75, 0x7e,
  0x54, 0x4d, 0xe1, 0x0e, 0xf3, 0x7b, 0x9c, 0xed, 0xfd, 0xcc, 0xa0, 0x17,
  0xda, 0x92, 0x17, 0x1d, 0xcb, 0x99, 0x19, 0xb2, 0xa3, 0x1c, 0x34, 0x19,
  0xf5, 0xb7, 0xb5, 0xae, 0x42, 0xab, 0x03, 0xe8, 0xd3, 0xd7, 0x34, 0x2e,
  0xa3, 0xac, 0x03, 0x97, 0xbc, 0x41, 0xef, 0xd0, 0xf7, 0xdd, 0x47, 0x02,
  0xd4, 0x16, 0x1f, 0xf4, 0x62, 0x36, 0x64, 0xd9, 0x2e, 0x4a, 0x46, 0x63,
  0x1d, 0xaf, 0x19, 0xb5, 0x07, 0xf5, 0x58, 0x08, 0x5c, 0x9d, 0x1b, 0x4c,
  0x47, 0x28, 0x03, 0xd8, 0x14, 0xa4, 0x00, 0xcd, 0xef, 0xe0, 0xf9, 0xe8,
  0x4f, 0xd6, 0x3d, 0xbf, 0xc4, 0x39, 0xbc, 0x68, 0xaf, 0xb0, 0xd4, 0xfe,
  0x05, 0x61, 0x2e, 0xec, 0xda, 0x18, 0x27, 0x2a, 0x1d, 0x42, 0xca, 0x04,
  0xe5, 0xa2, 0x59, 0x02, 0x57, 0xbc, 0x5e, 0xcc, 0xe2, 0xb5, 0x1e, 0xf4,
  0x48, 0x24, 0xfa, 0xc5, 0x48, 0xd6, 0xb8, 0xe0, 0xb1, 0x35, 0x35, 0xc4,
  0x1e, 0xcc, 0x5f, 0xc4, 0x39, 0x12, 0x01, 0x51, 0xb8, 0x47, 0x43, 0x41,
  0x21, 0xcd, 0xc0, 0xf5, 0xae, 0x4a, 0xf8, 0x35, 0xb7, 0x30, 0xe1, 0x1d,
  0x14, 0x3a, 0xd0, 0xb6, 0x45, 0xd9, 0xa3, 0x31, 0x5d, 0x28, 0x36, 0x68,
  0x2a, 0x31, 0x5a, 0x0a, 0xab, 0xb7, 0xb2, 0x41, 0x33, 0x2c, 0xac, 0xe0,
  0xd6, 0xea, 0x72, 0xfd, 0xcd, 0xf0, 0x75, 0xcc, 0xcc, 0xd1, 0x1f, 0x0e,
  0xb3, 0x17, 0xbf, 0x56, 0x3f, 0x4d, 0x46, 0x1d, 0xf7, 0xa3, 0xd1, 0xef,
  0x58, 0xd5, 0x81, 0x01, 0x99, 0x46, 0xa6, 0xe6, 0xee, 0x09, 0x13, 0xb0,
  0x94, 0x47, 0xa2, 0xdd, 0x06, 0x41, 0x51, 0xb1, 0xb6, 0x14, 0x14, 0x0e,
  0xd7, 0x4b, 0xae, 0x0f, 0xcd, 0xe4, 0x55, 0x01, 0xf7, 0x2b, 0xd8, 0xf3,
  0x5c, 0x3f, 0xca, 0x56, 0x15, 0xc0, 0x38, 0xb9, 0x34, 0x5d, 0x66, 0x00,
  0x08, 0x07, 0x41, 0xfb, 0x5a, 0x6e, 0xf8, 0xfe, 0x18, 0xe4, 0xf4, 0x1c,
  0x2d, 0x69, 0x48, 0x63, 0xb2, 0x3d, 0xa8, 0xb1, 0x6d, 0x51, 0x47, 0x60,
  0x14, 0xb3, 0x34, 0x6a, 0x6a, 0xf7, 0x65, 0xb8, 0x93, 0x3e, 0x4a, 0x17,
  0xcb, 0xe3, 0xb1, 0xb7, 0x17, 0xaf, 0x1d, 0x11, 0x48, 0xae, 0x0b, 0x3e,
  0x0e, 0xb0, 0x46, 0xee, 0x46, 0x13, 0x4e, 0x41, 0xdc, 0xde, 0x8f, 0xc9,
  0x3b, 0xe5, 0xe5, 0xd9, 0x59, 0x1e, 0xe8, 0x09, 0x26, 0x82, 0x09, 0xd0,
  0x49, 0x09, 0x33, 0xd8, 0x33, 0x45, 0x6c, 0x0e, 0xfe, 0x2c, 0x0b, 0x07,
  0xab, 0x4d, 0xb4, 0x9f, 0x68, 0xe4, 0xef, 0x4d, 0x52, 0xaa, 0x59, 0x97,
  0x3e, 0x06, 0x7f, 0x55, 0xef, 0x2e, 0xa7, 0x32, 0xf9, 0xf4, 0xe5, 0xee,
  0x4f, 0x98, 0x7a, 0x55, 0xd8, 0x8f, 0x78, 0xa2, 0x37, 0xa8, 0xb2, 0x31,
  0x28, 0xbf, 0x63, 0x33, 0x2f, 0xb4, 0xeb, 0x69, 0x37, 0xf5, 0x74, 0x1c,
  0xff, 0x1e, 0x63, 0xdb, 0xf7, 0x20, 0x41, 0x1c, 0x09, 0x58, 0x92, 0xc8,
  0x9b, 0xbe, 0x4d, 0xb6, 0x6f, 0x22, 0x3d, 0x07, 0x96, 0xca, 0x63, 0xd5,
  0xaf, 0xaa, 0xa7, 0x22, 0x52, 0x98, 0x7f, 0xc9, 0xe4, 0xcc, 0x0c, 0x3e,
  0x25, 0x9b, 0x3b, 0xa4, 0x95, 0x94, 0x6f, 0xbc, 0x01, 0x02, 0x6a, 0x9c,
  0xbc, 0xd4, 0xb3, 0x25, 0x40, 0xbc, 0x0e, 0x74, 0xe8, 0x6c, 0xd9, 0x07,
  0xd2, 0x30, 0xbd, 0xda, 0x45, 0x34, 0x84, 0x11, 0x42, 0xba, 0x6a, 0xf0,
  0xa1, 0x6b, 0x66, 0xe2, 0x09, 0xdb, 0x0c, 0x29, 0x2a, 0xc1, 0x4c, 0xfd,
  0x8e, 0xa0, 0xc2, 0x35, 0x58, 0x8f, 0x2f, 0xe0, 0xdb, 0x93, 0x14, 0x84,
  0x41, 0xf4, 0xdd, 0x38, 0xec, 0x6d, 0x2b, 0x30, 0xfd, 0x1a, 0xc8, 0x63,
  0xce, 0xc1, 0xc4, 0xb7, 0x32, 0x9d, 0xb1, 0xbc, 0x37, 0x51, 0xa5, 0x57,
  0x43, 0xf8, 0xec, 0xd4, 0xc1, 0x1a, 0x7e, 0x79, 0x88, 0xe7, 0xea, 0x1b,
  0x8f, 0x57, 0x6b, 0xba, 0x2b, 0xdb, 0x08, 0x39, 0x47, 0x3a, 0x47, 0xf7,
  0x00, 0x0f, 0xb2, 0xc2, 0xeb, 0xf1, 0x27, 0x71, 0x71, 0x1f, 0xc4, 0x3c,
  0xb7, 0xeb, 0xc2, 0x1d, 0x72, 0xa8, 0x41, 0x61, 0x79, 0xe0, 0xe7, 0xef,
  0xc2, 0x59, 0x19, 0x08, 0xee, 0x3e, 0x67, 0x46, 0x30, 0xee, 0x6a, 0x9e,
  0x05, 0xbd, 0xc5, 0xc3, 0xcd, 0xa3, 0xea, 0xea, 0xe0, 0x58, 0x59, 0x1a,
  0x3d, 0xad, 0xb3, 0x71, 0xc2, 0xc4, 0x37, 0xd3, 0xdd, 0x4f, 0xb3, 0x6b,
  0xbc, 0x24, 0xa4, 0x21, 0x56, 0x62, 0x40, 0x33, 0x98, 0xec, 0x01, 0x6c,
  0x5d, 0x13, 0x23, 0x87, 0xbc, 0xdd, 0x3e, 0x2c, 0x2a, 0xa9, 0x22, 0xd9,
  0x1d, 0xb1, 0x03, 0xd8, 0x5f, 0x08, 0x41, 0x90, 0x4f, 0x07, 0xbf, 0xe7,
  0xdd, 0x5b, 0xb7, 0xce, 0xcd, 0x6d, 0xf0, 0x4e, 0xde, 0x66, 0x0c, 0xad,
  0xea, 0x6d, 0x29, 0xec, 0x4e, 0xc6, 0x42, 0x5e, 0x4d, 0x1a, 0xd8, 0xd0,
  0xeb, 0x1b, 0xa2, 0xad, 0xb6, 0xd7, 0x22, 0xf2, 0xac, 0xdd, 0x1e, 0xd0,
  0x22, 0xb3, 0x2c, 0x9c, 0x25, 0x12, 0x15, 0x56, 0x33, 0x91, 0x0f, 0xd1,
  0x9d, 0x1c, 0x23, 0x77, 0xb4, 0xd8, 0x9c, 0xdb, 0x29, 0x43, 0x55, 0xcf,
  0xf7, 0x27, 0x1d, 0xee, 0xf9, 0x66, 0x46, 0xd7, 0xd5, 0xd7, 0x07, 0xde,
  0x5d, 0xd1, 0x0c, 0xf8, 0x61, 0x63, 0x31, 0x0c, 0x30, 0xe0, 0x5c, 0xde,
  0xcf, 0x11, 0x32, 0x68, 0x63, 0x47, 0xe6, 0xa9, 0x21, 0x48, 0x09, 0x26,
  0x01, 0x29, 0xcf, 0xe2, 0x94, 0xd6, 0xb1, 0xd5, 0xe3, 0xb6, 0x16, 0xb3,
  0x27, 0x48, 0xdd, 0x9a, 0xdf, 0x3d, 0xdc, 0x21, 0x53, 0xd4, 0x96, 0x28,
  0x39, 0xce, 0xc9, 0x24, 0xca, 0xe3, 0x88, 0xf1, 0xd7, 0x5b, 0x4b, 0x52,
  0xd6, 0x9d, 0x58, 0x20, 0xcc, 0xef, 0x43, 0xf0, 0x06, 0x6d, 0xc6, 0xf8,
  0x43, 0x5c, 0xb1, 0xfd, 0x28, 0x7f, 0x77, 0x76, 0x23, 0x45, 0xd1, 0xf1,
  0xb2, 0x7f, 0x18, 0x0d, 0x6b, 0x9a, 0xb5, 0x68, 0xa8, 0x36, 0xec, 0x25,
  0xa2, 0x2d, 0xf2, 0xd5, 0x9c, 0xae, 0x08, 0x56, 0xf1, 0x01, 0x59, 0xf0,
  0x23, 0x42, 0x6a, 0x33, 0x27, 0xf0, 0x48, 0x57, 0x0f, 0x3d, 0xa4, 0x09,
  0x9d, 0xa8, 0xf4, 0xd9, 0x22, 0xcb, 0x46, 0x19, 0x3e, 0x51, 0xbc, 0xfb,
  0x9b, 0xd6, 0x13, 0xf0, 0xdf, 0x17, 0xee, 0x0c, 0x57, 0xfa, 0x37, 0xcb,
  0x47, 0xda, 0x45, 0xf9, 0x52, 0x61, 0x5f, 0x2a, 0x08, 0xd3, 0xdf, 0x31,
  0x9f, 0xeb, 0x44, 0xfd, 0x5d, 0x68, 0xf0, 0xc6, 0x29, 0xe7, 0x48, 0x33,
  0xf0, 0x16, 0xce, 0x3e, 0x00, 0xfe, 0xbd, 0x9d, 0xee, 0x1a, 0xca, 0xa5,
  0x4b, 0xe3, 0xef, 0x3e, 0xe6, 0x5c, 0xd2, 0xd4, 0xf1, 0x22, 0x4b, 0xab,
  0xc9, 0x50, 0x1f, 0xa0, 0xc7, 0x1f, 0x2d, 0x8f, 0xa6, 0xd7, 0xca, 0xf4,
  0x22, 0x5c, 0x97, 0xe0, 0x36, 0x4b, 0xf3, 0x25, 0x3c, 0xf4, 0x4a, 0x4c,
  0x25, 0x5e, 0x5f, 0xbc, 0x02, 0x36, 0xfc, 0xa5, 0xd7, 0x64, 0x68, 0x69,
  0x22, 0xb3, 0xed, 0xe9, 0x57, 0x9f, 0x4f, 0xf2, 0xe6, 0xc3, 0x99, 0xac,
  0x01, 0xce, 0xa2, 0x1b, 0xcc, 0xf1, 0xcd, 0xeb, 0xae, 0xcd, 0xb8, 0x3e,
  0x2a, 0xcf, 0x47, 0x34, 0x4a, 0xa0, 0x53, 0x11, 0x68, 0xd5, 0xe3, 0xe3,
  0x1f, 0x4f, 0xcd, 0x2b, 0xe1, 0x21, 0x4a, 0x0e, 0xf1, 0x43, 0xc0, 0x45,
  0x9e, 0xea, 0xc1, 0x1d, 0x02, 0xf2, 0x03, 0xdd, 0xd0, 0x03, 0xf2, 0xbe,
  0x41, 0xe0, 0xfb, 0xb8, 0xaf, 0x28, 0x41, 0x64, 0xbd, 0xc1, 0xb5, 0xb8,
  0xf3, 0x44, 0x39, 0xf0, 0x74, 0x02, 0x03, 0x56, 0xb9, 0x38, 0xb7, 0xec,
  0x11, 0x39, 0x21, 0x1b, 0x60, 0x90, 0x44, 0x52, 0xa8, 0x0b, 0x5d, 0xe2,
  0x5d, 0x4c, 0x2b, 0xd7, 0x21, 0xb0, 0xa0, 0x97, 0x3c, 0xc7, 0x0f, 0x5c,
  0xff, 0xb5, 0x34, 0x05, 0xe1, 0x0d, 0xac, 0x1a, 0x84, 0x98, 0xd6, 0xb8,
  0x20, 0x15, 0x81, 0xd6, 0x32, 0x3a, 0x0d, 0xd2, 0xc4, 0x3d, 0x22, 0x69,
  0xb0, 0xcb, 0x14, 0x71, 0x40, 0x07, 0x89, 0x47, 0x7d, 0x58, 0xd6, 0xb4,
  0x4c, 0x68, 0x5d, 0x5b, 0xae, 0xc8, 0x8c, 0xf2, 0x28, 0xc3, 0x4b, 0x98,
  0xed, 0x98, 0xe3, 0x9d, 0x23, 0xf6, 0xd1, 0x6f, 0xf3, 0x73, 0x3b, 0xbc,
  0xc8, 0xa8, 0xd2, 0x68, 0xb4, 0x49, 0x21, 0xc2, 0xa3, 0x91, 0x86, 0xf7,
  0x57, 0x9d, 0x33, 0xcf, 0x41, 0xb6, 0x27, 0xe1, 0xff, 0xb8, 0xca, 0x2c,
  0x26, 0xc0, 0xc9, 0xfd, 0x7c, 0xee, 0x2a, 0x50, 0x4a, 0x0e, 0xa6, 0xb0,
  0xd3, 0x03, 0x08, 0xd9, 0x89, 0xae, 0xa4, 0xd2, 0xe4, 0xde, 0xe7, 0x85,
  0xd3, 0xb0, 0xa7, 0xaf, 0x5e, 0xad, 0x89, 0xc2, 0x77, 0x87, 0x65, 0xa1,
  0xad, 0x48, 0x59, 0xdc, 0x13, 0x3d, 0xa9, 0xe5, 0xb9, 0x3c, 0x4e, 0xe6,
  0x64, 0x84, 0xec, 0xfa, 0x5f, 0xd8, 0x04, 0x8c, 0xa2, 0xc6, 0x07, 0x16,
  0x26, 0xde, 0x0e, 0x1a, 0x6e, 0x8d, 0x14, 0xc2, 0xdc, 0x2f, 0x2c, 0x26,
  0x4e, 0x25, 0xb0, 0xc0, 0x22, 0x9b, 0x02, 0x8e, 0x16, 0x92, 0xaa, 0xfa,
  0x09, 0x7f, 0x43, 0x3e, 0xec, 0xeb, 0x81, 0x9d, 0x93, 0xbd, 0xc0, 0x89,
  0x0b, 0x01, 0xde, 0x60, 0x1b, 0x8e, 0x67, 0x1e, 0x08, 0xa3, 0x23, 0xec,
  0xbf, 0xd5, 0xf1, 0x00, 0x7f, 0x4a, 0x03, 0x9e, 0xeb, 0x17, 0x06, 0xb1,
  0xc7, 0x2e, 0x5f, 0x58, 0xc7, 0x9a, 0xf7, 0x45, 0x70, 0xa5, 0xea, 0x4f,
  0xd3, 0xe1, 0x13, 0x2d, 0xd7, 0x3b, 0xf4, 0x8b, 0xba, 0xd3, 0x94, 0x68,
  0xe0, 0x21, 0x76, 0x64, 0xca, 0xff, 0x52, 0x32, 0xcc, 0x1b, 0xa8, 0x46,
  0x38, 0x38, 0xf7, 0x6e, 0x51, 0xf7, 0xdf, 0xa5, 0xc2, 0x1d, 0xd9, 0x8c,
  0x6b, 0xe8, 0x48, 0xc4, 0x56, 0x84, 0x26, 0xc7, 0xdf, 0x60, 0xa0, 0x1a,
  0xba, 0x0a, 0xff, 0xe6, 0xc7, 0xfb, 0xf7, 0x3f, 0x28, 0x32, 0x0f, 0x96,
  0x9e, 0xd4, 0x50, 0x96, 0x44, 0x5f, 0x15, 0x20, 0xae, 0x46, 0x3f, 0xa9,
  0xd9, 0x4e, 0x36, 0x4c, 0xe9, 0x39, 0xc7, 0xe0, 0x26, 0x17, 0xb2, 0xf1,
  0x56, 0x04, 0xf4, 0xb9, 0xb1, 0x65, 0x34, 0x20, 0x5f, 0xb2, 0x57, 0x4c,
  0xbe, 0x1b, 0xdb, 0xfd, 0x1a, 0x18, 0x56, 0x2e, 0xc6, 0xaa, 0xa6, 0x08,
  0x32, 0x40, 0x2c, 0xb8, 0xbb, 0xe1, 0xa4, 0x39, 0x3a, 0x0e, 0x38, 0x98,
  0xaa, 0xfa, 0x2c, 0x1d, 0xb7, 0x62, 0x1a, 0x49, 0xda, 0x5b, 0x45, 0xc5,
  0xfb, 0x38, 0xb0, 0x0e, 0x56, 0x9b, 0x32, 0x43, 0xd0, 0x14, 0x0b, 0xcd,
  0x0e, 0x47, 0x98, 0x05, 0xdb, 0x4c, 0xbd, 0x31, 0xf7, 0x23, 0x18, 0x08,
  0x17, 0xbd, 0xaf, 0x0e, 0xc1, 0xff, 0x4c, 0xd7, 0x4b, 0x13, 0x5c, 0xde,
  0xab, 0x54, 0xce, 0x5f, 0x02, 0xae, 0xd1, 0xc2, 0xca, 0x17, 0xab, 0xda,
  0x58, 0xa9, 0xcc, 0x4a, 0x08, 0x0b, 0xb0, 0x02, 0xc5, 0x18, 0x3a, 0xde,
  0xd6, 0x03, 0x08, 0xcb, 0xb7, 0x2c, 0x48, 0x57, 0xf6, 0x1b, 0xe4, 0xe2,
  0xfa, 0xd5, 0x58, 0x9d, 0xd9, 0x44, 0x4b, 0x1e, 0xca, 0x42, 0xe9, 0x3e,
  0xf8, 0xc7, 0x0f, 0x58, 0x1c, 0xb4, 0x98, 0x48, 0x49, 0xdf, 0x2b, 0xe4,
  0x18, 0xf9, 0x1b, 0x4e, 0xc4, 0x22, 0xdd, 0x01, 0xe1, 0xcb, 0x1a, 0x66,
  0x0f, 0xaa, 0x57, 0x4b, 0xd1, 0x5f, 0x37, 0x03, 0xd2, 0x3b, 0x68, 0x18,
  0x49, 0xee, 0x52, 0xb6, 0x25, 0x42, 0x2e, 0x07, 0xfd, 0x24, 0x91, 0x17,
  0x2e, 0x52, 0x1d, 0xf3, 0xfa, 0x30, 0x08, 0x8f, 0xb2, 0x36, 0x41, 0x14,
  0x92, 0xd9, 0xd2, 0xf3, 0x97, 0xd1, 0x31, 0xed, 0xfb, 0x46, 0x04, 0xec,
  0x31, 0xd1, 0x24, 0x7f, 0x0f, 0x1d, 0x6e, 0xf3, 0xf0, 0x77, 0xf2, 0x2a,
  0xd0, 0x01, 0x29, 0x03, 0xae, 0x09, 0x72, 0xdb, 0x9a, 0x14, 0x6b, 0x9c,
  0x97, 0xe7, 0xa6, 0x24, 0x66, 0xee, 0xa0, 0xe4, 0xf1, 0x4c, 0xaa, 0x3a,
  0xc4, 0xe5, 0xb2, 0xbe, 0xd9, 0x21, 0xc6, 0xab, 0xd3, 0x5e, 0x49, 0x40,
  0xc0, 0x09, 0xf8, 0x60, 0x9d, 0x18, 0xbc, 0x04, 0x6b, 0x61, 0x5f, 0x5c,
  0x1f, 0xa2, 0x66, 0xac, 0xc4, 0xba, 0x04, 0x02, 0x44, 0x4c, 0xa7, 0x70,
  0x52, 0xb5, 0x35, 0x37, 0x4c, 0x22, 0x3b, 0xb1, 0x31, 0x90, 0x08, 0x8e,
  0x31, 0x39, 0x55, 0xf7, 0x6d, 0xbd, 0x4a, 0x19, 0xd0, 0xfe, 0x1f, 0x47,
  0xab, 0x2d, 0x98, 0xad, 0x3d, 0xab, 0xf5, 0x1a, 0xfc, 0xab, 0x08, 0xe0,
  0xfe, 0x31, 0xea, 0x0b, 0x40, 0x6c, 0x39, 0x4a, 0x3a, 0xdb, 0x71, 0xf1,
  0xc4, 0x3f, 0x31, 0x01, 0x9f, 0xd4, 0x37, 0x36, 0xe1, 0xba, 0xe3, 0xfa,
  0xc7, 0x46, 0x0d, 0xe0, 0xe3, 0x9f, 0x3f, 0x49, 0xda, 0xe9, 0x14, 0xd6,
  0x0f, 0xa7, 0xa1, 0x9a, 0x72, 0x3e, 0x3a, 0xfe, 0x48, 0x49, 0xa6, 0x22,
  0x5b, 0xdf, 0x4d, 0xd4, 0x3e, 0x64, 0x4f, 0x00, 0x49, 0x02, 0x24, 0xb2,
  0xe7, 0x0d, 0x5f, 0x38, 0x0b, 0xd7, 0xb9, 0x07, 0x1c, 0x5e, 0x12, 0x38,
  0x55, 0xa7, 0xb4, 0x3b, 0x8f, 0x51, 0x45, 0xf4, 0x52, 0x9d, 0xd0, 0xcc,
  0xe7, 0xdc, 0xee, 0x1c, 0x02, 0xdc, 0x0e, 0x5b, 0xa7, 0x2e, 0x30, 0xf9,
  0x93, 0x18, 0x54, 0x10, 0x7f, 0x7c, 0x0e, 0xe4, 0x72, 0x5d, 0x6e, 0x00,
  0xb2, 0xac, 0xea, 0x6b, 0x9d, 0x16, 0xa2, 0x64, 0xc4, 0x62, 0xd2, 0x99,
  0x48, 0x5b, 0x22, 0x50, 0x6a, 0x0e, 0xbd, 0x91, 0xf4, 0x47, 0xf2, 0xb2,
  0xe8, 0xd2, 0x39, 0xf0, 0xca, 0x42, 0xdf, 0xad, 0xe0, 0x04, 0x1f, 0x11,
  0x10, 0x4e, 0xd2, 0xc8, 0x73, 0xdc, 0xd0, 0xc9, 0x3b, 0xbc, 0x02, 0x09,
  0x2e, 0xc9, 0x5b, 0x17, 0x1b, 0x4d, 0x94, 0x66, 0xac, 0x14, 0x56, 0x23,
  0xc0, 0x14, 0xc2, 0x56, 0x78, 0xa0, 0x3d, 0x58, 0x23, 0xb1, 0xdb, 0xf2,
  0x55, 0x31, 0x07, 0x17, 0xfe, 0xc6, 0x67, 0xe5, 0xef, 0xa7, 0x81, 0xd7,
  0x6f, 0xdb, 0xf7, 0x83, 0x95, 0x36, 0x44, 0x75, 0x17, 0xe2, 0x8b, 0x28,
  0xa7, 0x8f, 0x44, 0x40, 0x83, 0xe7, 0x42, 0x28, 0xdb, 0xb0, 0x9f, 0xa8,
  0x53, 0x00, 0xa8, 0xb5, 0xe8, 0x5e, 0x42, 0x6d, 0x8c, 0x90, 0x43, 0x17,
  0x34, 0xbe, 0xf9, 0xd2, 0xe0, 0x97, 0x28, 0xdd, 0xef, 0x1b, 0x91, 0xa1,
  0xab, 0x5a, 0x8b, 0x33, 0x52, 0xe4, 0x34, 0x30, 0xda, 0x18, 0xc7, 0x5d,
  0x9d, 0x6e, 0x87, 0x02, 0x72, 0xd2, 0xb6, 0x5c, 0xb0, 0x4d, 0x91, 0x45,
  0xcd, 0xf8, 0x0c, 0x18, 0x79, 0x53, 0xc4, 0xc8, 0x25, 0x43, 0x55, 0xe2,
  0x1d, 0xd5, 0x2c, 0xf9, 0x94, 0x33, 0x72, 0xda, 0x8d, 0xbc, 0x15, 0x00,
  0xc6, 0xa9, 0xc1, 0xbd, 0xaa, 0x28, 0x5f, 0xcc, 0x31, 0x7b, 0x08, 0x77,
  0xb7, 0xc9, 0xde, 0xc0, 0x6c, 0x4d, 0xc5, 0x4a, 0x16, 0xcb, 0x41, 0xc8,
  0x99, 0x09, 0xa9, 0xc7, 0xf8, 0x19, 0xef, 0x88, 0x4b, 0x2e, 0xa0, 0x26,
  0x0e, 0xe4, 0xfa, 0x69, 0xb7, 0x6b, 0xc8, 0xc0, 0xff, 0x6e, 0x2b, 0x8a,
  0xa5, 0xb4, 0x47, 0x74, 0x4d, 0xa2, 0x5b, 0xc6, 0x32, 0x27, 0x31, 0x33,
  0x35, 0xfb, 0x9e, 0xf5, 0xc1, 0x5e, 0x21, 0xe0, 0x89, 0x58, 0x8e, 0x15,
  0x38, 0xec, 0x0e, 0xdd, 0x46, 0x2f, 0x52, 0xee, 0x98, 0x2d, 0x8b, 0x56,
  0xa2, 0xbd, 0x08, 0xd1, 0xdb, 0xac, 0xf6, 0x8d, 0x6d, 0xd7, 0xef, 0x74,
  0x95, 0x9c, 0x86, 0x70, 0x68, 0x1f, 0x39, 0x5e, 0x4e, 0xd5, 0xf5, 0xde,
  0x9f, 0x2e, 0xd6, 0x43, 0x3d, 0x95, 0xb5, 0xc9, 0x2b, 0x86, 0xe8, 0x85,
  0xe7, 0x2a, 0xbe, 0x73, 0xf5, 0xc0, 0xca, 0x7a, 0x09, 0x7f, 0x35, 0x15,
  0x2c, 0x22, 0xb5, 0xbd, 0x03, 0x44, 0xef, 0x0c, 0xf8, 0x34, 0xf4, 0xbe,
  0x26, 0x29, 0x08, 0xfd, 0xfb, 0xb8, 0xfd, 0x10, 0x15, 0x08, 0x28, 0x35,
  0x18, 0x17, 0x16, 0x2c, 0x40, 0xcf, 0x14, 0xac, 0xbe, 0xe4, 0x10, 0x48,
  0xf1, 0x1e, 0x0a, 0xce, 0xcb, 0xc0, 0x36, 0xf2, 0xcf, 0xfb, 0xb8, 0x25,
  0x0b, 0x07, 0xed, 0x40, 0x47, 0x1d, 0x07, 0x1e, 0xc9, 0xbe, 0xc6, 0xa9,
  0xc8, 0xe6, 0xdf, 0xcf, 0xcd, 0x1f, 0x25, 0xb3, 0xcb, 0xb4, 0x44, 0x0f,
  0x07, 0x03, 0x16, 0xe7, 0xce, 0xed, 0x17, 0x37, 0x25, 0xc9, 0x37, 0xf3,
  0x1a, 0xf4, 0x2b, 0xbd, 0xe5, 0xc2, 0xfe, 0x00, 0xe4, 0xe5, 0xfb, 0x09,
  0xc9, 0x20, 0xe4, 0x0f, 0x11, 0xf5, 0xc8, 0x18, 0xd8, 0xda, 0x0e, 0xd2,
  0xf4, 0xfc, 0xb4, 0xc2, 0xf8, 0xcd, 0x00, 0x36, 0xda, 0x44, 0x14, 0xef,
  0xd3, 0x19, 0xe6, 0x10, 0x2d, 0xef, 0x07, 0x2d, 0x10, 0x15, 0xeb, 0x18,
  0xbd, 0x40, 0xcc, 0xcf, 0x47, 0xb2, 0x41, 0xf1, 0xdd, 0x0d, 0xd8, 0x1a,
  0xdb, 0xc4, 0x26, 0x0e, 0x0b, 0x1c, 0x42, 0xe4, 0x24, 0x38, 0xf5, 0x38,
  0x40, 0xb6, 0x2f, 0xe9, 0xc5, 0xb2, 0x20, 0xc0, 0x45, 0xf8, 0xb2, 0x40,
  0x16, 0xea, 0x35, 0xb5, 0xce, 0xd7, 0x25, 0x06, 0x1f, 0xd7, 0x4b, 0xe8,
  0xf9, 0x35, 0x07, 0xf9, 0xc9, 0xe8, 0xc3, 0xd5, 0xd5, 0x12, 0x29, 0xfd,
  0xc3, 0x08, 0x3f, 0x2e, 0x24, 0x05, 0x42, 0xd6, 0x1d, 0x3e, 0xce, 0x27,
  0xd5, 0xff, 0xfd, 0x42, 0xba, 0xe1, 0xbe, 0xe3, 0xe2, 0x0d, 0xd4, 0x45,
  0x0c, 0x14, 0xd7, 0xe5, 0xc7, 0x3e, 0xc5, 0x07, 0xe3, 0x36, 0x07, 0xc1,
  0xf9, 0x31, 0xb8, 0x3c, 0xf2, 0xb4, 0x0d, 0x01, 0xc1, 0x21, 0xad, 0xca,
  0x30, 0x08, 0x48, 0xff, 0x19, 0xf0, 0xd2, 0x37, 0x2d, 0xaf, 0x39, 0x3f,
  0x13, 0x81, 0x13, 0x35, 0x04, 0xdb, 0x24, 0x3a, 0x12, 0xde, 0xe8, 0xe9,
  0x3c, 0x1b, 0xdb, 0xc9, 0xca, 0x27, 0x3b, 0xd7, 0x29, 0xee, 0xec, 0xdc,
  0x37, 0x33, 0xea, 0xc8, 0x11, 0xdb, 0xca, 0xc8, 0xbd, 0x01, 0xd8, 0xce,
  0xbc, 0xe9, 0x36, 0x38, 0x1c, 0xe7, 0xc8, 0x25, 0x26, 0x39, 0x25, 0x09,
  0x0d, 0x2e, 0x20, 0xcd, 0x23, 0xd3, 0x21, 0xe9, 0x45, 0xf8, 0x07, 0x33,
  0xc6, 0x41, 0xed, 0x04, 0x2d, 0xf8, 0x18, 0x29, 0x03, 0x38, 0x2e, 0xd3,
  0x24, 0x3a, 0x49, 0xf2, 0xda, 0xd2, 0x16, 0x07, 0xc5, 0x24, 0x25, 0xc9,
  0x25, 0xdb, 0x34, 0xe5, 0x42, 0x45, 0x06, 0x15, 0xe3, 0x39, 0x24, 0x12,
  0xe1, 0x33, 0x22, 0x2e, 0xc2, 0x0c, 0xd4, 0x19, 0x41, 0x14, 0x2b, 0x2e,
  0xd9, 0x18, 0x05, 0x43, 0x18, 0xf7, 0xb9, 0xcf, 0xfc, 0xff, 0xd5, 0x2a,
  0x1c, 0x41, 0xd1, 0x2e, 0xde, 0xda, 0xdd, 0xfe, 0xbc, 0xec, 0xf5, 0x08,
  0x26, 0x2f, 0xca, 0x0f, 0x2e, 0x30, 0xc9, 0x05, 0xd6, 0x4d, 0xfe, 0x2e,
  0x0b, 0x05, 0xfa, 0xb9, 0xfd, 0xca, 0x46, 0x41, 0x01, 0xed, 0xe4, 0xfe,
  0xc7, 0x0b, 0x39, 0x3c, 0x00, 0xdc, 0xf5, 0xf1, 0x10, 0x2d, 0x2c, 0x16,
  0xf8, 0xe4, 0xf3, 0x1c, 0x43, 0xe6, 0x45, 0xf5, 0xf4, 0x20, 0x1f, 0x22,
  0xe0, 0x39, 0x1f, 0x22, 0x00, 0xf5, 0xc4, 0x2e, 0x0f, 0x05, 0x35, 0xe9,
  0xc3, 0x2b, 0x24, 0xb9, 0x05, 0x0b, 0xfe, 0xef, 0xff, 0xfb, 0xe1, 0x14,
  0xcf, 0x3e, 0x33, 0xf7, 0x01, 0x1a, 0xe8, 0xd2, 0x0d, 0xdd, 0xf9, 0x43,
  0xc8, 0x15, 0x04, 0x1c, 0x2a, 0x47, 0x13, 0xd0, 0xe8, 0x41, 0x38, 0xea,
  0x15, 0x3b, 0x07, 0x3c, 0x3f, 0x25, 0x22, 0x44, 0x37, 0x41, 0xfa, 0xdc,
  0xdb, 0x0a, 0x28, 0x2c, 0xe6, 0xf4, 0x05, 0xea, 0xe5, 0xeb, 0xc5, 0xb3,
  0x16, 0xe5, 0x20, 0x2a, 0x6c, 0x2d, 0x84, 0x3e, 0x59, 0xb2, 0x27, 0x30,
  0x7d, 0x8b, 0xa9, 0xaf, 0x58, 0xb5, 0xad, 0xc0, 0xbe, 0xe7, 0x2f, 0x79,
  0xf8, 0xac, 0x17, 0x1c, 0x3f, 0xad, 0x49, 0x28, 0xaf, 0x02, 0x1f, 0xae,
  0x92, 0xae, 0x9f, 0x5c, 0x99, 0x6e, 0xa6, 0xbf, 0x95, 0x33, 0x76, 0xd5,
  0xc1, 0x81, 0x0b, 0x36, 0x34, 0x54, 0xaf, 0xb7, 0x7c, 0xcb, 0x84, 0x5d,
  0xca, 0xec, 0x6f, 0x85, 0x48, 0xa7, 0x56, 0xaa, 0xbd, 0x99, 0x3b, 0x73,
  0x13, 0xf7, 0xd8, 0x86, 0x29, 0x8f, 0x3a, 0x9d, 0x18, 0xed, 0x45, 0x52,
  0x3a, 0xd6, 0x5f, 0xdc, 0x55, 0x23, 0xa5, 0xe0, 0x89, 0xa2, 0x55, 0x13,
  0xe3, 0x95, 0xa5, 0x11, 0x54, 0x7f, 0xa4, 0x21, 0x42, 0x00, 0x3e, 0x40,
  0xa2, 0xe6, 0xf7, 0xdd, 0x68, 0xb2, 0xf7, 0x74, 0x86, 0x14, 0x39, 0xce,
  0x63, 0x0b, 0xc7, 0x06, 0xdd, 0xcb, 0x79, 0x9d, 0x36, 0x1c, 0x66, 0xbd,
  0x4b, 0xc3, 0x27, 0x96, 0x89, 0xbb, 0xd5, 0x89, 0xca, 0xbc, 0x93, 0xb7,
  0xf2, 0xc6, 0x41, 0xce, 0x68, 0xa7, 0x61, 0x64, 0xdb, 0xab, 0x39, 0xc7,
  0x85, 0x50, 0x5f, 0x13, 0xd2, 0x5c, 0xfa, 0xb6, 0xe3, 0xcc, 0x38, 0xd9,
  0x9c, 0x3f, 0x99, 0x30, 0x55, 0xaa, 0x6e, 0x29, 0x2e, 0x7b, 0xfc, 0x6e,
  0xdb, 0x58, 0xfe, 0x31, 0xcf, 0xa3, 0x21, 0x5b, 0x20, 0x2f, 0x3b, 0xe0,
  0x69, 0xa4, 0xe2, 0x8c, 0xf3, 0x21, 0xf2, 0x83, 0x30, 0xa3, 0x70, 0xb2,
  0xd1, 0x6c, 0xf1, 0xf9, 0xd8, 0x33, 0x68, 0x14, 0xcd, 0xbc, 0x0a, 0xc7,
  0x06, 0x25, 0x61, 0x95, 0xf0, 0x61, 0x69, 0x2e, 0x23, 0xfe, 0xe0, 0xd8,
  0xda, 0xf7, 0xa0, 0x28, 0x9f, 0x24, 0x42, 0x20, 0x58, 0xf8, 0x86, 0x30,
  0xf1, 0xe8, 0x2b, 0x53, 0x2f, 0x07, 0xe3, 0x77, 0xb4, 0x43, 0xf2, 0x1a,
  0xc7, 0x44, 0x54, 0xac, 0xdd, 0x58, 0xdd, 0x6c, 0x1b, 0x55, 0x62, 0xf2,
  0xf8, 0xe2, 0x52, 0x70, 0xdc, 0xee, 0xdf, 0xcb, 0xd9, 0xbc, 0x76, 0x3f,
  0xaf, 0x4e, 0x11, 0x6a, 0x9b, 0xa6, 0xf3, 0xc6, 0xc9, 0xcf, 0x4f, 0x04,
  0xc1, 0x23, 0xde, 0xd9, 0xe3, 0x90, 0x63, 0x47, 0xe1, 0x1f, 0xe9, 0x13,
  0xc5, 0x98, 0x05, 0xe0, 0xb8, 0x55, 0xf0, 0x65, 0x41, 0xf8, 0xdc, 0xae,
  0x67, 0x54, 0x43, 0xbe, 0xd0, 0x95, 0x9f, 0x5b, 0x51, 0x24, 0xc8, 0x00,
  0x04, 0xd0, 0x1e, 0xaa, 0xcd, 0xf6, 0x99, 0x6a, 0x21, 0x05, 0xc9, 0x38,
  0x68, 0xd7, 0x06, 0x0f, 0x68, 0x1c, 0x9f, 0xbb, 0x54, 0xeb, 0xe3, 0x36,
  0x13, 0xd8, 0x4c, 0x3a, 0x27, 0x03, 0x99, 0xd0, 0x3b, 0xdc, 0x5c, 0x55,
  0x1c, 0xa3, 0x64, 0xa7, 0xf7, 0x72, 0x31, 0xce, 0x94, 0xd6, 0x08, 0x1c,
  0x3b, 0x35, 0x70, 0x06, 0x26, 0xac, 0x19, 0x30, 0xd7, 0xde, 0xfb, 0xe7,
  0xc0, 0x39, 0xd2, 0xdf, 0xde, 0x56, 0xda, 0x24, 0x35, 0x22, 0xdd, 0xe2,
  0x12, 0x3c, 0x2c, 0x1d, 0xfa, 0x39, 0xa4, 0xab, 0x92, 0x3d, 0xcd, 0x5f,
  0xed, 0xa5, 0xd0, 0xcb, 0x32, 0x54, 0xbd, 0xf8, 0xcf, 0x28, 0x02, 0x36,
  0xac, 0xf6, 0x28, 0x7d, 0xd3, 0x36, 0x50, 0x2c, 0x15, 0x92, 0x22, 0xe6,
  0xf9, 0x6e, 0xf9, 0x16, 0xb4, 0xb1, 0x7f, 0xdb, 0x48, 0x9e, 0x0a, 0x2a,
  0x4f, 0x4b, 0x0b, 0xae, 0x5f, 0x55, 0x5d, 0xef, 0x1d, 0xb2, 0xfb, 0xc0,
  0xfe, 0x8d, 0x1f, 0xce, 0xf4, 0x43, 0xde, 0xd1, 0xbc, 0xe1, 0xd8, 0x18,
  0x5c, 0x28, 0x30, 0x62, 0x41, 0xc3, 0xb4, 0xdf, 0x49, 0x01, 0xd7, 0xd6,
  0xa9, 0x05, 0x00, 0x2f, 0x07, 0x52, 0xe6, 0xbd, 0x78, 0x31, 0xb4, 0x42,
  0x1b, 0x6d, 0x57, 0x21, 0x33, 0x6c, 0x6a, 0x60, 0x66, 0xf3, 0x46, 0x55,
  0xbe, 0x3a, 0x92, 0xee, 0xc2, 0xa2, 0x60, 0x09, 0x95, 0xdf, 0x5d, 0x21,
  0xfe, 0x81, 0xcc, 0x28, 0x05, 0x33, 0xd3, 0x40, 0xfc, 0xd4, 0xc7, 0xe8,
  0x12, 0x0e, 0x2f, 0xef, 0xe7, 0x0b, 0xf9, 0x00, 0xf0, 0x06, 0x1d, 0x35,
  0xfe, 0xeb, 0x03, 0x0b, 0xce, 0xc7, 0xe1, 0x08, 0xc8, 0xdd, 0xf4, 0xc2,
  0x30, 0xc9, 0x34, 0xd6, 0x2a, 0xc3, 0x07, 0xf0, 0x27, 0xde, 0xf5, 0xcb,
  0x3c, 0xf4, 0xfc, 0x31, 0xca, 0x09, 0x1d, 0xe4, 0x1d, 0x2f, 0xcb, 0x19,
  0x11, 0xe3, 0xe2, 0xfe, 0xe0, 0x2e, 0x0d, 0xe8, 0x26, 0xc5, 0xf0, 0xde,
  0xf3, 0x24, 0xca, 0xca, 0xcf, 0x0b, 0xfd, 0x08, 0xfa, 0xd3, 0xe8, 0xcf,
  0xea, 0xfb, 0x27, 0x06, 0xf0, 0x24, 0x21, 0xd8, 0x0a, 0x34, 0xe3, 0x0b,
  0x2a, 0xe4, 0x0a, 0x32, 0xfb, 0xf5, 0x21, 0xc9, 0x03, 0x11, 0xf2, 0xfd,
  0x2e, 0xd2, 0x0e, 0x1e, 0x1b, 0x26, 0x20, 0x2d, 0xf9, 0x29, 0xc3, 0x01,
  0x0c, 0xef, 0xfe, 0xf5, 0x2e, 0x3a, 0x05, 0x33, 0x2b, 0xfc, 0xf8, 0x29,
  0x1c, 0xe4, 0x1b, 0x0b, 0x25, 0x35, 0x42, 0x1a, 0x13, 0xcd, 0xeb, 0x3b,
  0x38, 0xe3, 0x0c, 0xf5, 0xd3, 0xfa, 0x37, 0x1a, 0x29, 0x07, 0x18, 0xe6,
  0xf6, 0x38, 0x39, 0x44, 0x18, 0x03, 0xf8, 0x0b, 0x25, 0xcd, 0xdd, 0x18,
  0xdb, 0x1c, 0xe2, 0xde, 0x3b, 0x29, 0x2b, 0x1a, 0x2c, 0x28, 0x0c, 0xd1,
  0x29, 0x1f, 0x29, 0xca, 0x45, 0xe5, 0x23, 0x36, 0x0e, 0xe9, 0x26, 0x49,
  0x0d, 0x00, 0x04, 0xed, 0x11, 0x3a, 0xc8, 0x19, 0x0f, 0x09, 0x0c, 0x0b,
  0xec, 0x1f, 0xf8, 0xf7, 0x3c, 0xea, 0xcf, 0x26, 0x11, 0xd1, 0x27, 0xe0,
  0x00, 0xd3, 0xf6, 0xc9, 0x1b, 0x06, 0x02, 0xcc, 0x1e, 0xde, 0xec, 0xf8,
  0xce, 0x10, 0xe4, 0x42, 0x49, 0xe3, 0xdf, 0x2a, 0xef, 0x0f, 0x15, 0xe9,
  0xe1, 0x02, 0xe9, 0xdb, 0xf0, 0xd5, 0x15, 0xed, 0xd5, 0xda, 0xf6, 0xc6,
  0xf7, 0xdd, 0x2d, 0xff, 0xd1, 0x85, 0x0f, 0xf5, 0x28, 0x81, 0xc7, 0xeb,
  0x05, 0xa5, 0x0d, 0x6f, 0xc9, 0xe5, 0x2a, 0xc5, 0x21, 0xf6, 0x77, 0xea,
  0xc8, 0x8f, 0xaf, 0xb8, 0x77, 0x3e, 0x87, 0xa9, 0x43, 0x58, 0x4d, 0x8e,
  0x22, 0x31, 0xf6, 0x42, 0x70, 0xf8, 0xae, 0xe0, 0xd3, 0xcc, 0xea, 0xe8,
  0xd2, 0x29, 0xb5, 0x89, 0x3f, 0x40, 0x22, 0xda, 0xf5, 0x56, 0x8d, 0x14,
  0x5a, 0x3e, 0xe1, 0x8e, 0x75, 0xaf, 0xc7, 0xf0, 0x10, 0x64, 0x3f, 0x49,
  0x46, 0x9b, 0x87, 0x33, 0x0f, 0x15, 0x92, 0xf4, 0x1e, 0xf7, 0x92, 0x1a,
  0x6d, 0xdd, 0x5a, 0xad, 0x24, 0x66, 0x62, 0x12, 0x3a, 0x65, 0xca, 0xec,
  0x69, 0x8d, 0xbf, 0x8d, 0x35, 0x70, 0x85, 0xbc, 0xd3, 0x48, 0x95, 0x4b,
  0xa1, 0xec, 0x82, 0x55, 0x6e, 0x47, 0x91, 0x82, 0x02, 0x05, 0x1a, 0x57,
  0xea, 0x4f, 0x8a, 0xc8, 0x79, 0x75, 0x4b, 0x44, 0xdc, 0xb4, 0x9f, 0x20,
  0xc4, 0xef, 0x68, 0xe3, 0x58, 0xd3, 0x43, 0x6e, 0x01, 0x06, 0xe9, 0x70,
  0x75, 0xbb, 0x3d, 0x62, 0x7f, 0x00, 0x98, 0x13, 0xe3, 0x09, 0xe3, 0x56,
  0x2f, 0x65, 0xa5, 0x28, 0x7e, 0x3f, 0xac, 0xe5, 0x79, 0x6d, 0xc3, 0xc0,
  0xf6, 0x1d, 0xda, 0xd4, 0xa5, 0xc1, 0xcf, 0x93, 0xc0, 0xb6, 0x1b, 0xab,
  0xaa, 0xf6, 0xd3, 0x63, 0x43, 0x8c, 0x20, 0xd8, 0x93, 0xe0, 0xeb, 0x84,
  0x8d, 0xd2, 0x75, 0x6f, 0x4f, 0x47, 0xfa, 0x55, 0x6e, 0x8a, 0x2c, 0x99,
  0xc1, 0x6b, 0xd7, 0xf9, 0x24, 0x90, 0xf1, 0x4f, 0x5e, 0xcf, 0x42, 0x30,
  0x37, 0x9c, 0x24, 0x66, 0xea, 0x70, 0x30, 0x9d, 0x30, 0xa2, 0x16, 0x43,
  0xd6, 0xd2, 0xd8, 0x16, 0x45, 0x79, 0x1d, 0x3d, 0x9d, 0xfb, 0x9f, 0x24,
  0xec, 0xd2, 0xc7, 0xb0, 0x5f, 0xb5, 0x01, 0x93, 0x8b, 0x4b, 0x00, 0x1c,
  0x26, 0x89, 0x68, 0x1a, 0xe6, 0xd2, 0x5a, 0xd6, 0x5a, 0x42, 0x2d, 0x9a,
  0xb8, 0xe7, 0x66, 0x13, 0x64, 0xd2, 0xbc, 0xeb, 0xe1, 0xd8, 0x7a, 0xb3,
  0xba, 0xe5, 0x05, 0xfa, 0x9a, 0x21, 0x2d, 0x3f, 0xb3, 0x40, 0x57, 0x4f,
  0xf0, 0xd5, 0x13, 0xb8, 0x99, 0xc0, 0xf0, 0x37, 0x27, 0x57, 0xbf, 0x24,
  0x33, 0x59, 0x24, 0x58, 0xca, 0xcd, 0xfc, 0xd9, 0xda, 0x4e, 0x59, 0x28,
  0xf9, 0xc7, 0x29, 0x45, 0xf8, 0x1c, 0xed, 0xf8, 0xe6, 0x56, 0x13, 0x23,
  0x5a, 0x63, 0x0b, 0xf2, 0x3a, 0x24, 0xc7, 0xa2, 0x21, 0x21, 0x11, 0x99,
  0x52, 0x51, 0x41, 0x17, 0x3a, 0x11, 0xe6, 0x15, 0x45, 0x0b, 0x0c, 0x51,
  0x30, 0x52, 0x14, 0x4e, 0x38, 0xaa, 0x97, 0x57, 0xda, 0x10, 0xfa, 0xf4,
  0x00, 0x5a, 0xa4, 0x0b, 0xd1, 0x96, 0x19, 0xc7, 0x44, 0x17, 0x9d, 0x96,
  0x1d, 0x5f, 0x57, 0xd2, 0x0e, 0xc4, 0x16, 0x35, 0x5a, 0x34, 0x0c, 0x08,
  0x73, 0xe6, 0xfe, 0x4d, 0xdf, 0x27, 0xa1, 0xe9, 0xd7, 0xc7, 0xce, 0x33,
  0x13, 0xea, 0x9c, 0xcf, 0x25, 0x5b, 0x10, 0x37, 0x17, 0x98, 0xc0, 0x1e,
  0x1f, 0x2e, 0xea, 0xc9, 0xfc, 0xcb, 0x18, 0xf8, 0xb4, 0x42, 0x30, 0x05,
  0xac, 0xae, 0x36, 0xcd, 0x01, 0x14, 0x43, 0x0a, 0xf6, 0xc0, 0x36, 0xd1,
  0xa3, 0x0f, 0x33, 0x4e, 0x1d, 0xcb, 0x00, 0x62, 0xf6, 0x6c, 0xde, 0xdd,
  0x6d, 0x69, 0x2e, 0x1c, 0xba, 0x97, 0x1c, 0x3c, 0xd5, 0xad, 0x58, 0x93,
  0x57, 0xfd, 0xf4, 0x49, 0x2c, 0xd6, 0xdc, 0x5f, 0xd0, 0xfd, 0x0b, 0x1e,
  0x41, 0xd4, 0x30, 0xec, 0xf7, 0x24, 0x15, 0xae, 0x4e, 0xe2, 0x17, 0x58,
  0xe4, 0xc6, 0x14, 0xd5, 0x4d, 0xec, 0xd2, 0xcf, 0xc6, 0xbf, 0xb5, 0x25,
  0x23, 0xfc, 0x34, 0x70, 0xe8, 0xc1, 0xf1, 0xf1, 0x63, 0x65, 0x37, 0x81,
  0xe2, 0xa3, 0x3e, 0xe5, 0x0e, 0x3d, 0x90, 0xcf, 0xc0, 0x29, 0xb8, 0xf4,
  0xe0, 0x24, 0x06, 0x1a, 0x57, 0xeb, 0x27, 0xbe, 0xd2, 0x2a, 0x4a, 0x0f,
  0x52, 0xd1, 0xb5, 0x5e, 0xc8, 0x1a, 0x1c, 0xc2, 0x08, 0xdf, 0x5f, 0xd5,
  0x9c, 0xc2, 0x8e, 0xd1, 0x07, 0x4d, 0x69, 0x0f, 0x37, 0x05, 0x67, 0x84,
  0x9c, 0x9c, 0x51, 0x4a, 0x09, 0x71, 0xcb, 0xf4, 0x3f, 0xbf, 0x29, 0xd7,
  0x88, 0x30, 0xbf, 0x46, 0x3e, 0x89, 0x77, 0xe1, 0xe5, 0x26, 0xbd, 0x55,
  0x3b, 0x6f, 0x66, 0x86, 0x6f, 0x2d, 0x37, 0xe8, 0xf1, 0xee, 0xc5, 0x70,
  0x83, 0x92, 0x9a, 0x4c, 0x65, 0x2a, 0x81, 0xf0, 0xf9, 0xff, 0x42, 0xe0,
  0x59, 0x39, 0x56, 0xdc, 0xad, 0xc7, 0x15, 0x1c, 0x5e, 0xb5, 0xbd, 0x1d,
  0x55, 0xa2, 0x6d, 0xab, 0x47, 0x68, 0xd7, 0x8a, 0xe3, 0x8b, 0x6a, 0xa0,
  0x6b, 0x53, 0x93, 0x0d, 0xcb, 0xab, 0x02, 0x27, 0x4b, 0x6a, 0x44, 0xad,
  0x0f, 0xa1, 0x0a, 0x5f, 0x6b, 0x69, 0xb6, 0xe9, 0xff, 0xb4, 0x93, 0x86,
  0x8c, 0x8f, 0xd6, 0x14, 0xb4, 0xd8, 0x54, 0xb2, 0x9c, 0x55, 0x20, 0xc4,
  0x8f, 0xa4, 0xad, 0xab, 0xa6, 0x69, 0x3f, 0x65, 0x48, 0xdc, 0x99, 0x4a,
  0x56, 0x19, 0x02, 0x4d, 0xfe, 0xd2, 0xfe, 0x7c, 0xc5, 0x3b, 0x85, 0xc0,
  0x24, 0x44, 0x89, 0x9b, 0x6b, 0xaa, 0xc0, 0x95, 0x78, 0xbc, 0xeb, 0xbe,
  0x3f, 0xfd, 0xb7, 0x2e, 0x46, 0x8c, 0xfd, 0xa7, 0xc9, 0x53, 0x49, 0x8c,
  0x02, 0x12, 0xed, 0x47, 0x8e, 0xb7, 0x76, 0x33, 0x0d, 0xe2, 0x68, 0x98,
  0x05, 0xcc, 0x8d, 0xdc, 0xb3, 0xe6, 0xb1, 0x38, 0x2d, 0xc7, 0xaa, 0xa3,
  0xb7, 0xf2, 0x47, 0x81, 0xda, 0xd6, 0x17, 0x73, 0x18, 0xf5, 0x70, 0x9a,
  0x72, 0xf8, 0x84, 0x53, 0x96, 0x39, 0xa1, 0x49, 0x4f, 0x1c, 0x01, 0xf2,
  0x0e, 0x10, 0x0e, 0xe4, 0x81, 0xb7, 0x6c, 0xb0, 0xd2, 0xb9, 0x1a, 0xef,
  0x4d, 0x10, 0xd4, 0x6f, 0x74, 0xa9, 0x43, 0x27, 0xc4, 0xc7, 0x91, 0xa9,
  0x31, 0xbc, 0xfe, 0xa9, 0xf5, 0x22, 0xbf, 0xf9, 0x66, 0xd2, 0x23, 0xbc,
  0x4c, 0x96, 0x9a, 0x6f, 0xf1, 0xc8, 0x02, 0xc4, 0x4e, 0x64, 0x3e, 0x31,
  0xcf, 0x41, 0x11, 0x7d, 0x1b, 0xfe, 0x96, 0x54, 0xd9, 0x9a, 0x4d, 0x99,
  0x4c, 0x0e, 0x16, 0x74, 0x30, 0xc5, 0x8b, 0x2c, 0xcb, 0xe2, 0x9f, 0xa6,
  0x42, 0x0e, 0x46, 0x35, 0x04, 0xa2, 0x40, 0x5b, 0x4c, 0x09, 0x0c, 0x48,
  0x67, 0x20, 0x4a, 0x64, 0xe9, 0xc2, 0x23, 0x31, 0x11, 0x0f, 0xf5, 0xe5,
  0x4e, 0xec, 0x36, 0xe2, 0x09, 0x56, 0x01, 0xe3, 0x39, 0x33, 0x9b, 0xe1,
  0xcf, 0x30, 0xbb, 0x77, 0x16, 0xea, 0xd8, 0x87, 0x02, 0x8b, 0xcf, 0xeb,
  0xfb, 0x54, 0xb9, 0x24, 0xd9, 0x63, 0x34, 0xd0, 0x04, 0x0c, 0x1e, 0xb9,
  0x31, 0x94, 0x4d, 0xbd, 0x47, 0xfb, 0x3f, 0xc6, 0x9f, 0x21, 0x16, 0xde,
  0x1a, 0x25, 0x18, 0xd7, 0x73, 0xcd, 0x9e, 0x12, 0x79, 0x5e, 0xce, 0x36,
  0x39, 0x17, 0xa4, 0xb0, 0x99, 0x88, 0xbf, 0xae, 0xa5, 0x23, 0xe9, 0x4f,
  0x96, 0xa6, 0x71, 0xe3, 0xd5, 0x2e, 0x49, 0x6f, 0x2a, 0xf6, 0x4f, 0x05,
  0xc1, 0xad, 0x81, 0x66, 0xb4, 0x05, 0x26, 0x16, 0xa7, 0xa7, 0x32, 0xd0,
  0x41, 0x0c, 0x5d, 0x3c, 0xf0, 0xd1, 0x06, 0xf1, 0xaf, 0xbd, 0x49, 0x45,
  0x07, 0x02, 0xdc, 0xb1, 0x54, 0x2c, 0x56, 0xbd, 0x45, 0xe3, 0x12, 0x93,
  0x24, 0x8e, 0x1c, 0x26, 0x07, 0xde, 0x05, 0x8e, 0x87, 0xfc, 0x15, 0xe4,
  0x9e, 0xae, 0x22, 0x16, 0x2e, 0x64, 0x48, 0x9a, 0xe6, 0x4e, 0x65, 0xd6,
  0xbd, 0xf5, 0xb5, 0xb3, 0x13, 0xb0, 0xf4, 0x58, 0x6c, 0x4b, 0x18, 0xdd,
  0xbd, 0x96, 0xaa, 0x12, 0x47, 0x9b, 0xd2, 0x12, 0xcd, 0xc9, 0xcb, 0x07,
  0xc7, 0x1d, 0xee, 0xe4, 0xa2, 0xff, 0xa3, 0xb9, 0x04, 0x7f, 0xb8, 0x37,
  0x1a, 0x37, 0xab, 0x07, 0x0d, 0xee, 0x0f, 0x27, 0xf1, 0xfb, 0x5e, 0xbe,
  0x4b, 0x2d, 0x17, 0x2c, 0x62, 0xca, 0xcd, 0xa3, 0x04, 0x59, 0x5a, 0xc6,
  0x28, 0x50, 0xd4, 0xc2, 0x28, 0x31, 0x9b, 0x11, 0x01, 0x1b, 0x59, 0x3f,
  0x4a, 0x63, 0x4b, 0x54, 0xe3, 0xd7, 0xdf, 0x42, 0x4f, 0xf8, 0x20, 0xc3,
  0xcb, 0x04, 0x5b, 0xfa, 0x3b, 0xf5, 0xef, 0x20, 0x4d, 0x34, 0xf4, 0xd9,
  0xc9, 0x9d, 0xe5, 0x40, 0x49, 0x32, 0xdb, 0xc5, 0x43, 0x4f, 0x24, 0x2e,
  0xde, 0xdd, 0xa8, 0xed, 0x3c, 0x2e, 0xe4, 0x15, 0x29, 0x42, 0x41, 0xea,
  0xc5, 0x41, 0x09, 0x17, 0xa2, 0xcf, 0x0e, 0xbe, 0x5e, 0xd0, 0x4b, 0x51,
  0x1d, 0xc2, 0xfe, 0x3f, 0x43, 0x13, 0x99, 0x5d, 0xbf, 0x0a, 0x5c, 0x33,
  0xcd, 0x43, 0x64, 0x66, 0xd3, 0x50, 0x3e, 0x1e, 0x36, 0xa2, 0x24, 0xe7,
  0xba, 0x60, 0x60, 0xf4, 0x3e, 0x60, 0x55, 0x3d, 0x9a, 0xd1, 0x3c, 0xea,
  0xee, 0xb5, 0x01, 0x97, 0x2c, 0xc3, 0x2c, 0x02, 0x04, 0x4b, 0x30, 0xf2,
  0x41, 0xfc, 0x01, 0x5b, 0xd5, 0xae, 0x39, 0x3f, 0x18, 0x44, 0x40, 0x37,
  0xc2, 0x4a, 0x0d, 0x65, 0x66, 0x49, 0x55, 0x07, 0x4c, 0xae, 0x2e, 0xec,
  0x3f, 0x4e, 0x2e, 0xf4, 0xea, 0xdb, 0x1b, 0x10, 0xdb, 0xcb, 0xdc, 0x0f,
  0x56, 0x18, 0xf0, 0x08, 0x58, 0x51, 0xd6, 0x1b, 0x08, 0xd2, 0xd5, 0xf8,
  0xfa, 0xa9, 0xe5, 0x59, 0x48, 0xc9, 0x4c, 0xcf, 0xc6, 0xe0, 0x50, 0xf2,
  0xd3, 0xc2, 0x92, 0xd1, 0xac, 0xb9, 0xb2, 0x98, 0x9a, 0x53, 0x53, 0xd5,
  0x26, 0x56, 0x5c, 0xbf, 0xf8, 0x25, 0x25, 0x37, 0x01, 0x4c, 0x4e, 0x03,
  0x2f, 0x02, 0xe9, 0xf4, 0xd4, 0xe7, 0x5c, 0xa7, 0xe3, 0xdc, 0xb4, 0x72,
  0x26, 0x61, 0x04, 0xaa, 0x18, 0xfa, 0x4b, 0x25, 0x15, 0xec, 0xca, 0xc2,
  0x15, 0x1c, 0x87, 0x91, 0x2d, 0xf1, 0x2a, 0x84, 0xc2, 0xe1, 0xf6, 0x1d,
  0xc4, 0xb5, 0x89, 0x39, 0x7f, 0x24, 0xdb, 0x0d, 0x3b, 0x9e, 0x45, 0x31,
  0xef, 0xb5, 0x07, 0xa8, 0xe7, 0x91, 0x1d, 0x15, 0xa4, 0xca, 0x1e, 0x66,
  0x6e, 0x19, 0x6d, 0x1f, 0xde, 0xb2, 0x45, 0x98, 0xb4, 0x94, 0x38, 0x96,
  0xf1, 0xe7, 0x02, 0xc3, 0xcd, 0x84, 0xc1, 0x9a, 0x37, 0xb8, 0x29, 0xb8,
  0x1f, 0x7c, 0xd9, 0x00, 0xc2, 0x03, 0x9d, 0x7d, 0xbf, 0x8b, 0xbe, 0xda,
  0x18, 0xec, 0xe6, 0xd6, 0x0c, 0xe4, 0x41, 0xb3, 0x10, 0xaf, 0xf6, 0xfc,
  0x77, 0x33, 0x90, 0x09, 0xa3, 0xd0, 0x13, 0xcd, 0x81, 0x9e, 0x23, 0x97,
  0xa9, 0xe6, 0x0d, 0xe6, 0x1c, 0xb4, 0xdb, 0x18, 0x86, 0x96, 0x1c, 0x45,
  0x03, 0x2b, 0x60, 0x75, 0x8d, 0x1b, 0x05, 0xbb, 0x81, 0xac, 0x4d, 0xb0,
  0x02, 0x6a, 0xdf, 0xe0, 0xc3, 0x35, 0xbe, 0x72, 0x20, 0xe6, 0xa0, 0xb6,
  0x89, 0x8f, 0xa6, 0xbe, 0x55, 0x40, 0x9d, 0x5f, 0x23, 0x94, 0xc1, 0x75,
  0xe2, 0xbe, 0xe3, 0xb0, 0x09, 0x98, 0xce, 0x88, 0x9f, 0xd8, 0x63, 0x11,
  0x33, 0x1f, 0x94, 0x76, 0xb2, 0x61, 0x36, 0x17, 0x40, 0x42, 0xd1, 0x64,
  0x42, 0xf2, 0xb4, 0x34, 0x0a, 0x0f, 0xef, 0x8f, 0x59, 0x0a, 0x9c, 0x6f,
  0xc1, 0x36, 0xb8, 0x38, 0x28, 0x48, 0x57, 0x7b, 0x97, 0x19, 0xb9, 0xc3,
  0xec, 0x8f, 0xa0, 0xc3, 0x77, 0xa1, 0x44, 0x11, 0x96, 0xaa, 0x38, 0xee,
  0x97, 0xe8, 0x34, 0xa9, 0x8a, 0x04, 0xa8, 0x35, 0x5e, 0xe4, 0xc3, 0xae,
  0x47, 0x54, 0xce, 0x42, 0x49, 0x37, 0x6b, 0xf6, 0xe3, 0xe9, 0xeb, 0x1b,
  0xc8, 0x25, 0xea, 0xfa, 0xdb, 0x9e, 0x73, 0xe8, 0x83, 0x9b, 0x4d, 0x95,
  0x65, 0x65, 0xa7, 0x5d, 0x42, 0x9b, 0x41, 0x0d, 0x99, 0x2b, 0x42, 0x5b,
  0x77, 0xd6, 0x5c, 0x45, 0x4e, 0xfd, 0xf5, 0xac, 0xcf, 0xd0, 0xcd, 0x4d,
  0x42, 0xc5, 0x8a, 0x89, 0x0b, 0xcf, 0xad, 0xa2, 0x78, 0xb1, 0x16, 0x79,
  0xd3, 0xb5, 0x55, 0x87, 0x33, 0xba, 0x9c, 0x6b, 0xa2, 0x1a, 0xeb, 0xaf,
  0xf9, 0x18, 0x1b, 0x33, 0x4b, 0x9f, 0xab, 0xf9, 0xfa, 0x59, 0x24, 0x89,
  0xa8, 0xe7, 0xc7, 0xb2, 0x19, 0xc2, 0xdd, 0x87, 0x37, 0x10, 0xc4, 0xfe,
  0xf4, 0x3b, 0xf4, 0x45, 0x54, 0x5c, 0x03, 0x46, 0xff, 0xd7, 0xd9, 0x4e,
  0x4b, 0x57, 0xf2, 0x11, 0x67, 0x67, 0xc3, 0xd6, 0x5b, 0x05, 0x2a, 0x3a,
  0xe0, 0xf8, 0xcf, 0x85, 0x5c, 0x01, 0xd0, 0xf9, 0x95, 0x6b, 0xc7, 0xe2,
  0x6d, 0xa2, 0x1b, 0xf4, 0x75, 0x6a, 0xea, 0x35, 0x49, 0xd9, 0x3c, 0xdf,
  0x7b, 0xb6, 0x21, 0x94, 0x30, 0x4e, 0x9b, 0x31, 0x63, 0xad, 0x31, 0xee,
  0x81, 0xe0, 0xa1, 0xa7, 0xa8, 0xc2, 0xae, 0x0f, 0xd4, 0x44, 0x3c, 0x21,
  0x8b, 0x91, 0x68, 0x51, 0x79, 0x96, 0x44, 0x23, 0x36, 0xc4, 0x75, 0x90,
  0x4f, 0xfa, 0x86, 0x2a, 0x36, 0x3a, 0x83, 0x06, 0x95, 0x48, 0x1b, 0x73,
  0x19, 0xcf, 0x88, 0x42, 0x82, 0xd6, 0xf9, 0x0c, 0x47, 0x81, 0xdf, 0x8a,
  0x89, 0xa9, 0x15, 0x56, 0xb6, 0x07, 0x71, 0xda, 0xc7, 0xc1, 0x3e, 0x83,
  0x7f, 0x20, 0xf8, 0xa4, 0x20, 0x52, 0xc4, 0xe2, 0x7a, 0x72, 0x9d, 0xf6,
  0x6b, 0xdf, 0x1b, 0x3d, 0x8e, 0x50, 0x4f, 0xf6, 0x2f, 0x61, 0xa6, 0xa9,
  0x72, 0xf8, 0x3b, 0xf6, 0xa0, 0x15, 0x12, 0xa5, 0x61, 0x49, 0xaa, 0x2c,
  0xec, 0xfc, 0xdd, 0xcc, 0x87, 0xff, 0x51, 0x4b, 0xcd, 0x7f, 0xe5, 0x99,
  0xd7, 0x71, 0x01, 0x7c, 0xbf, 0x91, 0x44, 0xbd, 0x55, 0x07, 0x89, 0x48,
  0xf4, 0x36, 0xa7, 0x88, 0x0c, 0x6e, 0x4f, 0xd7, 0x8c, 0x82, 0xa1, 0xeb,
  0x5b, 0xec, 0xf5, 0x4e, 0x9d, 0x10, 0x61, 0x76, 0xf4, 0x1b, 0xb3, 0xb6,
  0xbc, 0xf2, 0xd1, 0x67, 0xd9, 0x47, 0x5f, 0x32, 0xb8, 0xce, 0x6f, 0x7f,
  0x1b, 0xcf, 0x3c, 0xf7, 0xdc, 0x37, 0x14, 0x92, 0x1b, 0xb2, 0xa3, 0xdb,
  0x9a, 0x68, 0xe9, 0x44, 0x07, 0xcd, 0x0a, 0x22, 0x3d, 0x56, 0xec, 0xf2,
  0x40, 0xd0, 0x6b, 0x95, 0x69, 0x5e, 0x9d, 0x19, 0x24, 0x65, 0x51, 0xbd,
  0x3d, 0xce, 0xbc, 0xd6, 0x51, 0x16, 0xff, 0xf5, 0x47, 0xf4, 0x60, 0x01,
  0x36, 0xd6, 0xf4, 0xa5, 0x32, 0xda, 0x09, 0x2d, 0x30, 0xe1, 0xb5, 0x20,
  0x6d, 0xe6, 0x3d, 0x4f, 0x34, 0xc3, 0xd0, 0x1f, 0x98, 0xe4, 0x5d, 0xd7,
  0x2a, 0xa9, 0x5f, 0x96, 0x58, 0x1a, 0xbc, 0x39, 0x1e, 0xa6, 0x46, 0x38,
  0xa7, 0x23, 0xad, 0xbf, 0xa8, 0xc8, 0x02, 0x58, 0xf8, 0x90, 0x9c, 0x62,
  0x4d, 0xab, 0x30, 0x93, 0x0f, 0x4b, 0x4c, 0xa6, 0x3e, 0x9a, 0x4b, 0xf5,
  0xea, 0x65, 0x55, 0x61, 0x1c, 0x3c, 0x58, 0x1c, 0x1f, 0xe4, 0xcf, 0x41,
  0x25, 0x35, 0xdf, 0xdf, 0x32, 0x1e, 0x18, 0x29, 0xd9, 0x25, 0x62, 0x4e,
  0xc4, 0x3a, 0x65, 0xcc, 0x99, 0xb5, 0xd5, 0x4c, 0x08, 0x8e, 0x6a, 0x3e,
  0xff, 0x4d, 0x58, 0x74, 0x32, 0x41, 0x7a, 0x34, 0x79, 0x29, 0xcf, 0x98,
  0x17, 0x6d, 0x9c, 0xaa, 0x53, 0x28, 0xc2, 0xf2, 0x93, 0x29, 0xd3, 0xc6,
  0x82, 0x67, 0xfc, 0x34, 0xee, 0xb4, 0x3c, 0x5a, 0xa7, 0x39, 0x57, 0xc2,
  0xed, 0x60, 0xb3, 0x5c, 0x3a, 0x34, 0xbe, 0x47, 0xa7, 0xe2, 0x46, 0x00,
  0xe9, 0x1e, 0x49, 0xe2, 0x04, 0x19, 0x2e, 0xc5, 0x08, 0x6e, 0xdd, 0xba,
  0x9f, 0x63, 0xfc, 0x91, 0x72, 0x03, 0xf3, 0xf8, 0xad, 0x68, 0x5a, 0x06,
  0xf8, 0xa1, 0x66, 0xed, 0x5f, 0x19, 0xd0, 0x02, 0x2c, 0x5d, 0x70, 0xd2,
  0xbc, 0x33, 0x55, 0xe5, 0xb3, 0x6c, 0xe8, 0x11, 0xf2, 0xc8, 0x9c, 0xcd,
  0xfa, 0xbe, 0x22, 0x5f, 0xaa, 0xd1, 0xe7, 0xaa, 0xc6, 0xb3, 0x03, 0xda,
  0x5f, 0xc4, 0xb3, 0x35, 0x01, 0x45, 0xbe, 0xe0, 0xba, 0x14, 0x04, 0xf1,
  0x3d, 0x3f, 0x47, 0x5a, 0x2c, 0x14, 0x69, 0xbb, 0x3d, 0xaa, 0x50, 0x15,
  0xe3, 0xad, 0xe2, 0xdc, 0xff, 0x16, 0xf1, 0xa9, 0x02, 0x58, 0xc8, 0x59,
  0x54, 0x40, 0xdd, 0x24, 0x3e, 0xf8, 0x33, 0xe2, 0xd6, 0x1e, 0x0d, 0x5c,
  0x3b, 0x36, 0xb1, 0x19, 0xd9, 0xf1, 0x45, 0xbc, 0xcf, 0xca, 0x3a, 0xf3,
  0x15, 0xf2, 0x26, 0x49, 0xbc, 0x04, 0xdb, 0xec, 0xa9, 0x2c, 0x3e, 0xfa,
  0x38, 0x5d, 0x3e, 0x0b, 0xbf, 0xf8, 0x18, 0x34, 0x08, 0x58, 0xe0, 0xb1,
  0x1e, 0x56, 0xb4, 0x2a, 0x4d, 0xd0, 0xef, 0xc6, 0xd2, 0x02, 0xf6, 0x54,
  0xdf, 0x60, 0xc6, 0xb4, 0x1d, 0xec, 0xb3, 0x0e, 0xe3, 0x5f, 0xe8, 0x00,
  0x3e, 0xd2, 0xba, 0xda, 0xe4, 0xdf, 0x02, 0xf3, 0xb3, 0xf2, 0x03, 0x0b,
  0x59, 0x63, 0x42, 0x39, 0xe5, 0xef, 0xac, 0xd8, 0x44, 0x40, 0x33, 0xb4,
  0xfd, 0xaa, 0xf8, 0x56, 0xf4, 0xf9, 0xeb, 0xfd, 0x2c, 0x13, 0x11, 0x00,
  0xd8, 0x16, 0x4d, 0x5e, 0xa6, 0x22, 0x2f, 0x17, 0x00, 0x05, 0xa6, 0xd7,
  0x48, 0xa1, 0xba, 0x59, 0xae, 0x40, 0x2e, 0x45, 0xe9, 0xa0, 0xf2, 0x63,
  0xe5, 0xe6, 0xd1, 0xb8, 0x2d, 0x2f, 0x22, 0xb7, 0xea, 0xa8, 0x5c, 0x54,
  0x59, 0x41, 0xe4, 0x1a, 0x32, 0xce, 0xc2, 0x73, 0x59, 0x3f, 0x72, 0xf4,
  0x4a, 0x1a, 0xe5, 0x33, 0xa2, 0xf1, 0x14, 0x66, 0x5e, 0xde, 0x29, 0x01,
  0x06, 0x5a, 0xc7, 0xcc, 0xec, 0x25, 0xcf, 0xf5, 0x3d, 0x4e, 0xb7, 0xaf,
  0x05, 0x30, 0x54, 0x57, 0xed, 0xa1, 0xc0, 0x22, 0x3e, 0x4b, 0x1c, 0xb9,
  0xb2, 0xb4, 0xfc, 0x17, 0xb9, 0xaa, 0x81, 0x05, 0x43, 0xa1, 0xa1, 0x95,
  0x3f, 0x49, 0xe1, 0xfb, 0xc8, 0xa2, 0x6a, 0x73, 0xd5, 0x86, 0xd3, 0x71,
  0x67, 0x5a, 0x92, 0xfa, 0x42, 0x28, 0x92, 0x25, 0xb3, 0x0c, 0x14, 0x45,
  0x42, 0xde, 0xe4, 0xa4, 0x70, 0x1a, 0x79, 0xde, 0xaa, 0xd1, 0x28, 0x8b,
  0x9f, 0xf1, 0x5f, 0x8b, 0x01, 0xc6, 0x7f, 0xa0, 0x50, 0xa8, 0x7b, 0xc0,
  0xe6, 0xc5, 0xad, 0x9b, 0x5f, 0xe9, 0x11, 0x87, 0x8d, 0x2c, 0xfc, 0x82,
  0x7b, 0x1a, 0xa7, 0xa3, 0xda, 0x8b, 0xcd, 0x44, 0xcc, 0xc7, 0x90, 0x03,
  0xf6, 0x33, 0x06, 0x67, 0x26, 0x69, 0xc7, 0xbe, 0x89, 0x05, 0x77, 0xae,
  0xa7, 0x71, 0x36, 0xd8, 0x67, 0xaa, 0x82, 0xd7, 0x65, 0x64, 0x68, 0xae,
  0x55, 0xbd, 0xf4, 0x8a, 0xd9, 0x9a, 0x7c, 0xc1, 0x12, 0x89, 0xab, 0x7d,
  0x24, 0x1d, 0xe3, 0xc4, 0x56, 0xac, 0xe9, 0xfd, 0xf2, 0xa0, 0x2b, 0x82,
  0x40, 0xf0, 0xed, 0x82, 0x5a, 0x32, 0xb6, 0xc7, 0xb2, 0xfa, 0xce, 0x91,
  0xd7, 0xb2, 0x8f, 0xfb, 0xbe, 0x54, 0xd4, 0xb7, 0x2c, 0xb7, 0xb7, 0x75,
  0xf1, 0x38, 0x3f, 0x62, 0x2c, 0x1b, 0xcb, 0xc4, 0xd5, 0xf4, 0x64, 0x4d,
  0x93, 0xaf, 0xe2, 0xbe, 0x84, 0x36, 0x1b, 0x1b, 0xb5, 0x77, 0xcb, 0x84,
  0x18, 0xcc, 0xe6, 0xa3, 0x45, 0x50, 0x14, 0x04, 0x67, 0x88, 0x88, 0x5e,
  0x0a, 0x8d, 0xf3, 0xaf, 0x52, 0xc5, 0x6b, 0x46, 0x9a, 0xc1, 0xb5, 0x82,
  0x87, 0x0d, 0xb4, 0x97, 0x0b, 0xfe, 0x90, 0xd7, 0x69, 0xe4, 0x8a, 0xa0,
  0xa0, 0x50, 0x91, 0x64, 0x81, 0xdf, 0x6c, 0xa6, 0x4e, 0x92, 0xf5, 0x53,
  0xc1, 0x4b, 0x9e, 0x66, 0x3b, 0x1a, 0x0c, 0xa2, 0x85, 0xe2, 0x49, 0x78,
  0x09, 0x42, 0x7e, 0xbd, 0x61, 0xd3, 0xe5, 0x3c, 0xb8, 0x28, 0xc9, 0x46,
  0xbf, 0xe4, 0x9f, 0xc5, 0x03, 0xed, 0xc3, 0xd2, 0x4d, 0x79, 0xc9, 0xb6,
  0xbe, 0x81, 0xb2, 0x74, 0x12, 0xa7, 0x26, 0xed, 0x71, 0xfb, 0x5d, 0xfc,
  0xf8, 0x32, 0xcd, 0x2e, 0xf4, 0x63, 0x2b, 0xa0, 0x05, 0xaa, 0x5b, 0xb6,
  0x76, 0xb8, 0xc0, 0xf5, 0x30, 0x51, 0x0c, 0x5d, 0xb7, 0xd4, 0x30, 0x63,
  0xb6, 0xb2, 0x44, 0xa6, 0x1e, 0x1a, 0x16, 0x1b, 0x67, 0x49, 0xe4, 0x52,
  0xb2, 0xcc, 0x5e, 0x81, 0xfe, 0x86, 0xd9, 0x2f, 0xe0, 0x46, 0xca, 0xf5,
  0x43, 0x04, 0x95, 0xb7, 0x1a, 0x94, 0x6e, 0x30, 0xa9, 0x20, 0xb3, 0x92,
  0x6b, 0x37, 0x47, 0x54, 0x3d, 0x5a, 0x1b, 0x43, 0x2e, 0x61, 0x3c, 0x06,
  0x5c, 0xce, 0x11, 0xf5, 0x48, 0xa6, 0xc4, 0x51, 0xb8, 0x8d, 0xd2, 0x08,
  0xc5, 0x0d, 0x8d, 0xf6, 0xbf, 0xee, 0x92, 0x2b, 0x0c, 0x01, 0x44, 0x3e,
  0x8b, 0x38, 0x96, 0xa6, 0x83, 0x2f, 0x5d, 0xd1, 0x8a, 0xed, 0xb6, 0xf0,
  0xb6, 0xf2, 0x21, 0x29, 0x48, 0x34, 0x06, 0x6f, 0x84, 0x21, 0x8d, 0x64,
  0xb6, 0xbd, 0x84, 0x4f, 0x3e, 0xbf, 0x3b, 0xe2, 0xd6, 0xff, 0x48, 0x95,
  0x0b, 0xfe, 0x9e, 0x70, 0x02, 0x6f, 0x9e, 0x9b, 0xb9, 0xa9, 0xf0, 0xa6,
  0xfc, 0x49, 0x27, 0x42, 0x06, 0x65, 0xfb, 0xd1, 0x9f, 0xa9, 0xd9, 0x06,
  0x27, 0xd9, 0xaa, 0xa0, 0x54, 0xe5, 0xbe, 0x4e, 0xe3, 0x32, 0xb3, 0xc1,
  0x69, 0x67, 0xf2, 0xff, 0x4d, 0x59, 0x39, 0xd4, 0xde, 0xac, 0xff, 0xf3,
  0x3b, 0x1c, 0x3a, 0x5f, 0xf3, 0xdd, 0x19, 0xfe, 0x3a, 0xf5, 0x46, 0xda,
  0xca, 0xe7, 0x2a, 0xf3, 0x93, 0x0b, 0xc7, 0x26, 0x6d, 0xef, 0xce, 0x6a,
  0xfd, 0x9c, 0xd2, 0xaf, 0xfe, 0xe3, 0xba, 0x30, 0x0e, 0x84, 0xd4, 0xce,
  0x52, 0xd8, 0x85, 0x5d, 0xbe, 0xbd, 0x9e, 0x44, 0xde, 0xc7, 0xa6, 0x2e,
  0x84, 0xb0, 0x27, 0xa3, 0x45, 0x91, 0x0b, 0x0b, 0x44, 0xe9, 0x68, 0x21,
  0xa8, 0xe4, 0x9b, 0x98, 0xb2, 0xae, 0xa2, 0x9c, 0x8b, 0xb3, 0x10, 0x72,
  0xfb, 0x25, 0x18, 0xca, 0x6a, 0x69, 0xc2, 0x58, 0xcf, 0x82, 0x17, 0xd8,
  0x3d, 0x90, 0x21, 0xb0, 0x8a, 0xba, 0x7f, 0xbf, 0x4b, 0x4b, 0x5c, 0xbd,
  0x4f, 0xa7, 0xbb, 0x2d, 0x90, 0x3e, 0x4f, 0x5a, 0xa9, 0x27, 0xe1, 0x0d,
  0xde, 0x05, 0x79, 0x09, 0x1a, 0x74, 0xd0, 0x8e, 0x36, 0xf4, 0xbf, 0x71,
  0xce, 0x2b, 0x45, 0xad, 0x90, 0x35, 0xbb, 0x16, 0xad, 0x10, 0x0a, 0x8b,
  0x68, 0x07, 0x5a, 0xc6, 0x18, 0xa6, 0xd3, 0x4f, 0x3d, 0xb1, 0xe2, 0x91,
  0x6e, 0xe2, 0x09, 0xd3, 0x57, 0x93, 0xbb, 0xd1, 0x5c, 0xa8, 0x42, 0x74,
  0xe9, 0x90, 0xa1, 0x71, 0x3b, 0x4f, 0xe1, 0xbf, 0xe7, 0x8c, 0x12, 0xaa,
  0x08, 0x0b, 0x0c, 0x71, 0xc2, 0x78, 0x6d, 0xe0, 0x60, 0xa6, 0xa4, 0x12,
  0xb2, 0x71, 0x43, 0xc5, 0x7d, 0xe5, 0xc1, 0x1b, 0x3b, 0x89, 0xf0, 0xac,
  0xf4, 0x8f, 0x28, 0xaf, 0x95, 0x29, 0xb1, 0xa6, 0x26, 0xe9, 0xd1, 0x79,
  0x2a, 0x62, 0xf1, 0xa6, 0xb9, 0x52, 0x45, 0xa8, 0x6b, 0x79, 0x1e, 0x72,
  0x34, 0xfc, 0xc5, 0x6e, 0xa6, 0x50, 0x8b, 0xe7, 0xb4, 0xee, 0xda, 0xf6,
  0x88, 0xd5, 0xa8, 0x1d, 0x09, 0x77, 0xa5, 0xfb, 0xb2, 0x18, 0x2d, 0xb5,
  0xf9, 0xb1, 0x14, 0x89, 0x53, 0x44, 0xd5, 0x71, 0xfa, 0x25, 0x74, 0x1b,
  0x3c, 0xc9, 0xa7, 0x4d, 0x36, 0xee, 0xc5, 0xe2, 0x5a, 0xfa, 0x61, 0x27,
  0x3c, 0x3c, 0xe6, 0x60, 0xf0, 0x3a, 0xa3, 0x60, 0xd2, 0x0b, 0xfa, 0xbb,
  0x8c, 0x59, 0xa4, 0x92, 0x4a, 0xed, 0xa5, 0xa0, 0xf0, 0xa3, 0xc6, 0x85,
  0x22, 0x98, 0xf4, 0xc8, 0x64, 0xa0, 0x41, 0xf3, 0xf1, 0x19, 0x69, 0x17,
  0x89, 0x1c, 0x36, 0x61, 0x57, 0x69, 0x1b, 0x8f, 0x5b, 0xfc, 0xc0, 0xad,
  0x58, 0x28, 0x88, 0x6c, 0xc9, 0x70, 0x8e, 0x2e, 0x2e, 0xa2, 0x56, 0x43,
  0xec, 0x72, 0x87, 0xb3, 0x39, 0x19, 0x1e, 0xdc, 0x28, 0x05, 0x16, 0xa9,
  0x15, 0xb7, 0xd0, 0xab, 0xb6, 0xc6, 0x44, 0x4f, 0x37, 0xad, 0xcc, 0x6f,
  0xbd, 0x91, 0x0f, 0x2d, 0xbc, 0x38, 0x44, 0x0e, 0xbf, 0x2b, 0x0a, 0xf7,
  0x55, 0x18, 0xd9, 0xcd, 0x25, 0xd0, 0xbf, 0xe8, 0xbc, 0x0c, 0xca, 0x30,
  0xa4, 0xa1, 0x5f, 0x50, 0xba, 0x06, 0x1d, 0x14, 0x91, 0x57, 0x57, 0x68,
  0xe8, 0x3e, 0x2f, 0xc1, 0xb8, 0x3b, 0xe6, 0x49, 0x4a, 0x19, 0x0e, 0xb4,
  0xf2, 0x51, 0x37, 0x2d, 0x68, 0xa3, 0x05, 0xeb, 0x6e, 0xa5, 0x41, 0xe0,
  0x6a, 0x53, 0x2c, 0xab, 0x24, 0xfd, 0x96, 0x3a, 0xfd, 0x9e, 0x0d, 0x44,
  0x00, 0x3c, 0x33, 0x4d, 0xe6, 0xc4, 0x64, 0xc4, 0xd7, 0x3b, 0xcc, 0x5e,
  0x4e, 0x0c, 0xb2, 0xcb, 0x63, 0x66, 0xfc, 0x12, 0xcd, 0x3e, 0x03, 0x94,
  0xae, 0xe1, 0xca, 0xc1, 0x05, 0xbd, 0x29, 0x59, 0x10, 0xa5, 0x9c, 0x84,
  0x31, 0xc7, 0x48, 0x2a, 0x34, 0x11, 0xd9, 0xf8, 0xb7, 0x0a, 0x1b, 0xa0,
  0xe0, 0x25, 0xce, 0x5f, 0xee, 0x2b, 0x89, 0xab, 0xe0, 0xb8, 0x6a, 0xf9,
  0x66, 0xfc, 0x9a, 0xb6, 0xb2, 0x33, 0xf9, 0xb4, 0x1d, 0x10, 0xee, 0x66,
  0x6a, 0x6f, 0xcb, 0xc4, 0xa6, 0xcc, 0x3f, 0x5e, 0x1e, 0xa1, 0xe3, 0x4a,
  0x03, 0xc5, 0xe8, 0xe5, 0xb9, 0x06, 0x93, 0xad, 0x01, 0x73, 0x58, 0x24,
  0x1e, 0x40, 0x49, 0x9e, 0x5e, 0xe9, 0xdf, 0x5c, 0x2a, 0x30, 0xee, 0xa9,
  0x00, 0x51, 0xc1, 0x30, 0x98, 0x59, 0x99, 0xba, 0xb0, 0xc3, 0x9f, 0x74,
  0xf3, 0x9e, 0x3c, 0x48, 0xa6, 0x6e, 0x7f, 0x17, 0x61, 0xd0, 0xc6, 0x4f,
  0xda, 0x64, 0xd4, 0xc2, 0xf3, 0xcb, 0xdb, 0x71, 0x7c, 0xf6, 0xef, 0xe3,
  0x0d, 0xfe, 0x2e, 0x36, 0xdf, 0x30, 0xb0, 0x5a, 0x58, 0x15, 0xed, 0x48,
  0x1c, 0xcc, 0x46, 0x6d, 0x04, 0xba, 0x32, 0xaf, 0x68, 0x40, 0xd1, 0x2b,
  0xea, 0x32, 0x0c, 0x3a, 0x55, 0x54, 0x84, 0xde, 0x93, 0x39, 0x7b, 0xa3,
  0x20, 0xf4, 0xda, 0xc4, 0x09, 0x9f, 0xc6, 0xa3, 0x49, 0xb5, 0xbe, 0x39,
  0x8e, 0x84, 0xed, 0x6f, 0xa4, 0x33, 0x54, 0xe5, 0x76, 0x03, 0x6a, 0xac,
  0xd7, 0xfe, 0x52, 0xa0, 0xc1, 0xfb, 0xd3, 0xd2, 0x7d, 0x15, 0xa9, 0xca,
  0x7d, 0xd4, 0x60, 0xba, 0x6f, 0x33, 0x19, 0xa2, 0x90, 0x0c, 0xeb, 0x48,
  0xba, 0x02, 0xe9, 0x5b, 0xc9, 0x0e, 0xe0, 0xbd, 0x5a, 0x68, 0x07, 0xf0,
  0x41, 0xdc, 0xfe, 0xda, 0x7f, 0x76, 0x77, 0xa9, 0xf8, 0x78, 0x97, 0x95,
  0x8d, 0x9f, 0x9f, 0x72, 0x64, 0xcc, 0x19, 0x03, 0x6d, 0xfd, 0xff, 0xe9,
  0x9c, 0x89, 0xfc, 0x7b, 0x87, 0x8e, 0x68, 0xf7, 0x52, 0xdf, 0x2d, 0x43,
  0x06, 0xf7, 0x82, 0x4c, 0x21, 0x28, 0x9a, 0x39, 0x63, 0x98, 0xb8, 0xa7,
  0xbb, 0x0b, 0xf6, 0xcc, 0x18, 0x45, 0x4a, 0x9a, 0x78, 0x69, 0x91, 0x11,
  0xee, 0x52, 0x25, 0xa1, 0x4c, 0x12, 0xc4, 0xaf, 0x9e, 0x96, 0xce, 0xef,
  0x8c, 0x12, 0xea, 0x20, 0x83, 0x53, 0xb4, 0x89, 0x87, 0x58, 0xe7, 0xae,
  0xb8, 0x87, 0xed, 0x53, 0x7a, 0x64, 0xd1, 0x33, 0x21, 0x1d, 0xc0, 0x0d,
  0xd5, 0x8c, 0x4a, 0x4f, 0xf9, 0xa2, 0x16, 0xdb, 0x4f, 0xf9, 0xfc, 0xb9,
  0x24, 0x60, 0x95, 0x7c, 0x47, 0x71, 0x0c, 0x6a, 0xf0, 0xc4, 0x59, 0x13,
  0x8f, 0x49, 0xee, 0xac, 0xc6, 0x52, 0xa8, 0x81, 0x42, 0xc1, 0x0e, 0x1a,
  0xe8, 0x29, 0xfa, 0x3a, 0x74, 0xa0, 0x57, 0x66, 0xbb, 0x90, 0x8e, 0xe7,
  0x23, 0x32, 0x4d, 0xd0, 0x34, 0x7b, 0xfd, 0xd7, 0x9a, 0x9f, 0xd0, 0x2c,
  0x5d, 0x6e, 0xe7, 0xf9, 0x54, 0x69, 0xb8, 0xf7, 0x7f, 0xc2, 0x60, 0x1c,
  0xda, 0x42, 0xe0, 0xa5, 0xea, 0xaa, 0x0a, 0x90, 0x15, 0x33, 0xbf, 0x35,
  0xc4, 0x0c, 0xf1, 0x2b, 0x15, 0x48, 0x59, 0xd3, 0xe4, 0x2b, 0x0b, 0x46,
  0xcd, 0xa2, 0x99, 0xae, 0x57, 0x2c, 0xc7, 0xcb, 0xa1, 0x61, 0x2e, 0x45,
  0x90, 0x84, 0x24, 0x17, 0x9f, 0x4c, 0xf7, 0xa8, 0x4d, 0xa3, 0x8f, 0x59,
  0x7b, 0x50, 0x4a, 0xec, 0xa8, 0xa2, 0x8e, 0x60, 0xe6, 0xa1, 0xd2, 0x1e,
  0x3c, 0xb3, 0x44, 0x85, 0x42, 0x8d, 0xf1, 0x94, 0x5a, 0x3b, 0x97, 0x3b,
  0xc0, 0x1e, 0x73, 0xb1, 0x61, 0x51, 0x1a, 0x0a, 0x49, 0x10, 0xe3, 0xc8,
  0x14, 0x53, 0xe8, 0x12, 0x4e, 0xa0, 0x74, 0x45, 0x5b, 0x5f, 0x46, 0x4e,
  0x01, 0x85, 0x11, 0x96, 0xd0, 0xc9, 0xea, 0xf6, 0xc0, 0x5f, 0x77, 0xa0,
  0x37, 0x42, 0x28, 0x8a, 0xc2, 0x70, 0x6c, 0xa1, 0xcf, 0x86, 0x73, 0x78,
  0x41, 0x15, 0xd4, 0x72, 0x5c, 0xd2, 0x63, 0xf6, 0x52, 0xd7, 0xad, 0x4e,
  0xe5, 0x28, 0xaa, 0xac, 0x78, 0xd7, 0x38, 0xae, 0xd4, 0xaf, 0x7b, 0xb5,
  0xb2, 0x86, 0x2c, 0xd9, 0x1a, 0x21, 0xab, 0x56, 0xec, 0xda, 0x21, 0x39,
  0xd4, 0x0f, 0x8a, 0xd5, 0x55, 0x90, 0x42, 0xb1, 0xa0, 0xfb, 0x55, 0xa0,
  0xb0, 0x4d, 0xba, 0x90, 0x59, 0x70, 0xe8, 0xb8, 0x90, 0xf3, 0x11, 0x37,
  0xe5, 0x55, 0x6f, 0x14, 0x49, 0xc6, 0x67, 0xd3, 0xce, 0xe0, 0xb5, 0x38,
  0xf0, 0xa1, 0x73, 0x17, 0x32, 0xd9, 0x91, 0x5e, 0xd5, 0xe6, 0xa6, 0x38,
  0xa4, 0x5a, 0x7e, 0x0e, 0x1c, 0x2c, 0x79, 0x39, 0xd9, 0xe1, 0x22, 0xfd,
  0x31, 0xd2, 0x09, 0xd1, 0x6a, 0xb0, 0xc6, 0x29, 0x7c, 0x91, 0xcc, 0xac,
  0xad, 0x6a, 0xee, 0x5d, 0x30, 0x25, 0x4b, 0x41, 0x14, 0xf0, 0x3f, 0x33,
  0xe5, 0x89, 0x23, 0x49, 0x82, 0xc9, 0x81, 0x3c, 0xcf, 0xc8, 0x39, 0xce,
  0x1e, 0x44, 0x90, 0x89, 0x82, 0x33, 0x61, 0x71, 0x79, 0xf2, 0x28, 0x6f,
  0xe0, 0x0c, 0xe3, 0x5f, 0x3a, 0xd8, 0xc4, 0xd3, 0x13, 0xbf, 0x0e, 0x8b,
  0x45, 0x5c, 0x67, 0x33, 0xf8, 0x59, 0xb3, 0xb5, 0x72, 0x1c, 0x89, 0x5f,
  0x46, 0xcf, 0x5f, 0x47, 0xbb, 0xd9, 0xe5, 0x87, 0x95, 0xe3, 0x5e, 0x73,
  0xdd, 0x85, 0xf3, 0x76, 0xbf, 0x34, 0xae, 0x2e, 0x32, 0x41, 0x71, 0xf3,
  0x02, 0xbe, 0x2d, 0xe2, 0xa8, 0x96, 0x69, 0x86, 0x40, 0xfe, 0xe3, 0xcb,
  0xc6, 0x68, 0xa4, 0x73, 0xbc, 0xb8, 0xdb, 0x9d, 0x9d, 0xc6, 0x5f, 0x2d,
  0x1b, 0xfa, 0xad, 0x37, 0xe6, 0x6a, 0x46, 0x8e, 0xdb, 0x06, 0xcb, 0xfc,
  0x0f, 0xb6, 0xa5, 0xd7, 0x26, 0xea, 0x2a, 0x1f, 0xe6, 0x8b, 0x3e, 0xc8,
  0xc7, 0x18, 0x68, 0xee, 0xa8, 0x6c, 0xef, 0xe9, 0xdc, 0x6f, 0xdb, 0xc4,
  0x2e, 0x70, 0x53, 0x2d, 0xaa, 0x73, 0xc6, 0x13, 0x37, 0x81, 0x31, 0x0f,
  0xd6, 0x02, 0xda, 0x6d, 0x8a, 0xee, 0x94, 0xf6, 0x81, 0x51, 0xba, 0x8f,
  0x0c, 0xd6, 0x9a, 0xce, 0x38, 0x2f, 0x43, 0x58, 0xcf, 0x81, 0x64, 0x05,
  0x0a, 0x91, 0xdd, 0x70, 0x2c, 0xf4, 0x41, 0x46, 0x58, 0x34, 0xf7, 0x40,
  0xad, 0x28, 0xe1, 0x40, 0xce, 0x6a, 0x2f, 0x5f, 0x56, 0xd7, 0x28, 0x28,
  0x37, 0xe0, 0xb7, 0x68, 0x89, 0x0b, 0xaa, 0xba, 0xd5, 0x34, 0x49, 0xc6,
  0xcc, 0x7a, 0xdc, 0xfc, 0x9b, 0x38, 0x41, 0x10, 0x32, 0x75, 0x8e, 0xbe,
  0x94, 0xdc, 0xc3, 0x4d, 0xe7, 0x65, 0xee, 0x2a, 0x4d, 0x20, 0xcb, 0xd8,
  0xa0, 0x03, 0xba, 0x79, 0xe0, 0xca, 0x88, 0xd4, 0xec, 0xc3, 0xfe, 0x49,
  0xa4, 0xc2, 0x71, 0xd4, 0x6a, 0xad, 0xb4, 0x4f, 0xba, 0x3d, 0x38, 0xb7,
  0xd7, 0x32, 0xe3, 0x9c, 0x40, 0xf0, 0x9e, 0x92, 0xdf, 0x2d, 0x19, 0xfd,
  0xa0, 0x9e, 0x52, 0x8a, 0x2a, 0x52, 0x90, 0x01, 0x84, 0xa1, 0x4a, 0xfa,
  0x91, 0xcb, 0xe9, 0x3a, 0x15, 0xa6, 0x2c, 0xbc, 0xbc, 0x9d, 0x8c, 0x5b,
  0xa6, 0xc4, 0xba, 0x66, 0x2e, 0x36, 0x15, 0xf3, 0xe1, 0x2f, 0x76, 0x8a,
  0x28, 0x91, 0xad, 0x23, 0x8f, 0x6e, 0x62, 0xf2, 0xa0, 0xcc, 0x2f, 0x8a,
  0x09, 0x92, 0xfa, 0xdc, 0x70, 0xf7, 0x93, 0x13, 0x27, 0x8b, 0x62, 0x5d,
  0xfa, 0x76, 0xc1, 0x56, 0x14, 0x29, 0x05, 0x1d, 0xbd, 0x65, 0xa6, 0x11,
  0xba, 0xbc, 0xbf, 0xd7, 0xc4, 0x9c, 0x8c, 0xf0, 0x71, 0x72, 0xbc, 0x1e,
  0x0a, 0xc7, 0x13, 0x49, 0x1e, 0x8a, 0x37, 0x98, 0xc2, 0x44, 0x84, 0x57,
  0x2a, 0xfe, 0xab, 0x78, 0x94, 0x5e, 0xa4, 0xd7, 0xcc, 0x37, 0x4d, 0xee,
  0x8e, 0xfe, 0xfe, 0x9e, 0x6a, 0x7b, 0x7d, 0x53, 0x97, 0x5f, 0x9b, 0x75,
  0x61, 0x91, 0x0e, 0xb9, 0x5c, 0x5e, 0xf0, 0xf2, 0x11, 0xf9, 0x5f, 0xa4,
  0x49, 0x4c, 0x36, 0x65, 0x2e, 0xb2, 0x2b, 0x23, 0x1e, 0xcc, 0xc7, 0x3f,
  0x8d, 0x01, 0x61, 0xbc, 0x63, 0xc1, 0x8d, 0x68, 0xc2, 0xec, 0x2d, 0xb3,
  0x49, 0x27, 0x2b, 0xaf, 0xb2, 0x12, 0x95, 0xc5, 0x43, 0xbc, 0xd1, 0xda,
  0x0d, 0x38, 0xc4, 0xde, 0x93, 0xd8, 0xe7, 0xce, 0xe4, 0x89, 0x00, 0x27,
  0x14, 0xdb, 0xc6, 0x35, 0x98, 0x95, 0x4c, 0xa3, 0x20, 0x22, 0x11, 0xc6,
  0x5c, 0x9b, 0x21, 0x03, 0xf0, 0x78, 0x97, 0xd3, 0x86, 0x20, 0x94, 0xe9,
  0xe9, 0x3d, 0x6a, 0xa8, 0xe0, 0x94, 0x63, 0x87, 0xc7, 0x34, 0x57, 0xab,
  0xbb, 0xbb, 0xa5, 0xbf, 0x5e, 0x03, 0x84, 0xe0, 0x6d, 0x30, 0xf2, 0x95,
  0x71, 0x6f, 0x92, 0xfe, 0xeb, 0x8e, 0x77, 0xa8, 0xb8, 0xae, 0xa9, 0x3e,
  0xf0, 0xc0, 0x16, 0xe2, 0xed, 0x22, 0xb3, 0xcb, 0x92, 0xc1, 0x54, 0x81,
  0x88, 0x57, 0xb2, 0xed, 0xe8, 0xb8, 0xc2, 0xe4, 0x4d, 0xfd, 0x6e, 0x93,
  0x21, 0x91, 0xfc, 0xda, 0x64, 0xad, 0x5c, 0x20, 0xfc, 0x71, 0x94, 0x05,
  0x36, 0x81, 0x28, 0xd3, 0xdb, 0xc0, 0xfc, 0xdd, 0xea, 0xd3, 0xb4, 0x43,
  0xd7, 0x9b, 0x3b, 0x06, 0x57, 0xcc, 0x21, 0x3d, 0x58, 0xe2, 0x05, 0xb8,
  0xd6, 0x49, 0xa1, 0xc9, 0x58, 0x42, 0x57, 0xe3, 0x3c, 0xa1, 0xd7, 0x19,
  0xaa, 0xcf, 0xd7, 0x69, 0x0c, 0xd7, 0xf5, 0x12, 0xb7, 0xc7, 0x1c, 0x61,
  0x0f, 0xf7, 0xe2, 0x2b, 0xad, 0xf3, 0xcc, 0xee, 0x39, 0x3b, 0x33, 0x5f,
  0x5b, 0xbf, 0x4e, 0x59, 0xa8, 0x4c, 0xf1, 0x4a, 0x2c, 0xdf, 0x12, 0x36,
  0xd2, 0x51, 0x5a, 0x0e, 0x0e, 0xab, 0xf2, 0x3c, 0xbf, 0x24, 0x25, 0x5d,
  0x3e, 0x35, 0x4d, 0x6b, 0x0c, 0x43, 0xc0, 0x04, 0x47, 0x3f, 0xde, 0x4e,
  0xa5, 0xb1, 0xe7, 0xa5, 0x2e, 0xd7, 0x3e, 0xb1, 0xd0, 0x4d, 0x4e, 0xf7,
  0x55, 0xce, 0xd6, 0x36, 0xb4, 0x61, 0x31, 0xe8, 0xca, 0x3c, 0x46, 0xa8,
  0xf2, 0xec, 0xbe, 0x1e, 0x9c, 0xb0, 0xbc, 0x5d, 0x01, 0xb2, 0x5f, 0xdd,
  0x1e, 0x07, 0xd0, 0xff, 0x0a, 0xdd, 0x16, 0xc4, 0xb5, 0x05, 0xe3, 0xc6,
  0xab, 0xe2, 0xbe, 0x32, 0xd9, 0xcd, 0x2a, 0x18, 0x53, 0xc3, 0xab, 0xef,
  0x10, 0x05, 0x43, 0xbf, 0x01, 0x3c, 0xf5, 0x40, 0x17, 0x39, 0x18, 0x14,
  0xf1, 0x5c, 0x2b, 0x26, 0x58, 0x0e, 0x0d, 0xcf, 0x0f, 0xde, 0xa5, 0xef,
  0x2f, 0xc1, 0xa7, 0x2e, 0xd1, 0xb7, 0x41, 0xa2, 0x01, 0xc0, 0xee, 0xe4,
  0xcc, 0x52, 0xc1, 0xf0, 0x08, 0xfe, 0xcd, 0x30, 0xed, 0xc2, 0x1c, 0x1b,
  0x02, 0xad, 0xb2, 0xf9, 0xf1, 0xdd, 0x59, 0x3d, 0x3c, 0x13, 0xb9, 0x9e,
  0x07, 0xb6, 0x32, 0x3d, 0xef, 0x1c, 0x30, 0xd5, 0x32, 0xc5, 0x07, 0xb4,
  0xde, 0x17, 0xf6, 0x51, 0x3e, 0xac, 0xcb, 0x22, 0xde, 0x17, 0xa0, 0xbb,
  0x58, 0x07, 0xda, 0xfb, 0x16, 0xd2, 0x53, 0x60, 0x2b, 0x40, 0x51, 0x3d,
  0x2e, 0x70, 0x26, 0x68, 0xe5, 0x4a, 0x55, 0xae, 0xa9, 0x89, 0xf4, 0xab,
  0x33, 0x16, 0xb7, 0x1e, 0x08, 0x0e, 0xd4, 0x4d, 0x95, 0x2a, 0x53, 0xde,
  0x43, 0x2f, 0x9e, 0xbd, 0x11, 0x95, 0x3a, 0xae, 0xa0, 0x5f, 0xb1, 0xbc,
  0x54, 0xe1, 0xe7, 0xf7, 0xd5, 0x20, 0x19, 0xf6, 0x9a, 0xc6, 0x44, 0x15,
  0x11, 0xf5, 0xc8, 0x53, 0xd4, 0xaa, 0x99, 0xc6, 0xa7, 0x13, 0x03, 0x85,
  0xd3, 0xa5, 0x14, 0x8e, 0x00, 0x1d, 0xb6, 0xc9, 0x6f, 0xa0, 0x8f, 0x15,
  0x00, 0x4c, 0x37, 0xce, 0x66, 0x41, 0x6a, 0x26, 0x24, 0xc8, 0xde, 0x4d,
  0x30, 0x50, 0xe5, 0xd2, 0x27, 0x2b, 0xd8, 0xe1, 0x9d, 0xf3, 0xc4, 0x1f,
  0x54, 0xb6, 0x70, 0x4c, 0x8c, 0x11, 0xb4, 0x2b, 0x93, 0xe8, 0xaa, 0x4d,
  0xcf, 0x5a, 0xea, 0xdd, 0xfd, 0x5e, 0x6c, 0x5f, 0xb4, 0xaa, 0x4c, 0xb0,
  0x24, 0xb0, 0x2c, 0x6b, 0x6e, 0x25, 0x25, 0xa4, 0xe7, 0x17, 0x41, 0xaf,
  0xd2, 0xe9, 0x86, 0x50, 0x66, 0x1d, 0xd2, 0x31, 0xb0, 0xd3, 0x4f, 0x52,
  0x77, 0xf6, 0xf5, 0x38, 0x44, 0x1c, 0x81, 0xae, 0xb5, 0x4a, 0xea, 0x30,
  0xc0, 0xbc, 0x97, 0x63, 0xda, 0xe3, 0xb5, 0xd3, 0xf0, 0x20, 0x3f, 0x3c,
  0x2b, 0x5e, 0xa4, 0x5a, 0x62, 0x5e, 0xc6, 0xa0, 0xd0, 0x18, 0xf3, 0x25,
  0xf6, 0x49, 0xad, 0x41, 0x3e, 0xec, 0x1c, 0x00, 0x6b, 0x44, 0x67, 0x03,
  0xe4, 0xee, 0x6f, 0xd4, 0x0c, 0xf9, 0xa4, 0x67, 0x33, 0x43, 0xfa, 0x6a,
  0xfd, 0x4d, 0x71, 0xae, 0x0f, 0xba, 0xe3, 0xa7, 0x93, 0x4d, 0xcc, 0xdf,
  0xf3, 0xb6, 0xfc, 0x5b, 0xbc, 0x81, 0x95, 0x55, 0x90, 0xcc, 0xb8, 0x17,
  0xaf, 0x19, 0x4c, 0x42, 0x1f, 0x4e, 0x17, 0x62, 0xb2, 0xb0, 0x86, 0x2e,
  0xc2, 0x29, 0xb6, 0xbd, 0xce, 0xbc, 0x42, 0xbf, 0x40, 0xeb, 0xe9, 0xbb,
  0x26, 0xb6, 0xf8, 0xbb, 0x56, 0x55, 0x46, 0xdd, 0xb7, 0x89, 0xdb, 0x88,
  0xb0, 0xb1, 0xd7, 0xf6, 0x8b, 0x14, 0x17, 0xf4, 0x3e, 0x21, 0x61, 0x09,
  0x14, 0x75, 0x02, 0x1f, 0x08, 0x77, 0x42, 0x3e, 0x55, 0xa4, 0x6c, 0x90,
  0xf0, 0xeb, 0x8a, 0xfc, 0xdc, 0xe5, 0x7b, 0x73, 0x8b, 0x9d, 0x41, 0x0c,
  0x29, 0x21, 0xe0, 0x08, 0x0b, 0x42, 0x27, 0x05, 0xd5, 0xbe, 0x58, 0x1f,
  0xc8, 0xf4, 0x0d, 0x0d, 0xac, 0xcd, 0x9c, 0x76, 0x15, 0x07, 0xf1, 0x5b,
  0x2b, 0x43, 0x51, 0x37, 0xc5, 0x68, 0x32, 0x7d, 0xc4, 0x3d, 0xae, 0x90,
  0xcc, 0xba, 0x6a, 0x77, 0x52, 0x72, 0x25, 0x27, 0xc2, 0x23, 0x93, 0xc1,
  0x60, 0x28, 0x65, 0x97, 0x66, 0x32, 0x63, 0x49, 0x19, 0x75, 0x50, 0xdb,
  0x3c, 0x0c, 0xc5, 0x61, 0x8c, 0x59, 0x93, 0x81, 0xd5, 0x4a, 0x52, 0x87,
  0x36, 0xc7, 0x2a, 0x4b, 0x6b, 0xff, 0xeb, 0xee, 0xcb, 0x8d, 0x91, 0xc0,
  0x82, 0x4f, 0xcc, 0x9d, 0x52, 0x95, 0x41, 0x00, 0xd0, 0xa0, 0xef, 0x18,
  0x57, 0x5d, 0x0b, 0x57, 0x08, 0x95, 0x8b, 0xcd, 0x99, 0xde, 0x61, 0xa6,
  0x63, 0xfb, 0xcb, 0x41, 0xb1, 0xa4, 0x84, 0x65, 0x5d, 0xe3, 0xbd, 0x75,
  0x8b, 0x0c, 0xf9, 0xce, 0xcc, 0xf1, 0xd7, 0x01, 0x1e, 0x13, 0x8a, 0x47,
  0x9f, 0x83, 0xcb, 0x50, 0xc7, 0x4c, 0xad, 0xa5, 0x4f, 0x54, 0x67, 0x83,
  0xc7, 0x6d, 0xab, 0xcc, 0x99, 0xa4, 0x45, 0x06, 0x1b, 0x12, 0xa7, 0x65,
  0xbe, 0x07, 0xfc, 0xaf, 0xa6, 0xb0, 0x8c, 0xb3, 0xa3, 0x47, 0x5e, 0x13,
  0xa4, 0xa2, 0xdb, 0x03, 0x14, 0xdd, 0x1a, 0x63, 0x9c, 0xda, 0x4f, 0x9e,
  0x34, 0x96, 0x93, 0xb4, 0xd1, 0x37, 0xf1, 0xa0, 0x7c, 0x2a, 0x04, 0x11,
  0xbe, 0xfe, 0x62, 0x55, 0x65, 0x24, 0x95, 0xb7, 0x70, 0x58, 0x19, 0x89,
  0x54, 0x53, 0x04, 0x11, 0xf0, 0xac, 0x32, 0x1d, 0x9c, 0xbc, 0xe6, 0xec,
  0xd1, 0xc9, 0xe2, 0x5e, 0xfd, 0x5d, 0xd2, 0xb0, 0xe0, 0x22, 0xe4, 0x51,
  0x26, 0xe3, 0x51, 0x2a, 0xb6, 0x04, 0xb3, 0xa6, 0x3f, 0x21, 0x4f, 0x57,
  0xe2, 0xd6, 0xac, 0x49, 0x28, 0x96, 0xc3, 0x40, 0xc0, 0x12, 0xb4, 0x3a,
  0xad, 0xad, 0x3d, 0x2d, 0x17, 0xcb, 0x45, 0xfa, 0xbc, 0xb8, 0xb2, 0x0d,
  0xc6, 0xd1, 0x24, 0xa9, 0x65, 0xc4, 0x29, 0xea, 0x04, 0xe8, 0x55, 0xd3,
  0x31, 0xbd, 0xe5, 0xa3, 0x0d, 0x64, 0xbf, 0x6b, 0x48, 0xd7, 0x2a, 0x69,
  0x4a, 0x47, 0x20, 0x4d, 0x33, 0xab, 0xd9, 0xd5, 0x21, 0xb2, 0xff, 0xf7,
  0x19, 0xd8, 0xce, 0x32, 0x1f, 0xb7, 0x5d, 0xd3, 0xda, 0xb8, 0x20, 0x22,
  0xf6, 0xdf, 0xa5, 0xf2, 0x1a, 0x46, 0xe1, 0x3b, 0xf4, 0xe4, 0xfd, 0xe0,
  0xaa, 0x0f, 0xb2, 0xfb, 0x9a, 0x38, 0x4c, 0xaf, 0xcf, 0xa6, 0x06, 0xdb,
  0x0e, 0x61, 0xa9, 0xcc, 0x1e, 0x21, 0x65, 0x42, 0x0f, 0x1a, 0x38, 0xed,
  0xa8, 0xfe, 0x67, 0x33, 0xa3, 0x3c, 0xb4, 0xbe, 0x69, 0xea, 0x32, 0xdb,
  0x1b, 0x14, 0xda, 0xa6, 0x64, 0x5f, 0xb3, 0xef, 0xcc, 0xc6, 0x6d, 0x63,
  0x0f, 0xcd, 0x55, 0xd3, 0xdd, 0x12, 0xa6, 0xee, 0xb0, 0xde, 0xc4, 0x38,
  0x45, 0xfe, 0x23, 0x20, 0xc4, 0xac, 0x05, 0x56, 0xd2, 0x56, 0x9f, 0x44,
  0xfb, 0xdd, 0xfb, 0x4c, 0x1f, 0xbd, 0xc9, 0x01, 0xcc, 0xea, 0xe5, 0x33,
  0xec, 0xde, 0xed, 0xd1, 0x24, 0x2f, 0xb7, 0xdd, 0xc4, 0xe3, 0x21, 0xcd,
  0xcb, 0x6c, 0x30, 0x5d, 0x10, 0x63, 0xe7, 0xb0, 0xc7, 0xa0, 0x05, 0xc7,
  0x51, 0xe8, 0xbf, 0xbf, 0x0c, 0x33, 0x1d, 0xdd, 0xb6, 0x61, 0x5d, 0x34,
  0x2b, 0x38, 0xb7, 0xc7, 0x3d, 0xe8, 0xed, 0x3c, 0x23, 0xbb, 0xee, 0x42,
  0x2b, 0x50, 0x7f, 0x60, 0x16, 0xbc, 0x0c, 0xe9, 0xc3, 0x8c, 0x4f, 0x02,
  0x35, 0x42, 0x56, 0x61, 0x9a, 0xec, 0xe3, 0xfb, 0x2d, 0xee, 0xc3, 0xbb,
  0x5b, 0xcc, 0x85, 0x34, 0x6c, 0x86, 0x14, 0x93, 0xd4, 0x54, 0x95, 0x4a,
  0x74, 0xf0, 0x71, 0x37, 0x19, 0xc8, 0x59, 0xea, 0x23, 0x66, 0x81, 0xa6,
  0x2d, 0x94, 0xcf, 0xed, 0xf6, 0x5d, 0x0a, 0xce, 0x58, 0x27, 0x6e, 0x33,
  0x3b, 0xfc, 0xd6, 0xbc, 0xce, 0x78, 0x3b, 0x07, 0x94, 0x19, 0x28, 0xdc,
  0x31, 0x22, 0x9c, 0x5a, 0xb9, 0xcd, 0x87, 0x9b, 0x63, 0x1b, 0xd1, 0x29,
  0xb0, 0xe2, 0xf6, 0x66, 0x44, 0xe6, 0x86, 0x0e, 0xac, 0xcd, 0xef, 0x35,
  0x0f, 0xc2, 0xe4, 0xdf, 0xcf, 0x42, 0xf0, 0xdc, 0xaa, 0x2c, 0xb2, 0xbc,
  0xfa, 0xa0, 0xd8, 0x8c, 0x26, 0xda, 0xa5, 0xd7, 0x3d, 0x4f, 0x34, 0xdc,
  0x1a, 0x12, 0x94, 0xd9, 0xa2, 0x64, 0x9f, 0x30, 0xd0, 0x26, 0x14, 0xe2,
  0xae, 0xc9, 0x48, 0x8e, 0x67, 0xe0, 0x5a, 0x94, 0xa2, 0xb4, 0x63, 0xc7,
  0x73, 0xfa, 0x66, 0x00, 0xcd, 0xab, 0x0d, 0x3b, 0x1f, 0xe4, 0x2b, 0x5d,
  0x1c, 0xfa, 0x5d, 0x58, 0x69, 0x10, 0x74, 0xc6, 0x19, 0x6b, 0xa6, 0x39,
  0xb9, 0xb6, 0xaf, 0x46, 0x32, 0x9b, 0x5b, 0xcf, 0x54, 0x92, 0x1d, 0x18,
  0x0b, 0x8a, 0x36, 0x45, 0xb2, 0x4b, 0xd8, 0x29, 0xe7, 0xd8, 0x4d, 0x49,
  0x49, 0xc4, 0xdd, 0x81, 0xda, 0xc8, 0x30, 0x15, 0xa3, 0x62, 0xd1, 0x51,
  0xf8, 0xa5, 0x68, 0xec, 0x57, 0x52, 0x35, 0xaa, 0x95, 0x49, 0xc0, 0x26,
  0xb9, 0xb7, 0xa5, 0xe7, 0xbd, 0xaf, 0x1c, 0x42, 0xbc, 0x5c, 0x57, 0x28,
  0xe7, 0x1c, 0xcd, 0xa4, 0x01, 0x3d, 0xea, 0x46, 0xb4, 0x32, 0xcb, 0xa3,
  0x28, 0x5c, 0xf3, 0xae, 0xa4, 0x75, 0x37, 0x74, 0x23, 0xcf, 0x56, 0x3f,
  0xfb, 0xad, 0xe2, 0xb2, 0xf8, 0xa0, 0x72, 0xd6, 0x08, 0xd6, 0x2a, 0x59,
  0x85, 0xd2, 0x22, 0x16, 0x32, 0x01, 0x0d, 0xf7, 0x09, 0xf3, 0x6c, 0x4d,
  0xf9, 0x05, 0x04, 0x68, 0x66, 0xde, 0x62, 0x9e, 0x62, 0x9d, 0x0b, 0xd7,
  0x1d, 0xc9, 0x22, 0x97, 0xe2, 0x3e, 0x8e, 0xae, 0xc5, 0x34, 0xde, 0x43,
  0x52, 0x9e, 0x16, 0xbe, 0x2b, 0x30, 0x65, 0x34, 0xf3, 0x8f, 0x3a, 0x43,
  0x38, 0x5b, 0xb4, 0xfe, 0x25, 0x26, 0x2c, 0x16, 0x94, 0x05, 0xa8, 0x9d,
  0x19, 0x37, 0x5a, 0xc1, 0x14, 0x32, 0x24, 0x9d, 0xb4, 0x62, 0x5f, 0x34,
  0xfa, 0xe2, 0x38, 0xaa, 0x5c, 0xad, 0x47, 0xc1, 0xcb, 0xf4, 0x36, 0xbd,
  0xa4, 0x00, 0x44, 0x61, 0xf8, 0x14, 0xb6, 0xf1, 0x43, 0x0a, 0xb4, 0xd8,
  0xaa, 0x19, 0x54, 0x97, 0x58, 0xb9, 0x21, 0x01, 0xde, 0x13, 0xf7, 0x48,
  0x63, 0x08, 0xb2, 0xeb, 0x28, 0x1f, 0x5d, 0xb3, 0x1a, 0x46, 0x18, 0x42,
  0x0a, 0xd0, 0x23, 0xf2, 0x9c, 0x54, 0xf4, 0x57, 0x69, 0x0a, 0x3f, 0x4d,
  0x9c, 0x5f, 0x3a, 0xaa, 0xf3, 0xae, 0xf0, 0xc8, 0x44, 0xc8, 0x3c, 0x49,
  0x10, 0xf1, 0x21, 0x91, 0xbb, 0xfd, 0x47, 0xcb, 0x01, 0xaf, 0x1e, 0x00,
  0xd6, 0x37, 0xd8, 0x14, 0xc1, 0x22, 0xce, 0xba, 0x58, 0x46, 0x66, 0x45,
  0x0e, 0x18, 0x23, 0x40, 0x37, 0x61, 0xfa, 0x20, 0x30, 0xd3, 0xad, 0x05,
  0xf3, 0x34, 0xeb, 0x2c, 0x0a, 0x37, 0xa0, 0x94, 0x39, 0x9e, 0xc8, 0xd9,
  0xd9, 0xd9, 0xea, 0xeb, 0xd2, 0x40, 0xee, 0x4c, 0x21, 0x50, 0x8e, 0x2b,
  0x9b, 0xc2, 0xa3, 0xb5, 0x53, 0xb7, 0x05, 0xe7, 0xc1, 0xe8, 0xa5, 0x4e,
  0xf4, 0x04, 0x2d, 0x39, 0x2b, 0xd5, 0x37, 0xc1, 0xf2, 0x98, 0xcf, 0x22,
  0xe8, 0xbc, 0xef, 0x2f, 0xd0, 0xee, 0xb6, 0x58, 0x53, 0xad, 0xf2, 0x3c,
  0xfc, 0xa7, 0xb3, 0x31, 0xb3, 0x2e, 0x5c, 0x0f, 0xeb, 0x9c, 0x24, 0x3a,
  0xdb, 0xfc, 0x68, 0x05, 0xec, 0x7f, 0x49, 0xb7, 0x0a, 0x41, 0xc8, 0x1d,
  0xcc, 0x7f, 0xce, 0x5e, 0xab, 0xc7, 0x1c, 0x3f, 0xf5, 0xf0, 0x92, 0xdc,
  0x1b, 0xa9, 0xbc, 0xb4, 0x32, 0xec, 0x4b, 0xe5, 0x47, 0xd8, 0x57, 0x19,
  0x28, 0xf9, 0x63, 0x6a, 0x3a, 0xda, 0x03, 0xf4, 0x1d, 0xd9, 0x46, 0xb0,
  0x32, 0xef, 0x47, 0x55, 0x5b, 0x11, 0xe6, 0x2f, 0x53, 0xab, 0x5c, 0x03,
  0x46, 0x66, 0xb4, 0xc6, 0xbd, 0xf4, 0xcf, 0x58, 0x5b, 0xbb, 0x15, 0x1c,
  0x3e, 0x9c, 0x13, 0xe6, 0x1c, 0xb5, 0xed, 0xfd, 0x01, 0x16, 0x5e, 0xe1,
  0x0d, 0xa6, 0x1d, 0x96, 0x18, 0xb1, 0x4c, 0x2c, 0xe1, 0xad, 0x19, 0xc9,
  0xb7, 0x16, 0xf6, 0x4a, 0x3b, 0xf9, 0xc8, 0x60, 0x2c, 0x08, 0x54, 0x16,
  0x61, 0x1b, 0xff, 0xd0, 0xc9, 0x63, 0xd0, 0x14, 0x07, 0x1e, 0x31, 0x3d,
  0x42, 0xf4, 0xbf, 0x01, 0xff, 0xb2, 0xc2, 0x38, 0x4f, 0x2f, 0xe0, 0xfc,
  0xdc, 0xfe, 0x9f, 0xbd, 0x21, 0x40, 0xef, 0xec, 0xf9, 0x44, 0x41, 0x51,
  0x44, 0x2b, 0xc1, 0xe5, 0xb5, 0x2c, 0xdc, 0x4f, 0x17, 0xd8, 0x25, 0xec,
  0x5e, 0x19, 0xf0, 0x40, 0xe9, 0x4d, 0x9b, 0x06, 0x62, 0xca, 0x45, 0xb3,
  0xd1, 0x93, 0xc3, 0x2b, 0xf0, 0x64, 0x29, 0xdb, 0xe7, 0xd4, 0x1d, 0x20,
  0xce, 0x21, 0xfb, 0x1f, 0xfe, 0x27, 0x97, 0x21, 0x5c, 0xef, 0xc9, 0x3a,
  0xb0, 0xa7, 0x22, 0xd3, 0x2d, 0xa0, 0xf4, 0x41, 0xe5, 0x2f, 0x35, 0xad,
  0x1d, 0x54, 0x3d, 0xf2, 0x45, 0x47, 0x10, 0x42, 0x34, 0x99, 0xa2, 0xc0,
  0xe5, 0x3e, 0x21, 0xc2, 0xcb, 0x99, 0x92, 0x94, 0x5d, 0x50, 0x00, 0xb3,
  0xcd, 0xe5, 0xdc, 0xd2, 0x44, 0x4c, 0xcf, 0x47, 0x47, 0x26, 0x04, 0x14,
  0xe8, 0xe1, 0xd9, 0x37, 0xce, 0xd6, 0x9e, 0xc4, 0x01, 0x9b, 0x36, 0x11,
  0x14, 0x67, 0x33, 0x73, 0xec, 0x6f, 0x33, 0x45, 0x67, 0xdf, 0xbe, 0xd6,
  0x0f, 0xe5, 0x58, 0x52, 0x45, 0x86, 0x89, 0xcc, 0x40, 0xfa, 0x8f, 0x17,
  0xd1, 0x7d, 0x71, 0x0f, 0x83, 0x21, 0x8e, 0x3b, 0x2e, 0x2b, 0xcc, 0xfd,
  0x57, 0xf2, 0x34, 0x22, 0x50, 0x6c, 0xd3, 0x9f, 0x8c, 0xae, 0xd9, 0xac,
  0xb3, 0xde, 0x48, 0x8b, 0x1b, 0xae, 0x63, 0xec, 0x5c, 0xc7, 0xa9, 0xd4,
  0xc8, 0x3f, 0x3d, 0x8b, 0x40, 0x0e, 0x7d, 0x1a, 0xab, 0x0f, 0x12, 0xf4,
  0x54, 0xf4, 0x48, 0x9a, 0x58, 0xe6, 0x87, 0x30, 0x17, 0xbd, 0xaf, 0x47,
  0x04, 0xde, 0x8d, 0xe5, 0x54, 0x7a, 0x57, 0x44, 0xc9, 0xe8, 0x34, 0x38,
  0x31, 0xf7, 0x69, 0xdb, 0x85, 0xf5, 0x13, 0xb9, 0xac, 0x95, 0x89, 0xe1,
  0xe9, 0xaf, 0xfc, 0x32, 0xd2, 0x5a, 0x1a, 0xd7, 0xb5, 0xc1, 0x3b, 0x11,
  0x6a, 0xc3, 0x6c, 0x4e, 0x85, 0xe1, 0x6d, 0x90, 0x1c, 0x7f, 0x37, 0x40,
  0x11, 0x81, 0x02, 0xa4, 0xcc, 0xb5, 0xde, 0x8f, 0xb2, 0x05, 0xd7, 0xc3,
  0x7d, 0x8f, 0xce, 0xe6, 0x4b, 0x6a, 0xcd, 0x70, 0x38, 0x9e, 0x94, 0xc0,
  0x70, 0x63, 0xd9, 0x50, 0x9c, 0xf6, 0x70, 0xc4, 0xb8, 0x5d, 0xf2, 0xd9,
  0xe6, 0x51, 0x62, 0x5d, 0x02, 0x17, 0x60, 0xa0, 0x4d, 0xa2, 0x46, 0x90,
  0xda, 0x59, 0x23, 0xf2, 0xe9, 0xe7, 0x0c, 0x7d, 0x67, 0x01, 0xb8, 0xed,
  0xcc, 0x91, 0x26, 0xb5, 0xc9, 0x3e, 0xa9, 0x3f, 0x0e, 0xd4, 0x81, 0xb2,
  0xab, 0xb7, 0x8f, 0x07, 0x16, 0xf1, 0x9c, 0x5f, 0xb0, 0xe1, 0xe9, 0x93,
  0x5e, 0x1a, 0xfe, 0x91, 0x0b, 0x52, 0x93, 0xbf, 0x07, 0xc1, 0xfb, 0x62,
  0xab, 0x9e, 0xe7, 0xcb, 0xd0, 0x85, 0xaa, 0x37, 0xb7, 0x36, 0x32, 0xa5,
  0x46, 0x34, 0x35, 0xe4, 0x5a, 0x22, 0xdf, 0x0f, 0x5c, 0xe1, 0xc8, 0x95,
  0x90, 0x05, 0x76, 0x8a, 0xc2, 0x82, 0xc0, 0x61, 0x5b, 0xc1, 0x40, 0xa1,
  0x48, 0x82, 0xc8, 0x0d, 0xb0, 0x87, 0xd9, 0xd1, 0x21, 0xb7, 0x3a, 0x9f,
  0x43, 0xf0, 0x8a, 0x9c, 0xcc, 0x8a, 0xb6, 0x7e, 0xdd, 0xca, 0xa6, 0xbb,
  0xaf, 0xbf, 0x93, 0x2c, 0xc8, 0x1b, 0x60, 0x34, 0xdf, 0x01, 0xdc, 0x1d,
  0xa1, 0x20, 0x75, 0xf2, 0xb6, 0xda, 0x85, 0xb8, 0x42, 0x7f, 0x77, 0xfc,
  0x00, 0xb0, 0xf1, 0x0a, 0x0d, 0xa5, 0xcf, 0xa0, 0x8b, 0xab, 0xf9, 0x54,
  0xf6, 0xb4, 0x65, 0xcb, 0x6b, 0x7a, 0xf9, 0x86, 0xc9, 0x41, 0x7b, 0x63,
  0x14, 0xcd, 0xe0, 0xc1, 0x02, 0xad, 0xf2, 0x40, 0x4e, 0x05, 0xc3, 0xa8,
  0x89, 0x8c, 0xde, 0xb7, 0xc0, 0xb5, 0x89, 0x63, 0xd7, 0x40, 0xa1, 0xa4,
  0xc8, 0xb1, 0xbd, 0x11, 0x7f, 0x09, 0x6d, 0xdd, 0x4b, 0xb9, 0xc1, 0xc9,
  0xc8, 0x34, 0xd6, 0x85, 0xf9, 0xb7, 0x21, 0xd2, 0x37, 0x67, 0xc1, 0xdd,
  0x2a, 0x6b, 0xb7, 0xfd, 0xb3, 0xf0, 0xe4, 0x6d, 0xbe, 0xf4, 0x09, 0xfd,
  0xab, 0xb9, 0xa0, 0xe6, 0xc1, 0xc9, 0x2d, 0x90, 0x4d, 0x30, 0x52, 0x82,
  0x38, 0x6f, 0x65, 0xd2, 0xcf, 0x64, 0xdb, 0x9c, 0xa3, 0x85, 0x3e, 0xe6,
  0xab, 0x19, 0x0f, 0xb1, 0x26, 0x09, 0x4f, 0xaa, 0x0a, 0xea, 0x84, 0xac,
  0x6e, 0x8b, 0x31, 0x1a, 0xd8, 0x9b, 0x14, 0x20, 0x1e, 0x00, 0x97, 0x7b,
  0x09, 0x06, 0x30, 0x08, 0xdb, 0x75, 0x60, 0x60, 0x5b, 0x76, 0x93, 0xde,
  0x78, 0x15, 0xc9, 0xe9, 0x17, 0xe8, 0x1f, 0xe5, 0x32, 0x0a, 0x8c, 0x64,
  0xb3, 0x4a, 0x78, 0xb0, 0xd1, 0x92, 0xa1, 0xe6, 0x62, 0xd6, 0xfb, 0x54,
  0xd6, 0x25, 0x42, 0xd6, 0x12, 0xe7, 0x94, 0x33, 0x94, 0x85, 0x6b, 0x6e,
  0xa6, 0x85, 0x22, 0x99, 0x82, 0x9a, 0xf6, 0x03, 0x31, 0x47, 0xfa, 0xbc,
  0xf0, 0x66, 0x39, 0x54, 0x02, 0x2a, 0x6e, 0x9e, 0x74, 0x8f, 0xe0, 0x5c,
  0x36, 0x52, 0x37, 0x79, 0x73, 0x2a, 0xeb, 0xaf, 0x62, 0xf8, 0xf7, 0x53,
  0x4a, 0x83, 0xf5, 0x24, 0x5b, 0x1a, 0xd1, 0x25, 0xd0, 0x52, 0x6e, 0x9b,
  0xe9, 0xb6, 0xdc, 0x0b, 0x68, 0x1c, 0xdf, 0x18, 0x98, 0xa7, 0x0b, 0x21,
  0xda, 0x54, 0x94, 0x2f, 0xc9, 0xa2, 0x44, 0xb9, 0x0e, 0x10, 0xfa, 0x2e,
  0x40, 0x20, 0x40, 0xf0, 0x97, 0xdb, 0x60, 0x2b, 0x06, 0xf0, 0xfa, 0x5d,
  0xae, 0xe0, 0x25, 0x12, 0xbf, 0xe1, 0xec, 0x49, 0x21, 0xf0, 0xeb, 0xf0,
  0x0e, 0x6b, 0x1c, 0x0d, 0x5d, 0xa9, 0x35, 0xeb, 0xd1, 0xff, 0x1b, 0xdd,
  0x0b, 0xc9, 0x6d, 0x63, 0x46, 0x2f, 0x52, 0x1e, 0x34, 0xca, 0xd4, 0x0a,
  0xe1, 0x11, 0xe4, 0x65, 0x9e, 0x30, 0xa9, 0x1c, 0x4d, 0xa0, 0x56, 0x68,
  0x25, 0x52, 0x1d, 0xa5, 0x36, 0x12, 0x20, 0x15, 0x38, 0x4c, 0xfb, 0xeb,
  0x1c, 0x29, 0xba, 0x0f, 0x44, 0xac, 0x08, 0x05, 0x2d, 0x23, 0xb3, 0xc5,
  0xd5, 0xc2, 0x31, 0x60, 0xc2, 0xd5, 0x46, 0x24, 0xb7, 0x3c, 0xa5, 0x60,
  0xd0, 0x60, 0x17, 0xb9, 0xf5, 0xfc, 0x6f, 0xb9, 0x01, 0x63, 0xd7, 0xb5,
  0x45, 0xa0, 0xaf, 0x00, 0x55, 0xe6, 0xed, 0xae, 0x58, 0x6e, 0x0c, 0xe1,
  0x67, 0x67, 0xdb, 0xba, 0xf5, 0xe9, 0xf9, 0x1b, 0x04, 0x50, 0x3a, 0x61,
  0x2d, 0xf4, 0xe4, 0xf0, 0xbd, 0xe2, 0xbd, 0x07, 0x62, 0xb2, 0xc2, 0x31,
  0xbd, 0xbc, 0xf6, 0x2d, 0x43, 0x1f, 0xf6, 0x2f, 0xa6, 0x6b, 0xdb, 0xa7,
  0x03, 0x38, 0x01, 0x59, 0x51, 0x94, 0x44, 0x3a, 0x61, 0xdb, 0x0a, 0x28,
  0x3a, 0x26, 0x94, 0x9d, 0xe4, 0x5d, 0x5e, 0xe7, 0xc5, 0xf3, 0x2a, 0xf9,
  0x37, 0x1e, 0xba, 0x71, 0x11, 0xdd, 0xcc, 0xf0, 0xbd, 0x28, 0xda, 0xe9,
  0x6a, 0x3c, 0x7f, 0xe2, 0xc3, 0xf9, 0xbd, 0x41, 0xd1, 0x2e, 0xfe, 0x30,
  0xc8, 0x13, 0x04, 0xd1, 0x25, 0x3b, 0x8c, 0x95, 0xbf, 0xdb, 0x41, 0x07,
  0x88, 0x2c, 0xa5, 0x46, 0xa1, 0x86, 0x3e, 0x4e, 0x75, 0xb5, 0x91, 0x98,
  0x28, 0x07, 0x25, 0x88, 0x56, 0x92, 0xf7, 0xef, 0x2f, 0xad, 0x33, 0x5c,
  0xb3, 0x34, 0xaf, 0x27, 0xa0, 0x5a, 0x03, 0x2e, 0x5d, 0x15, 0x84, 0x6d,
  0xd7, 0x74, 0xc2, 0xca, 0xca, 0xba, 0x8a, 0x1f, 0xec, 0x8f, 0x64, 0xe6,
  0xa0, 0x87, 0xb5, 0x4a, 0x7f, 0x1d, 0x7a, 0x43, 0xc8, 0xf6, 0xec, 0x52,
  0x45, 0x5f, 0x07, 0x79, 0x10, 0x24, 0xbc, 0xd7, 0x7b, 0x02, 0x06, 0x69,
  0xad, 0x45, 0x8d, 0x30, 0x1d, 0x6c, 0xc7, 0x28, 0xcc, 0x83, 0xb6, 0xcf,
  0x82, 0xae, 0xc2, 0xb9, 0x9f, 0xc7, 0x8a, 0x16, 0x13, 0x25, 0xff, 0x41,
  0x0c, 0x7e, 0xe2, 0x41, 0x07, 0xdc, 0x9e, 0xd6, 0x94, 0xd3, 0x13, 0xc0,
  0x08, 0x89, 0x7b, 0x66, 0x79, 0x13, 0xac, 0x8c, 0x19, 0xbb, 0xc1, 0x10,
  0xd8, 0xb9, 0x98, 0xf1, 0xe5, 0xee, 0x44, 0xc1, 0x23, 0xc5, 0x00, 0xee,
  0xcc, 0x49, 0xa4, 0x07, 0x62, 0xa4, 0xc2, 0x4c, 0x6e, 0x73, 0x19, 0x8b,
  0xb7, 0xb4, 0x4e, 0x7c, 0x4d, 0xe6, 0xad, 0x30, 0xe8, 0x98, 0x49, 0x6b,
  0xf2, 0x50, 0x5f, 0x84, 0xce, 0xb2, 0x89, 0x19, 0xd9, 0xd0, 0x2d, 0x21,
  0x6b, 0x64, 0x74, 0xbd, 0x08, 0xee, 0xf4, 0x9f, 0x94, 0x76, 0xf1, 0x0a,
  0x67, 0x1b, 0xdc, 0x9b, 0x17, 0xae, 0xc0, 0xc6, 0x65, 0xdd, 0xdd, 0x2e,
  0x1c, 0x22, 0xc7, 0x21, 0x4f, 0x29, 0xcb, 0x15, 0x5a, 0xa3, 0xdf, 0x05,
  0xe7, 0x92, 0x3b, 0x3c, 0xa6, 0xc8, 0xc3, 0x7c, 0xa1, 0x07, 0x50, 0xc5,
  0xaa, 0x71, 0x15, 0xf8, 0x54, 0xc3, 0x6f, 0x1f, 0x1e, 0xa9, 0x59, 0xde,
  0x91, 0xb9, 0x5f, 0xae, 0xd5, 0x8d, 0xf5, 0x1b, 0x34, 0x4a, 0xd2, 0xc7,
  0x84, 0x23, 0xff, 0x96, 0xa4, 0x91, 0x36, 0x84, 0xf4, 0x84, 0x21, 0xa3,
  0xb0, 0xf8, 0x9c, 0x26, 0x95, 0xa5, 0xec, 0x94, 0x0c, 0xdd, 0xc5, 0x8e,
  0xe6, 0x49, 0x60, 0xd7, 0x53, 0xa0, 0xdc, 0x6f, 0x06, 0xf8, 0xd8, 0x29,
  0xaf, 0x52, 0x55, 0x1e, 0xff, 0xc1, 0x42, 0x1f, 0x46, 0x46, 0x00, 0xce,
  0x40, 0x59, 0x1a, 0x96, 0xc2, 0x52, 0x7a, 0xdf, 0x00, 0x71, 0xa5, 0x95,
  0x4e, 0xc9, 0x9c, 0xee, 0x30, 0x56, 0x13, 0xa3, 0xd5, 0xdb, 0xb7, 0x21,
  0xc4, 0x55, 0x3b, 0xca, 0xaf, 0x67, 0x25, 0x96, 0xea, 0xcf, 0xd8, 0x22,
  0x30, 0x65, 0x9e, 0x59, 0x41, 0xc9, 0x27, 0x3a, 0x58, 0x0a, 0xfb, 0x73,
  0x00, 0x26, 0xbd, 0xbe, 0x3e, 0x1e, 0xf1, 0x09, 0x88, 0x72, 0x4f, 0xea,
  0xfd, 0x0a, 0xfa, 0x4c, 0x33, 0xb0, 0xe7, 0xf4, 0x30, 0x8e, 0xf0, 0xba,
  0xb3, 0x68, 0x13, 0x51, 0x5d, 0x3f, 0xbc, 0xac, 0x48, 0x35, 0xb3, 0xb5,
  0xbd, 0x06, 0xb0, 0xe5, 0xe2, 0x6a, 0x06, 0xf8, 0xdf, 0x1a, 0xab, 0x8f,
  0x5f, 0x64, 0x6e, 0xed, 0x30, 0xf7, 0xd3, 0x00, 0xfe, 0xfe, 0x5b, 0xa1,
  0x5f, 0x3b, 0x93, 0x66, 0xdf, 0x56, 0x09, 0x6d, 0x04, 0x68, 0x3f, 0x44,
  0xdc, 0x3e, 0x3e, 0xe8, 0xb9, 0xcd, 0x26, 0xfb, 0x26, 0xa9, 0xf8, 0x12,
  0x91, 0x00, 0xfe, 0x13, 0x3c, 0x04, 0xa6, 0x2a, 0x97, 0x4b, 0xf7, 0x9e,
  0x04, 0x08, 0xa4, 0xed, 0xa0, 0x14, 0x3d, 0x3b, 0xe3, 0x3e, 0xa2, 0x46,
  0x0b, 0xd6, 0x5f, 0x0d, 0x22, 0x64, 0x39, 0x17, 0xfd, 0x32, 0xbe, 0x1a,
  0x9b, 0x4b, 0xf7, 0x3a, 0x0b, 0x44, 0x04, 0xa8, 0x6d, 0xe4, 0x97, 0x7e,
  0x37, 0xee, 0x5c, 0x47, 0x20, 0x14, 0x81, 0x3c, 0xa4, 0x1a, 0x47, 0xe8,
  0xe7, 0x27, 0x14, 0xb7, 0x6b, 0x28, 0x18, 0x9f, 0x33, 0xfe, 0x18, 0xbb,
  0x9f, 0xe5, 0x6a, 0xe4, 0x81, 0xf0, 0x67, 0x85, 0x38, 0x3e, 0x07, 0x2d,
  0xed, 0xf3, 0x3b, 0xdb, 0xc4, 0xda, 0x70, 0x41, 0x9b, 0x22, 0xc9, 0x1a,
  0x01, 0x81, 0x2f, 0x32, 0x2e, 0x06, 0x11, 0x37, 0xe2, 0x46, 0x35, 0x07,
  0xd7, 0xe9, 0x2d, 0xe3, 0xf7, 0x3b, 0x12, 0x2d, 0x08, 0xed, 0xc3, 0x19,
  0xda, 0xc2, 0xbe, 0x04, 0x2b, 0xce, 0xb2, 0xb0, 0xf3, 0xd5, 0xe4, 0x28,
  0xf0, 0x2b, 0x26, 0xec, 0xed, 0xc0, 0x3d, 0x2d, 0xb9, 0x29, 0x2d, 0xef,
  0x28, 0x35, 0x3d, 0x49, 0xdd, 0x28, 0x46, 0xdc, 0x2b, 0x3b, 0x0a, 0xdd,
  0x1b, 0x1a, 0x00, 0xe7, 0x15, 0xdf, 0x44, 0xdb, 0xf8, 0x0b, 0xd1, 0x21,
  0x0d, 0x2a, 0xbf, 0x01, 0xcd, 0xfc, 0xc0, 0xe7, 0x1b, 0xba, 0xc7, 0x15,
  0x3b, 0xf1, 0xe0, 0x13, 0x06, 0x2c, 0xe1, 0xdc, 0x30, 0x23, 0x1c, 0xc1,
  0xf1, 0xd7, 0x02, 0x40, 0xfe, 0xb3, 0x4b, 0xe4, 0xc8, 0x3f, 0x36, 0x29,
  0xfd, 0xba, 0x00, 0x37, 0xdf, 0x09, 0xe5, 0xc6, 0xc0, 0x48, 0x18, 0x19,
  0xda, 0xfc, 0xff, 0xfc, 0xf2, 0xaf, 0x3e, 0x22, 0x25, 0x3e, 0x17, 0x47,
  0xda, 0x15, 0x0f, 0x2a, 0xd1, 0x36, 0x22, 0x46, 0xf4, 0x2e, 0xb7, 0x3c,
  0x2a, 0x2a, 0x22, 0xf7, 0xce, 0xff, 0xce, 0x38, 0xf0, 0xfe, 0x33, 0xea,
  0x12, 0xf9, 0xd0, 0x11, 0xc5, 0xea, 0xc8, 0xb6, 0xc2, 0x27, 0x35, 0x32,
  0xe3, 0x39, 0xdc, 0xdc, 0x02, 0x3a, 0x39, 0x1f, 0xdb, 0xbe, 0xe2, 0x00,
  0xb5, 0xfb, 0x23, 0x46, 0x29, 0xb8, 0xf3, 0x44, 0xd4, 0xc5, 0xfb, 0x4e,
  0x32, 0xf5, 0xcc, 0xd3, 0x0a, 0xb2, 0xfc, 0x25, 0xbe, 0x14, 0xf0, 0x0c,
  0x27, 0x09, 0x23, 0x42, 0xd9, 0x2f, 0xef, 0x43, 0xf3, 0xc6, 0x02, 0x18,
  0x3b, 0xca, 0xc9, 0x1b, 0x07, 0x33, 0xe1, 0xcb, 0xce, 0xb8, 0xda, 0xe1,
  0x4a, 0xd9, 0xbf, 0xf5, 0x3f, 0xef, 0x3f, 0x29, 0x2f, 0x25, 0x1b, 0x47,
  0xec, 0xe9, 0xe2, 0xd2, 0xf4, 0x31, 0xf4, 0xcf, 0x30, 0xf8, 0xe0, 0xcc,
  0x1c, 0xc7, 0x1f, 0xf9, 0x40, 0x14, 0xac, 0x4b, 0xbf, 0xb8, 0x20, 0x2c,
  0x8e, 0xf5, 0x31, 0x70, 0x16, 0x4d, 0x1d, 0x66, 0x08, 0xaa, 0x99, 0xaf,
  0xc4, 0x70, 0x56, 0xaf, 0xf6, 0x14, 0x99, 0x16, 0x53, 0x66, 0xa2, 0xf4,
  0x68, 0x59, 0x48, 0xdc, 0xd1, 0x3c, 0x34, 0x8c, 0x04, 0x54, 0x62, 0x43,
  0xe0, 0x45, 0xf1, 0xb8, 0xff, 0x2a, 0xf9, 0xa8, 0xba, 0xef, 0xd8, 0x98,
  0x0a, 0xea, 0x29, 0x5a, 0xc6, 0xa4, 0x0a, 0x59, 0x69, 0x5d, 0x01, 0x5b,
  0xe8, 0xd7, 0x1e, 0x3a, 0x37, 0x64, 0xbc, 0x0b, 0xc0, 0xfa, 0xba, 0x31,
  0x31, 0x3a, 0x0d, 0xc6, 0x18, 0x15, 0x0d, 0x30, 0x18, 0x30, 0xa9, 0xb6,
  0x3e, 0x99, 0xfa, 0x14, 0xc3, 0xf1, 0xdf, 0xd8, 0xad, 0xa1, 0x36, 0x40,
  0xb1, 0x3f, 0x63, 0xf4, 0xf4, 0xc2, 0x17, 0x69, 0x8e, 0x5f, 0x3f, 0x59,
  0xbd, 0x3b, 0xfa, 0xda, 0x8f, 0xed, 0xea, 0xe9, 0xe7, 0x05, 0x4f, 0x32,
  0x06, 0x1b, 0xd9, 0x1a, 0xa4, 0xe6, 0xfb, 0xe3, 0x52, 0x71, 0x6c, 0x13,
  0x36, 0x5f, 0xa5, 0xcf, 0x53, 0xd4, 0x87, 0xfa, 0x40, 0x40, 0x8e, 0x13,
  0x4b, 0xf2, 0x2e, 0xe4, 0xaf, 0xef, 0x9e, 0x81, 0x6a, 0xc7, 0x41, 0x02,
  0x38, 0x1d, 0x24, 0x05, 0x94, 0x1a, 0x59, 0xf9, 0xde, 0x12, 0xeb, 0xbd,
  0x6a, 0x28, 0x5a, 0xd5, 0x49, 0x9a, 0xd5, 0xfb, 0xe8, 0xd5, 0xf8, 0xed,
  0xc0, 0x64, 0xc6, 0xfc, 0x3c, 0x9c, 0x6d, 0x4a, 0xff, 0xb9, 0x43, 0xb2,
  0x87, 0x43, 0x2a, 0x2e, 0xab, 0x22, 0x2a, 0xeb, 0x2a, 0x3c, 0xf3, 0xbc,
  0xd5, 0x50, 0x60, 0xb3, 0x91, 0xb3, 0x25, 0x1c, 0x4e, 0x64, 0x8c, 0xb6,
  0xb2, 0xf6, 0x30, 0xee, 0xa5, 0x88, 0x59, 0xb7, 0xe6, 0x36, 0x5e, 0x70,
  0xb7, 0x19, 0x01, 0x58, 0x22, 0xfd, 0x20, 0xf2, 0x64, 0xa0, 0x43, 0xc7,
  0x65, 0xa2, 0x74, 0x15, 0xcc, 0x77, 0x54, 0x24, 0x10, 0x96, 0x27, 0x53,
  0x04, 0x19, 0x98, 0x94, 0xa9, 0xc8, 0xa2, 0xf6, 0x43, 0xeb, 0xdf, 0x65,
  0x3f, 0x0d, 0xb6, 0x56, 0x9d, 0xfe, 0xb4, 0x36, 0xaf, 0x4c, 0xdc, 0x69,
  0x15, 0x67, 0x11, 0xe2, 0xa3, 0xa7, 0x3d, 0x67, 0xc5, 0x04, 0x01, 0x6b,
  0x2a, 0xb1, 0xd9, 0xb2, 0xf0, 0x8e, 0x5f, 0x8b, 0xd4, 0xf6, 0x4d, 0xf1,
  0x9b, 0xc5, 0xb7, 0x18, 0xd5, 0x2d, 0x5c, 0xe4, 0xa6, 0xe6, 0x04, 0x35,
  0xfd, 0x64, 0x20, 0xf0, 0xe8, 0xce, 0x99, 0x2c, 0x44, 0xc7, 0x95, 0x7a,
  0x76, 0xfe, 0x23, 0x08, 0xb8, 0x16, 0xac, 0x90, 0x0a, 0x95, 0xca, 0x42,
  0x8b, 0x6a, 0x4f, 0xa3, 0x2d, 0x93, 0x5e, 0xe8, 0x8b, 0xa2, 0x55, 0x2d,
  0x2c, 0x01, 0x2f, 0x63, 0xe7, 0x1a, 0x1e, 0xc0, 0x6d, 0xef, 0x38, 0x4e,
  0x1a, 0xc9, 0xd0, 0xca, 0x62, 0x6c, 0x98, 0x0d, 0x0e, 0x6e, 0xdc, 0x55,
  0xc8, 0x4f, 0xb4, 0x5d, 0x61, 0x16, 0x58, 0x1d, 0x59, 0x68, 0xc6, 0xd1,
  0x53, 0x5d, 0xd9, 0xdb, 0x5c, 0xda, 0xa0, 0x9e, 0xfa, 0xd1, 0xf3, 0xdd,
  0x46, 0x23, 0xa9, 0x05, 0x35, 0x58, 0xe4, 0x15, 0xf8, 0xa6, 0x31, 0xbe,
  0xf2, 0x20, 0xbf, 0x41, 0x2f, 0x64, 0x1a, 0x75, 0xc2, 0x13, 0x65, 0x6b,
  0xfe, 0x34, 0x29, 0xb5, 0xd4, 0x3b, 0x36, 0xe0, 0xd6, 0x5a, 0x7f, 0xb0,
  0xcf, 0x67, 0xab, 0x54, 0x6c, 0x01, 0xed, 0x3e, 0xb6, 0xcd, 0x74, 0x2a,
  0x31, 0xe2, 0x75, 0x75, 0xb4, 0xba, 0xc4, 0x1d, 0x69, 0xf7, 0xf1, 0x65,
  0xe5, 0x5a, 0xbf, 0x30, 0xae, 0x56, 0x12, 0xa5, 0xfc, 0xfa, 0x2a, 0xea,
  0xf3, 0x52, 0x04, 0xda, 0x49, 0x9e, 0xe4, 0x5c, 0x3f, 0x18, 0x5c, 0xf7,
  0x49, 0xd6, 0xfa, 0x59, 0xb4, 0x23, 0xd6, 0xc9, 0x9a, 0xe3, 0x86, 0x1f,
  0x2f, 0x29, 0xc7, 0x81, 0xa0, 0xfe, 0xd5, 0xc8, 0x82, 0x03, 0x96, 0x0f,
  0x90, 0x72, 0x00, 0xa5, 0x06, 0xed, 0xed, 0x1c, 0x95, 0x18, 0x40, 0x5b,
  0x74, 0x25, 0xd0, 0xd0, 0x1c, 0x59, 0x5e, 0x6c, 0xaf, 0x92, 0x48, 0x2e,
  0x49, 0x6d, 0xc0, 0xa9, 0x1d, 0x37, 0xd5, 0x9d, 0x78, 0xa9, 0x62, 0xf7,
  0x44, 0x91, 0x67, 0xcf, 0x6a, 0xea, 0xfb, 0xa7, 0xdc, 0xe7, 0xff, 0x0a,
  0xfd, 0xc1, 0xd3, 0x44, 0x9b, 0x0a, 0x37, 0x75, 0x17, 0x95, 0x24, 0xa2,
  0xfd, 0x58, 0xf2, 0x53, 0x48, 0x0a, 0x22, 0xe7, 0xb6, 0x28, 0x1b, 0xb4,
  0x2b, 0x20, 0x99, 0x61, 0x7e, 0x91, 0x58, 0x48, 0xe8, 0xbc, 0xb8, 0x6b,
  0x74, 0xbc, 0x87, 0x2c, 0x8e, 0xcb, 0x91, 0x8e, 0x16, 0x91, 0x0f, 0xd1,
  0xd4, 0xba, 0x32, 0x0a, 0x04, 0xa3, 0x94, 0x5d, 0x8c, 0x10, 0x3d, 0x3a,
  0x81, 0xf3, 0x64, 0xd1, 0xb1, 0xdc, 0xdc, 0xd8, 0xc9, 0xe4, 0xde, 0xf6,
  0x21, 0xab, 0xbc, 0xf8, 0xf0, 0x6a, 0x9a, 0xa6, 0xa2, 0x43, 0xfe, 0x95,
  0x62, 0xd8, 0x9b, 0x7e, 0xc3, 0xb9, 0x64, 0x00, 0x7e, 0xba, 0x50, 0x0b,
  0x44, 0xd0, 0x6a, 0x89, 0x41, 0xd3, 0xc3, 0xb3, 0x9a, 0x62, 0x56, 0x94,
  0xa8, 0xac, 0x32, 0x46, 0xe1, 0x90, 0x40, 0x82, 0xca, 0xda, 0x23, 0xe3,
  0x94, 0x45, 0x40, 0xce, 0xf1, 0x6b, 0x01, 0xa6, 0x36, 0xb0, 0x56, 0xe8,
  0x1d, 0x62, 0xf1, 0x16, 0xd9, 0x24, 0x92, 0x1d, 0xe2, 0xc3, 0x95, 0x08,
  0xb1, 0x6b, 0x37, 0x97, 0x9b, 0x0a, 0x9f, 0x22, 0x7d, 0xf2, 0x86, 0xa6,
  0xbc, 0xc0, 0x4e, 0xf1, 0x9d, 0x94, 0xd0, 0xcb, 0x1f, 0xf8, 0xab, 0x29,
  0x5c, 0x56, 0x88, 0x8c, 0x4e, 0x13, 0x3b, 0xee, 0x09, 0xa5, 0x6c, 0xcb,
  0x15, 0xf8, 0x1f, 0x42, 0xf6, 0xd5, 0xa1, 0xa4, 0x01, 0x4d, 0x36, 0x71,
  0x50, 0x18, 0x8f, 0x7f, 0xcd, 0xb1, 0xd5, 0xd9, 0xb6, 0x23, 0xa2, 0xef,
  0x84, 0xee, 0x9d, 0x71, 0xbd, 0x7f, 0x13, 0x4d, 0x32, 0x16, 0xfb, 0xce,
  0xb2, 0x3e, 0xca, 0xc8, 0xe0, 0xec, 0x2d, 0x4b, 0xc0, 0xfd, 0xf0, 0x15,
