unsigned char modelo[] = {
  0x1c, 0x00, 0x00, 0x00, 0x54, 0x46, 0x4c, 0x33, 0x14, 0x00, 0x20, 0x00,
  0x1c, 0x00, 0x18, 0x00, 0x14, 0x00, 0x10, 0x00, 0x0c, 0x00, 0x00, 0x00,
  0x08, 0x00, 0x04, 0x00, 0x14, 0x00, 0x00, 0x00, 0x1c, 0x00, 0x00, 0x00,
  0x8c, 0x00, 0x00, 0x00, 0x0c, 0x01, 0x00, 0x00, 0x44, 0x44, 0x00, 0x00,
  0x54, 0x44, 0x00, 0x00, 0xfc, 0x50, 0x00, 0x00, 0x03, 0x00, 0x00, 0x00,
  0x01, 0x00, 0x00, 0x00, 0x04, 0x00, 0x00, 0x00, 0x6a, 0xbb, 0xff, 0xff,
  0x0c, 0x00, 0x00, 0x00, 0x1c, 0x00, 0x00, 0x00, 0x3c, 0x00, 0x00, 0x00,
  0x0f, 0x00, 0x00, 0x00, 0x73, 0x65, 0x72, 0x76, 0x69, 0x6e, 0x67, 0x5f,
  0x64, 0x65, 0x66, 0x61, 0x75, 0x6c, 0x74, 0x00, 0x01, 0x00, 0x00, 0x00,
  0x04, 0x00, 0x00, 0x00, 0x68, 0xff, 0xff, 0xff, 0x09, 0x00, 0x00, 0x00,
  0x04, 0x00, 0x00, 0x00, 0x08, 0x00, 0x00, 0x00, 0x6f, 0x75, 0x74, 0x70,
  0x75, 0x74, 0x5f, 0x30, 0x00, 0x00, 0x00, 0x00, 0x01, 0x00, 0x00, 0x00,
  0x04, 0x00, 0x00, 0x00, 0x76, 0xbb, 0xff, 0xff, 0x04, 0x00, 0x00, 0x00,
  0x0f, 0x00, 0x00, 0x00, 0x6b, 0x65, 0x72, 0x61, 0x73, 0x5f, 0x74, 0x65,
  0x6e, 0x73, 0x6f, 0x72, 0x5f, 0x31, 0x32, 0x00, 0x03, 0x00, 0x00, 0x00,
  0x5c, 0x00, 0x00, 0x00, 0x2c, 0x00, 0x00, 0x00, 0x04, 0x00, 0x00, 0x00,
  0xb8, 0xff, 0xff, 0xff, 0x0d, 0x00, 0x00, 0x00, 0x04, 0x00, 0x00, 0x00,
  0x13, 0x00, 0x00, 0x00, 0x43, 0x4f, 0x4e, 0x56, 0x45, 0x52, 0x53, 0x49,
  0x4f, 0x4e, 0x5f, 0x4d, 0x45, 0x54, 0x41, 0x44, 0x41, 0x54, 0x41, 0x00,
  0xdc, 0xff, 0xff, 0xff, 0x0c, 0x00, 0x00, 0x00, 0x04, 0x00, 0x00, 0x00,
  0x13, 0x00, 0x00, 0x00, 0x6d, 0x69, 0x6e, 0x5f, 0x72, 0x75, 0x6e, 0x74,
  0x69, 0x6d, 0x65, 0x5f, 0x76, 0x65, 0x72, 0x73, 0x69, 0x6f, 0x6e, 0x00,
  0x08, 0x00, 0x0c, 0x00, 0x08, 0x00, 0x04, 0x00, 0x08, 0x00, 0x00, 0x00,
  0x0b, 0x00, 0x00, 0x00, 0x04, 0x00, 0x00, 0x00, 0x13, 0x00, 0x00, 0x00,
  0x6d, 0x69, 0x6e, 0x5f, 0x72, 0x75, 0x6e, 0x74, 0x69, 0x6d, 0x65, 0x5f,
  0x76, 0x65, 0x72, 0x73, 0x69, 0x6f, 0x6e, 0x00, 0x0e, 0x00, 0x00, 0x00,
  0x34, 0x43, 0x00, 0x00, 0x2c, 0x43, 0x00, 0x00, 0x0c, 0x43, 0x00, 0x00,
  0xfc, 0x41, 0x00, 0x00, 0xec, 0x40, 0x00, 0x00, 0xdc, 0x00, 0x00, 0x00,
  0xd4, 0x00, 0x00, 0x00, 0xcc, 0x00, 0x00, 0x00, 0xc4, 0x00, 0x00, 0x00,
  0xbc, 0x00, 0x00, 0x00, 0xb4, 0x00, 0x00, 0x00, 0x94, 0x00, 0x00, 0x00,
  0x74, 0x00, 0x00, 0x00, 0x04, 0x00, 0x00, 0x00, 0x52, 0xbc, 0xff, 0xff,
  0x04, 0x00, 0x00, 0x00, 0x60, 0x00, 0x00, 0x00, 0x0c, 0x00, 0x00, 0x00,
  0x08, 0x00, 0x0e, 0x00, 0x08, 0x00, 0x04, 0x00, 0x08, 0x00, 0x00, 0x00,
  0x10, 0x00, 0x00, 0x00, 0x28, 0x00, 0x00, 0x00, 0x00, 0x00, 0x06, 0x00,
  0x08, 0x00, 0x04, 0x00, 0x06, 0x00, 0x00, 0x00, 0x04, 0x00, 0x00, 0x00,
  0x01, 0x00, 0x00, 0x00, 0xeb, 0x03, 0x00, 0x00, 0x0c, 0x00, 0x18, 0x00,
  0x14, 0x00, 0x10, 0x00, 0x0c, 0x00, 0x04, 0x00, 0x0c, 0x00, 0x00, 0x00,
  0xaf, 0x8f, 0x0e, 0x93, 0x06, 0x2c, 0x0f, 0xb5, 0x02, 0x00, 0x00, 0x00,
  0x02, 0x00, 0x00, 0x00, 0x04, 0x00, 0x00, 0x00, 0x06, 0x00, 0x00, 0x00,
  0x32, 0x2e, 0x31, 0x39, 0x2e, 0x30, 0x00, 0x00, 0xbe, 0xbc, 0xff, 0xff,
  0x04, 0x00, 0x00, 0x00, 0x10, 0x00, 0x00, 0x00, 0x00, 0x00, 0x00, 0x00,
  0x00, 0x00, 0x00, 0x00, 0x00, 0x00, 0x00, 0x00, 0x00, 0x00, 0x00, 0x00,
  0xda, 0xbc, 0xff, 0xff, 0x04, 0x00, 0x00, 0x00, 0x10, 0x00, 0x00, 0x00,
  0x31, 0x2e, 0x31, 0x34, 0x2e, 0x30, 0x00, 0x00, 0x00, 0x00, 0x00, 0x00,
  0x00, 0x00, 0x00, 0x00, 0x20, 0xb1, 0xff, 0xff, 0x24, 0xb1, 0xff, 0xff,
  0x28, 0xb1, 0xff, 0xff, 0x2c, 0xb1, 0xff, 0xff, 0x30, 0xb1, 0xff, 0xff,
  0x0a, 0xbd, 0xff, 0xff, 0x04, 0x00, 0x00, 0x00, 0x00, 0x40, 0x00, 0x00,
  0x4f, 0xf1, 0xc9, 0xf6, 0xb6, 0x1d, 0x39, 0x42, 0x06, 0xa2, 0xf6, 0x2b,
  0x58, 0x18, 0xf2, 0xc0, 0xdd, 0xca, 0x3b, 0x43, 0x3d, 0x68, 0x98, 0x7d,
  0xe2, 0xab, 0xfe, 0xf0, 0x22, 0x62, 0x93, 0xfe, 0x92, 0x31, 0xe0, 0xf3,
  0xf1, 0x16, 0x7f, 0xda, 0xe1, 0x4a, 0x2e, 0x97, 0x5b, 0xb2, 0x53, 0x70,
  0x6d, 0x1c, 0xde, 0xd3, 0x2c, 0xbc, 0xca, 0x15, 0x2a, 0x72, 0x53, 0x82,
  0x20, 0x29, 0xc8, 0x89, 0xd9, 0x34, 0xb0, 0xbb, 0xec, 0x1e, 0x2d, 0x29,
  0x11, 0x64, 0xfb, 0x3a, 0x37, 0x5a, 0x5d, 0xca, 0xd5, 0x24, 0x52, 0x9f,
  0xb7, 0x43, 0x8b, 0xb6, 0xd6, 0x39, 0x21, 0x61, 0xc9, 0x2e, 0x06, 0xbe,
  0x43, 0x2b, 0x02, 0xed, 0xbb, 0x4f, 0x18, 0xda, 0xe5, 0x19, 0x46, 0xcd,
  0x6c, 0xd2, 0x8c, 0x47, 0x7b, 0x53, 0x0e, 0xc5, 0x0e, 0x2f, 0x05, 0xce,
  0xe6, 0x05, 0xf3, 0xfb, 0x4d, 0x0c, 0x26, 0xa4, 0x8f, 0x5a, 0x01, 0x41,
  0x00, 0x9e, 0xb3, 0x60, 0x2e, 0x93, 0xbe, 0xc0, 0x26, 0xca, 0xc4, 0x73,
  0x0b, 0xcf, 0xe5, 0xa0, 0xa5, 0x16, 0x5c, 0x74, 0x1a, 0xbf, 0xec, 0xc4,
  0x96, 0x92, 0x91, 0x42, 0x96, 0xd9, 0x7d, 0x15, 0x11, 0xf9, 0x9f, 0x9c,
  0xc7, 0xf1, 0x63, 0x42, 0x47, 0x9f, 0x35, 0xa6, 0x85, 0xb2, 0x98, 0xb2,
  0xd7, 0xc8, 0xfd, 0x4f, 0x8d, 0x24, 0xf5, 0x14, 0x50, 0x67, 0x18, 0x0c,
  0x84, 0x96, 0x98, 0xf1, 0xc6, 0x0b, 0xd8, 0xce, 0xa3, 0x62, 0x83, 0xe4,
  0xed, 0xc1, 0x31, 0x3e, 0x4f, 0x3e, 0x6f, 0x71, 0xdc, 0x82, 0x84, 0x06,
  0x25, 0x1f, 0x7e, 0xd5, 0x8d, 0xc1, 0xb0, 0x85, 0x76, 0x68, 0x06, 0x62,
  0xa1, 0xaa, 0xec, 0xfe, 0xc6, 0xe8, 0x6e, 0x1f, 0x84, 0xcb, 0xdf, 0x22,
  0xb7, 0xe7, 0x75, 0x2e, 0xfa, 0x97, 0x9a, 0x38, 0x6a, 0xba, 0xcc, 0xbb,
  0x2a, 0xb1, 0x2b, 0xcb, 0x07, 0xc2, 0x56, 0xe9, 0x3c, 0x01, 0xdc, 0x4c,
  0xc9, 0x19, 0xf5, 0x59, 0x5b, 0xd2, 0xa3, 0xd3, 0xef, 0x61, 0x66, 0x27,
  0x4d, 0x6e, 0xfc, 0xca, 0x7f, 0xea, 0xf9, 0xc6, 0x59, 0x90, 0x95, 0xa2,
  0xb5, 0x4b, 0xac, 0xa0, 0x46, 0xa8, 0x0d, 0x0f, 0xc5, 0x1b, 0x52, 0xf2,
  0x50, 0x6e, 0x54, 0x6e, 0x24, 0xed, 0x57, 0xc7, 0xb3, 0xe0, 0xd6, 0x05,
  0xb2, 0x59, 0x43, 0x46, 0x90, 0x13, 0x42, 0xe6, 0x2b, 0x5a, 0x1c, 0xe6,
  0x9e, 0x0f, 0x21, 0xde, 0x27, 0xc2, 0xcf, 0x2e, 0xc9, 0xfd, 0x49, 0x50,
  0x0d, 0x98, 0xe3, 0xc6, 0x26, 0xc6, 0xb5, 0x95, 0x2c, 0x92, 0x23, 0x9b,
  0xfa, 0xfa, 0x0d, 0xa5, 0x99, 0x50, 0x98, 0xf2, 0xed, 0x34, 0xae, 0x33,
  0x3e, 0xe1, 0x13, 0x3c, 0xfe, 0x55, 0x23, 0x8a, 0x6b, 0x14, 0xb2, 0x2d,
  0x44, 0x30, 0x61, 0x68, 0xb6, 0x09, 0x09, 0xc1, 0x55, 0x2d, 0x97, 0xbf,
  0xb1, 0xcb, 0x9c, 0x1e, 0x9d, 0xa4, 0x9d, 0xf5, 0xcb, 0x5b, 0x27, 0x1e,
  0xa4, 0x70, 0x04, 0xa2, 0x2a, 0x12, 0x32, 0xfe, 0x33, 0x2d, 0xd0, 0xbe,
  0x1b, 0x6a, 0xe1, 0xfc, 0x64, 0x2d, 0x5d, 0xe3, 0x2a, 0xee, 0x42, 0x06,
  0x48, 0x4a, 0x0b, 0x48, 0xcf, 0x68, 0x1f, 0x6c, 0x75, 0xab, 0xea, 0xc3,
  0x42, 0x62, 0x0f, 0xe2, 0xb1, 0x0d, 0xc8, 0x66, 0x50, 0x9a, 0xe0, 0x46,
  0x03, 0x15, 0xaa, 0x94, 0xa1, 0x98, 0x76, 0xfb, 0xd8, 0x95, 0xd7, 0xd4,
  0x1a, 0xed, 0x67, 0x6c, 0x30, 0xdc, 0x05, 0xd0, 0x70, 0x37, 0x2c, 0xb6,
  0xb2, 0x31, 0x32, 0xcc, 0xb2, 0xd4, 0x24, 0x4b, 0xea, 0x98, 0xe6, 0x0b,
  0xd2, 0x35, 0x6d, 0x2b, 0xa0, 0xe2, 0xb3, 0xfd, 0x3d, 0x71, 0x5f, 0x1a,
  0x7c, 0xe5, 0x61, 0x09, 0x55, 0xa3, 0x0a, 0x97, 0x8b, 0x16, 0x59, 0xa0,
  0xbd, 0x02, 0xf3, 0x6a, 0xf1, 0xbe, 0x16, 0x89, 0xc4, 0x24, 0x4e, 0x50,
  0xe9, 0xcf, 0x09, 0x11, 0xb5, 0x29, 0x00, 0xfb, 0x4f, 0xeb, 0x21, 0x1d,
  0xf7, 0xa8, 0xb8, 0xcf, 0xed, 0x47, 0xb4, 0xc1, 0xef, 0xae, 0x3b, 0xb8,
  0x2e, 0xe0, 0xf1, 0xf7, 0xed, 0xa6, 0x87, 0xe4, 0xec, 0x8b, 0x8c, 0x94,
  0xee, 0x0c, 0x8c, 0x81, 0x99, 0xe0, 0x29, 0xa7, 0x31, 0xc3, 0xa1, 0xc2,
  0x35, 0x9c, 0xf6, 0x20, 0x09, 0xd2, 0xdb, 0x34, 0x10, 0x44, 0xe5, 0xc4,
  0xc8, 0xec, 0x58, 0x42, 0xce, 0x58, 0x41, 0x25, 0x66, 0x63, 0x4d, 0x16,
  0xbf, 0xd8, 0x43, 0x4e, 0xc6, 0x25, 0x3d, 0x27, 0x23, 0x53, 0x43, 0x4e,
  0x3c, 0x35, 0x26, 0xbf, 0xcd, 0xff, 0x18, 0xea, 0xf8, 0x2c, 0x22, 0x4d,
  0xf6, 0x2a, 0x4b, 0xff, 0x13, 0x2b, 0x29, 0xcb, 0xef, 0xe7, 0x31, 0x4f,
  0xd0, 0x25, 0xe4, 0x14, 0xb1, 0xe7, 0x53, 0x5c, 0x10, 0xfd, 0xf0, 0xd1,
  0xfa, 0xcf, 0x05, 0x2e, 0x2d, 0xb6, 0x3e, 0x01, 0xd3, 0x49, 0xd2, 0x16,
  0x3f, 0xc6, 0xee, 0x0a, 0xb8, 0xd9, 0x11, 0xb8, 0xe1, 0xe9, 0x20, 0xb9,
  0x59, 0xc7, 0xfa, 0xb4, 0x5b, 0xc3, 0xf1, 0xfc, 0xf6, 0x5c, 0xb6, 0x32,
  0xce, 0xb2, 0x11, 0x4a, 0xc1, 0xfe, 0x4d, 0xc6, 0x2d, 0x1e, 0xf4, 0xd0,
  0xf1, 0x25, 0xdd, 0xdf, 0xc5, 0xe6, 0x1e, 0xce, 0x45, 0x55, 0xf3, 0x3c,
  0xe7, 0xd8, 0xfe, 0x4b, 0xd4, 0xee, 0xfe, 0xbe, 0x59, 0x22, 0xef, 0x26,
  0xc9, 0x40, 0x36, 0x11, 0x4f, 0xff, 0x08, 0x16, 0xf1, 0x00, 0x12, 0x07,
  0xff, 0xf7, 0xee, 0x0c, 0x0e, 0x04, 0xe3, 0x19, 0x62, 0xc3, 0xd5, 0x38,
  0xd4, 0x60, 0x64, 0x2f, 0x2b, 0xae, 0x40, 0x4d, 0xef, 0x26, 0xd3, 0x42,
  0x00, 0x06, 0xb1, 0xbd, 0xd8, 0x0f, 0xab, 0xe1, 0xac, 0x5a, 0x4c, 0xa8,
  0xf2, 0x01, 0x16, 0x3d, 0x57, 0xe5, 0xd5, 0x33, 0xf5, 0xd3, 0x2a, 0x18,
  0x2a, 0xb3, 0x6a, 0x5e, 0x32, 0x3e, 0xd3, 0x44, 0xea, 0x2a, 0xdd, 0x32,
  0xd4, 0xd9, 0xe5, 0x52, 0xee, 0xec, 0xa4, 0xc8, 0xe9, 0x48, 0x97, 0x58,
  0x57, 0x48, 0x4a, 0xa8, 0x15, 0x6c, 0xef, 0x68, 0x65, 0xeb, 0x9a, 0x96,
  0xe5, 0xac, 0x52, 0x61, 0xb6, 0x37, 0x8c, 0xeb, 0xe3, 0xac, 0x0c, 0x61,
  0xb3, 0x5f, 0x2b, 0x0d, 0xea, 0x7f, 0xe0, 0x19, 0x95, 0x2f, 0x07, 0x4d,
  0x56, 0x6c, 0xce, 0xc0, 0x04, 0xe5, 0x52, 0x7b, 0x0b, 0xb1, 0x48, 0xb6,
  0xa8, 0x09, 0x3f, 0x60, 0x48, 0x9e, 0xda, 0xa9, 0x63, 0x31, 0xa2, 0x1a,
  0x25, 0x0d, 0x5d, 0xa6, 0xfa, 0xcf, 0x21, 0xd9, 0x31, 0x73, 0xb9, 0xbd,
  0xfa, 0x59, 0x56, 0x17, 0xb2, 0xa3, 0x4a, 0x1f, 0xc8, 0x21, 0x61, 0x2d,
  0x3e, 0xba, 0x75, 0xa8, 0x1c, 0xf7, 0xf9, 0xa2, 0x03, 0x0b, 0x29, 0x06,
  0x17, 0xc4, 0x40, 0xdc, 0x1b, 0xec, 0xeb, 0xbd, 0x6e, 0x64, 0x48, 0x10,
  0x0a, 0x65, 0x9a, 0x17, 0xf7, 0x52, 0x65, 0xbf, 0x4e, 0x2b, 0xbe, 0x3f,
  0x41, 0xd2, 0x37, 0xf7, 0xf9, 0x56, 0x6c, 0x07, 0xa2, 0x35, 0x9a, 0x59,
  0x2e, 0x9c, 0xd8, 0xab, 0x55, 0xcc, 0x08, 0x03, 0xee, 0x2d, 0x33, 0xe4,
  0x27, 0xe3, 0xd4, 0xc1, 0xca, 0xb0, 0xb7, 0xc3, 0x9c, 0x4a, 0x37, 0x39,
  0x2e, 0xb0, 0xd4, 0xf0, 0x3e, 0xbc, 0xaf, 0x0a, 0x8f, 0xdf, 0x46, 0x89,
  0x00, 0xce, 0x65, 0x4f, 0x61, 0xcc, 0x8c, 0xdf, 0xd9, 0x9c, 0x33, 0x37,
  0x57, 0xf4, 0x47, 0x02, 0x00, 0x99, 0xea, 0x9c, 0xc1, 0x3d, 0xa5, 0x6a,
  0x30, 0x29, 0xcb, 0x48, 0x9f, 0xde, 0x70, 0x26, 0xdc, 0x94, 0x46, 0xbf,
  0x9f, 0x93, 0x58, 0xf8, 0x1f, 0xd0, 0x00, 0x47, 0x2c, 0xd6, 0x51, 0x37,
  0xe1, 0xaf, 0x47, 0xc5, 0x67, 0x4e, 0x08, 0x44, 0x54, 0xad, 0x14, 0x4a,
  0xbd, 0xf0, 0xdb, 0x04, 0xd6, 0x99, 0x94, 0xb9, 0xad, 0x1c, 0xb4, 0x4a,
  0x8b, 0xef, 0xd5, 0x6b, 0xa6, 0xdb, 0xea, 0xa0, 0xec, 0x58, 0x97, 0xa0,
  0x8b, 0xa9, 0xef, 0xf8, 0x68, 0x59, 0x3c, 0x61, 0x33, 0xde, 0x33, 0xc1,
  0xd3, 0x25, 0x00, 0xac, 0x35, 0x70, 0x4b, 0xe8, 0x67, 0x83, 0xee, 0x77,
  0x24, 0x6a, 0x21, 0x24, 0xec, 0x36, 0xa7, 0x1d, 0x1a, 0xed, 0x3f, 0x72,
  0xc4, 0x11, 0xb7, 0xd8, 0x6c, 0x21, 0x19, 0xe7, 0xea, 0xc7, 0x52, 0x70,
  0x57, 0x8b, 0x56, 0x93, 0x5a, 0x58, 0xb2, 0xac, 0x93, 0x6b, 0xc7, 0xde,
  0x90, 0xd7, 0x57, 0x9d, 0xae, 0xc7, 0x92, 0x79, 0x9d, 0x81, 0x99, 0x91,
  0x27, 0x3a, 0xcd, 0x8c, 0x21, 0x9e, 0x8a, 0xd5, 0xd1, 0x47, 0x1f, 0xd4,
  0x03, 0x82, 0x25, 0x5a, 0x00, 0x1e, 0x91, 0xb8, 0x8f, 0x3b, 0xef, 0xc3,
  0x0f, 0x0c, 0xcc, 0x08, 0x78, 0xab, 0x43, 0xed, 0xe8, 0xab, 0xbd, 0xa0,
  0x1d, 0xe4, 0x88, 0x11, 0xc3, 0x1a, 0xfa, 0xbb, 0xe4, 0xc5, 0x96, 0x20,
  0x74, 0x69, 0xb2, 0x0f, 0xef, 0x90, 0x13, 0xd6, 0x58, 0xbc, 0x0a, 0x59,
  0xb5, 0xfa, 0x6b, 0xe2, 0x52, 0x1e, 0xec, 0x32, 0xa6, 0x31, 0x49, 0x54,
  0x46, 0x4a, 0x5d, 0x24, 0x75, 0xdd, 0xa2, 0x97, 0xa1, 0x00, 0xb4, 0x13,
  0xf3, 0x46, 0x13, 0x72, 0x2f, 0x9f, 0xac, 0xba, 0x12, 0xe9, 0xfe, 0x15,
  0xaf, 0x69, 0xf8, 0xa0, 0xb6, 0x60, 0x69, 0x6b, 0x49, 0xe8, 0xb9, 0x51,
  0xc7, 0xbf, 0xad, 0x13, 0x1e, 0x5b, 0x4e, 0xbd, 0x38, 0x96, 0xc8, 0x26,
  0xb4, 0x3a, 0xd4, 0x6b, 0x4b, 0x25, 0x1f, 0xce, 0x64, 0x78, 0x51, 0x4f,
  0x4a, 0x58, 0x4d, 0xe5, 0x3c, 0x74, 0xbd, 0x78, 0xd0, 0x0d, 0x66, 0x3a,
  0x4e, 0x04, 0xe1, 0x07, 0x91, 0x0a, 0xa8, 0x18, 0x3b, 0x77, 0xab, 0xee,
  0xbe, 0xa0, 0xbc, 0x9c, 0xaf, 0x0e, 0x89, 0xbd, 0xa2, 0x0e, 0xda, 0xb9,
  0x9a, 0xfb, 0x00, 0xc8, 0x6e, 0x5e, 0x2c, 0xfa, 0x89, 0xb1, 0x8a, 0x93,
  0x1b, 0xfa, 0x1d, 0x7f, 0x39, 0x5e, 0x2f, 0xdf, 0x8a, 0x02, 0x90, 0x5e,
  0xc9, 0x35, 0x34, 0xc2, 0xc5, 0x24, 0x82, 0x5c, 0x42, 0xb7, 0xb0, 0x21,
  0xf5, 0x1b, 0x42, 0x1c, 0xf2, 0x24, 0xa4, 0xb7, 0x12, 0x2b, 0x6b, 0x8f,
  0xfe, 0x8b, 0xf4, 0xc8, 0xed, 0x33, 0x10, 0xae, 0x73, 0x47, 0x71, 0xc9,
  0xe7, 0xf4, 0xa4, 0xfc, 0xc5, 0x81, 0xa1, 0xc0, 0x51, 0x07, 0x3d, 0x54,
  0x40, 0xa9, 0x20, 0xda, 0xb4, 0x46, 0x7e, 0x3a, 0xb1, 0x62, 0x93, 0x6f,
  0x65, 0xc0, 0x3c, 0x29, 0x75, 0x8b, 0xd7, 0x24, 0x61, 0x7d, 0x11, 0xbd,
  0x6b, 0x93, 0xbd, 0xd6, 0x95, 0xc7, 0xe7, 0x5c, 0xfd, 0x27, 0xa3, 0x73,
  0x96, 0xc4, 0x79, 0x9c, 0x91, 0x0a, 0xfd, 0x15, 0xb7, 0x27, 0x9b, 0x23,
  0xff, 0x62, 0xa7, 0xfb, 0x3b, 0xa8, 0xc2, 0xc1, 0x89, 0xea, 0x60, 0xff,
  0xde, 0xbe, 0xcc, 0x0e, 0x96, 0xea, 0xc1, 0xb8, 0x76, 0xa4, 0x40, 0xec,
  0xa9, 0x62, 0x56, 0x11, 0xe4, 0xd9, 0xe3, 0x98, 0x19, 0x4c, 0x41, 0x8c,
  0x34, 0x20, 0x8f, 0x40, 0xd4, 0x15, 0x53, 0x36, 0x6f, 0x42, 0xed, 0xcf,
  0x90, 0xec, 0xde, 0x74, 0x38, 0xad, 0x73, 0x56, 0xe3, 0x38, 0x48, 0x52,
  0xdb, 0x8c, 0x50, 0x86, 0xad, 0x0b, 0x66, 0xff, 0x8d, 0xb5, 0xa4, 0x3f,
  0x0f, 0x5b, 0x12, 0xf7, 0xc4, 0xa2, 0x99, 0xb9, 0x51, 0x92, 0xee, 0xf4,
  0xc4, 0xf2, 0x94, 0x8d, 0x10, 0xc2, 0xea, 0x40, 0xad, 0x74, 0xf9, 0xe3,
  0xa6, 0xd1, 0x5a, 0x97, 0x7b, 0xbf, 0xb4, 0x4d, 0x32, 0x5c, 0x9e, 0xf0,
  0xc7, 0xab, 0x8b, 0x01, 0x00, 0x8b, 0x67, 0xed, 0x5c, 0xf2, 0x68, 0x74,
  0x50, 0xe6, 0x36, 0x2e, 0x88, 0x85, 0x59, 0xb3, 0x3b, 0xc6, 0x54, 0x6d,
  0x28, 0x3d, 0x97, 0xad, 0x03, 0x30, 0x93, 0xce, 0xbd, 0xec, 0x2c, 0x5e,
  0xd2, 0x9f, 0x41, 0xf7, 0x75, 0xc2, 0xf6, 0x9b, 0xc8, 0x78, 0xc5, 0xa6,
  0xc3, 0x1e, 0x44, 0x99, 0x29, 0x04, 0x64, 0xed, 0xcd, 0x6a, 0xbe, 0xe0,
  0x8b, 0x8a, 0x10, 0x0b, 0xee, 0xb4, 0x95, 0x34, 0xfd, 0xd1, 0x88, 0x90,
  0xfa, 0xc7, 0xfa, 0xde, 0x0f, 0xf3, 0xba, 0x48, 0x89, 0xfa, 0x75, 0x12,
  0xb9, 0xce, 0x90, 0x78, 0xbb, 0x2d, 0x8f, 0x5d, 0x9d, 0x76, 0xfa, 0x0a,
  0x07, 0x8b, 0x34, 0x28, 0x8f, 0xd6, 0x53, 0x40, 0x2e, 0x5a, 0x94, 0x11,
  0x54, 0xd5, 0xff, 0x6c, 0xde, 0xdf, 0x23, 0xec, 0x86, 0x76, 0x83, 0x75,
  0x11, 0x6a, 0x3d, 0xc8, 0x73, 0x5d, 0x6d, 0xfb, 0x49, 0x84, 0x24, 0x52,
  0x41, 0x2b, 0x1c, 0x78, 0x8e, 0x52, 0xe4, 0xca, 0xd2, 0xbb, 0xaa, 0x0a,
  0x73, 0x1d, 0x18, 0x89, 0xee, 0x27, 0xa0, 0x57, 0x9e, 0x45, 0x04, 0x88,
  0xd3, 0x66, 0xaa, 0x0c, 0x9a, 0x81, 0xe3, 0x87, 0xfe, 0xd8, 0x4c, 0xa3,
  0xec, 0xde, 0x84, 0x42, 0x36, 0x1a, 0x2b, 0x27, 0xfa, 0xd6, 0x86, 0x1f,
  0xcb, 0xd7, 0x81, 0x14, 0x19, 0x62, 0xed, 0xcb, 0xbd, 0x0e, 0x9e, 0x0a,
  0x89, 0xd6, 0x73, 0x11, 0xb5, 0x28, 0xa8, 0x4e, 0xb8, 0xeb, 0x5a, 0x19,
  0x68, 0x28, 0x3f, 0x14, 0xbc, 0x77, 0xbc, 0x95, 0xb9, 0x62, 0x11, 0x4a,
  0xb1, 0x1d, 0xe5, 0x46, 0x5c, 0xb0, 0xb8, 0x92, 0x8c, 0xb5, 0x30, 0x38,
  0xbd, 0x22, 0x20, 0x78, 0x96, 0x59, 0xf0, 0x8e, 0xbb, 0xc0, 0x6e, 0xfe,
  0xe3, 0xa2, 0x1f, 0x4d, 0xcd, 0x48, 0xb7, 0x26, 0xd3, 0xde, 0x15, 0x3c,
  0xa8, 0x96, 0xa6, 0x5e, 0xe6, 0x60, 0x89, 0x4d, 0xfa, 0x2b, 0x04, 0xdf,
  0xfc, 0x4d, 0x2e, 0xd6, 0xd6, 0x57, 0x37, 0x65, 0x22, 0x2f, 0xe1, 0x35,
  0x12, 0x5b, 0x5f, 0x0d, 0x1a, 0xe0, 0x59, 0xea, 0x01, 0x3f, 0x01, 0xc0,
  0xdd, 0xec, 0x99, 0x81, 0xbc, 0xcd, 0x2e, 0x55, 0xb7, 0xaf, 0xf8, 0x21,
  0x2c, 0x2c, 0x62, 0xea, 0xe4, 0x18, 0x5c, 0x59, 0xae, 0x20, 0x79, 0x6a,
  0x57, 0xe8, 0xf4, 0x4a, 0x4d, 0xbb, 0x31, 0xa2, 0x6c, 0x51, 0x96, 0x21,
  0xbb, 0xf6, 0x22, 0xb7, 0x45, 0xb6, 0xc2, 0x30, 0x1f, 0xbd, 0x6d, 0x14,
  0x39, 0xb9, 0xb5, 0xe9, 0xa8, 0x62, 0x74, 0xe4, 0x16, 0x1f, 0xbf, 0xe6,
  0xda, 0xd3, 0x77, 0x1a, 0xb1, 0x20, 0xd1, 0x0d, 0x23, 0xf2, 0x49, 0x2e,
  0xad, 0x16, 0xf0, 0xd8, 0x20, 0xfb, 0x1e, 0xf9, 0xd9, 0x9d, 0xdd, 0xef,
  0x07, 0x0b, 0xf2, 0x37, 0x5a, 0x70, 0xdd, 0xa8, 0x0a, 0x51, 0x6c, 0xdb,
  0xf5, 0x03, 0x54, 0xce, 0xaa, 0x1c, 0xb9, 0x6d, 0x45, 0xfc, 0x24, 0xc9,
  0xdf, 0xc1, 0x18, 0x41, 0x0d, 0xaa, 0xa2, 0x65, 0xb4, 0xfa, 0xe2, 0xe8,
  0xa4, 0xba, 0xfe, 0xbd, 0x54, 0x3e, 0xc1, 0x17, 0x3e, 0x2f, 0x1c, 0x02,
  0x54, 0x0a, 0x33, 0xd4, 0x00, 0x67, 0x5c, 0xe5, 0x61, 0x9e, 0x70, 0xdc,
  0xeb, 0x53, 0x18, 0x0a, 0xaa, 0xfe, 0xb7, 0x44, 0xbf, 0x9c, 0x1e, 0xb7,
  0xca, 0x3c, 0x42, 0xaa, 0x59, 0xbd, 0xee, 0x13, 0x8c, 0x32, 0xd9, 0xea,
  0xa1, 0xec, 0xa7, 0xd9, 0xc5, 0xe4, 0xfd, 0x05, 0x08, 0x2e, 0xe9, 0xe2,
  0x41, 0x1e, 0x37, 0xbc, 0xed, 0x99, 0xb3, 0x26, 0xce, 0xc5, 0x15, 0xc9,
  0xc1, 0x5a, 0xf5, 0xf4, 0xdc, 0xa4, 0x6c, 0x05, 0xfd, 0x30, 0x97, 0x64,
  0xd8, 0xc8, 0xa9, 0x51, 0xf3, 0xc8, 0xf6, 0x2b, 0x91, 0x37, 0x40, 0xb1,
  0xf1, 0xe2, 0x21, 0x8e, 0x9b, 0x49, 0xdf, 0xa1, 0xd9, 0xa0, 0x90, 0x17,
  0x1c, 0xb7, 0x45, 0x61, 0x61, 0x4e, 0xf0, 0x13, 0x61, 0x66, 0x5f, 0xef,
  0x9e, 0x06, 0x0e, 0xe4, 0x56, 0x45, 0x33, 0x45, 0x45, 0x3d, 0xa6, 0x18,
  0x3a, 0xc5, 0x54, 0xcf, 0xa8, 0x8b, 0xb9, 0x43, 0x3c, 0x00, 0x79, 0xd8,
  0x16, 0xbd, 0xdc, 0xd9, 0xa2, 0x25, 0xe4, 0xe4, 0xbb, 0xc4, 0x74, 0x96,
  0x9a, 0x43, 0x23, 0x91, 0x48, 0x05, 0xa6, 0x5c, 0xd7, 0xe1, 0xcf, 0x22,
  0x52, 0xc6, 0x99, 0xa7, 0x55, 0xd4, 0x76, 0x7f, 0x08, 0xc7, 0x0f, 0x3d,
  0x11, 0x30, 0xff, 0xca, 0x0a, 0xac, 0x82, 0x43, 0x59, 0x06, 0x24, 0x06,
  0xb9, 0x73, 0xfa, 0xae, 0xaa, 0xb4, 0x7e, 0x37, 0x79, 0x41, 0x5d, 0x16,
  0x49, 0x5c, 0x89, 0xab, 0x03, 0x65, 0xc8, 0x55, 0xc1, 0x9b, 0xe9, 0xb4,
  0x31, 0x96, 0x2a, 0x91, 0x70, 0x58, 0x79, 0xa3, 0xb3, 0x08, 0x8a, 0xe4,
  0x66, 0xc4, 0x65, 0xbb, 0x7b, 0x79, 0xc3, 0xb0, 0x25, 0x8c, 0x95, 0x4d,
  0xc3, 0x41, 0xa9, 0x45, 0xfc, 0x51, 0x25, 0xb3, 0xda, 0x5a, 0x14, 0x5b,
  0x1c, 0xa4, 0x4e, 0xe6, 0x1d, 0x41, 0xbf, 0xf8, 0x61, 0x5d, 0x86, 0xa2,
  0x0b, 0x73, 0x57, 0x58, 0x5f, 0x29, 0xba, 0xb8, 0xf8, 0x1b, 0x09, 0xee,
  0x88, 0x8b, 0x9f, 0xf8, 0xe3, 0x6f, 0x3e, 0xd1, 0x6a, 0x35, 0x73, 0xd6,
  0x71, 0x1f, 0x66, 0xec, 0x97, 0xbb, 0xdb, 0x35, 0x95, 0x67, 0x08, 0x0a,
  0xcd, 0xad, 0xf1, 0x0a, 0x8e, 0x91, 0x26, 0x94, 0x49, 0x35, 0x86, 0xe3,
  0xbc, 0x53, 0x72, 0xec, 0x7c, 0xb6, 0xca, 0xa2, 0xe5, 0x8a, 0xeb, 0x99,
  0x7f, 0x85, 0x3f, 0xd5, 0x2e, 0xca, 0xd1, 0x86, 0x23, 0x75, 0xca, 0x05,
  0xc8, 0xb5, 0xa6, 0xeb, 0x8b, 0x13, 0x12, 0x87, 0x0c, 0x5c, 0x88, 0x59,
  0x69, 0x9d, 0x63, 0xa9, 0xa3, 0x72, 0xa5, 0x51, 0xe2, 0x55, 0x92, 0x2b,
  0xef, 0x9a, 0x52, 0xe2, 0x10, 0x27, 0x11, 0x68, 0x76, 0xdc, 0x96, 0x54,
  0x59, 0x4f, 0x87, 0x2e, 0x52, 0x32, 0x8e, 0xa1, 0xc7, 0x3b, 0x27, 0xe9,
  0x05, 0x4b, 0xb7, 0x09, 0x78, 0x14, 0x9d, 0xb4, 0x67, 0x67, 0xcd, 0xfa,
  0xe3, 0xa5, 0x7b, 0x01, 0x9f, 0x2e, 0x35, 0xf3, 0x03, 0x58, 0xf8, 0x4a,
  0xbb, 0xc8, 0x20, 0x66, 0x5d, 0x49, 0x79, 0xfe, 0x2c, 0xca, 0xa3, 0x64,
  0x79, 0x22, 0x3d, 0x6a, 0xb7, 0xb2, 0xab, 0xfa, 0xf1, 0xf6, 0xe2, 0x0f,
  0x86, 0xc2, 0x94, 0xf5, 0xb5, 0x18, 0x02, 0x36, 0xa9, 0x6c, 0x16, 0x29,
  0x2d, 0x66, 0x9e, 0x23, 0xd7, 0xf4, 0x70, 0xdf, 0x19, 0x6d, 0x5c, 0xf5,
  0x7f, 0xd6, 0x56, 0xe4, 0xc5, 0x5d, 0xa0, 0xf1, 0xe0, 0xf1, 0x19, 0x34,
  0x18, 0x59, 0xf6, 0x42, 0xc0, 0x36, 0xfa, 0x39, 0x39, 0x63, 0x18, 0xfe,
  0x97, 0xe5, 0x32, 0xe2, 0x3a, 0xed, 0xe0, 0x3f, 0x2f, 0x68, 0xe4, 0x41,
  0xc7, 0x15, 0xd5, 0xa3, 0x6e, 0x65, 0x72, 0x33, 0x3f, 0xf6, 0xfd, 0xf1,
  0xbc, 0x75, 0x4b, 0x65, 0x58, 0xf9, 0x76, 0xe8, 0xe3, 0x4e, 0x5c, 0x4a,
  0xa6, 0xc4, 0xd8, 0x12, 0x5a, 0x47, 0xed, 0x92, 0xae, 0xee, 0xf7, 0xcc,
  0x0d, 0x68, 0xf8, 0xa8, 0xd8, 0x00, 0x50, 0x29, 0x49, 0xfb, 0xe1, 0x61,
  0x29, 0xc7, 0x59, 0x19, 0xa0, 0x10, 0x13, 0xd1, 0xf2, 0x00, 0x6f, 0xf9,
  0x88, 0xc4, 0xee, 0xfa, 0xa1, 0x60, 0xf7, 0x14, 0x71, 0x0c, 0x67, 0xaf,
  0x17, 0x76, 0x99, 0xea, 0xb0, 0xa4, 0x65, 0x34, 0xe7, 0x36, 0x3c, 0x46,
  0xdd, 0x12, 0xdf, 0x1a, 0xde, 0x89, 0xc3, 0xdd, 0xb3, 0xac, 0xf6, 0xc0,
  0xad, 0x4f, 0xa3, 0xe1, 0x76, 0x0c, 0xb6, 0x8a, 0x03, 0x4d, 0xc4, 0xa0,
  0x51, 0x5e, 0x44, 0x9c, 0x34, 0xae, 0xce, 0x43, 0xc9, 0x35, 0x37, 0xaf,
  0xee, 0x86, 0x56, 0x73, 0xb8, 0xd9, 0xd6, 0xc4, 0x28, 0x18, 0xff, 0xb7,
  0x07, 0x00, 0xb4, 0xd7, 0x56, 0x9e, 0xbd, 0x03, 0xb7, 0x87, 0x87, 0x22,
  0x07, 0x4c, 0x18, 0xc7, 0x0c, 0x65, 0x4d, 0xc3, 0xfe, 0xa1, 0x9d, 0x31,
  0x81, 0x30, 0xa5, 0x5c, 0xa5, 0xbe, 0x10, 0xa5, 0x00, 0x06, 0x5b, 0x01,
  0xf7, 0xd3, 0x20, 0xa0, 0x96, 0x94, 0x58, 0x98, 0x18, 0xdf, 0x8d, 0x00,
  0xc5, 0xb7, 0x23, 0xc5, 0x8e, 0x09, 0xf9, 0x87, 0xf8, 0xb5, 0xce, 0x03,
  0xdf, 0x94, 0x3b, 0xa3, 0x3b, 0xeb, 0xcb, 0x5b, 0xf8, 0xd8, 0x35, 0x12,
  0xfd, 0x19, 0x2d, 0xfa, 0x45, 0x27, 0x42, 0xd6, 0x28, 0x2f, 0xc8, 0x19,
  0xea, 0xd3, 0xeb, 0x52, 0xda, 0x23, 0x40, 0x50, 0x0c, 0xdd, 0xf2, 0x13,
  0x1d, 0x5e, 0xaf, 0x36, 0xa1, 0xad, 0x71, 0x68, 0xc1, 0x42, 0x46, 0x3f,
  0x9b, 0x01, 0x65, 0xd6, 0x56, 0xd7, 0xdc, 0x43, 0xe0, 0xc0, 0x9e, 0xb0,
  0x01, 0x20, 0xc7, 0xf5, 0x20, 0x2e, 0x0d, 0xfe, 0xc4, 0x10, 0x24, 0x52,
  0xf3, 0xe8, 0xe9, 0x42, 0x4a, 0x6f, 0xc0, 0x1f, 0x06, 0x6a, 0xc2, 0x37,
  0x45, 0xf6, 0x5c, 0xca, 0x1b, 0xab, 0x0f, 0xaa, 0x06, 0xfb, 0xad, 0xec,
  0xc4, 0x9d, 0x37, 0xe4, 0xe3, 0x72, 0x20, 0xeb, 0xa2, 0x4f, 0x35, 0x27,
  0xb0, 0xd5, 0x95, 0x09, 0x3d, 0x2b, 0xa8, 0xa2, 0x50, 0xd4, 0x6f, 0xc3,
  0x42, 0x0b, 0x39, 0xa9, 0xec, 0x5a, 0x46, 0x5a, 0x3f, 0x2f, 0xa4, 0xe8,
  0xd6, 0x2d, 0x9b, 0x00, 0xa3, 0x00, 0x94, 0x9b, 0xb7, 0x6e, 0x01, 0x0a,
  0x4e, 0x0d, 0x0f, 0xfb, 0xfe, 0x8d, 0xe7, 0x61, 0x23, 0x61, 0x6f, 0xce,
  0x4c, 0xe1, 0x4b, 0x0b, 0x1f, 0xa3, 0x5a, 0xdd, 0xaf, 0x1e, 0x04, 0x24,
  0xb7, 0x25, 0xcc, 0x58, 0x4e, 0xc6, 0xbf, 0x64, 0x09, 0xe7, 0x50, 0x1c,
  0x14, 0xee, 0x01, 0x09, 0xd1, 0x2f, 0x47, 0x68, 0xcf, 0x03, 0x98, 0x5d,
  0xac, 0x6f, 0x45, 0x01, 0xad, 0xeb, 0x51, 0x16, 0xd1, 0xb4, 0xf9, 0x32,
  0x03, 0xea, 0xc9, 0x55, 0x90, 0xe3, 0x58, 0x61, 0xa4, 0xc4, 0x29, 0x2c,
  0x12, 0x36, 0x9e, 0xe5, 0xcb, 0xc8, 0x11, 0x85, 0x1c, 0xbc, 0xe8, 0xe6,
  0x13, 0x1f, 0x41, 0xe7, 0x4f, 0x61, 0x7b, 0xa3, 0xe6, 0x2b, 0x55, 0xe4,
  0xa8, 0xa0, 0xdb, 0xcb, 0x56, 0x7d, 0x74, 0x51, 0xa3, 0x4e, 0x3a, 0x0f,
  0x43, 0x55, 0xed, 0x78, 0x4d, 0xb7, 0xf9, 0xbd, 0x79, 0x96, 0x09, 0x08,
  0xc7, 0x15, 0x03, 0xcd, 0x8b, 0x28, 0xf0, 0x8b, 0xe3, 0x4c, 0x68, 0x5f,
  0x83, 0x9f, 0x12, 0x98, 0x8c, 0xcf, 0xb2, 0xe4, 0xb9, 0xcd, 0x4c, 0x94,
  0xaf, 0x09, 0xb2, 0x55, 0x9a, 0xf4, 0x5a, 0x64, 0xd2, 0x3f, 0x8a, 0xfc,
  0xb2, 0xff, 0x51, 0xd5, 0xbd, 0xec, 0x19, 0x26, 0x5c, 0xe9, 0xc1, 0x2a,
  0xb7, 0x72, 0x42, 0xce, 0xd6, 0xbf, 0x3b, 0xd8, 0xbd, 0x68, 0x30, 0x14,
  0x2a, 0x96, 0x7f, 0xe5, 0x57, 0x42, 0x6e, 0xa0, 0x04, 0x0f, 0x79, 0x44,
  0x87, 0x5a, 0x10, 0xd4, 0x5f, 0xb5, 0xdd, 0x1f, 0x55, 0x6e, 0x08, 0x22,
  0xe2, 0xc2, 0x11, 0xf8, 0x3a, 0xdb, 0x0a, 0xe7, 0xf0, 0x0e, 0xeb, 0x71,
  0x97, 0xce, 0x23, 0xf1, 0x42, 0xf0, 0xd0, 0xaa, 0x6d, 0x3e, 0x37, 0xba,
  0xcb, 0x49, 0x4e, 0x83, 0x6a, 0x35, 0x51, 0x7d, 0x70, 0xc9, 0xbf, 0xa4,
  0x28, 0xf0, 0xa7, 0xe7, 0xae, 0xbd, 0xa6, 0x9f, 0x04, 0x86, 0xae, 0x70,
  0x3f, 0x45, 0x7b, 0x91, 0x49, 0xf6, 0x1b, 0xb7, 0x57, 0xcf, 0xc9, 0x58,
  0x0c, 0x25, 0xb9, 0x73, 0x1f, 0x11, 0xc2, 0xf9, 0xd6, 0x0b, 0xeb, 0xf1,
  0x9b, 0x46, 0xd6, 0x84, 0xd1, 0x64, 0x57, 0xfe, 0xc6, 0x26, 0xd6, 0x18,
  0x09, 0x95, 0x55, 0x86, 0x0d, 0x99, 0x53, 0xef, 0xb8, 0xf2, 0x0e, 0x3a,
  0x0d, 0xa2, 0x19, 0x03, 0x0e, 0xf6, 0x02, 0x85, 0xa7, 0xd2, 0x90, 0x08,
  0x4d, 0x2d, 0xd7, 0xae, 0x71, 0x54, 0x85, 0x0e, 0x05, 0x72, 0xd6, 0x2a,
  0x5c, 0x1d, 0xbb, 0xb9, 0xa7, 0xc8, 0xb6, 0xac, 0xd5, 0x4e, 0x44, 0x58,
  0x43, 0x8d, 0xaa, 0xf7, 0x3e, 0xb3, 0x63, 0xcc, 0x22, 0xf8, 0xf9, 0x6c,
  0x5d, 0xa8, 0xc6, 0x3b, 0xf8, 0xbc, 0x1c, 0x98, 0x2a, 0x43, 0x34, 0x36,
  0x40, 0x8b, 0x00, 0x5c, 0xd4, 0x61, 0x15, 0x0a, 0x98, 0x0d, 0x2f, 0xc9,
  0xff, 0x3e, 0x01, 0xe9, 0xf6, 0xdb, 0x33, 0x19, 0xff, 0x1f, 0xaa, 0xbb,
  0x4b, 0xe8, 0x6e, 0x3b, 0xe0, 0x4f, 0x15, 0x9d, 0xc9, 0xf6, 0x9b, 0xf1,
  0xae, 0xe1, 0x06, 0xf7, 0x52, 0xed, 0x38, 0x81, 0xce, 0x61, 0xb4, 0x02,
  0xe7, 0xaa, 0x33, 0x10, 0x1a, 0x79, 0x5a, 0x00, 0x34, 0xeb, 0xb7, 0x75,
  0xcd, 0x01, 0xc5, 0xdb, 0xcd, 0xad, 0x18, 0xe3, 0xf9, 0x4e, 0xde, 0x15,
  0x94, 0x0d, 0x61, 0x6a, 0x5f, 0xdf, 0x39, 0xf5, 0xd8, 0x5c, 0x95, 0x0e,
  0x63, 0x6f, 0x6d, 0x34, 0x02, 0x88, 0x61, 0x44, 0xb3, 0x33, 0x2c, 0x30,
  0xae, 0x4d, 0xb6, 0x40, 0xa1, 0xa2, 0x41, 0x53, 0x0b, 0x09, 0xa0, 0xcf,
  0xf1, 0x2a, 0x1d, 0x39, 0x34, 0x62, 0xba, 0xf9, 0x3a, 0xc9, 0x6f, 0xec,
  0x4e, 0x2b, 0xcf, 0xc1, 0x95, 0xb1, 0x8d, 0xa4, 0xc8, 0xa5, 0x5d, 0x04,
  0x5d, 0xe9, 0xb9, 0x09, 0x0b, 0x5f, 0xc0, 0x69, 0x3a, 0x9c, 0xb3, 0x42,
  0x5f, 0x31, 0x87, 0x9f, 0x2f, 0x69, 0xfc, 0x73, 0x69, 0x16, 0x9c, 0x56,
  0x72, 0xe9, 0x37, 0xfa, 0x4d, 0x22, 0xfb, 0x6a, 0xf1, 0xcd, 0x66, 0x2a,
  0xb6, 0x5f, 0x14, 0x50, 0x5a, 0x5d, 0xe0, 0xa4, 0x94, 0x21, 0x57, 0x8e,
  0xf2, 0xdf, 0xb9, 0x0c, 0x2d, 0xe2, 0x4e, 0xd4, 0xf8, 0x66, 0xb3, 0xf9,
  0xa2, 0x8d, 0x2c, 0x8f, 0x1b, 0x83, 0xe0, 0xf9, 0xf2, 0x5b, 0xdf, 0x1d,
  0x51, 0x12, 0xb2, 0x39, 0xa5, 0x78, 0x17, 0x53, 0xa1, 0x1b, 0x33, 0x23,
  0xcd, 0x4f, 0x41, 0x11, 0x56, 0xfc, 0x5e, 0xa1, 0x74, 0xf8, 0xa0, 0x36,
  0x22, 0xe5, 0x9e, 0xa8, 0x21, 0xa0, 0x3a, 0x1b, 0xbd, 0x9f, 0xd9, 0xd1,
  0xfe, 0xe4, 0xf5, 0x57, 0x53, 0x67, 0xa3, 0xe4, 0x02, 0xf2, 0xe4, 0x6e,
  0x3d, 0x5d, 0xa6, 0x0d, 0x5a, 0x0d, 0xdd, 0x64, 0x33, 0xbb, 0xf6, 0xb6,
  0x26, 0x62, 0xa3, 0xcc, 0x27, 0x2e, 0xcb, 0x81, 0xe6, 0x54, 0x0e, 0x4c,
  0x14, 0xc9, 0x34, 0x45, 0xef, 0xdd, 0xd8, 0x06, 0x35, 0xdd, 0x40, 0x8a,
  0x64, 0xd3, 0xd4, 0x95, 0x0c, 0xa0, 0xee, 0xe1, 0x60, 0x5a, 0xab, 0xa4,
  0x91, 0x6b, 0x93, 0x99, 0xb4, 0x10, 0x5b, 0x15, 0xef, 0x6a, 0x44, 0x8b,
  0x22, 0xb0, 0x34, 0xeb, 0xda, 0xee, 0x62, 0x66, 0x24, 0x62, 0x46, 0x92,
  0xa9, 0xa0, 0x49, 0x28, 0xbc, 0x5d, 0xb5, 0x0f, 0x28, 0x17, 0xc6, 0x8a,
  0xb5, 0x86, 0x59, 0xf1, 0x5c, 0x88, 0x1e, 0xfe, 0x34, 0x1a, 0xd3, 0x95,
  0x1e, 0x46, 0x00, 0x6f, 0xe8, 0xff, 0x7f, 0x2e, 0x29, 0x2a, 0xec, 0x5a,
  0xd2, 0xb4, 0x79, 0x6f, 0xbf, 0xdc, 0x16, 0x08, 0x4e, 0x89, 0x20, 0x07,
  0xac, 0xce, 0x10, 0xcb, 0x8e, 0x06, 0xd9, 0x94, 0x2f, 0x74, 0x3f, 0xad,
  0x09, 0xfd, 0x72, 0xc0, 0x9e, 0xc9, 0x65, 0x64, 0x6e, 0xef, 0x76, 0x68,
  0x47, 0xb6, 0x55, 0x57, 0x56, 0x4e, 0xf0, 0x0a, 0xba, 0x50, 0xe2, 0xfd,
  0xf2, 0x74, 0xd0, 0xbc, 0xad, 0xe7, 0x4b, 0x4a, 0xd5, 0xfd, 0x9b, 0x7a,
  0x55, 0xaa, 0x59, 0xdf, 0x09, 0x24, 0x76, 0x5a, 0x38, 0x5e, 0xed, 0xb0,
  0xcb, 0x10, 0x0f, 0x9e, 0xc9, 0xff, 0x60, 0x3d, 0xad, 0xde, 0x8f, 0xce,
  0xaa, 0x36, 0x3a, 0x51, 0xb7, 0xf1, 0xd2, 0xc0, 0xe0, 0x3d, 0xaf, 0x51,
  0x0d, 0x04, 0x35, 0x2b, 0x04, 0x35, 0xec, 0xd8, 0xa1, 0x27, 0x5f, 0x3b,
  0x71, 0xb8, 0xb5, 0x18, 0xb6, 0x88, 0x98, 0x94, 0xab, 0x60, 0xcc, 0x49,
  0xae, 0x5d, 0xa8, 0xe3, 0x62, 0xc3, 0xe6, 0x37, 0x22, 0xd3, 0x9a, 0x24,
  0x5b, 0xec, 0x86, 0xde, 0x4a, 0xbb, 0x2e, 0xb8, 0x90, 0x4a, 0xd3, 0xaa,
  0x6d, 0x10, 0x3d, 0xd6, 0x9c, 0xf2, 0x87, 0xbe, 0x60, 0x75, 0x89, 0xd4,
  0x6f, 0x32, 0x3a, 0xd7, 0x07, 0x91, 0x10, 0x9d, 0x10, 0xb2, 0x8d, 0x88,
  0xa1, 0x99, 0x49, 0x90, 0x1d, 0x00, 0x0e, 0x78, 0x72, 0xe5, 0x31, 0xae,
  0x02, 0x51, 0x9c, 0x7c, 0x3c, 0xd6, 0x77, 0x37, 0xfd, 0x1e, 0x27, 0x13,
  0x50, 0xaf, 0x9b, 0xea, 0xec, 0x1c, 0x5d, 0xbc, 0x15, 0x86, 0x76, 0x12,
  0x54, 0xb2, 0x61, 0xc9, 0xdb, 0x15, 0x34, 0x0c, 0x4d, 0x22, 0xc1, 0x20,
  0x7d, 0x93, 0x3c, 0x96, 0xff, 0x41, 0x6c, 0xe4, 0x25, 0xca, 0x5d, 0xc6,
  0xaf, 0x8b, 0x5c, 0x04, 0xb9, 0x13, 0x46, 0x12, 0x8b, 0x4a, 0x69, 0x64,
  0x30, 0xde, 0xe4, 0x2a, 0x43, 0x18, 0x8e, 0xe4, 0xa1, 0x11, 0x4b, 0x32,
  0xdd, 0x67, 0x4e, 0xf9, 0xee, 0xa3, 0x37, 0x77, 0x95, 0xd6, 0xaf, 0xaa,
  0x28, 0xff, 0xcd, 0xc6, 0xf0, 0xa8, 0x08, 0x42, 0xc5, 0x2d, 0xb7, 0xb5,
  0xbe, 0x04, 0xed, 0x98, 0x61, 0x1a, 0xc9, 0x98, 0x69, 0xc6, 0x1d, 0xf3,
  0xb4, 0xc7, 0x55, 0xb2, 0xce, 0x26, 0x76, 0x1a, 0xef, 0xd6, 0xc8, 0x46,
  0x25, 0x1d, 0x9d, 0xd8, 0x3d, 0xf9, 0x99, 0x09, 0x6b, 0xd2, 0x45, 0x16,
  0x86, 0xb8, 0x15, 0xf7, 0xe0, 0x07, 0xae, 0xf9, 0x32, 0x21, 0xd4, 0xcd,
  0x21, 0xa4, 0x4f, 0x3f, 0x12, 0xfa, 0x83, 0x52, 0x25, 0x91, 0xb0, 0xa2,
  0xe7, 0x87, 0x46, 0x03, 0xbe, 0xc9, 0xe8, 0x5d, 0x79, 0xd0, 0x9f, 0xe4,
  0x28, 0xb8, 0x77, 0x6a, 0x3a, 0x2b, 0xa2, 0x81, 0x47, 0x4c, 0xab, 0xef,
  0x5c, 0x42, 0x94, 0x4a, 0x1b, 0xf9, 0x2c, 0x71, 0x39, 0x00, 0x40, 0x57,
  0x07, 0x63, 0xd0, 0xe7, 0xbb, 0x37, 0x08, 0xc4, 0xee, 0x48, 0xba, 0x4f,
  0xc7, 0x0f, 0xbc, 0x13, 0x75, 0x3c, 0xb0, 0xab, 0x24, 0xd1, 0xa9, 0x69,
  0xc5, 0xbd, 0x15, 0x00, 0xf6, 0x75, 0xea, 0x76, 0xc7, 0x23, 0xed, 0x0f,
  0xd4, 0x44, 0xac, 0xfd, 0x33, 0x1a, 0x4c, 0x88, 0x1c, 0x9f, 0x40, 0xa7,
  0x42, 0x21, 0x0d, 0xde, 0x6c, 0x00, 0x6d, 0xc1, 0xcc, 0xcf, 0x09, 0x73,
  0x4c, 0xff, 0x3d, 0xb9, 0xeb, 0xa5, 0x74, 0x2a, 0x15, 0x4e, 0x72, 0x0e,
  0x52, 0x7d, 0xd1, 0x62, 0x3c, 0x87, 0xc5, 0x85, 0x23, 0xe7, 0x3b, 0x78,
  0x1f, 0xc9, 0x4e, 0xb5, 0x6b, 0x0a, 0x91, 0x88, 0x65, 0x57, 0xf7, 0xcb,
  0xf3, 0xd6, 0x35, 0x15, 0xc4, 0x14, 0xd4, 0xed, 0xdb, 0x19, 0x21, 0xaa,
  0x10, 0x85, 0x0b, 0x33, 0x13, 0xd2, 0xe2, 0x8e, 0xd9, 0xf6, 0xc5, 0x1e,
  0x10, 0x11, 0x49, 0x32, 0xd3, 0x3e, 0xd5, 0xb9, 0x0c, 0x7f, 0x37, 0xbd,
  0xfa, 0x76, 0x6e, 0x34, 0x9c, 0x06, 0x65, 0xb9, 0xe8, 0x3a, 0x32, 0x92,
  0x8a, 0xa9, 0x58, 0x93, 0x42, 0x9f, 0x9c, 0xf9, 0x2f, 0x82, 0x50, 0x67,
  0xb6, 0x9f, 0xe6, 0x07, 0xff, 0xc6, 0xe6, 0x07, 0xe7, 0x3d, 0x39, 0x71,
  0xb3, 0x8d, 0x67, 0x60, 0xe9, 0x2b, 0x60, 0x0a, 0x99, 0x4b, 0xc0, 0x05,
  0x41, 0xe5, 0x54, 0x39, 0x9e, 0x6b, 0xa7, 0x7c, 0xca, 0xc2, 0x30, 0x75,
  0x8b, 0x0d, 0x6c, 0x91, 0xd6, 0x93, 0xc5, 0xdf, 0x98, 0xdf, 0xfe, 0xe2,
  0xb0, 0xf2, 0x9f, 0x43, 0x86, 0x5c, 0x88, 0xd7, 0x8f, 0x06, 0x85, 0x0a,
  0x72, 0x2e, 0xe8, 0xdb, 0x03, 0x65, 0xc9, 0xfd, 0x5c, 0xfd, 0xc7, 0x25,
  0x71, 0x5a, 0x31, 0xce, 0xf9, 0xb0, 0xa8, 0x73, 0xb0, 0x5c, 0xf9, 0x2f,
  0x41, 0xd8, 0x83, 0x60, 0x67, 0x1b, 0x44, 0x01, 0xf4, 0xb4, 0x53, 0x06,
  0x1c, 0x33, 0xfd, 0xec, 0x35, 0xf4, 0xfc, 0xd6, 0x16, 0xf9, 0x93, 0xae,
  0x4e, 0x78, 0x27, 0xe4, 0x49, 0xd7, 0x63, 0xdd, 0xd5, 0x87, 0x88, 0xbd,
  0x3c, 0x0e, 0x27, 0xdd, 0xa3, 0x38, 0x72, 0xe6, 0x4b, 0x65, 0x50, 0x16,
  0x8d, 0x27, 0xa0, 0x92, 0x31, 0x29, 0x5d, 0x61, 0x9d, 0x6d, 0x69, 0x98,
  0xf0, 0xbd, 0x39, 0x94, 0xbb, 0x1e, 0xc7, 0x06, 0x96, 0xa3, 0x43, 0x8a,
  0xd5, 0xc3, 0xd1, 0xe5, 0x6c, 0x57, 0x83, 0x81, 0xeb, 0x3c, 0x9a, 0x67,
  0x2c, 0xab, 0xf5, 0xd0, 0xa3, 0x2f, 0x1c, 0x1f, 0x23, 0x60, 0x26, 0xc0,
  0x89, 0x06, 0x7c, 0x96, 0x17, 0xbf, 0x29, 0xd8, 0xcb, 0x05, 0x0d, 0xf5,
  0x5c, 0xe5, 0x8b, 0xb7, 0x42, 0xab, 0xb5, 0x38, 0x76, 0x68, 0x64, 0x6b,
  0xdd, 0x21, 0xfb, 0xd1, 0xfe, 0xcf, 0xd5, 0x59, 0x20, 0x0c, 0xe0, 0x08,
  0x18, 0x53, 0x82, 0xec, 0xaa, 0x07, 0x39, 0x87, 0x3f, 0x75, 0xa6, 0xf4,
  0x64, 0x09, 0xae, 0xae, 0xc4, 0x24, 0x66, 0xb6, 0xe6, 0x17, 0xff, 0x9c,
  0x15, 0xd4, 0x16, 0x86, 0x96, 0x44, 0xff, 0x30, 0x9e, 0x4f, 0xc5, 0x8a,
  0x65, 0x38, 0x27, 0x8e, 0x59, 0xa0, 0x88, 0x14, 0x1b, 0x17, 0xc3, 0xce,
  0x6f, 0x71, 0x14, 0x1b, 0x04, 0xbd, 0x18, 0xe3, 0x21, 0x08, 0xfe, 0xee,
  0x8c, 0xca, 0x09, 0x81, 0x2d, 0x27, 0x68, 0x27, 0xa2, 0x47, 0xae, 0x5b,
  0xe3, 0xc3, 0x46, 0x9c, 0xaa, 0x01, 0x3b, 0x02, 0xcd, 0x58, 0xd1, 0x3a,
  0x77, 0x9d, 0xdf, 0x1d, 0xfc, 0x71, 0xa1, 0xdb, 0x3a, 0xa6, 0x3c, 0x8d,
  0x0d, 0x25, 0x5e, 0xa0, 0xe3, 0x3c, 0x41, 0x3a, 0x6a, 0x2a, 0x32, 0x3a,
  0x3e, 0x08, 0x8c, 0x57, 0xaf, 0x2e, 0xd5, 0x9c, 0x73, 0xbe, 0x47, 0x82,
  0xbd, 0x5f, 0x8e, 0x78, 0x76, 0xc5, 0x2b, 0xb1, 0x9e, 0xef, 0x65, 0x17,
  0x24, 0x69, 0x10, 0x0b, 0x4f, 0x4a, 0x77, 0xbb, 0x7f, 0x2a, 0xfc, 0x1c,
  0x67, 0x3c, 0x42, 0x3f, 0xd1, 0x0e, 0x39, 0x7b, 0xdc, 0x78, 0xc5, 0x08,
  0xa6, 0x3b, 0xc0, 0xcc, 0x2f, 0xdd, 0xe5, 0x95, 0x43, 0xac, 0x64, 0xb5,
  0xa6, 0x45, 0xdb, 0xd6, 0xb3, 0x09, 0xf9, 0x97, 0xfd, 0xab, 0xb3, 0x6f,
  0x3e, 0x08, 0x99, 0xd0, 0xb9, 0xef, 0x28, 0xdc, 0x33, 0x61, 0x11, 0xd6,
  0x3c, 0x11, 0x3f, 0x4d, 0xee, 0x51, 0x74, 0xbc, 0xf2, 0x54, 0x32, 0x5a,
  0xb6, 0xa9, 0x48, 0x02, 0x0c, 0xf7, 0x35, 0xc5, 0x48, 0xcc, 0x9b, 0x46,
  0xad, 0xb5, 0x14, 0x5a, 0x23, 0xae, 0x2b, 0xf5, 0x50, 0x69, 0xab, 0xd5,
  0x2d, 0x47, 0xd5, 0x38, 0x50, 0xa7, 0x55, 0x66, 0x99, 0x31, 0x04, 0x99,
  0xd5, 0x72, 0x21, 0x70, 0x2f, 0x65, 0xd3, 0x2e, 0x67, 0xef, 0x4f, 0x62,
  0x0e, 0xab, 0x6a, 0xf2, 0xd7, 0x68, 0xf6, 0xcc, 0x31, 0xd8, 0xb8, 0xfc,
  0x0e, 0xb1, 0xd6, 0x6a, 0x0d, 0x3a, 0x9f, 0xa3, 0xaa, 0x03, 0xdb, 0x31,
  0x96, 0xcd, 0x5b, 0xf4, 0x92, 0xc8, 0x37, 0x9d, 0x5f, 0x55, 0x1e, 0xf4,
  0xb4, 0xa7, 0xf7, 0x0f, 0xf3, 0x96, 0xdf, 0x21, 0xb4, 0x54, 0x29, 0xbf,
  0xee, 0x21, 0xd9, 0x97, 0x18, 0x06, 0x08, 0xdc, 0x2b, 0x6d, 0xf4, 0x4a,
  0xbc, 0x99, 0x3b, 0xb3, 0xff, 0xd9, 0x95, 0xa1, 0x9c, 0x9d, 0x99, 0x30,
  0xe9, 0x37, 0xb8, 0x22, 0xad, 0xe9, 0x04, 0x94, 0x3a, 0x0e, 0xe5, 0xac,
  0xdc, 0x57, 0x07, 0xd7, 0x36, 0x12, 0x0a, 0xb9, 0xbf, 0x16, 0x47, 0xf2,
  0xfd, 0xe1, 0x9f, 0x06, 0xde, 0x56, 0xc6, 0x2b, 0x22, 0x30, 0xee, 0xa1,
  0xfa, 0xa4, 0xeb, 0xee, 0xf8, 0x41, 0x5e, 0x05, 0x34, 0xc1, 0x36, 0xd3,
  0x26, 0x64, 0x12, 0xd9, 0xf7, 0x8c, 0x58, 0x00, 0xd5, 0xaf, 0x3c, 0x06,
  0x25, 0x6d, 0x54, 0x59, 0x4a, 0xb6, 0x55, 0x2c, 0xf0, 0x48, 0x6f, 0xce,
  0x0d, 0x1a, 0xf2, 0x1b, 0xf5, 0x86, 0x8a, 0x69, 0xe7, 0x20, 0x6f, 0x91,
  0xff, 0x3b, 0x3f, 0x17, 0x4f, 0x01, 0x52, 0x25, 0xac, 0xed, 0xb6, 0x8a,
  0xfe, 0xd4, 0x16, 0xce, 0xb8, 0x99, 0x0a, 0xf3, 0x41, 0x54, 0xe5, 0x1f,
  0xe9, 0xbc, 0x58, 0x5a, 0x1b, 0x69, 0xc1, 0x5b, 0xce, 0xf9, 0x0e, 0xb3,
  0x8f, 0x45, 0xcd, 0xc9, 0xa5, 0x86, 0x88, 0x56, 0xa4, 0x09, 0xeb, 0xd1,
  0x23, 0xe5, 0x03, 0xc0, 0x53, 0xb6, 0xc4, 0x94, 0xe3, 0x4f, 0x03, 0x16,
  0xf0, 0x56, 0xec, 0xf7, 0x3e, 0xc2, 0x4a, 0xa7, 0x6c, 0xa4, 0x25, 0xa2,
  0x4f, 0xe1, 0x73, 0x8f, 0xd8, 0x1e, 0xaf, 0x05, 0x5a, 0x05, 0x72, 0x17,
  0x62, 0xc2, 0xdd, 0xe0, 0x85, 0xe3, 0x6b, 0x15, 0xdf, 0xd2, 0x59, 0x50,
  0xcc, 0x4e, 0xc4, 0x98, 0x64, 0x1e, 0xa1, 0x3c, 0x6e, 0xde, 0x1f, 0x59,
  0x2d, 0xea, 0x3e, 0x59, 0xb2, 0xb3, 0x19, 0xfe, 0x1c, 0x11, 0x98, 0x17,
  0x1e, 0xc0, 0x76, 0x23, 0x5d, 0x6b, 0xfe, 0x62, 0x29, 0xcb, 0xe0, 0xd3,
  0x2b, 0x41, 0xa5, 0x53, 0x65, 0x40, 0x15, 0x42, 0x51, 0x05, 0xbc, 0xf8,
  0x2b, 0xff, 0x9b, 0xe4, 0x9e, 0x48, 0x6f, 0x8b, 0x0a, 0x85, 0x26, 0x9a,
  0xaf, 0xd8, 0xa7, 0xc1, 0xe8, 0xb3, 0x5b, 0x09, 0x2b, 0x74, 0xa0, 0xf8,
  0xc0, 0x4f, 0x46, 0xd1, 0xbc, 0xfa, 0x55, 0x42, 0x27, 0x76, 0x17, 0xa9,
  0xee, 0x22, 0xdd, 0xde, 0x15, 0x66, 0x5d, 0xc0, 0x91, 0xa1, 0x3d, 0x21,
  0x4f, 0x6e, 0x55, 0x8e, 0x81, 0x6a, 0x48, 0xc2, 0xd5, 0xa8, 0x92, 0x88,
  0x34, 0xd0, 0x1e, 0xc8, 0x3c, 0x72, 0x5c, 0x82, 0x11, 0x53, 0x17, 0x2a,
  0xa5, 0x22, 0xd7, 0xa6, 0xf6, 0xd8, 0x74, 0x12, 0x14, 0xc2, 0xe5, 0x30,
  0xc7, 0x02, 0x42, 0x24, 0x0f, 0x99, 0xb4, 0xd3, 0x92, 0xd9, 0xef, 0xc5,
  0x91, 0x57, 0xe3, 0x5f, 0x96, 0x97, 0xb0, 0x13, 0xf7, 0xb9, 0xb4, 0x3b,
  0x25, 0x69, 0x68, 0x62, 0x14, 0x87, 0x83, 0x3d, 0x27, 0x00, 0x8e, 0x52,
  0x8c, 0x86, 0xb1, 0xdb, 0xe6, 0xd4, 0xe6, 0x65, 0x45, 0x63, 0x0a, 0xec,
  0xcb, 0x34, 0xdb, 0x16, 0xe9, 0x4f, 0xa8, 0xe5, 0x7c, 0x66, 0x0d, 0x43,
  0xde, 0x8d, 0x2b, 0x93, 0xc6, 0xe3, 0xd9, 0xd2, 0x9e, 0x01, 0x37, 0xc8,
  0xe6, 0xea, 0x4e, 0x41, 0xb6, 0x2c, 0x42, 0xc1, 0xd7, 0xcc, 0xce, 0xc2,
  0x7f, 0x5f, 0x31, 0x29, 0xab, 0xff, 0xa5, 0xcb, 0xd9, 0x83, 0xc6, 0xd5,
  0x5d, 0x78, 0xb8, 0x26, 0xd9, 0x2d, 0xf1, 0x71, 0xf5, 0xa3, 0x32, 0xf3,
  0xf6, 0x4a, 0x12, 0xbd, 0x62, 0x1d, 0x23, 0x91, 0xbb, 0xea, 0xd0, 0x66,
  0x8e, 0x37, 0x78, 0x34, 0x22, 0x54, 0x91, 0x62, 0x35, 0x41, 0x2c, 0x08,
  0x5b, 0x17, 0x10, 0xa2, 0x37, 0xa0, 0x1e, 0x59, 0x21, 0x64, 0xa6, 0x69,
  0x7a, 0xf9, 0xa0, 0x29, 0xbc, 0x79, 0x92, 0xfb, 0xaa, 0x5a, 0x30, 0x86,
  0xd9, 0xca, 0xce, 0xea, 0xfe, 0xe2, 0xda, 0xc1, 0x0b, 0x2e, 0x00, 0x6a,
  0x20, 0x41, 0x1e, 0x07, 0xba, 0xd7, 0xcf, 0xbf, 0x88, 0xe4, 0x44, 0x00,
  0xc2, 0xa5, 0x71, 0xe5, 0x06, 0x23, 0xee, 0x0c, 0x64, 0xb7, 0xdd, 0xa3,
  0xb5, 0x0e, 0x26, 0xc3, 0xe6, 0xa0, 0x03, 0xb0, 0x58, 0x9e, 0x79, 0x89,
  0x7a, 0x70, 0xa3, 0xfd, 0x75, 0x3b, 0x77, 0x2b, 0x84, 0xca, 0x0a, 0x52,
  0x2d, 0x26, 0xeb, 0xc2, 0x3a, 0x63, 0x9b, 0xd5, 0x17, 0x91, 0x0e, 0xb1,
  0xd8, 0x2a, 0xbe, 0x55, 0xb3, 0x73, 0x0b, 0xf6, 0x95, 0xbb, 0x79, 0x3c,
  0xcc, 0xb0, 0xc7, 0xc3, 0x58, 0xfb, 0x01, 0x35, 0x99, 0x76, 0xa9, 0x0b,
  0xdd, 0x9c, 0x44, 0x1e, 0x3e, 0xc7, 0x2f, 0x98, 0x49, 0xea, 0x72, 0x8a,
  0x36, 0x56, 0xca, 0x36, 0x12, 0x30, 0x5d, 0xaf, 0xed, 0x0a, 0x5b, 0x47,
  0xb1, 0xa5, 0x46, 0xff, 0xe7, 0xf2, 0x5f, 0x58, 0xf8, 0xe6, 0x88, 0x33,
  0xb4, 0xe7, 0x53, 0xc6, 0x5c, 0xe6, 0x31, 0x7a, 0xb6, 0xa1, 0xbe, 0x3b,
  0xc6, 0xe1, 0x7f, 0x3d, 0xbc, 0x5e, 0x38, 0x59, 0x3d, 0x73, 0xdb, 0x06,
  0x6e, 0xdd, 0x18, 0x7a, 0xde, 0x7b, 0x4e, 0x25, 0xac, 0xf5, 0x18, 0xd9,
  0x99, 0xd5, 0xa2, 0x94, 0x1f, 0x17, 0x67, 0xd1, 0xbf, 0x4c, 0x0f, 0xc5,
  0x1d, 0x49, 0x63, 0xbb, 0x60, 0x33, 0x64, 0x8c, 0x70, 0x9a, 0xbe, 0x91,
  0x75, 0xa2, 0x3f, 0xd8, 0xa1, 0x4f, 0xa0, 0x39, 0xd7, 0xdd, 0xe5, 0xd7,
  0xed, 0x6b, 0x10, 0xaa, 0xa8, 0xf8, 0x31, 0x31, 0xd7, 0x54, 0xad, 0x1d,
  0x2b, 0x28, 0x20, 0xb0, 0xe6, 0xe2, 0xe3, 0x20, 0x37, 0x89, 0xd3, 0x0c,
  0xa4, 0x6f, 0x67, 0x68, 0x03, 0x75, 0x55, 0x26, 0x25, 0x26, 0x1a, 0x5f,
  0xad, 0xb3, 0x99, 0x40, 0xac, 0xbe, 0x5a, 0x25, 0x6e, 0x0f, 0xc5, 0xf9,
  0x57, 0x9a, 0x6d, 0x10, 0x0a, 0x4b, 0x93, 0x9d, 0xa8, 0x20, 0x99, 0x3c,
  0xc3, 0x37, 0xa9, 0x63, 0xd6, 0x6d, 0x2b, 0x3c, 0x90, 0xdc, 0xe2, 0xfd,
  0xf9, 0x40, 0x4e, 0x31, 0xbd, 0x8a, 0x9a, 0x3b, 0xe7, 0x67, 0xd3, 0xe2,
  0x65, 0xe5, 0x57, 0x06, 0xcb, 0xdf, 0x9d, 0xb3, 0x77, 0x06, 0x6d, 0x52,
  0x35, 0x00, 0x5f, 0x5b, 0x72, 0x20, 0xd0, 0x0e, 0xf0, 0x27, 0x9c, 0xc5,
  0x60, 0x59, 0xa8, 0xc0, 0x96, 0xea, 0x39, 0xfd, 0x50, 0x1e, 0xbd, 0x3c,
  0x4c, 0xac, 0x32, 0x4d, 0xe0, 0xf1, 0x20, 0xa5, 0xcd, 0x65, 0xd5, 0xbe,
  0x88, 0xbf, 0x6e, 0x0d, 0x5a, 0xa7, 0x74, 0x3e, 0xee, 0x5f, 0x15, 0x4b,
  0xe9, 0x6f, 0x56, 0x6d, 0x23, 0x24, 0xb0, 0x09, 0x49, 0x90, 0xfe, 0x24,
  0xf4, 0x53, 0xe2, 0x8b, 0x9f, 0xce, 0x0b, 0x02, 0x6b, 0x34, 0x6d, 0xf9,
  0xdb, 0x3d, 0x97, 0x25, 0x51, 0x04, 0xd0, 0xee, 0xbe, 0x9d, 0x83, 0xe2,
  0x28, 0x7d, 0x01, 0xda, 0x71, 0x2f, 0x8b, 0x3e, 0xf3, 0xcd, 0xd6, 0x58,
  0x7c, 0xe8, 0xfa, 0x72, 0x95, 0x21, 0xad, 0x9d, 0xaa, 0x0c, 0xc1, 0x95,
  0xfc, 0x11, 0xae, 0x23, 0xa6, 0x40, 0xe0, 0xff, 0x92, 0x3b, 0x69, 0xa7,
  0x35, 0xab, 0xfc, 0x13, 0x30, 0x08, 0xc2, 0xfb, 0xc9, 0xf0, 0xb4, 0xd5,
  0xd0, 0x97, 0x33, 0x88, 0xf8, 0x5e, 0xac, 0xb3, 0x16, 0xcc, 0xc6, 0x93,
  0x68, 0xb7, 0xd1, 0xbc, 0x86, 0x95, 0x3f, 0x22, 0xfa, 0x09, 0x2c, 0xc8,
  0x89, 0x7d, 0x78, 0x40, 0x76, 0xbe, 0x31, 0xeb, 0x99, 0xee, 0x91, 0xc1,
  0xc7, 0x21, 0xc8, 0x45, 0x13, 0x12, 0xc8, 0x0b, 0x58, 0x75, 0xc7, 0x62,
  0xa4, 0xa5, 0x00, 0x3b, 0x49, 0xcc, 0xfd, 0x98, 0xa9, 0x83, 0xd8, 0x27,
  0xd2, 0xeb, 0xba, 0x16, 0xbd, 0x9c, 0xc6, 0xf9, 0xf4, 0x18, 0x33, 0x8f,
  0x8f, 0x19, 0x78, 0x15, 0xe5, 0xec, 0x49, 0x40, 0x41, 0x78, 0xc3, 0x6e,
  0xe0, 0x41, 0xd1, 0x33, 0x7d, 0x99, 0x93, 0xc1, 0xa6, 0x26, 0x72, 0xad,
  0xcf, 0xe1, 0x9c, 0x3e, 0xf0, 0x77, 0x60, 0xb0, 0x91, 0x17, 0xb3, 0xa9,
  0x4e, 0x46, 0x99, 0xd8, 0x81, 0x10, 0xce, 0xeb, 0x73, 0x99, 0xbb, 0x00,
  0x20, 0xc4, 0x02, 0x5a, 0xff, 0xd7, 0xb6, 0x2a, 0x35, 0x5a, 0xbc, 0xd9,
  0x4d, 0xef, 0xbf, 0xb0, 0x99, 0x82, 0x57, 0x69, 0xa4, 0x5c, 0x8d, 0xf7,
  0x56, 0x9c, 0x5f, 0xd4, 0x5d, 0x18, 0x67, 0xf5, 0xf7, 0x6e, 0xaa, 0x77,
  0xd4, 0xfd, 0xd9, 0x62, 0xcb, 0xfa, 0x04, 0x15, 0xa6, 0x30, 0x02, 0x6d,
  0xa1, 0xc1, 0x6e, 0xfb, 0xfd, 0x0b, 0x37, 0x35, 0xbc, 0x9c, 0x5d, 0x24,
  0x5d, 0x8e, 0xa2, 0xb1, 0x4f, 0xb4, 0x54, 0x09, 0x13, 0xcd, 0x28, 0x81,
  0x78, 0x0e, 0x6c, 0xd9, 0xa9, 0x28, 0x17, 0xa6, 0xea, 0x40, 0xab, 0x01,
  0x47, 0x27, 0x86, 0x1a, 0xb2, 0x14, 0xeb, 0xf6, 0x10, 0xc6, 0x17, 0x4d,
  0x8c, 0x30, 0xec, 0xe6, 0xfe, 0xed, 0xb8, 0xb2, 0xa4, 0x34, 0x45, 0xdb,
  0x56, 0x5a, 0x00, 0x26, 0x20, 0x62, 0xe8, 0x47, 0x28, 0xf6, 0xde, 0xe9,
  0x41, 0x2a, 0x72, 0xe7, 0xf8, 0xff, 0xb4, 0x9b, 0x30, 0xa0, 0xd9, 0xb0,
  0x17, 0x6b, 0xd8, 0x2f, 0xdf, 0xe9, 0x0e, 0xcd, 0x9d, 0x08, 0xc7, 0xf5,
  0xba, 0xad, 0x0e, 0xcd, 0x5c, 0x3a, 0xaa, 0x8b, 0x27, 0x6a, 0x1d, 0x65,
  0x38, 0x2d, 0x1e, 0xc4, 0xcd, 0x16, 0x14, 0x87, 0x4a, 0x74, 0x15, 0x10,
  0xda, 0x28, 0x0e, 0x1e, 0xe3, 0x93, 0x69, 0x57, 0x55, 0x69, 0x2a, 0xc2,
  0x34, 0x05, 0xf1, 0xf5, 0xf2, 0x3a, 0xd3, 0x50, 0xc6, 0x76, 0x1e, 0x32,
  0x94, 0x02, 0x7f, 0xf1, 0x40, 0x36, 0x63, 0x00, 0xd5, 0xbe, 0x01, 0x8a,
  0x14, 0x39, 0x95, 0xda, 0x4e, 0xe9, 0x64, 0xb5, 0x36, 0x2a, 0x40, 0xfd,
  0xf6, 0x35, 0x45, 0x0b, 0xab, 0x5b, 0x34, 0xd3, 0xed, 0x0f, 0x72, 0xe7,
  0x43, 0x6f, 0xcb, 0x5c, 0xcf, 0xc1, 0x45, 0x08, 0x58, 0x41, 0x61, 0xd3,
  0xc3, 0x1e, 0xbe, 0x3f, 0x39, 0x34, 0x46, 0xe3, 0x50, 0x84, 0xa9, 0x8e,
  0xd6, 0xb4, 0xf3, 0x68, 0xdc, 0x66, 0xfe, 0x20, 0xd3, 0xf4, 0xc8, 0xaa,
  0xf0, 0x18, 0x03, 0x3d, 0x05, 0x48, 0x3f, 0x60, 0x3b, 0x47, 0xda, 0xc9,
  0x20, 0x1c, 0xee, 0xa6, 0xaa, 0x20, 0xb0, 0xd8, 0xfe, 0xbe, 0xae, 0x29,
  0x96, 0x61, 0xdd, 0xf2, 0x16, 0x19, 0xab, 0xdf, 0x3c, 0xd6, 0xdd, 0x49,
  0x12, 0x27, 0xd8, 0x50, 0x8b, 0x8c, 0x8e, 0x9a, 0x01, 0xa4, 0x83, 0x29,
  0x08, 0x30, 0xdf, 0x85, 0xa3, 0x37, 0x2f, 0x29, 0xa1, 0x69, 0x69, 0xae,
  0x5f, 0x5d, 0xb8, 0xae, 0x56, 0x2c, 0x09, 0x5c, 0x20, 0x8a, 0x5c, 0xad,
  0x96, 0xaa, 0x1b, 0xab, 0x06, 0xb6, 0x2e, 0xde, 0x72, 0xb5, 0x3b, 0x21,
  0x62, 0xbc, 0x28, 0x16, 0x39, 0x4d, 0x36, 0x49, 0x34, 0x06, 0x43, 0x6c,
  0x5b, 0x16, 0x68, 0x94, 0x4f, 0x77, 0x83, 0x22, 0x51, 0x09, 0x62, 0xb2,
  0x54, 0x68, 0x15, 0xbb, 0x8d, 0x91, 0x78, 0xde, 0x9e, 0xb5, 0xb4, 0xb2,
  0x59, 0x65, 0x92, 0x1e, 0x8f, 0xbe, 0xff, 0x33, 0xe5, 0xcc, 0x91, 0xdc,
  0x61, 0x6d, 0x89, 0xc9, 0x09, 0x0d, 0x6e, 0x53, 0x0a, 0x34, 0x75, 0x13,
  0x05, 0x6d, 0xce, 0xa4, 0x22, 0xa6, 0x9d, 0xdf, 0xd7, 0xa8, 0x97, 0x2f,
  0x55, 0x11, 0x2f, 0x67, 0x30, 0x75, 0x0c, 0xcc, 0x09, 0x93, 0x52, 0xdf,
  0x0c, 0xa0, 0xb0, 0x84, 0x2f, 0x93, 0xb9, 0xb9, 0x5a, 0x0c, 0x89, 0xc8,
  0xfb, 0x09, 0xd6, 0x48, 0xca, 0xbe, 0xbd, 0x6e, 0xc3, 0xe1, 0x88, 0xe0,
  0x90, 0x69, 0xbb, 0x25, 0xe8, 0xf1, 0xc0, 0xfe, 0xa8, 0xf1, 0x3d, 0x19,
  0xba, 0xd8, 0x49, 0xae, 0xe4, 0x9f, 0x00, 0x01, 0xd5, 0x94, 0x11, 0x24,
  0x75, 0xa1, 0x39, 0xe3, 0x77, 0x76, 0x24, 0xc3, 0x92, 0xc3, 0xf0, 0x78,
  0x86, 0x24, 0x91, 0x52, 0x66, 0x4f, 0x8b, 0xa7, 0x41, 0x02, 0x01, 0x0a,
  0xc3, 0x93, 0xb8, 0x16, 0x10, 0x7a, 0x66, 0x57, 0x3e, 0x24, 0xce, 0x47,
  0x97, 0xa6, 0x9c, 0x0c, 0xaf, 0xad, 0xc2, 0x83, 0x1c, 0x1c, 0x1e, 0x17,
  0x45, 0xa9, 0x5b, 0xb0, 0x8b, 0x35, 0x58, 0x5c, 0x8f, 0x31, 0x76, 0x2f,
  0xaa, 0x4b, 0x28, 0xd5, 0xb7, 0xf8, 0x8e, 0xb9, 0xcb, 0xe5, 0x26, 0x02,
  0x1d, 0x47, 0xb6, 0x7b, 0x81, 0x70, 0xbd, 0x83, 0x21, 0x00, 0x9e, 0xc0,
  0x0d, 0xf3, 0xaa, 0x70, 0x3e, 0x56, 0x0b, 0x2a, 0xc2, 0x91, 0xc3, 0xb0,
  0x5f, 0xab, 0x08, 0xcd, 0x67, 0x60, 0x21, 0xbf, 0x0c, 0xdc, 0x22, 0x0d,
  0xb0, 0xa7, 0xfd, 0x49, 0x12, 0xf2, 0x0e, 0x64, 0x47, 0x46, 0x5e, 0xa8,
  0xa2, 0x4d, 0xe3, 0xa7, 0xe8, 0xca, 0xcc, 0x4d, 0xf1, 0xa9, 0x67, 0x0f,
  0xa9, 0xb1, 0xd5, 0x5f, 0x6f, 0x28, 0x9c, 0x90, 0x2c, 0x54, 0xe1, 0x7b,
  0x1d, 0xb1, 0xd9, 0x19, 0x61, 0x7c, 0xd9, 0x62, 0x2b, 0x28, 0x94, 0x7d,
  0x61, 0x2c, 0xbd, 0x81, 0xce, 0x17, 0xa9, 0x0b, 0x61, 0x9a, 0xa3, 0xe0,
  0xbd, 0x96, 0x65, 0xff, 0x3f, 0xe6, 0xfc, 0xae, 0x31, 0xb6, 0x45, 0x9c,
  0xa3, 0x94, 0xa0, 0xec, 0x05, 0xa3, 0x58, 0x0e, 0xf1, 0xbe, 0x55, 0xa7,
  0x6c, 0xf7, 0x2b, 0xd4, 0x39, 0x8a, 0xc8, 0xb8, 0xf3, 0xdc, 0x65, 0xdd,
  0x62, 0x5e, 0xe1, 0x15, 0x88, 0xfd, 0x52, 0xb9, 0x70, 0x6f, 0xa7, 0x79,
  0x02, 0xda, 0x2d, 0x07, 0x87, 0x94, 0x8b, 0xf4, 0x1f, 0x7f, 0xef, 0xc5,
  0x22, 0x4a, 0xb8, 0x5c, 0xde, 0x51, 0x21, 0x4f, 0x27, 0xb3, 0x3d, 0x48,
  0xbc, 0x78, 0xa1, 0x86, 0xb5, 0xbd, 0x32, 0x48, 0x58, 0xae, 0xd7, 0xea,
  0x74, 0x8d, 0x1e, 0x9c, 0x3a, 0x00, 0x66, 0x9b, 0xf4, 0xe1, 0xf5, 0xd4,
  0x00, 0x82, 0xc8, 0xb3, 0xfd, 0xed, 0x16, 0x77, 0x8b, 0x71, 0x50, 0xeb,
  0x19, 0xfa, 0xcc, 0xcb, 0xa1, 0x17, 0xca, 0x29, 0x6a, 0x34, 0x37, 0xda,
  0xf8, 0x5e, 0x1b, 0x7e, 0xff, 0xee, 0x36, 0x81, 0xde, 0x85, 0xdf, 0x67,
  0xf8, 0xe9, 0x9a, 0x19, 0x77, 0xed, 0xd3, 0xcb, 0xbe, 0x91, 0x72, 0x93,
  0x4c, 0x36, 0x1b, 0x01, 0x38, 0x3a, 0x09, 0xf6, 0x5a, 0x11, 0xd7, 0xfd,
  0xe8, 0xae, 0x56, 0x90, 0x62, 0x49, 0x7e, 0x57, 0x34, 0xfd, 0xfe, 0xb1,
  0x25, 0xa1, 0x6d, 0x45, 0xc4, 0xef, 0x26, 0x36, 0x45, 0x02, 0x9a, 0xfc,
  0xbd, 0xcb, 0x8a, 0x10, 0x9a, 0x23, 0x03, 0x91, 0xbf, 0x71, 0x38, 0x06,
  0x8d, 0x97, 0x85, 0x1b, 0x8c, 0xc7, 0x47, 0xe4, 0xf7, 0x0a, 0x81, 0x9c,
  0x08, 0x34, 0xc2, 0x3c, 0x03, 0x2b, 0xce, 0x0b, 0x11, 0x69, 0x15, 0x35,
  0xa7, 0xf2, 0xaf, 0xb0, 0xf0, 0x9c, 0xe0, 0xb7, 0x70, 0xc1, 0x48, 0x04,
  0x21, 0x58, 0xf0, 0xb5, 0xc1, 0xf7, 0xf5, 0x55, 0x0a, 0xbe, 0xac, 0xd6,
  0xdb, 0xa5, 0x61, 0x50, 0x60, 0xfb, 0xc2, 0x19, 0x2b, 0x21, 0x96, 0x4c,
  0xc5, 0xc0, 0x5b, 0x3a, 0xee, 0x5c, 0xcb, 0x35, 0x58, 0xb1, 0x26, 0xe5,
  0xd0, 0x32, 0xbd, 0xad, 0xdb, 0xac, 0xa8, 0x4c, 0xe5, 0x12, 0xdc, 0x4c,
  0x4a, 0xd0, 0xc6, 0x24, 0xd8, 0xdd, 0xca, 0x6d, 0x44, 0x67, 0x49, 0xe4,
  0x9b, 0xf8, 0x0f, 0x06, 0xcd, 0x53, 0x11, 0xde, 0x32, 0x60, 0x55, 0x16,
  0x2c, 0x50, 0x38, 0x22, 0x48, 0x3b, 0xf4, 0x37, 0xab, 0x57, 0x54, 0x21,
  0x76, 0xfa, 0xa2, 0x4b, 0xf3, 0x5e, 0xe2, 0x56, 0xc6, 0x1c, 0xc1, 0x0a,
  0x9b, 0x97, 0x3e, 0xdb, 0x9f, 0x38, 0xe4, 0x6c, 0x9d, 0xcd, 0x59, 0xc3,
  0xf6, 0x35, 0xd0, 0x5c, 0x96, 0xf8, 0x17, 0x3c, 0xc4, 0x5d, 0xf0, 0xc1,
  0xdb, 0xf5, 0x49, 0xcd, 0xb0, 0xc7, 0xe7, 0x50, 0xdd, 0xc4, 0xcd, 0xb8,
  0xf8, 0xcf, 0x2b, 0x50, 0xc4, 0xd8, 0xfb, 0xe9, 0x94, 0x36, 0x51, 0xae,
  0xde, 0x93, 0x4c, 0x00, 0x4c, 0x38, 0x5f, 0x12, 0xfd, 0x27, 0x32, 0x5e,
  0xe7, 0xb0, 0xb1, 0x52, 0xbb, 0x9c, 0x42, 0x2b, 0xb5, 0x1b, 0x42, 0x12,
  0xff, 0x62, 0x16, 0x47, 0x28, 0x3c, 0xbe, 0xb6, 0x10, 0xc3, 0x37, 0xb6,
  0xf9, 0x0d, 0x20, 0x0f, 0x9f, 0x1c, 0xb1, 0xdc, 0x33, 0x0f, 0x33, 0x37,
  0x2d, 0x08, 0xc1, 0xb8, 0xff, 0x5e, 0x41, 0x9c, 0xf7, 0x3c, 0xf4, 0x22,
  0x93, 0xcf, 0x47, 0x24, 0x0f, 0xca, 0xfb, 0xc9, 0x54, 0xbc, 0xcd, 0x9e,
  0x68, 0xd2, 0x4f, 0xda, 0x2b, 0x07, 0xa1, 0xad, 0x03, 0x25, 0x99, 0xd7,
  0x15, 0x48, 0x95, 0x72, 0xc6, 0xc9, 0x16, 0x3e, 0x8a, 0x9e, 0xe1, 0x9d,
  0x03, 0xfe, 0x49, 0x12, 0x02, 0xc8, 0x4c, 0x99, 0x32, 0x61, 0xb4, 0x73,
  0xc3, 0xd7, 0xd1, 0xd9, 0x05, 0xcf, 0xe3, 0xa7, 0x53, 0x2b, 0x32, 0xaf,
  0x01, 0x26, 0x25, 0xda, 0x3e, 0x13, 0x0d, 0xe1, 0x68, 0x75, 0xfa, 0x01,
  0xab, 0x53, 0xe7, 0x3c, 0xfb, 0xf4, 0xe5, 0x22, 0x78, 0x46, 0x99, 0x8a,
  0x20, 0x95, 0x41, 0x3c, 0xa0, 0x06, 0x31, 0x3f, 0x3f, 0x67, 0xfa, 0x4d,
  0x01, 0xfb, 0x19, 0x06, 0xda, 0xda, 0x0c, 0xe5, 0xff, 0x17, 0x00, 0x62,
  0xc8, 0x81, 0x40, 0x64, 0x8e, 0x2e, 0x14, 0x0b, 0x32, 0xb9, 0x8d, 0xf7,
  0xf7, 0x89, 0xf3, 0xc4, 0xfa, 0x9a, 0x1f, 0xc9, 0xa7, 0x9b, 0xfa, 0xb2,
  0x13, 0x33, 0xf5, 0xa2, 0xeb, 0x55, 0xc8, 0x02, 0x4c, 0xca, 0xfd, 0x1d,
  0x6f, 0x8e, 0xbc, 0x69, 0x10, 0xd3, 0xa2, 0xc7, 0xf1, 0x52, 0xdd, 0xab,
  0xe2, 0xf3, 0x22, 0x05, 0x5b, 0xc9, 0xeb, 0x7b, 0x50, 0x0e, 0x3c, 0x14,
  0x23, 0xb0, 0xac, 0x90, 0xdd, 0x4f, 0x5d, 0x3d, 0x9d, 0xb3, 0x56, 0xb8,
  0xb3, 0x88, 0x3e, 0x14, 0x20, 0xa3, 0x47, 0x52, 0xcf, 0x6b, 0x3f, 0xe9,
  0x0c, 0x44, 0xf1, 0xb2, 0x0a, 0x27, 0x4d, 0x06, 0xb7, 0x6a, 0xe0, 0x36,
  0xb2, 0x3a, 0x8e, 0x26, 0x92, 0x07, 0x75, 0x6a, 0x30, 0x6a, 0xaf, 0x28,
  0x94, 0x7c, 0xe6, 0x64, 0x6e, 0x07, 0x5b, 0x50, 0x1b, 0x73, 0xc8, 0x12,
  0xa5, 0x59, 0xc6, 0xb2, 0xef, 0x44, 0x0e, 0x2d, 0x05, 0xc5, 0x0a, 0xb6,
  0xc1, 0x63, 0x8f, 0xaa, 0x39, 0x97, 0x4c, 0x6b, 0x01, 0xc0, 0x2f, 0x00,
  0x29, 0x2e, 0x10, 0x75, 0x43, 0x64, 0xae, 0xa2, 0x50, 0x25, 0x9e, 0x41,
  0xe9, 0x05, 0xe2, 0x64, 0x10, 0x3f, 0xd0, 0x60, 0x16, 0x50, 0xd1, 0xb5,
  0x16, 0x66, 0xf0, 0x3f, 0xa5, 0x1f, 0x01, 0x9f, 0xe7, 0x3e, 0x5e, 0xd5,
  0x65, 0xaf, 0x11, 0x6b, 0x15, 0xa0, 0xf8, 0xe3, 0x08, 0xe7, 0x99, 0x37,
  0x0b, 0x2b, 0xe5, 0xe1, 0xdb, 0xbb, 0x65, 0xde, 0x46, 0x7f, 0x13, 0x6d,
  0x3f, 0x7a, 0x7f, 0x73, 0x0d, 0x10, 0x66, 0x59, 0xf1, 0x61, 0xf9, 0x02,
  0x93, 0xaf, 0xcf, 0x22, 0x59, 0xf8, 0x68, 0x46, 0xfa, 0x2f, 0xac, 0x4a,
  0xb4, 0xcb, 0x99, 0xcb, 0x1b, 0xe0, 0x1c, 0x1c, 0x08, 0xa8, 0xe9, 0x62,
  0x4d, 0x55, 0x6d, 0xfa, 0xab, 0xf0, 0x72, 0x76, 0x24, 0xc0, 0xd7, 0x3c,
  0x56, 0xec, 0x26, 0xe2, 0x3f, 0x5f, 0x26, 0xc1, 0x44, 0x42, 0xe9, 0xd4,
  0x15, 0xe5, 0xb9, 0x5e, 0x61, 0xb9, 0x30, 0xda, 0xe5, 0x92, 0x13, 0x17,
  0xa2, 0xf6, 0xa7, 0x0a, 0x47, 0x01, 0x58, 0x40, 0x0e, 0xa0, 0x3b, 0x07,
  0x53, 0x0a, 0xb8, 0xb4, 0x50, 0xe5, 0xeb, 0xe3, 0x35, 0x4e, 0xdd, 0x4b,
  0x18, 0x33, 0xd4, 0x49, 0x49, 0xae, 0x8f, 0xf0, 0x0d, 0xba, 0x0c, 0xbd,
  0xd3, 0xdb, 0xc0, 0x57, 0x37, 0xf1, 0xb0, 0xbb, 0x97, 0xdd, 0x60, 0xe5,
  0xd1, 0x41, 0x32, 0xb9, 0x44, 0x14, 0x37, 0xd2, 0x37, 0xc5, 0xea, 0xc2,
  0x64, 0x07, 0x33, 0x63, 0x42, 0x20, 0xdb, 0xca, 0x52, 0x0f, 0x21, 0x6c,
  0xca, 0xd1, 0x3b, 0x5d, 0x16, 0x10, 0x44, 0xfc, 0xae, 0x61, 0x58, 0xfa,
  0x32, 0xfc, 0xd0, 0x2c, 0xa1, 0x33, 0x2b, 0x45, 0x1b, 0xe9, 0x60, 0xe7,
  0xe3, 0xfb, 0x02, 0x1b, 0xc6, 0xd5, 0x1a, 0xa1, 0xdd, 0x2b, 0x9b, 0x5b,
  0xd5, 0xf0, 0xb6, 0x72, 0xe0, 0x3f, 0x29, 0xd1, 0xbf, 0xb0, 0xb8, 0x39,
  0xe8, 0x2f, 0x14, 0xe8, 0xb6, 0x72, 0x3a, 0x31, 0xe5, 0xd3, 0xa9, 0xa1,
  0x2a, 0x46, 0xfa, 0x2e, 0xd2, 0x19, 0x1f, 0x3b, 0x8d, 0x18, 0xad, 0x3e,
  0xb8, 0x0d, 0x1b, 0x9f, 0xe7, 0x4b, 0xf9, 0xc7, 0x9f, 0x41, 0x2a, 0xcc,
  0xa3, 0xd0, 0x78, 0xe7, 0xba, 0x32, 0x0c, 0x2f, 0xb2, 0x05, 0xea, 0xc6,
  0x3f, 0xfd, 0x3f, 0x1f, 0x0e, 0xfb, 0xcd, 0x66, 0xd4, 0x45, 0x5c, 0x0e,
  0x04, 0x1a, 0xa3, 0x1d, 0x7f, 0xd6, 0x03, 0xc4, 0x57, 0x72, 0x3a, 0x74,
  0xb4, 0x08, 0x24, 0x05, 0x78, 0xd5, 0x02, 0xd1, 0x45, 0x4c, 0xc2, 0x20,
  0x3e, 0x63, 0xd5, 0xb2, 0x02, 0xe0, 0x4e, 0xcb, 0x18, 0x3a, 0x3e, 0x11,
  0x67, 0x01, 0x57, 0x01, 0x42, 0x0a, 0x6b, 0xec, 0xb4, 0x44, 0x12, 0xa9,
  0x18, 0x55, 0xa9, 0x6d, 0x14, 0xd3, 0x97, 0xd5, 0x6f, 0x3b, 0xb1, 0x66,
  0xf7, 0x64, 0xc9, 0x09, 0x2b, 0x7a, 0x1b, 0xf5, 0x6a, 0x9f, 0xff, 0x36,
  0xad, 0x29, 0x69, 0x69, 0xf0, 0x0f, 0x42, 0xd7, 0xdc, 0x3b, 0x16, 0x54,
  0xa1, 0x08, 0x4c, 0x93, 0x32, 0x5e, 0x28, 0x41, 0x66, 0x2f, 0x39, 0xde,
  0xc5, 0x18, 0x0c, 0xe8, 0x3b, 0xc3, 0x9a, 0xc6, 0x40, 0x4c, 0xf7, 0x38,
  0x49, 0xe2, 0x84, 0x8f, 0x17, 0xda, 0x3c, 0x53, 0xdf, 0xf2, 0x05, 0xf3,
  0xf6, 0xf0, 0x6e, 0xf2, 0x8f, 0x5c, 0xa3, 0x52, 0xf3, 0x6b, 0x19, 0xca,
  0x34, 0x5c, 0x4d, 0xba, 0x3c, 0x4d, 0x28, 0xb1, 0x6a, 0xe9, 0x11, 0x28,
  0xa5, 0x60, 0xb0, 0x8c, 0xeb, 0xd4, 0x0c, 0x26, 0x11, 0xa0, 0x97, 0x9d,
  0x58, 0xff, 0xfe, 0xa3, 0xe5, 0x1c, 0x00, 0x4d, 0x4f, 0x53, 0xf6, 0x0a,
  0x63, 0xc1, 0x12, 0x1d, 0x9c, 0xd7, 0xfd, 0x2b, 0x12, 0x63, 0xbf, 0x2a,
  0xb7, 0xfb, 0x1b, 0xf6, 0x10, 0xa2, 0x98, 0x6b, 0xb9, 0x54, 0x2c, 0x73,
  0xde, 0x15, 0xcf, 0xb6, 0xf3, 0x10, 0xf9, 0x54, 0x8e, 0xdd, 0xfc, 0x3d,
  0x23, 0x46, 0xad, 0xa9, 0xd8, 0x20, 0x8d, 0xc8, 0x5e, 0x03, 0xc2, 0xca,
  0x22, 0xe1, 0x8d, 0xe0, 0x0d, 0x31, 0x8a, 0xdc, 0xcf, 0xd9, 0x50, 0xef,
  0x87, 0xf0, 0xbb, 0x21, 0x09, 0x65, 0xc1, 0xc2, 0x5a, 0xa4, 0xbe, 0x71,
  0xde, 0x0c, 0xad, 0x3d, 0xed, 0xf8, 0xd3, 0xa0, 0x42, 0x03, 0xae, 0x28,
  0x6f, 0xa9, 0x56, 0x0c, 0xf4, 0x51, 0xb3, 0xd4, 0xe6, 0x19, 0xfd, 0xfa,
  0x38, 0x15, 0xc0, 0x44, 0xa4, 0x12, 0x46, 0xa2, 0xec, 0x0c, 0x50, 0x65,
  0x60, 0x4d, 0x74, 0x9e, 0x66, 0x6e, 0xda, 0xed, 0xeb, 0xbd, 0xc2, 0x5c,
  0x73, 0x49, 0xa8, 0x09, 0xd3, 0xba, 0x72, 0x58, 0x77, 0xa6, 0x54, 0x44,
  0x24, 0x6f, 0x9d, 0xb2, 0x59, 0xc7, 0x67, 0xe6, 0xc7, 0xa6, 0xfe, 0x86,
  0x0d, 0x45, 0x8f, 0x2a, 0x9b, 0x76, 0xde, 0x93, 0x0b, 0xb7, 0x66, 0x69,
  0xbf, 0xfc, 0x0b, 0xbc, 0x96, 0xe8, 0x1b, 0x28, 0xfd, 0x8e, 0x04, 0x97,
  0x10, 0xaf, 0xde, 0x56, 0xea, 0xdb, 0x13, 0x4f, 0x41, 0xbb, 0x21, 0xd3,
  0xd8, 0xa7, 0x51, 0xd5, 0xd3, 0xec, 0x88, 0x92, 0xf4, 0xf6, 0x99, 0xba,
  0x69, 0x3e, 0xe4, 0x9d, 0xbf, 0x25, 0x84, 0x4c, 0xe5, 0x6c, 0xc4, 0x5a,
  0xd2, 0x6f, 0xa1, 0x99, 0x27, 0xab, 0x44, 0x7e, 0xf0, 0x56, 0xea, 0x3c,
  0x49, 0xd6, 0xe0, 0x3b, 0x95, 0x6a, 0xd9, 0xfd, 0x20, 0x43, 0x56, 0xf1,
  0x0a, 0x70, 0xa9, 0x2b, 0x87, 0xd5, 0x65, 0x4e, 0x81, 0x97, 0x89, 0xad,
  0xab, 0xec, 0x6e, 0x35, 0x37, 0x98, 0x37, 0x31, 0x9c, 0x39, 0x6f, 0xff,
  0xaf, 0x4a, 0x05, 0xc0, 0x7b, 0x7a, 0x4b, 0x62, 0xff, 0x24, 0x09, 0xa5,
  0x58, 0xb9, 0x84, 0xc6, 0x2d, 0xf6, 0xae, 0x0e, 0xcd, 0x25, 0xc8, 0xc0,
  0x75, 0xec, 0x06, 0x5a, 0x63, 0x0e, 0x07, 0x74, 0x30, 0xed, 0xcd, 0xde,
  0xb9, 0x76, 0xb9, 0xcb, 0x4e, 0x31, 0xc8, 0x18, 0x0b, 0x53, 0x57, 0xb3,
  0xb7, 0x94, 0x14, 0x98, 0x94, 0xf4, 0xc1, 0x8e, 0xd9, 0x27, 0x62, 0x94,
  0x9a, 0x23, 0x00, 0xc1, 0xfe, 0x5e, 0xc7, 0x41, 0xc0, 0x12, 0xc7, 0x9f,
  0x31, 0x5b, 0xd4, 0x10, 0xd6, 0x1b, 0x02, 0xfb, 0x73, 0x38, 0x49, 0x53,
  0xf7, 0x6c, 0x26, 0x13, 0x65, 0x0f, 0xef, 0x30, 0xc1, 0x35, 0xc5, 0xce,
  0x6f, 0xab, 0x58, 0x3a, 0x2f, 0x05, 0x37, 0x08, 0xac, 0x12, 0xb3, 0xda,
  0x04, 0xe2, 0xfa, 0xab, 0xb9, 0xda, 0xfc, 0x63, 0x70, 0xd1, 0xee, 0x74,
  0xac, 0x9f, 0xe2, 0xd3, 0x93, 0x43, 0xef, 0x45, 0x4b, 0x23, 0xa9, 0xa8,
  0x10, 0x71, 0x36, 0x63, 0x21, 0x1a, 0xde, 0xac, 0xdf, 0xc0, 0x96, 0x59,
  0x42, 0x37, 0xed, 0x64, 0xb3, 0xee, 0xeb, 0x01, 0x17, 0x4d, 0x29, 0x5d,
  0x57, 0x07, 0x35, 0xc2, 0x48, 0xe8, 0x1b, 0x18, 0x14, 0x2d, 0x05, 0xc7,
  0x3c, 0xce, 0x05, 0xb8, 0xf4, 0x21, 0xac, 0xcd, 0xc7, 0xed, 0x38, 0x39,
  0x71, 0xb9, 0xd6, 0xa1, 0x8d, 0x5c, 0x4f, 0xd4, 0x48, 0xfa, 0xe4, 0x35,
  0x5a, 0x32, 0x5b, 0xb4, 0x5e, 0x06, 0xe4, 0x18, 0xde, 0x86, 0xe0, 0x97,
  0x43, 0xb6, 0xa5, 0x79, 0xea, 0x89, 0xcf, 0x41, 0xc3, 0xab, 0x4f, 0x5e,
  0x32, 0xdd, 0x08, 0x01, 0x66, 0x14, 0xbc, 0xfd, 0xb8, 0x51, 0x0a, 0xf5,
  0xfc, 0xc9, 0xad, 0x94, 0xe0, 0x28, 0x94, 0x60, 0xa1, 0xa2, 0x2f, 0xbb,
  0x06, 0x14, 0xda, 0x59, 0xe2, 0x68, 0xbe, 0x07, 0x36, 0x27, 0xda, 0xe3,
  0xb9, 0x21, 0x09, 0xe1, 0xb2, 0x0a, 0x16, 0x52, 0x01, 0x15, 0x14, 0xf4,
  0x90, 0xeb, 0xbc, 0x4c, 0x12, 0x29, 0x38, 0xd1, 0x27, 0x17, 0x53, 0x10,
  0x9b, 0xc0, 0x04, 0x4d, 0x0a, 0xd2, 0x51, 0x9a, 0x51, 0xa2, 0x38, 0x53,
  0xf2, 0x81, 0x8b, 0x28, 0x12, 0x46, 0x24, 0x17, 0xc2, 0x4e, 0x37, 0x03,
  0xff, 0x92, 0x39, 0x6d, 0x66, 0x05, 0x37, 0x4b, 0x29, 0x3e, 0xce, 0x1e,
  0x63, 0x29, 0xa3, 0xa6, 0x42, 0x01, 0xea, 0x44, 0x3f, 0xe5, 0x44, 0x4a,
  0xa9, 0x33, 0x33, 0x1d, 0x4c, 0xfb, 0x58, 0x18, 0x6c, 0x47, 0x20, 0x68,
  0x68, 0xe7, 0xa9, 0x62, 0x95, 0xee, 0xc0, 0x14, 0x34, 0xfe, 0x08, 0x12,
  0x8d, 0x01, 0x53, 0xf3, 0xd9, 0xbd, 0x0c, 0xc2, 0x9c, 0x29, 0x4f, 0x99,
  0xb3, 0x20, 0x8b, 0x35, 0x5b, 0xa1, 0xf2, 0xca, 0x73, 0xc9, 0x57, 0xc6,
  0x0b, 0x7e, 0xe8, 0x21, 0x4b, 0x66, 0xb0, 0x66, 0xeb, 0xd9, 0x1a, 0xa5,
  0x4e, 0xd1, 0xfa, 0x64, 0x38, 0xb8, 0xb8, 0x98, 0xc6, 0xbe, 0x14, 0x3a,
  0x30, 0x27, 0x33, 0x14, 0x5e, 0x09, 0x9e, 0xb9, 0xd3, 0xcd, 0xc8, 0x3e,
  0x49, 0xa7, 0xb6, 0x71, 0xe0, 0xc3, 0xed, 0x67, 0xbc, 0xb6, 0x05, 0x7a,
  0x2e, 0x55, 0x73, 0xe0, 0x01, 0x4e, 0xf2, 0x54, 0x9f, 0x9c, 0xb2, 0xf8,
  0x67, 0xd5, 0xbf, 0x6c, 0x56, 0xe6, 0x75, 0x04, 0x34, 0x2f, 0x53, 0x15,
  0x58, 0x36, 0xf3, 0xbd, 0x3c, 0x24, 0xb4, 0x6c, 0x2d, 0xd1, 0x0f, 0x5c,
  0xf7, 0x9b, 0x41, 0xf9, 0xe4, 0x41, 0x18, 0x7c, 0x3e, 0x45, 0xb0, 0x3b,
  0x16, 0x61, 0x73, 0xd5, 0xfc, 0x7f, 0x14, 0xb9, 0x1d, 0xdc, 0xcf, 0x9e,
  0xb9, 0x13, 0x3d, 0xa3, 0xc6, 0x33, 0xb5, 0xf7, 0xe6, 0x05, 0xfd, 0x5b,
  0x38, 0x91, 0x9e, 0xb5, 0x3f, 0x36, 0xdf, 0x66, 0x0a, 0xce, 0x6f, 0x06,
  0x04, 0x45, 0x35, 0x15, 0x56, 0xbf, 0xe4, 0x22, 0x03, 0xf5, 0xf4, 0x59,
  0xc0, 0x3b, 0x05, 0xbb, 0x03, 0xb0, 0x4f, 0xa7, 0x08, 0x70, 0xd3, 0xab,
  0xae, 0xb2, 0xd9, 0x49, 0xde, 0x61, 0xd9, 0xbb, 0x0f, 0xe7, 0x6c, 0xef,
  0xb0, 0xbf, 0xdf, 0xd8, 0xb2, 0xa7, 0xa0, 0x15, 0xb0, 0xe5, 0xdb, 0xb8,
  0x12, 0x93, 0x1a, 0x56, 0xc9, 0xe2, 0xfb, 0xd1, 0xc4, 0x04, 0xcf, 0xa0,
  0x4f, 0x42, 0xc8, 0xd9, 0x74, 0xc2, 0x09, 0xa3, 0xbc, 0xd5, 0x51, 0xea,
  0x46, 0x50, 0x2b, 0xc6, 0x24, 0x44, 0xb4, 0x30, 0xdb, 0xd5, 0x60, 0xac,
  0xda, 0x40, 0x49, 0x65, 0x41, 0x98, 0xb5, 0x13, 0xaf, 0xcd, 0x66, 0xce,
  0xe2, 0xbc, 0xc9, 0x50, 0xbf, 0xc1, 0xb5, 0x6a, 0xfb, 0x44, 0x49, 0xce,
  0xcd, 0x11, 0xd1, 0x2c, 0x25, 0x67, 0xfa, 0xee, 0x4f, 0x1a, 0x49, 0xc2,
  0xf3, 0xf0, 0x1b, 0x46, 0x43, 0xce, 0x69, 0xc1, 0xa6, 0xb3, 0xc6, 0x35,
  0x09, 0x35, 0x25, 0x7f, 0x62, 0x64, 0xbd, 0x5b, 0x1f, 0x5a, 0x5e, 0x4e,
  0xfd, 0xcc, 0x00, 0x5e, 0x2f, 0x35, 0x42, 0xf8, 0xeb, 0xe9, 0x1a, 0x35,
  0x58, 0x0a, 0x47, 0xd6, 0x39, 0xf9, 0x22, 0x5f, 0xea, 0x16, 0xaf, 0xee,
  0xc7, 0x0a, 0xd9, 0x45, 0x2d, 0xcb, 0xd6, 0x27, 0xbf, 0xa9, 0x20, 0x56,
  0x1d, 0xa7, 0x1a, 0x53, 0xef, 0xe3, 0xfe, 0x31, 0xbe, 0x3b, 0x23, 0xe1,
  0x3c, 0xf9, 0xe7, 0x0d, 0x1b, 0x14, 0xbe, 0x07, 0xd9, 0x28, 0xc5, 0xcf,
  0x24, 0xd3, 0x46, 0xbd, 0xf5, 0x19, 0x35, 0x56, 0xf5, 0x5e, 0xb7, 0xe9,
  0xac, 0xa7, 0x06, 0xff, 0x09, 0xf1, 0x28, 0xdb, 0xc0, 0xee, 0xc8, 0xd0,
  0x91, 0xf2, 0x9e, 0xea, 0x9d, 0x2e, 0xbc, 0x52, 0x60, 0xbe, 0xe9, 0xbb,
  0x49, 0x96, 0xa2, 0x3d, 0xfd, 0x61, 0xb4, 0xa4, 0x21, 0x68, 0x2e, 0xc9,
  0xb9, 0x1d, 0xc1, 0x54, 0xaf, 0x56, 0x63, 0x04, 0xe7, 0xaf, 0xd7, 0x96,
  0x5a, 0xa0, 0xc7, 0x3c, 0x54, 0x3f, 0xab, 0xf0, 0x17, 0xb2, 0x61, 0xb1,
  0x95, 0x5a, 0xab, 0xb3, 0xac, 0x16, 0x1f, 0x3b, 0x17, 0x56, 0x38, 0xcf,
  0xc7, 0xba, 0xfb, 0x4a, 0xfb, 0xcd, 0x18, 0xc6, 0xfd, 0x5a, 0xe7, 0x21,
  0x60, 0xaa, 0x8d, 0x8b, 0x57, 0xa4, 0x93, 0xec, 0xbd, 0x06, 0xf6, 0xd0,
  0x41, 0x09, 0x60, 0xa9, 0xe6, 0x11, 0xea, 0x49, 0x64, 0xf8, 0x0e, 0xf1,
  0x8c, 0xef, 0x15, 0xb5, 0x38, 0xfa, 0x3b, 0xb9, 0x07, 0x9f, 0x37, 0x03,
  0xd5, 0x96, 0xd2, 0xad, 0x81, 0x0c, 0x27, 0x0a, 0x19, 0xa0, 0x63, 0xef,
  0xde, 0xcf, 0xbd, 0xd2, 0xec, 0xa0, 0xc6, 0x37, 0xd9, 0xa2, 0xe0, 0xe4,
  0xf9, 0x6b, 0x1a, 0xb4, 0xf9, 0x3a, 0xb3, 0xdf, 0x49, 0x6d, 0x03, 0xf0,
  0x44, 0x03, 0xa6, 0x01, 0x97, 0x5d, 0xba, 0xe8, 0x2e, 0xc6, 0x58, 0xce,
  0x63, 0xd9, 0x27, 0x19, 0xa9, 0x19, 0xc5, 0x50, 0x95, 0x36, 0x27, 0xa7,
  0xdf, 0x3f, 0x9b, 0xbb, 0x05, 0x20, 0xc9, 0x40, 0xb1, 0xbe, 0x0c, 0x47,
  0xfe, 0x6b, 0xfe, 0x27, 0x68, 0xe3, 0x20, 0xc6, 0xa4, 0x48, 0x2b, 0xb2,
  0xb7, 0x32, 0x9f, 0x16, 0x69, 0x13, 0xfd, 0xe2, 0x1a, 0x03, 0xa0, 0x4e,
  0xe8, 0x01, 0xb2, 0xd5, 0xd4, 0x40, 0x13, 0x0e, 0x23, 0x04, 0x43, 0xa3,
  0x3f, 0x43, 0x25, 0x00, 0x26, 0xec, 0xc1, 0xef, 0xfd, 0x46, 0xdf, 0x18,
  0xfd, 0xbe, 0x62, 0xa1, 0x07, 0x28, 0x11, 0x1c, 0xe4, 0xaa, 0x65, 0xb7,
  0x1b, 0xea, 0x00, 0x62, 0x3b, 0x2a, 0xf6, 0x48, 0x39, 0x20, 0xe9, 0x1e,
  0x16, 0xc3, 0x12, 0x62, 0xc5, 0x25, 0x68, 0xdb, 0x6b, 0x50, 0x51, 0x1a,
  0xf7, 0xc2, 0x06, 0xae, 0xb2, 0x60, 0x27, 0x36, 0x2c, 0x6b, 0x03, 0xb1,
  0x13, 0x42, 0x20, 0x17, 0x9f, 0xd1, 0x2c, 0x4b, 0xb0, 0x35, 0x29, 0x1b,
  0xf2, 0xec, 0x9e, 0xce, 0x4f, 0xf1, 0xd0, 0xee, 0x52, 0xfb, 0x1d, 0x23,
  0x66, 0x45, 0xb7, 0xdc, 0x63, 0x2e, 0x6e, 0xaf, 0x3d, 0x25, 0x40, 0x5a,
  0xa1, 0xdb, 0x6d, 0xa1, 0x55, 0x2e, 0xd3, 0x48, 0x3b, 0x97, 0x16, 0xcd,
  0xb0, 0x6b, 0xea, 0xae, 0xfe, 0x18, 0x58, 0xaf, 0x56, 0xaa, 0xb5, 0xb4,
  0x3d, 0x1d, 0x5d, 0x5e, 0xbc, 0x67, 0x0b, 0xe7, 0x21, 0x95, 0xb9, 0xec,
  0xab, 0x03, 0xd1, 0x63, 0x18, 0x59, 0x24, 0xad, 0x0d, 0xfb, 0x9e, 0xa9,
  0x43, 0x81, 0xc0, 0x1a, 0xe3, 0x3f, 0x5c, 0x64, 0xb4, 0x65, 0xed, 0xff,
  0x27, 0x1a, 0x6f, 0x9e, 0x19, 0x92, 0xe3, 0x2f, 0x00, 0xff, 0x25, 0x08,
  0x6e, 0x55, 0x5c, 0x31, 0x05, 0x5d, 0x41, 0x4c, 0x00, 0xf9, 0xb4, 0x32,
  0x67, 0x71, 0x10, 0xe2, 0x39, 0x4c, 0x01, 0xd8, 0xe1, 0x3c, 0x32, 0xec,
  0xbd, 0xda, 0xd1, 0x36, 0xaa, 0x1c, 0x30, 0x19, 0x19, 0x46, 0xf2, 0x49,
  0xea, 0x75, 0x07, 0x3e, 0xc8, 0x53, 0xeb, 0xf9, 0xc0, 0xfb, 0x9e, 0x12,
  0x91, 0x96, 0x63, 0x4c, 0x2e, 0xd7, 0xeb, 0x02, 0x16, 0x72, 0x96, 0x1a,
  0x37, 0xc8, 0xe6, 0xab, 0xd0, 0x1d, 0xbf, 0x6a, 0xe7, 0xd2, 0x2e, 0x62,
  0xee, 0xf3, 0x54, 0x50, 0xff, 0xed, 0x15, 0xc3, 0x30, 0x19, 0xa5, 0x65,
  0xa1, 0xae, 0x55, 0x5e, 0x34, 0x3d, 0x48, 0xd7, 0x08, 0xfd, 0xf0, 0x52,
  0x2c, 0x59, 0x40, 0x8d, 0xb1, 0x38, 0x49, 0x54, 0x12, 0xf2, 0xa6, 0x54,
  0x39, 0xf3, 0x9d, 0xb9, 0x50, 0xca, 0xde, 0xa1, 0xc8, 0xbb, 0xee, 0x1b,
  0x33, 0x04, 0x9b, 0x3a, 0x71, 0xfc, 0x19, 0xfa, 0xd8, 0xc3, 0x93, 0xfa,
  0xa8, 0xd7, 0x9d, 0xeb, 0x39, 0x57, 0x18, 0x04, 0x27, 0xdd, 0xf9, 0xc5,
  0xa3, 0x9b, 0xc5, 0xad, 0x9d, 0x12, 0x22, 0x2b, 0xa6, 0x40, 0x59, 0xef,
  0x16, 0xdc, 0x22, 0xfe, 0xe0, 0x10, 0x8d, 0x5f, 0x94, 0x31, 0xf3, 0xf5,
  0x63, 0xa9, 0x8e, 0x54, 0x9e, 0x63, 0x53, 0xf8, 0x51, 0x9f, 0x9c, 0x70,
  0x11, 0x12, 0x22, 0x8e, 0xd4, 0xa1, 0xc8, 0x1e, 0xc9, 0xeb, 0x1a, 0x4b,
  0xa5, 0x82, 0x9f, 0x06, 0xf3, 0xd2, 0xbc, 0x30, 0x44, 0x42, 0x28, 0x01,
  0x92, 0xdc, 0x43, 0xda, 0x08, 0x99, 0xd3, 0xb8, 0x03, 0x03, 0x05, 0x14,
  0xb1, 0x36, 0xd8, 0x61, 0x2d, 0x96, 0xa9, 0x34, 0x26, 0x92, 0xf3, 0x1e,
  0x14, 0x89, 0xeb, 0xc9, 0xd3, 0xda, 0xc1, 0x78, 0x9b, 0x87, 0x2f, 0xee,
  0x21, 0x71, 0xc1, 0xc5, 0xab, 0xb8, 0x1b, 0x06, 0x56, 0xf5, 0xa8, 0xbd,
  0x35, 0xc6, 0x3f, 0x99, 0x52, 0x4d, 0x06, 0x15, 0x63, 0x1f, 0x50, 0x9d,
  0xaf, 0x22, 0x72, 0x9b, 0xdb, 0x91, 0xdf, 0xa2, 0xf1, 0xe4, 0xed, 0xf9,
  0x82, 0xc0, 0xfa, 0x7d, 0x15, 0x55, 0x04, 0x76, 0xc0, 0xf9, 0x7a, 0xe7,
  0xc9, 0x5d, 0xe8, 0x6d, 0xa5, 0x83, 0xf5, 0x8a, 0x71, 0x26, 0xf9, 0x73,
  0x9b, 0x45, 0xc1, 0x9e, 0x2d, 0xad, 0xec, 0x97, 0xce, 0x05, 0xcd, 0xe4,
  0x8e, 0xe2, 0x30, 0x74, 0xe4, 0xea, 0x53, 0x19, 0x36, 0xdd, 0xd0, 0x3b,
  0xf7, 0xc5, 0xb1, 0x18, 0xb5, 0xd5, 0xe1, 0xac, 0xa3, 0x87, 0x81, 0x73,
  0x00, 0x10, 0x34, 0xfd, 0x6c, 0xa6, 0xc1, 0x5a, 0x40, 0x92, 0x52, 0xc6,
  0x40, 0xc2, 0x90, 0xb0, 0xd2, 0x44, 0x09, 0xd9, 0xc5, 0x31, 0xfe, 0x37,
  0x45, 0x19, 0x49, 0x84, 0xca, 0x0c, 0x8b, 0x62, 0x7e, 0x21, 0x20, 0xa6,
  0x21, 0xeb, 0xb6, 0x8d, 0xe0, 0x18, 0xf1, 0x7e, 0xeb, 0x30, 0xef, 0x87,
  0xf6, 0xb7, 0x24, 0x43, 0xaa, 0x26, 0x8b, 0x2b, 0xfd, 0xab, 0x40, 0xaa,
  0xfa, 0x75, 0x39, 0xba, 0xaa, 0xe6, 0xbb, 0x17, 0xa6, 0x37, 0x21, 0x5b,
  0xc3, 0xc9, 0x30, 0x9f, 0xda, 0x3b, 0x45, 0xa2, 0x14, 0xea, 0x44, 0xee,
  0x98, 0x43, 0xc4, 0x60, 0x1d, 0xe4, 0x13, 0x1c, 0xb8, 0xa0, 0xda, 0x3e,
  0x6f, 0x5f, 0x25, 0xb2, 0x8e, 0xbe, 0xc7, 0x1c, 0xf9, 0x06, 0x3b, 0x14,
  0xcc, 0x22, 0x92, 0xbe, 0x0f, 0x64, 0x7e, 0x5f, 0xf8, 0x58, 0xcc, 0x0f,
  0x51, 0xf5, 0xb2, 0x07, 0x3a, 0xb3, 0x2a, 0x61, 0x1b, 0x98, 0x87, 0x03,
  0xa0, 0x63, 0xbe, 0xc7, 0x5b, 0xcc, 0x9a, 0x06, 0xee, 0x93, 0x16, 0xb5,
  0x62, 0x6d, 0x9e, 0x16, 0x9d, 0x14, 0x5d, 0x3e, 0x67, 0x07, 0x61, 0x32,
  0x65, 0x99, 0x02, 0xd8, 0xba, 0x6b, 0xd6, 0xcd, 0x4c, 0xe7, 0x24, 0x3c,
  0x6c, 0xf3, 0x92, 0x59, 0xc7, 0xa1, 0xbd, 0xc4, 0xf8, 0xde, 0x19, 0x64,
  0x7f, 0xd8, 0x66, 0x17, 0x09, 0x05, 0xf0, 0x13, 0x01, 0xc7, 0x2f, 0xf8,
  0x1f, 0x45, 0x69, 0xfb, 0x35, 0x0b, 0x09, 0x47, 0x30, 0xf9, 0x15, 0x60,
  0x13, 0x97, 0x3e, 0xd7, 0x17, 0x74, 0xf1, 0xa7, 0x2a, 0xdd, 0xe2, 0x14,
  0x48, 0x4b, 0x00, 0xea, 0xab, 0xfd, 0xf9, 0x49, 0xee, 0xac, 0x16, 0xde,
  0x58, 0xae, 0xd6, 0xc5, 0xc2, 0xfb, 0x36, 0x62, 0xfa, 0x9f, 0x19, 0xd2,
  0x1f, 0xfb, 0x13, 0x11, 0xef, 0x76, 0x27, 0x9c, 0xcd, 0x1f, 0xa0, 0x24,
  0xae, 0xba, 0xb8, 0xf6, 0xa3, 0xf5, 0x65, 0xf8, 0x75, 0x1d, 0xc1, 0xba,
  0xd4, 0x34, 0x6e, 0x42, 0x63, 0xf1, 0xbb, 0x13, 0x5a, 0x1d, 0xc4, 0xf4,
  0x94, 0x3b, 0x14, 0x60, 0xf5, 0x8e, 0xc4, 0x45, 0x1c, 0x31, 0x49, 0xf4,
  0x1f, 0xb0, 0xb6, 0x05, 0x23, 0x4f, 0xc5, 0x0b, 0x28, 0xfe, 0xcf, 0xa0,
  0x0a, 0x0c, 0x03, 0x31, 0xc3, 0x15, 0xb4, 0x0e, 0x17, 0x56, 0x41, 0x8f,
  0x4a, 0xa2, 0xee, 0xf5, 0x00, 0x97, 0x8a, 0xc4, 0xa9, 0xdf, 0xc4, 0x4b,
  0xa0, 0x2b, 0x12, 0xf7, 0xe3, 0x4c, 0x8f, 0x0f, 0xfa, 0x95, 0xbd, 0x5f,
  0x5c, 0x36, 0x13, 0x13, 0x44, 0x2e, 0xf9, 0x09, 0xb5, 0xb7, 0x5f, 0x25,
  0x59, 0xda, 0xc7, 0x22, 0x04, 0x41, 0xfc, 0x48, 0xea, 0x48, 0x69, 0x4d,
  0xd4, 0xe7, 0xca, 0xa5, 0xeb, 0x26, 0xa1, 0xe7, 0x3c, 0x31, 0x2c, 0xe3,
  0x47, 0x8b, 0xa7, 0x2b, 0x5c, 0xa8, 0xe3, 0x45, 0x0f, 0xb2, 0x04, 0x85,
  0xff, 0x04, 0xe5, 0x08, 0x29, 0x2d, 0x28, 0x03, 0xe9, 0xab, 0x21, 0xef,
  0x0c, 0xd9, 0xfb, 0x04, 0x5a, 0x54, 0x91, 0xce, 0xb8, 0x2b, 0xb6, 0x10,
  0x0c, 0x22, 0x66, 0xb8, 0x48, 0x03, 0xa8, 0xc4, 0xb3, 0x38, 0xd0, 0x1f,
  0x19, 0x8f, 0xa8, 0xc3, 0x40, 0x45, 0xaf, 0xc2, 0x40, 0x9a, 0x2e, 0x4b,
  0xee, 0x0a, 0x2d, 0x66, 0xd9, 0xb7, 0x97, 0x9a, 0xa3, 0x4c, 0x74, 0xc5,
  0x0f, 0x71, 0x93, 0xe1, 0x92, 0x51, 0x07, 0xc9, 0x4a, 0xe8, 0x9c, 0x37,
  0x4a, 0xeb, 0x64, 0x23, 0xd5, 0x5c, 0x00, 0x0b, 0xab, 0x14, 0xa5, 0x27,
  0x99, 0x37, 0x55, 0xb7, 0x41, 0xa0, 0xfa, 0xb1, 0xc3, 0xc3, 0xa4, 0xdb,
  0xc7, 0x94, 0x8d, 0x0a, 0x47, 0x50, 0x86, 0x87, 0xf8, 0x55, 0xd1, 0x98,
  0xf0, 0x98, 0x2d, 0x67, 0x36, 0x58, 0xa4, 0x83, 0xea, 0xc7, 0x71, 0x4e,
  0xb8, 0x58, 0xec, 0x8f, 0x68, 0x14, 0x85, 0xab, 0x37, 0x5c, 0x8e, 0xd3,
  0x56, 0xfc, 0xe2, 0x0e, 0x2b, 0xe5, 0x98, 0x9c, 0xa5, 0x47, 0x50, 0xf2,
  0x4a, 0x67, 0x69, 0xa8, 0xc0, 0x8e, 0x6f, 0x92, 0x04, 0xc2, 0x71, 0xb8,
  0x11, 0xfc, 0xa3, 0xdf, 0x05, 0x20, 0x62, 0xbe, 0x97, 0x37, 0x78, 0x43,
  0x81, 0xe6, 0x68, 0xda, 0x04, 0x31, 0x8e, 0x5c, 0x41, 0xd4, 0xc5, 0x3e,
  0x70, 0x98, 0x74, 0x8f, 0xb0, 0x01, 0x6a, 0x52, 0x5d, 0xbe, 0x59, 0xac,
  0x75, 0xdd, 0x16, 0xf6, 0x48, 0x82, 0xd0, 0x56, 0x29, 0x85, 0x0c, 0x30,
  0xcc, 0x78, 0x54, 0x5f, 0x13, 0xe9, 0x3e, 0xa8, 0x81, 0x32, 0xb9, 0x44,
  0x34, 0xc3, 0xd4, 0x42, 0x9f, 0x92, 0xe1, 0xaa, 0x22, 0x95, 0x20, 0x3c,
  0x72, 0x30, 0xde, 0x49, 0xe2, 0x0a, 0xa4, 0x17, 0x73, 0x88, 0x37, 0x89,
  0xcb, 0x23, 0x38, 0xab, 0xc6, 0xfa, 0xe1, 0xe3, 0x22, 0x78, 0xe4, 0x06,
  0x90, 0x56, 0x5d, 0xea, 0xbb, 0xe3, 0x5a, 0x4b, 0xc3, 0xe7, 0x60, 0x8e,
  0x48, 0x9d, 0x0d, 0x86, 0xa7, 0xd0, 0x23, 0x99, 0x16, 0x85, 0xd4, 0x56,
  0xca, 0xd2, 0x12, 0xda, 0xca, 0x13, 0xd1, 0x3b, 0x9c, 0x35, 0x4c, 0x4e,
  0xca, 0xcf, 0xd4, 0xa4, 0x85, 0x93, 0x1e, 0x49, 0xad, 0x0c, 0xb0, 0x02,
  0x07, 0xf2, 0x88, 0x63, 0x42, 0x41, 0x48, 0x91, 0x32, 0x4e, 0x00, 0x94,
  0x11, 0x28, 0x6f, 0xc5, 0x50, 0xaf, 0xcd, 0xa1, 0x30, 0x9c, 0x85, 0xc6,
  0x66, 0x88, 0xd0, 0x57, 0xef, 0x99, 0x1a, 0x35, 0x51, 0xbf, 0xcb, 0xe2,
  0x92, 0x07, 0xc3, 0xb6, 0x43, 0xab, 0xea, 0xf3, 0xb4, 0x0a, 0xd9, 0x29,
  0x66, 0xdb, 0x60, 0x92, 0x0f, 0xe5, 0x5f, 0xd2, 0x9d, 0x43, 0x8e, 0x2e,
  0x5f, 0xf7, 0x18, 0xeb, 0x50, 0x85, 0xee, 0x8e, 0x95, 0x38, 0xcc, 0xaa,
  0xb4, 0x08, 0x49, 0x50, 0xcd, 0xce, 0x5a, 0xd1, 0xe8, 0x5c, 0x73, 0x4f,
  0xa9, 0xfc, 0xe2, 0xa7, 0x5a, 0x0c, 0x90, 0xa5, 0x28, 0x9b, 0xbe, 0xa9,
  0xdb, 0xd5, 0xe2, 0xcf, 0x52, 0x4c, 0x9f, 0x9c, 0x94, 0x2a, 0x01, 0x60,
  0x23, 0x53, 0x37, 0x1d, 0x02, 0xdd, 0x50, 0x8f, 0xfb, 0x22, 0x62, 0x28,
  0xe0, 0xdd, 0xa9, 0xf0, 0x25, 0xb5, 0x98, 0x81, 0x99, 0x6e, 0x86, 0xb4,
  0x90, 0x63, 0x50, 0x2d, 0xef, 0x39, 0x23, 0x57, 0x4e, 0x84, 0xfa, 0x3f,
  0x22, 0x97, 0x73, 0x76, 0x3e, 0x12, 0x24, 0x3d, 0xba, 0xbd, 0xad, 0xd2,
  0x29, 0xbd, 0x97, 0x5d, 0x77, 0xaa, 0x0e, 0x5e, 0x38, 0x65, 0xb7, 0xff,
  0x65, 0x70, 0x5f, 0xf7, 0xe4, 0x5b, 0x5e, 0x0b, 0x4a, 0x34, 0x7d, 0x44,
  0xba, 0x43, 0x8b, 0xbf, 0xe0, 0x56, 0x4e, 0x8e, 0x76, 0xc2, 0xdd, 0xd7,
  0x9d, 0xd2, 0xf0, 0x6d, 0x48, 0xb5, 0xfe, 0x25, 0xc1, 0xc7, 0x44, 0x9a,
  0x94, 0x89, 0xf6, 0x94, 0xe3, 0x96, 0x71, 0x32, 0x73, 0xcc, 0xca, 0x75,
  0xf5, 0x14, 0x55, 0x19, 0xb1, 0x65, 0x91, 0x29, 0x15, 0x4c, 0x8c, 0xc6,
  0x99, 0xfd, 0xa5, 0xef, 0xcf, 0xfb, 0x5e, 0xac, 0xce, 0x3e, 0x3a, 0xee,
  0x59, 0x28, 0x05, 0x25, 0xfd, 0xa6, 0xbc, 0x65, 0x29, 0x25, 0x3f, 0x64,
  0x03, 0x25, 0xec, 0x20, 0x2c, 0x13, 0xae, 0x14, 0xac, 0x8b, 0x1c, 0x2a,
  0x81, 0x92, 0x2b, 0x2a, 0x3c, 0x4f, 0x16, 0xc3, 0xa5, 0x51, 0x95, 0xce,
  0x53, 0xb3, 0x57, 0x31, 0x2e, 0xee, 0xb7, 0xeb, 0x3c, 0x21, 0x4f, 0x96,
  0x9c, 0xd5, 0x47, 0x48, 0x0b, 0xe3, 0xbd, 0x2f, 0xbc, 0xd6, 0xf6, 0xf7,
  0x91, 0x13, 0x34, 0x34, 0xb7, 0xad, 0xdf, 0xeb, 0xc9, 0x2d, 0xf1, 0xf0,
  0x4d, 0x0f, 0xa2, 0x49, 0xc8, 0x8f, 0x46, 0x3e, 0xe2, 0x21, 0xe9, 0x90,
  0x4d, 0x47, 0x02, 0xf2, 0x39, 0x39, 0x5c, 0x4b, 0x34, 0x4f, 0xe2, 0x48,
  0x28, 0x44, 0xc8, 0xdd, 0x3c, 0xa3, 0xd9, 0xc1, 0xb6, 0x56, 0x0c, 0xbe,
  0xb4, 0xce, 0x62, 0x3a, 0xc5, 0xc9, 0x57, 0xf8, 0x54, 0x3f, 0x5e, 0xaa,
  0x3c, 0xa8, 0x17, 0xb1, 0xa3, 0x1d, 0x31, 0x3f, 0xd2, 0xe6, 0x59, 0x09,
  0xb1, 0xa6, 0x3b, 0x34, 0xee, 0x2a, 0xd6, 0x11, 0xe2, 0x99, 0xfb, 0xbe,
  0x5f, 0x0a, 0x5b, 0x43, 0xdc, 0xb8, 0x46, 0xce, 0xb6, 0x15, 0x9e, 0x9c,
  0x57, 0x6b, 0xca, 0x59, 0x57, 0x23, 0xc0, 0x12, 0x6c, 0xa2, 0x41, 0x9e,
  0xcf, 0xda, 0xd2, 0x21, 0x18, 0xa7, 0xc3, 0xed, 0xd1, 0xb3, 0x60, 0x39,
  0xd3, 0x47, 0x65, 0x1a, 0x13, 0xf2, 0x09, 0xab, 0x2e, 0xa7, 0x0f, 0x5f,
  0x9e, 0x49, 0x3c, 0x1e, 0xcb, 0x10, 0x4a, 0x27, 0x16, 0x96, 0xdb, 0xa3,
  0x30, 0x5c, 0xc2, 0x3c, 0x1e, 0x04, 0xf2, 0x03, 0x39, 0xff, 0x0f, 0x41,
  0x11, 0x58, 0x66, 0x5d, 0xac, 0x3a, 0x3c, 0x23, 0x31, 0xe9, 0x05, 0xc8,
  0xf9, 0xa7, 0x3f, 0x49, 0xdb, 0xa0, 0xd4, 0xee, 0x52, 0x04, 0xfb, 0xb5,
  0x00, 0x31, 0x04, 0x9b, 0x4f, 0x9f, 0x48, 0x38, 0x61, 0xe8, 0x41, 0xcd,
  0xa8, 0xbb, 0xcd, 0x2d, 0xa0, 0x93, 0x41, 0xf6, 0x50, 0x25, 0xff, 0x58,
  0x55, 0x00, 0xec, 0x24, 0x93, 0xea, 0x62, 0x06, 0x1c, 0xef, 0xe9, 0x46,
  0x9b, 0x8b, 0x18, 0xc8, 0x46, 0xc7, 0x20, 0xbc, 0xb0, 0x19, 0x98, 0x1a,
  0x26, 0x0a, 0x8c, 0xbe, 0x1c, 0xde, 0xe4, 0x43, 0xa6, 0xe9, 0xcf, 0x64,
  0x44, 0x3c, 0x6b, 0x24, 0x28, 0x4d, 0x11, 0x16, 0x1f, 0x8b, 0xc7, 0x9b,
  0x27, 0xb9, 0xb7, 0xd2, 0x1d, 0xc9, 0x12, 0xa6, 0x81, 0x46, 0xe5, 0x19,
  0x5d, 0x93, 0x66, 0x1e, 0x35, 0xf0, 0xbe, 0xdd, 0x26, 0x09, 0x06, 0x46,
  0x47, 0xc1, 0x44, 0x12, 0x57, 0x68, 0x29, 0xde, 0x34, 0x9d, 0x38, 0xde,
  0x9d, 0xad, 0x10, 0xaa, 0x44, 0x22, 0x04, 0xb6, 0xa0, 0xf4, 0xdd, 0xf0,
  0x48, 0xb9, 0xca, 0x3d, 0x92, 0x45, 0x97, 0x12, 0x40, 0x42, 0x07, 0xa4,
  0x3f, 0x60, 0xfb, 0x72, 0xbf, 0x66, 0xdb, 0x6e, 0x15, 0x65, 0xfc, 0xfa,
  0xf4, 0x16, 0x0b, 0x74, 0x2f, 0x3f, 0x0e, 0x2a, 0x3f, 0x14, 0x34, 0x9e,
  0x3e, 0xcc, 0xe4, 0xe8, 0x2d, 0xe9, 0x2a, 0x34, 0x13, 0x3c, 0xa7, 0xcc,
  0x25, 0x59, 0x0b, 0xd7, 0x54, 0xf4, 0x3e, 0x63, 0x75, 0x9f, 0xa8, 0x0a,
  0x36, 0xad, 0xae, 0x0d, 0x3c, 0x3e, 0x29, 0xb1, 0x5e, 0xe6, 0x3c, 0x35,
  0x2c, 0x5d, 0xea, 0xd9, 0xad, 0x3a, 0x04, 0x42, 0x15, 0xd0, 0x63, 0x04,
  0x6d, 0xf7, 0xb9, 0xeb, 0xae, 0x30, 0xc4, 0x05, 0xe3, 0x36, 0x2e, 0x0e,
  0xb8, 0x63, 0x29, 0xa3, 0x69, 0xe4, 0xe9, 0xb5, 0xbb, 0x14, 0xf7, 0x24,
  0x33, 0xb6, 0x3c, 0xef, 0x3f, 0xec, 0x6a, 0x69, 0xb3, 0x0e, 0xaf, 0x59,
  0x18, 0x3d, 0x32, 0x57, 0xd6, 0x34, 0x2a, 0x4b, 0x12, 0x41, 0x24, 0x00,
  0x12, 0x16, 0x2d, 0xc8, 0x6e, 0x03, 0xfa, 0x69, 0x09, 0x81, 0x4b, 0xe6,
  0xe2, 0xf4, 0xc4, 0xb8, 0xde, 0xc0, 0xfd, 0x1a, 0x46, 0x60, 0xd8, 0x55,
  0xea, 0x74, 0x18, 0x08, 0x56, 0x58, 0x4e, 0x53, 0x13, 0xee, 0xba, 0xda,
  0x46, 0x3d, 0x07, 0xec, 0x11, 0x93, 0xe9, 0x32, 0x03, 0xb1, 0xbd, 0x3f,
  0xf4, 0xe3, 0xb9, 0x9f, 0xd6, 0xf3, 0x2d, 0xe6, 0xa6, 0xa4, 0xd7, 0xf9,
  0x3a, 0x34, 0x63, 0xd4, 0xb8, 0xc7, 0x3c, 0xe0, 0x1f, 0x2a, 0x2a, 0xb4,
  0xf9, 0x63, 0x2e, 0x9e, 0xb5, 0xc8, 0x10, 0xf4, 0x41, 0xf5, 0xce, 0xc9,
  0x5b, 0x48, 0x2b, 0xfe, 0xd0, 0x3a, 0xbe, 0xea, 0xac, 0xd3, 0xe3, 0xfd,
  0x48, 0x1f, 0xea, 0x3c, 0x4f, 0x8f, 0x33, 0xce, 0x22, 0x21, 0x2a, 0x3d,
  0x32, 0x4e, 0x9a, 0x1c, 0x54, 0x19, 0x46, 0xca, 0x9a, 0x3e, 0xb6, 0xc5,
  0xc5, 0x95, 0x55, 0x39, 0x2d, 0xcb, 0xb9, 0xf8, 0x5c, 0x50, 0xdd, 0x9c,
  0x1c, 0xbd, 0x3f, 0x95, 0xc7, 0xef, 0x02, 0x23, 0xd1, 0x47, 0xa4, 0x4b,
  0xf4, 0x34, 0x10, 0xb4, 0xeb, 0xe4, 0x40, 0x02, 0xf2, 0x04, 0x0e, 0x01,
  0xde, 0xf9, 0xe1, 0xba, 0x2c, 0xb6, 0xf0, 0x61, 0x60, 0x11, 0x1a, 0xbf,
  0xed, 0xb7, 0x11, 0xe6, 0xc4, 0x08, 0xf1, 0xd0, 0x05, 0x57, 0xc2, 0x0d,
  0x42, 0xa2, 0xcd, 0x02, 0x50, 0x4e, 0xff, 0x2f, 0xa0, 0x34, 0xb0, 0xc0,
  0xba, 0x01, 0x69, 0x22, 0xbd, 0x55, 0x42, 0xb0, 0x35, 0xb3, 0xbd, 0xdd,
  0x25, 0xf3, 0x37, 0x68, 0x2e, 0xef, 0x99, 0x1e, 0x35, 0xd9, 0x94, 0x08,
  0x45, 0x3c, 0x05, 0x45, 0x47, 0x0e, 0x28, 0xfb, 0xa5, 0x23, 0xcf, 0x12,
  0x13, 0xe0, 0xf9, 0x90, 0x50, 0x20, 0x47, 0xbf, 0xce, 0x10, 0x17, 0xbf,
  0x29, 0x21, 0x34, 0x10, 0xc3, 0x69, 0x14, 0x21, 0x29, 0x18, 0xba, 0x15,
  0x40, 0xb6, 0x05, 0x4c, 0x03, 0x33, 0xd9, 0x07, 0x36, 0x62, 0x62, 0x0b,
  0x73, 0x8a, 0x43, 0x6e, 0x49, 0xaf, 0xc6, 0x13, 0x57, 0xe0, 0x47, 0x5c,
  0xcc, 0x20, 0xa7, 0xc8, 0x81, 0x61, 0x61, 0x49, 0x87, 0x91, 0xf4, 0x2b,
  0x97, 0xe9, 0x39, 0x36, 0x01, 0xac, 0x79, 0x2c, 0xb3, 0x9f, 0xfc, 0xc3,
  0xf5, 0xc0, 0x3e, 0xcc, 0x24, 0x48, 0xd5, 0x18, 0x6c, 0x8c, 0xf8, 0x25,
  0x52, 0xf2, 0xc8, 0x32, 0xca, 0xf2, 0x0f, 0x9b, 0x8a, 0x41, 0x4a, 0x3e,
  0xa1, 0xbe, 0x0a, 0x24, 0x99, 0x26, 0x14, 0x0f, 0x4f, 0x06, 0x35, 0xb5,
  0xae, 0xe5, 0x04, 0xd7, 0xdc, 0xfb, 0xaf, 0x1b, 0xb1, 0x99, 0x2b, 0x59,
  0xe5, 0x7e, 0x10, 0x12, 0x3e, 0xb0, 0x2f, 0xa6, 0x4f, 0xdf, 0x82, 0xf9,
  0xf8, 0xf0, 0x12, 0x1c, 0x35, 0xd1, 0x0f, 0xf2, 0xb6, 0xe0, 0x02, 0x0a,
  0x1d, 0x35, 0xb9, 0x7d, 0xd3, 0x47, 0xcf, 0x02, 0xb7, 0x15, 0x1e, 0xba,
  0xd0, 0xa3, 0xb2, 0xe7, 0x7c, 0x3c, 0xee, 0xca, 0x92, 0xc7, 0xb7, 0xe5,
  0xf0, 0x66, 0x72, 0x0b, 0x5e, 0x8e, 0xae, 0x22, 0x28, 0x48, 0x2e, 0xf7,
  0x2f, 0x13, 0x8c, 0xe2, 0xac, 0xae, 0x0f, 0xaf, 0x2a, 0x2b, 0x22, 0xed,
  0xe9, 0xcd, 0x31, 0x61, 0x78, 0xd2, 0x9a, 0xa3, 0xdf, 0xda, 0x6c, 0x2e,
  0xc3, 0x8d, 0xf9, 0xf3, 0x6e, 0x0d, 0x74, 0x5a, 0xcd, 0x68, 0xb2, 0xc7,
  0xd5, 0xb8, 0x99, 0xdf, 0xa3, 0x3c, 0x79, 0x0f, 0x31, 0x5e, 0xcc, 0xa3,
  0x6c, 0x88, 0x95, 0xea, 0x1f, 0x39, 0xbc, 0x98, 0x1b, 0x6e, 0x19, 0x2b,
  0x97, 0x28, 0x37, 0x87, 0x64, 0xe5, 0x77, 0xc9, 0x54, 0x57, 0x82, 0xd1,
  0xb9, 0x41, 0xc6, 0x9c, 0x37, 0xb9, 0x51, 0xd8, 0xf0, 0xfd, 0x22, 0x3c,
  0x86, 0x16, 0x94, 0x29, 0x9f, 0xe2, 0xd7, 0xec, 0x31, 0x61, 0xb2, 0xac,
  0x58, 0x38, 0x78, 0x56, 0xbd, 0x7a, 0x82, 0x71, 0xee, 0x70, 0x85, 0x94,
  0xb6, 0xe6, 0x5a, 0xb8, 0xe8, 0xdf, 0x00, 0x38, 0x5d, 0xdc, 0xb7, 0x71,
  0x70, 0xfc, 0xe9, 0x45, 0xfc, 0xa2, 0x23, 0xcf, 0x75, 0x7b, 0x1d, 0xa7,
  0x6e, 0x87, 0x7b, 0x63, 0x9f, 0x98, 0xa3, 0xab, 0x8f, 0x64, 0x12, 0x4a,
  0xff, 0x4c, 0x61, 0xee, 0x4b, 0x25, 0x6f, 0xd1, 0xc8, 0x33, 0xd6, 0xef,
  0xd5, 0xf2, 0xbe, 0xce, 0x57, 0x7f, 0xcd, 0xda, 0xac, 0xf0, 0xcd, 0xac,
  0xdc, 0xc3, 0x02, 0xd8, 0x24, 0x5b, 0x93, 0x5e, 0x7e, 0xd6, 0x07, 0x0e,
  0xcf, 0xb5, 0x9c, 0x5a, 0xa1, 0xd0, 0xf5, 0x4c, 0x99, 0x6f, 0xfc, 0x4f,
  0xdd, 0x22, 0x2f, 0x4a, 0x27, 0x1a, 0x89, 0xbe, 0xc4, 0xe1, 0x50, 0xca,
  0x02, 0x66, 0x07, 0x49, 0x83, 0x9b, 0xf8, 0x35, 0xbe, 0x5c, 0xd3, 0x5c,
  0x6e, 0x1a, 0xb9, 0x25, 0xaa, 0xcc, 0xc1, 0x11, 0x86, 0x0f, 0x34, 0xf2,
  0xc2, 0x04, 0x92, 0x70, 0x3c, 0xf4, 0xb9, 0x2a, 0x42, 0xb8, 0x5a, 0xa1,
  0xf2, 0xa2, 0x01, 0x60, 0xcc, 0x3a, 0x8a, 0x3d, 0xc3, 0xc8, 0x85, 0x1e,
  0x32, 0xe2, 0x11, 0xe6, 0x97, 0x60, 0x9a, 0x74, 0xbc, 0x08, 0xa7, 0xd8,
  0x3f, 0x89, 0xa2, 0xea, 0xc6, 0x97, 0xef, 0x51, 0xd6, 0x0b, 0xd4, 0x38,
  0x4a, 0x09, 0xee, 0x36, 0xd9, 0xee, 0x20, 0xb6, 0xaf, 0xec, 0xb2, 0x49,
  0xad, 0x5f, 0x6b, 0x3f, 0xb3, 0x39, 0xdb, 0x44, 0x17, 0x31, 0x49, 0x10,
  0xc3, 0x54, 0x15, 0xcb, 0xc6, 0x8d, 0xd5, 0xcb, 0x56, 0x4e, 0x8b, 0x9e,
  0x7f, 0x6e, 0x35, 0xc1, 0x07, 0x85, 0xd0, 0x6e, 0x4b, 0xf9, 0xc7, 0xaf,
  0x94, 0xfc, 0xe7, 0x74, 0x16, 0x82, 0x4d, 0x93, 0xaf, 0x01, 0xa4, 0xd5,
  0x54, 0x95, 0x7c, 0xb7, 0x64, 0xd9, 0x6d, 0xd5, 0xbb, 0xea, 0x5c, 0x3c,
  0xfc, 0xd6, 0x16, 0x4e, 0x27, 0x22, 0xb8, 0x77, 0x16, 0x32, 0x97, 0xa4,
  0xac, 0x5a, 0x27, 0x84, 0xf0, 0xf3, 0x68, 0xd6, 0xba, 0xbd, 0xd3, 0x5b,
  0x27, 0x2d, 0x83, 0x00, 0x42, 0x6a, 0x4d, 0x7b, 0x8b, 0x9e, 0x69, 0xb0,
  0xd4, 0xad, 0x30, 0x16, 0x7c, 0xf6, 0xcb, 0x02, 0x22, 0x40, 0xf4, 0x46,
  0x4a, 0x4b, 0x09, 0x4e, 0x27, 0xfd, 0x8b, 0x23, 0x05, 0x96, 0x3c, 0x84,
  0xb7, 0x38, 0x62, 0xb5, 0xcb, 0x1f, 0x33, 0x56, 0xfd, 0xf1, 0x9c, 0x0f,
  0x04, 0x27, 0xcd, 0x1d, 0xe2, 0x06, 0xd5, 0x2e, 0x84, 0xe4, 0xf4, 0xed,
  0xd3, 0x0a, 0xd0, 0xeb, 0x0d, 0x18, 0x48, 0x8c, 0x27, 0xe1, 0x33, 0x9b,
  0xa0, 0xb9, 0xb3, 0x4f, 0x16, 0xea, 0x36, 0xa2, 0xd1, 0xd2, 0x4e, 0x60,
  0x27, 0xf2, 0x49, 0x37, 0xb5, 0x37, 0x47, 0x69, 0xae, 0x68, 0x04, 0xa9,
  0x1b, 0x58, 0xf3, 0xd2, 0x2c, 0x15, 0x00, 0xde, 0x88, 0x59, 0x01, 0xcc,
  0xf0, 0x82, 0x86, 0x2d, 0x5c, 0x42, 0xfc, 0x34, 0x1c, 0xbf, 0x0c, 0x10,
  0xa9, 0xdc, 0x64, 0xe5, 0x71, 0xf3, 0x5e, 0x66, 0xa2, 0x6f, 0x4b, 0xcd,
  0x1c, 0xb9, 0x2c, 0x7f, 0xd3, 0x06, 0x8b, 0x15, 0xce, 0xfa, 0x25, 0xa9,
  0xe4, 0x6c, 0xca, 0x4b, 0xd9, 0xcc, 0x4d, 0xc1, 0xdf, 0xa3, 0x56, 0xda,
  0x05, 0x68, 0xd8, 0x14, 0xf3, 0xd3, 0x06, 0xb7, 0xf1, 0x5e, 0xc9, 0x20,
  0xa1, 0x7b, 0xa5, 0xcc, 0x20, 0x78, 0xc6, 0x79, 0x57, 0xff, 0x39, 0x26,
  0xe2, 0xb9, 0xe3, 0x04, 0x9c, 0x45, 0x2d, 0x34, 0x1b, 0x3e, 0x0e, 0x9a,
  0x22, 0x59, 0xe0, 0xa8, 0x3f, 0x4b, 0x8d, 0x29, 0x7f, 0x51, 0xb1, 0x50,
  0x31, 0x6b, 0x95, 0x24, 0x1d, 0x4a, 0xe0, 0x3f, 0xa4, 0xf4, 0x16, 0x4e,
  0xe1, 0x16, 0xb2, 0xad, 0x01, 0xf6, 0xea, 0x4e, 0xf5, 0x7e, 0x0f, 0x1f,
  0x03, 0xb5, 0xec, 0xb3, 0xc7, 0x02, 0x3b, 0xb6, 0x9a, 0xf3, 0xdf, 0x6b,
  0x08, 0xe5, 0x60, 0xd7, 0x68, 0xdc, 0x6e, 0xbc, 0x38, 0x74, 0xf8, 0x6b,
  0x47, 0xaf, 0x55, 0x86, 0xbd, 0x9f, 0x3a, 0x62, 0x37, 0x17, 0x2d, 0x0a,
  0x5b, 0xd0, 0x4b, 0x9c, 0x08, 0xfb, 0xc1, 0xba, 0xac, 0x44, 0x99, 0xc8,
  0xca, 0xda, 0x98, 0xe1, 0xe3, 0xf7, 0x3a, 0x2b, 0xad, 0x36, 0x1e, 0xf3,
  0xf8, 0xd6, 0x22, 0x38, 0xd9, 0x03, 0xa7, 0xc4, 0x17, 0x8a, 0xaf, 0xd1,
  0x73, 0xe9, 0x70, 0xfd, 0x52, 0x23, 0x89, 0x7f, 0xd4, 0xad, 0xca, 0xc4,
  0x3f, 0x01, 0x39, 0xfe, 0xc9, 0x3b, 0x3d, 0x20, 0x18, 0xfb, 0x8e, 0x0e,
  0x36, 0x9d, 0xfa, 0xc8, 0x86, 0xf9, 0x27, 0x03, 0x15, 0xc8, 0x77, 0x1c,
  0x93, 0x5f, 0x2a, 0x39, 0xf0, 0x3c, 0xcd, 0x31, 0x5f, 0xdd, 0x0c, 0x45,
  0xe7, 0x39, 0xd4, 0xdf, 0xb1, 0xb5, 0xea, 0x46, 0xac, 0x09, 0x25, 0x00,
  0xfb, 0xe2, 0x8f, 0xab, 0x70, 0x75, 0x18, 0xc3, 0x4c, 0x98, 0x14, 0x12,
  0xb5, 0xf1, 0x79, 0xeb, 0x2f, 0x12, 0xa3, 0x87, 0x7e, 0xc1, 0x9a, 0x78,
  0x1c, 0x46, 0x1e, 0xd4, 0x36, 0x3c, 0x84, 0x4e, 0xca, 0xdf, 0x91, 0xf8,
  0x65, 0x92, 0x2a, 0x10, 0x85, 0x0e, 0x29, 0x46, 0xfd, 0xe6, 0x3f, 0xab,
  0x6f, 0x0f, 0xdb, 0x6c, 0xdf, 0x7e, 0x05, 0x8a, 0x59, 0xe8, 0x15, 0xad,
  0xac, 0xaf, 0x58, 0xd1, 0xef, 0x86, 0xe3, 0x82, 0xd2, 0x95, 0x30, 0x06,
  0xa9, 0x03, 0x04, 0x1d, 0x23, 0xbd, 0x00, 0xb7, 0x8f, 0x17, 0xc0, 0xd1,
  0xe1, 0xa8, 0xc5, 0x81, 0xdd, 0x77, 0xc1, 0x59, 0xc3, 0x5e, 0xd9, 0xe6,
  0x55, 0xca, 0xc5, 0x3d, 0xee, 0xe3, 0x64, 0x52, 0xe3, 0x55, 0xb7, 0x54,
  0x3b, 0xb6, 0x61, 0x91, 0x1a, 0x0d, 0x0e, 0xd0, 0x08, 0x03, 0xd6, 0x77,
  0x95, 0x09, 0x85, 0x6e, 0x9f, 0x5a, 0x7b, 0x64, 0x28, 0x50, 0x64, 0x8f,
  0xfe, 0x2e, 0x92, 0x5e, 0xd5, 0x83, 0xf6, 0x87, 0xf5, 0x42, 0x93, 0x59,
  0xb1, 0x8e, 0x8f, 0x74, 0x31, 0xdc, 0x24, 0x8a, 0x28, 0x2f, 0x0e, 0xc0,
  0x11, 0xde, 0x0b, 0x43, 0x2c, 0xaf, 0xde, 0xa2, 0x3b, 0x1a, 0x78, 0x4f,
  0xf7, 0xb0, 0x3e, 0x91, 0x79, 0xe1, 0x2a, 0x9c, 0xdf, 0xcb, 0x44, 0xfe,
  0x66, 0x05, 0x92, 0xd2, 0xda, 0x4f, 0xec, 0x99, 0x69, 0xee, 0x7a, 0xe7,
  0x7b, 0x45, 0xd7, 0xe6, 0x7a, 0xb7, 0xfe, 0xbd, 0xfa, 0xe0, 0xca, 0xfd,
  0x47, 0x37, 0xa6, 0x34, 0x85, 0xa1, 0x48, 0x10, 0xab, 0xe6, 0x2b, 0xbf,
  0xee, 0xcc, 0xde, 0xd6, 0x0c, 0x03, 0x0a, 0x2d, 0x81, 0xfd, 0xd3, 0x4e,
  0x98, 0xd6, 0x88, 0x12, 0x68, 0xf0, 0x3f, 0xda, 0x94, 0xc6, 0xa4, 0x01,
  0x49, 0xf5, 0x8c, 0x8e, 0x8c, 0xba, 0x91, 0x04, 0xbc, 0xf9, 0x3a, 0x5a,
  0xc7, 0x1e, 0x6d, 0x8f, 0xde, 0x11, 0x11, 0x54, 0x7d, 0xde, 0x4b, 0xac,
  0x9a, 0x82, 0x94, 0xc5, 0xd3, 0x6e, 0xe2, 0xfd, 0x0e, 0x18, 0xdc, 0x3d,
  0x05, 0xac, 0xa7, 0xb3, 0x1f, 0x2c, 0x4c, 0x61, 0x6e, 0x95, 0xa6, 0x5e,
  0x01, 0x4c, 0xab, 0x59, 0xfd, 0x0c, 0x5b, 0x4e, 0xfa, 0xd3, 0xef, 0x45,
  0xbf, 0x86, 0xe6, 0x02, 0xbc, 0x64, 0x5f, 0xfc, 0xd9, 0xd2, 0xd6, 0xd6,
  0x4e, 0x0c, 0xf6, 0x5a, 0x35, 0x2c, 0xdc, 0x52, 0x2b, 0x3e, 0xfb, 0x00,
  0x05, 0xf0, 0x63, 0xf7, 0xcc, 0x55, 0x25, 0x86, 0x70, 0x15, 0xfd, 0x46,
  0x47, 0x0d, 0xf9, 0x0d, 0xc3, 0x48, 0xc0, 0xb6, 0x34, 0x89, 0xc7, 0xb6,
  0x57, 0xcb, 0x56, 0xad, 0x86, 0x08, 0x0e, 0x45, 0x67, 0x5a, 0x8b, 0x82,
  0xd3, 0x2f, 0xf0, 0x24, 0x10, 0x15, 0x38, 0x2b, 0x05, 0x28, 0x9d, 0x72,
  0x8a, 0x4c, 0xd1, 0xa9, 0x34, 0xaa, 0x38, 0x5f, 0xd7, 0xe2, 0xcc, 0xdc,
  0xe9, 0x1d, 0x01, 0xaf, 0x48, 0xf5, 0x5e, 0x2f, 0xf3, 0x04, 0x56, 0x48,
  0xf5, 0x51, 0x02, 0xab, 0x94, 0x4f, 0xd3, 0xab, 0xb3, 0xd5, 0xd9, 0x4b,
  0x0a, 0xb5, 0xd4, 0xb7, 0x0f, 0xe6, 0x3a, 0x52, 0x10, 0x48, 0x03, 0x6f,
  0xed, 0xdb, 0x6c, 0xcd, 0xa6, 0x2d, 0x15, 0xb7, 0x30, 0x9f, 0x35, 0x27,
  0xe0, 0x15, 0x04, 0x2c, 0xcf, 0xbb, 0x6b, 0x63, 0xfb, 0x01, 0xbb, 0xe9,
  0xde, 0x47, 0x12, 0x60, 0x6d, 0x7f, 0x09, 0xb5, 0x69, 0x45, 0x20, 0x47,
  0xdd, 0x0b, 0x5d, 0xdc, 0x35, 0xb1, 0x40, 0x52, 0xc8, 0x36, 0x10, 0xbd,
  0x73, 0x57, 0x23, 0xe5, 0xac, 0x10, 0x7c, 0x4f, 0x39, 0xac, 0xe0, 0x22,
  0xd3, 0x16, 0xd0, 0xde, 0x1d, 0xb5, 0xda, 0x23, 0x06, 0xea, 0xd8, 0x0e,
  0x34, 0xe2, 0x12, 0xeb, 0xf1, 0x2c, 0xa2, 0x15, 0x9f, 0x9f, 0x52, 0x47,
  0x28, 0xf2, 0xb0, 0x97, 0x06, 0x2d, 0x5a, 0x26, 0x3d, 0x07, 0x56, 0xd4,
  0xf3, 0xb7, 0xb4, 0xe5, 0xa3, 0x10, 0x63, 0x1e, 0xc4, 0xd6, 0xfc, 0xf0,
  0xd9, 0x66, 0xfb, 0xe0, 0x05, 0xbe, 0x92, 0x4f, 0xf8, 0x9e, 0xa2, 0xda,
  0x24, 0x8b, 0xf5, 0xc4, 0xb1, 0xf2, 0xf9, 0xc0, 0xc0, 0x02, 0x33, 0xe0,
  0x48, 0x50, 0xe6, 0x0c, 0x22, 0x51, 0xd6, 0xa9, 0xe7, 0x14, 0x32, 0x35,
  0xac, 0x47, 0xc0, 0x3e, 0xda, 0x22, 0xd6, 0x4e, 0x34, 0xd4, 0x0d, 0x03,
  0x60, 0x23, 0x95, 0x96, 0x0f, 0xa8, 0x14, 0x14, 0x95, 0xaa, 0x90, 0x61,
  0xca, 0x5b, 0x2c, 0x59, 0xee, 0x94, 0xc5, 0x31, 0x3e, 0x0a, 0x0c, 0xeb,
  0xa1, 0x2a, 0xb9, 0xbc, 0x27, 0xcc, 0xf6, 0x18, 0xd4, 0xb7, 0xea, 0xe6,
  0x53, 0x06, 0x03, 0xb7, 0x2b, 0x16, 0x53, 0x5c, 0xf6, 0x69, 0xe1, 0x0c,
  0xdd, 0xb7, 0xea, 0x42, 0xb8, 0x0c, 0x9d, 0x42, 0xf4, 0x2c, 0x37, 0x17,
  0x37, 0x95, 0x58, 0xdd, 0x58, 0x2c, 0x06, 0x0a, 0xc0, 0xca, 0x2d, 0xfa,
  0x20, 0xac, 0x3e, 0x42, 0xd1, 0x48, 0x38, 0x2c, 0x31, 0xb4, 0x2f, 0xa8,
  0xd1, 0x17, 0xda, 0x0d, 0x27, 0x2e, 0x0e, 0xa8, 0x8d, 0xd7, 0x8f, 0xa6,
  0xb6, 0xa9, 0x53, 0xa4, 0xcc, 0x92, 0x15, 0x1f, 0x97, 0xe7, 0x43, 0x46,
  0x6c, 0x67, 0xae, 0xc7, 0xe3, 0x27, 0xc9, 0xd1, 0x6e, 0xc1, 0x30, 0x9f,
  0xac, 0x53, 0xc2, 0x23, 0xcd, 0xc9, 0xf7, 0x5d, 0xa5, 0x5a, 0xaf, 0x72,
  0x33, 0xc0, 0x8f, 0xa4, 0x97, 0x09, 0xcc, 0x4e, 0x3d, 0x8c, 0x63, 0x88,
  0xbb, 0xfb, 0xe9, 0xa7, 0x27, 0x20, 0x84, 0x4c, 0xe4, 0x69, 0x8f, 0x38,
  0x8c, 0x4d, 0xdd, 0xc8, 0xfc, 0x5e, 0x42, 0xd6, 0xfb, 0x13, 0xfc, 0x1d,
  0x1b, 0x64, 0xa0, 0x32, 0x13, 0xc0, 0x48, 0xa0, 0x37, 0x31, 0x4b, 0xa2,
  0xe9, 0x75, 0xd9, 0xa8, 0xac, 0x83, 0x9a, 0xfe, 0xf7, 0x8e, 0x99, 0x4a,
  0x65, 0x2d, 0xa7, 0x1a, 0xd9, 0x51, 0x30, 0xa7, 0x47, 0xaf, 0xfb, 0x04,
  0x6e, 0x14, 0x30, 0xc1, 0xd1, 0xd4, 0xb6, 0x64, 0x4d, 0x16, 0xe0, 0x01,
  0xf1, 0x6d, 0x2d, 0x19, 0x24, 0xcc, 0x5f, 0xbb, 0x27, 0x8e, 0xf7, 0x97,
  0x6f, 0x38, 0x08, 0xda, 0x9a, 0xb3, 0x5d, 0xfa, 0x68, 0x5b, 0x24, 0x5a,
  0xbe, 0xa2, 0x16, 0x5b, 0x0d, 0x6f, 0x44, 0x98, 0xb7, 0x56, 0x21, 0x05,
  0x17, 0x0c, 0x61, 0x2f, 0x38, 0xe2, 0xb3, 0x71, 0x81, 0x61, 0x45, 0x6b,
  0x3b, 0xf5, 0xb1, 0x50, 0xf8, 0x2a, 0x06, 0x07, 0x5c, 0xf2, 0x82, 0x4a,
  0xda, 0xa6, 0xdd, 0x71, 0x0d, 0xa5, 0xd9, 0x60, 0xcb, 0x43, 0x82, 0x5f,
  0xbb, 0x54, 0x51, 0x1a, 0x70, 0xb0, 0x81, 0x09, 0xd5, 0xa4, 0xf6, 0xb8,
  0x9f, 0x25, 0xd0, 0x11, 0xff, 0x33, 0x68, 0xd1, 0x3d, 0xe2, 0x2f, 0x24,
  0x42, 0x6d, 0xa0, 0xb7, 0x93, 0x0f, 0x71, 0x6a, 0xc1, 0xa3, 0x1c, 0x4c,
  0x8a, 0xd5, 0x2f, 0x54, 0x82, 0x75, 0xe7, 0x21, 0xc7, 0x43, 0x6f, 0x34,
  0xac, 0x91, 0xa5, 0x2c, 0x3a, 0xc4, 0xd4, 0x7f, 0xe4, 0x57, 0x7a, 0x05,
  0xf8, 0x94, 0x05, 0x28, 0xe7, 0x56, 0xd5, 0xe8, 0x7a, 0x70, 0x3f, 0x67,
  0x54, 0xd2, 0x19, 0xde, 0xd7, 0x3e, 0x01, 0x4e, 0x07, 0xda, 0xef, 0xfd,
  0x4d, 0xeb, 0xf1, 0xc5, 0xbf, 0x00, 0x5b, 0x72, 0xae, 0x75, 0x9a, 0x78,
  0xec, 0x7b, 0xe6, 0x46, 0xfb, 0xd6, 0x28, 0x18, 0x4e, 0x60, 0xdb, 0xcc,
  0x43, 0xa9, 0x9c, 0x2f, 0x10, 0x14, 0xcc, 0x72, 0xac, 0x59, 0x93, 0x58,
  0xb3, 0x11, 0xea, 0xde, 0x1d, 0x01, 0x4e, 0x5d, 0x11, 0x7f, 0x72, 0xe6,
  0x0a, 0xb5, 0xec, 0xa8, 0xf5, 0xa0, 0x3e, 0x51, 0xe4, 0xa3, 0x60, 0x0f,
  0x4d, 0x63, 0x01, 0x24, 0xf7, 0xb1, 0x24, 0x5a, 0xac, 0x82, 0x4d, 0xc8,
  0x26, 0xba, 0x85, 0xf8, 0x04, 0x16, 0x41, 0x06, 0xc4, 0x03, 0x93, 0x2d,
  0x08, 0x9b, 0x21, 0xa9, 0xbe, 0x6a, 0x62, 0x1d, 0x73, 0xbd, 0xd5, 0xef,
  0x8a, 0x35, 0xd7, 0x8f, 0x8c, 0x3a, 0x24, 0x88, 0xb0, 0x86, 0x69, 0x18,
  0x70, 0x26, 0xb0, 0x01, 0x0d, 0xea, 0x2d, 0xc3, 0x88, 0x03, 0xed, 0x1a,
  0x5b, 0xd7, 0xf2, 0x52, 0x99, 0x8e, 0x82, 0x1e, 0x3d, 0xac, 0xe7, 0x65,
  0x5f, 0xb2, 0xec, 0x0e, 0x47, 0xe7, 0x41, 0xb3, 0x68, 0x4f, 0x1b, 0x65,
  0x3c, 0xee, 0x65, 0xfa, 0x3b, 0xf1, 0x01, 0xdc, 0x66, 0x2b, 0x5a, 0x2b,
  0x29, 0xb8, 0x21, 0xad, 0xcf, 0xd7, 0x36, 0xac, 0x02, 0x9f, 0xeb, 0xb2,
  0xc9, 0x4a, 0x5f, 0xa1, 0x2d, 0x5c, 0xe2, 0xf8, 0x8f, 0x98, 0x08, 0xef,
  0xb1, 0x5b, 0x40, 0x03, 0xe0, 0x92, 0xb2, 0x9d, 0x37, 0xf3, 0x3b, 0xe9,
  0x54, 0x52, 0x0e, 0xed, 0x55, 0x16, 0xb0, 0xa4, 0xfb, 0x35, 0x21, 0xe9,
  0xfe, 0x5b, 0xe4, 0xf4, 0xa8, 0x39, 0x00, 0x53, 0xb2, 0xa3, 0xbd, 0xde,
  0x14, 0xc6, 0xf2, 0xb6, 0xf5, 0x08, 0x27, 0x1c, 0xf3, 0x68, 0xe0, 0xf7,
  0x4a, 0xaf, 0x06, 0xc4, 0xa4, 0x74, 0xb3, 0x36, 0x08, 0xc3, 0x5e, 0xf2,
  0x72, 0x0f, 0xa7, 0xb6, 0x3c, 0xc1, 0x25, 0x92, 0x68, 0x3c, 0x32, 0xdb,
  0x21, 0x0f, 0xd4, 0xed, 0x22, 0x8c, 0xf1, 0x55, 0x00, 0xa3, 0xa0, 0xe5,
  0x31, 0x46, 0xfb, 0x41, 0xf2, 0x71, 0x53, 0x32, 0xa1, 0xb9, 0xc3, 0x6d,
  0x34, 0x99, 0xeb, 0x23, 0xc5, 0x7f, 0xcc, 0x61, 0x32, 0xbd, 0xf3, 0xd5,
  0xfa, 0x90, 0x08, 0x63, 0x4c, 0x29, 0x3a, 0xd0, 0x07, 0xf0, 0xfa, 0x08,
  0xf0, 0x95, 0x10, 0xba, 0x98, 0x4e, 0x0e, 0x59, 0xd6, 0xd9, 0x91, 0x2a,
  0xb9, 0x29, 0x2a, 0xfd, 0x0f, 0xcd, 0xa8, 0xf2, 0x5c, 0xbe, 0xf6, 0x74,
  0xc1, 0x15, 0x44, 0x0a, 0xc0, 0xb2, 0xf5, 0x5c, 0x1a, 0x20, 0x77, 0xfe,
  0xfa, 0x6c, 0x0a, 0xa2, 0xf5, 0x33, 0xbf, 0x53, 0xe6, 0x4b, 0x2d, 0xfa,
  0x43, 0x74, 0xb4, 0xd6, 0x02, 0x07, 0x2f, 0x9e, 0x0d, 0xb8, 0x44, 0x3d,
  0x42, 0x73, 0x1d, 0x9e, 0xa1, 0xf9, 0x1a, 0x44, 0xe6, 0xbd, 0x03, 0x10,
  0xb8, 0x51, 0x09, 0xb4, 0x76, 0xd6, 0x92, 0xdc, 0x1b, 0x1d, 0xc3, 0xb8,
  0x04, 0x46, 0x3c, 0xfc, 0x5f, 0xbf, 0xee, 0xd8, 0x12, 0xac, 0x3c, 0xc7,
  0x1a, 0xcc, 0x6d, 0x5d, 0xa5, 0xfe, 0x3b, 0x6d, 0x33, 0x38, 0x96, 0xf3,
  0x45, 0xda, 0x44, 0xa6, 0x9e, 0x16, 0xbc, 0x1c, 0x0d, 0xb2, 0xe0, 0xe7,
  0x5e, 0xcd, 0xf8, 0x65, 0x39, 0xb9, 0xe0, 0xdf, 0xcf, 0xdd, 0x8b, 0x05,
  0xf5, 0x31, 0xa9, 0xa3, 0x33, 0x99, 0xa1, 0xf2, 0x28, 0x6d, 0x08, 0x47,
  0x1d, 0xed, 0x2e, 0x6b, 0x20, 0x65, 0x69, 0x0e, 0x4b, 0x0f, 0xdc, 0x53,
  0xe1, 0x0a, 0x5c, 0xf5, 0x1a, 0x9e, 0x86, 0xf7, 0x12, 0x14, 0x07, 0x22,
  0x47, 0xb5, 0xbf, 0x9d, 0x6c, 0x70, 0x92, 0xc6, 0x74, 0x4f, 0xad, 0xf0,
  0x5e, 0x4b, 0x0a, 0x9c, 0x09, 0x62, 0x3f, 0x25, 0x75, 0xd6, 0x46, 0x70,
  0xa0, 0x78, 0xdf, 0x6a, 0xda, 0x91, 0x62, 0xd3, 0x6c, 0xee, 0x1e, 0xa8,
  0xff, 0x1e, 0x62, 0x4a, 0x7a, 0xaf, 0x8b, 0xef, 0xff, 0x66, 0xdd, 0x03,
  0xa5, 0x5a, 0x58, 0x90, 0x55, 0x95, 0x6a, 0x14, 0xa1, 0xa6, 0x40, 0x49,
  0x26, 0x30, 0x7a, 0x0c, 0xa7, 0x1a, 0xef, 0xce, 0x9c, 0x05, 0x96, 0xf7,
  0x30, 0x64, 0x61, 0xb6, 0xd3, 0x18, 0x62, 0x9c, 0xf9, 0xcf, 0xf5, 0xdf,
  0x99, 0x04, 0x08, 0xd4, 0x1a, 0x67, 0xb4, 0xde, 0x86, 0xaf, 0xf1, 0x19,
  0xda, 0x7c, 0xa7, 0x09, 0xeb, 0x9c, 0xb1, 0xb5, 0xd3, 0xae, 0x39, 0xdd,
  0xe7, 0xc8, 0x45, 0x03, 0xae, 0x0b, 0x99, 0x04, 0x91, 0xe6, 0xc8, 0x98,
  0xe9, 0x75, 0xfc, 0x95, 0x5f, 0x7e, 0x6b, 0xac, 0x22, 0xce, 0x4a, 0x4b,
  0x7c, 0x85, 0xf3, 0x48, 0xd4, 0xea, 0x57, 0x2f, 0x1e, 0x2b, 0xd0, 0x22,
  0x1a, 0x93, 0x64, 0x2f, 0x0c, 0x39, 0x4a, 0xac, 0xf7, 0xa7, 0xce, 0xd5,
  0x88, 0x64, 0x22, 0x6a, 0x19, 0x0e, 0xc7, 0x42, 0xec, 0xa3, 0x11, 0xa9,
  0x2f, 0x3d, 0x8f, 0x13, 0x61, 0xee, 0xab, 0x0e, 0xe0, 0x47, 0xd2, 0x1f,
  0xfa, 0x60, 0x67, 0xf4, 0xab, 0xa3, 0x6a, 0xf6, 0x30, 0x0a, 0xb0, 0x46,
  0xaf, 0x55, 0x74, 0x8f, 0x45, 0xd2, 0x39, 0xa0, 0x85, 0x59, 0x47, 0x89,
  0x67, 0x09, 0x82, 0x45, 0x20, 0x77, 0x9a, 0x08, 0x4e, 0xc1, 0x6a, 0xa0,
  0xd1, 0x4f, 0x7f, 0x7a, 0x8d, 0xdb, 0xf0, 0x83, 0x54, 0x51, 0x3e, 0x97,
  0x06, 0x2f, 0x15, 0xa9, 0xae, 0xb3, 0x94, 0x27, 0x25, 0x70, 0x07, 0x64,
  0x76, 0x60, 0x62, 0xd9, 0xc2, 0x97, 0xa5, 0x39, 0x88, 0x0a, 0x87, 0x19,
  0x9c, 0xd7, 0xdf, 0x54, 0xd2, 0x48, 0xa3, 0x9c, 0xbc, 0xa8, 0x84, 0xee,
  0xb5, 0x44, 0x01, 0x0e, 0x7f, 0xbf, 0x9b, 0xee, 0x1d, 0x63, 0xa0, 0x50,
  0x98, 0xda, 0x8f, 0x9d, 0x59, 0x41, 0x43, 0x2f, 0x58, 0x51, 0xcd, 0xb4,
  0x17, 0xd4, 0xb2, 0xc2, 0x4c, 0x43, 0x0d, 0xf1, 0xc6, 0x42, 0x48, 0xc6,
  0x20, 0x2c, 0xf7, 0xc8, 0xc8, 0xa3, 0x97, 0x3e, 0x9b, 0xea, 0xab, 0xe6,
  0x51, 0xab, 0xa9, 0x6a, 0xee, 0xc2, 0xbb, 0x1b, 0x3b, 0x26, 0xa1, 0x2a,
  0x05, 0x20, 0x3c, 0x38, 0x26, 0xda, 0x0b, 0x5b, 0x02, 0x50, 0x32, 0x59,
  0x3f, 0x2c, 0xc7, 0xbb, 0xff, 0xb2, 0xc0, 0x42, 0x60, 0x06, 0x65, 0x16,
  0xab, 0x27, 0x64, 0x35, 0x34, 0x13, 0xb7, 0x1d, 0xe4, 0x65, 0x29, 0x25,
  0xf3, 0xb0, 0x51, 0x49, 0xa1, 0x25, 0xe8, 0x01, 0x9f, 0x18, 0x96, 0xc0,
  0x09, 0x53, 0x2a, 0xce, 0x3e, 0xbd, 0x5d, 0x53, 0xa9, 0x48, 0xfe, 0x2a,
  0x44, 0x4a, 0x38, 0x08, 0x55, 0x05, 0x1f, 0x1f, 0x63, 0x9e, 0x06, 0xe7,
  0x97, 0x05, 0x3c, 0x1b, 0x9b, 0xb4, 0x62, 0xcb, 0x4d, 0xdb, 0xed, 0x3a,
  0x62, 0x21, 0x46, 0x17, 0x28, 0x68, 0x8e, 0x40, 0x29, 0xe0, 0xc1, 0xc0,
  0x9f, 0x1c, 0x61, 0x2b, 0xd3, 0xa6, 0x17, 0x56, 0x2a, 0xb2, 0x2b, 0xe0,
  0x1c, 0x07, 0x26, 0xf8, 0x2e, 0x1d, 0x0d, 0xeb, 0xbd, 0x28, 0x18, 0x68,
  0x41, 0x67, 0x9f, 0xb2, 0x08, 0x05, 0xa0, 0x17, 0x11, 0xfb, 0xb8, 0xaf,
  0x4c, 0x05, 0x5a, 0x1b, 0x00, 0x23, 0xf8, 0x04, 0x47, 0xde, 0xec, 0x25,
  0x1c, 0x98, 0x4d, 0x99, 0xe2, 0x43, 0x21, 0xb2, 0xf0, 0x4c, 0x35, 0x2f,
  0xc9, 0xf2, 0xac, 0x6a, 0xe4, 0x6a, 0xec, 0xd4, 0xd6, 0xbe, 0x16, 0x9d,
  0x55, 0xa4, 0x1f, 0xa0, 0xaf, 0x08, 0xf2, 0xb0, 0xdd, 0x61, 0x2e, 0xf6,
  0xf2, 0x13, 0x0a, 0xa4, 0x0a, 0x29, 0xc1, 0xf7, 0xda, 0xf2, 0xae, 0x64,
  0xd4, 0x4f, 0x41, 0x4e, 0xc4, 0x2a, 0x59, 0x94, 0x3b, 0x3e, 0xc9, 0xb1,
  0x18, 0xb5, 0x51, 0x8d, 0x46, 0x15, 0xc9, 0xbe, 0x21, 0x4d, 0x25, 0xf3,
  0x43, 0xd0, 0x8d, 0x47, 0x57, 0x10, 0x0d, 0x3e, 0x4b, 0x5d, 0x49, 0xa6,
  0xc4, 0xe1, 0xa8, 0x5c, 0x39, 0xc8, 0xe7, 0x59, 0x9e, 0x14, 0x27, 0x45,
  0x69, 0x2e, 0xbb, 0xaa, 0x11, 0x93, 0x09, 0x53, 0x23, 0x32, 0x26, 0x6a,
  0xc2, 0xb3, 0xac, 0x67, 0x70, 0xbf, 0xd7, 0x35, 0x4b, 0xa6, 0xb5, 0x49,
  0x8a, 0x45, 0x9b, 0x08, 0x19, 0xdc, 0x4a, 0xe2, 0x12, 0xc6, 0x4b, 0xe7,
  0xb4, 0x60, 0x36, 0xf3, 0x42, 0x09, 0x34, 0xd6, 0x28, 0x69, 0x97, 0x2c,
  0xaf, 0x47, 0xfa, 0x44, 0x12, 0x19, 0xb2, 0xcf, 0x99, 0xdf, 0x38, 0xcd,
  0x58, 0x97, 0xc5, 0xa0, 0xc8, 0x92, 0x44, 0xde, 0x9c, 0x58, 0x64, 0x1a,
  0x30, 0xda, 0x3a, 0x08, 0xa3, 0x3a, 0x38, 0x8a, 0xdf, 0x69, 0xf5, 0xf1,
  0xc7, 0x9b, 0xb6, 0xeb, 0x91, 0xeb, 0x0a, 0xa7, 0x2b, 0x11, 0x64, 0x8a,
  0x75, 0xc3, 0xe2, 0x6d, 0xc3, 0xa0, 0x5c, 0x68, 0xb6, 0x3b, 0xd4, 0xdf,
  0xb7, 0x57, 0xa5, 0xfa, 0x25, 0x75, 0x00, 0x3f, 0x2e, 0x97, 0xdf, 0x06,
  0x7f, 0xf4, 0xb2, 0x1a, 0x98, 0x96, 0x20, 0x2b, 0x51, 0x2b, 0x2f, 0x14,
  0xc7, 0x26, 0x66, 0xd2, 0xce, 0xc1, 0x48, 0xab, 0xdb, 0x12, 0x57, 0x3c,
  0xb2, 0xaa, 0x50, 0xbe, 0x55, 0xe4, 0x63, 0x38, 0x53, 0x52, 0xbe, 0xf2,
  0xf6, 0x47, 0x00, 0x41, 0x25, 0x6a, 0x9f, 0xf2, 0x8a, 0x0e, 0x34, 0xa6,
  0x3d, 0x35, 0x39, 0xd3, 0x13, 0xf6, 0x6d, 0x73, 0x50, 0xa7, 0xdd, 0x78,
  0x2b, 0xfc, 0x96, 0x4c, 0xc5, 0x6a, 0xfb, 0xfe, 0xcf, 0xdb, 0x28, 0x00,
  0x03, 0x3d, 0xeb, 0x6a, 0x47, 0x48, 0x47, 0xec, 0x29, 0x9d, 0xa6, 0x43,
  0x74, 0xf7, 0xc0, 0x22, 0xdf, 0xa6, 0x85, 0x9c, 0x5d, 0xd4, 0x2a, 0xdc,
  0x5b, 0xea, 0xf7, 0x95, 0xc1, 0xe7, 0xbb, 0xa5, 0xaa, 0x4e, 0xc1, 0x0f,
  0x09, 0xeb, 0x08, 0x19, 0x0d, 0x69, 0x1f, 0xf8, 0x8e, 0x92, 0x50, 0xc5,
  0x63, 0x32, 0x54, 0x0c, 0xda, 0x4b, 0x68, 0x5d, 0x01, 0x3f, 0xe7, 0xa9,
  0x54, 0x69, 0xe0, 0x8e, 0x1a, 0x32, 0x57, 0x87, 0xc1, 0x96, 0x47, 0x43,
  0xe6, 0x78, 0xac, 0xdc, 0xd3, 0x0b, 0xcc, 0xe5, 0x1c, 0xee, 0x5d, 0xe9,
  0x10, 0xe8, 0x6a, 0xe0, 0x1a, 0x16, 0xbb, 0xe0, 0xd8, 0xb9, 0xa7, 0xb1,
  0x5c, 0xd6, 0x70, 0x23, 0xee, 0xa3, 0x45, 0x60, 0xbd, 0x09, 0xab, 0x5d,
  0xcc, 0xce, 0x72, 0xd4, 0xeb, 0x41, 0x16, 0x34, 0x5f, 0x40, 0xcd, 0xb9,
  0xde, 0xa3, 0x6e, 0x48, 0xea, 0xbc, 0x5e, 0x62, 0x99, 0x45, 0xcf, 0xf1,
  0x3b, 0x71, 0xb7, 0x4c, 0xd3, 0x2b, 0x4b, 0xd1, 0x11, 0xd8, 0x37, 0x15,
  0x17, 0x46, 0x56, 0x5b, 0x41, 0xf0, 0xcd, 0x6b, 0x53, 0x5c, 0x04, 0xc1,
  0xa1, 0xe5, 0xb7, 0x9e, 0x11, 0x2f, 0xe4, 0x67, 0xbe, 0xbb, 0x16, 0x49,
  0x2e, 0x2d, 0x77, 0xa4, 0xc0, 0xc9, 0xb2, 0xcc, 0xa0, 0x70, 0x71, 0x96,
  0xc0, 0x97, 0x97, 0xce, 0x0c, 0x9d, 0x22, 0xfc, 0x19, 0xdf, 0x27, 0x14,
  0x50, 0x0e, 0xf4, 0x82, 0x69, 0x60, 0x13, 0x15, 0x07, 0x56, 0x4d, 0x58,
  0x47, 0xa3, 0x33, 0xc3, 0xac, 0x25, 0x0c, 0x9c, 0x68, 0xff, 0x64, 0x32,
  0x96, 0x65, 0x2d, 0x04, 0x07, 0xb8, 0xf5, 0x85, 0x9b, 0x6e, 0x0a, 0xc4,
  0x26, 0x1b, 0xee, 0x9b, 0x15, 0x6b, 0xfe, 0xfb, 0x41, 0x14, 0x35, 0xd9,
  0x4b, 0x8e, 0x39, 0x52, 0x26, 0x53, 0xd4, 0x55, 0x5b, 0x41, 0x39, 0x42,
  0x43, 0xe6, 0x51, 0x4e, 0xea, 0x81, 0xca, 0xcd, 0xc7, 0xfa, 0x61, 0x92,
  0x5b, 0xee, 0xea, 0xca, 0x26, 0x30, 0x06, 0x4a, 0xba, 0x98, 0xcd, 0x33,
  0x21, 0x14, 0xc2, 0xae, 0x37, 0xd5, 0x1c, 0xb4, 0xfa, 0x68, 0xe0, 0x36,
  0x08, 0xd9, 0x47, 0xa5, 0xfe, 0x38, 0x79, 0x45, 0x76, 0x00, 0xab, 0x5c,
  0xfe, 0xd0, 0x4e, 0x0d, 0x9f, 0x3a, 0x98, 0x98, 0xf7, 0xcc, 0xf6, 0xdc,
  0x90, 0x71, 0x08, 0xb6, 0x63, 0xbf, 0x4f, 0xdd, 0x45, 0x43, 0x01, 0xdf,
  0x60, 0x2e, 0x06, 0xe5, 0xe8, 0xf2, 0x66, 0x41, 0xc1, 0xf4, 0x9f, 0x10,
  0x0b, 0x82, 0xc3, 0xad, 0x17, 0x9c, 0x48, 0xc7, 0x01, 0x9d, 0xc1, 0xee,
  0xe9, 0x17, 0x98, 0xdc, 0x03, 0xf6, 0x74, 0x66, 0xb9, 0x54, 0x64, 0xad,
  0x8f, 0x85, 0xb8, 0x38, 0x5b, 0x6f, 0xe7, 0xe0, 0xf1, 0x3b, 0x40, 0xe4,
  0xbf, 0x39, 0x3c, 0x28, 0xea, 0x98, 0x16, 0x32, 0x35, 0x8d, 0xd3, 0x05,
  0xce, 0xd3, 0xb7, 0x22, 0x90, 0x44, 0xc1, 0x74, 0xec, 0x73, 0xa9, 0x05,
  0xc4, 0x61, 0xab, 0x27, 0x37, 0x84, 0xf4, 0x00, 0x58, 0x63, 0x9a, 0x58,
  0x36, 0xb8, 0xca, 0xf9, 0xac, 0x64, 0x9d, 0xde, 0xd3, 0x76, 0xc7, 0xdb,
  0x88, 0xe6, 0x1b, 0xb4, 0x13, 0xe4, 0x35, 0xde, 0x81, 0x47, 0xef, 0x6e,
  0xf7, 0xf7, 0x9a, 0xc7, 0x4e, 0xc6, 0xc7, 0x4d, 0xb1, 0x05, 0x65, 0x62,
  0x25, 0xd2, 0x5e, 0xc4, 0xb5, 0xfa, 0x8d, 0xd0, 0xd8, 0xd9, 0x0f, 0x21,
  0x72, 0xae, 0xf5, 0xdc, 0x35, 0xd8, 0x64, 0xe4, 0x4d, 0x19, 0x1d, 0xc0,
  0x49, 0x79, 0x00, 0x84, 0x78, 0x95, 0xb6, 0x16, 0xe9, 0x11, 0xb2, 0x65,
  0x57, 0xcb, 0xdc, 0xb2, 0x30, 0xfc, 0xaa, 0xd7, 0xc2, 0x17, 0x5b, 0x22,
  0x3a, 0x0e, 0xc6, 0x11, 0x02, 0x2e, 0x38, 0x6c, 0x05, 0xb0, 0xcd, 0x39,
  0x54, 0x41, 0x9c, 0x54, 0x69, 0x42, 0x1e, 0xe6, 0x54, 0xd2, 0x92, 0xe2,
  0x5a, 0xa0, 0x96, 0xe5, 0xa8, 0xa8, 0x9c, 0x7d, 0xfc, 0xdf, 0xa2, 0x15,
  0x77, 0x6d, 0x55, 0x8e, 0x33, 0x04, 0x2d, 0xe0, 0xe1, 0x46, 0xb1, 0x49,
  0xd1, 0x33, 0x14, 0x14, 0x4a, 0x64, 0xcc, 0x5e, 0x14, 0xae, 0x8a, 0x8c,
  0x9a, 0x62, 0xa2, 0xea, 0xc2, 0xf9, 0xf7, 0x7a, 0xd6, 0x0b, 0x1c, 0x08,
  0x3a, 0x3c, 0x97, 0x35, 0x16, 0x84, 0xdd, 0xd9, 0x46, 0x75, 0x7c, 0xc8,
  0x08, 0x28, 0x1c, 0x61, 0x9d, 0x0f, 0x92, 0xc2, 0x27, 0x92, 0x38, 0x6b,
  0x93, 0x69, 0x99, 0x26, 0x01, 0x61, 0x90, 0x62, 0x7b, 0x81, 0x16, 0xc7,
  0x41, 0xa1, 0x6c, 0xa2, 0x72, 0x93, 0x9c, 0x95, 0x70, 0xe8, 0xb1, 0x61,
  0x70, 0xf6, 0x74, 0xe6, 0xdf, 0xb9, 0xb4, 0xdb, 0x50, 0xad, 0xf7, 0xb9,
  0x3f, 0x1e, 0x28, 0x44, 0x76, 0x0a, 0xf3, 0x81, 0xbb, 0x68, 0xbc, 0xa5,
  0x13, 0xef, 0x1a, 0x6a, 0x0d, 0x56, 0x9e, 0x57, 0x1b, 0xcd, 0x82, 0x10,
  0x8f, 0x01, 0xbf, 0x54, 0xf0, 0x5e, 0x52, 0xd3, 0xba, 0x6b, 0x65, 0x54,
  0x30, 0xb2, 0xbd, 0xcf, 0x37, 0x5e, 0xde, 0xa1, 0x5a, 0xe3, 0x89, 0xe3,
  0x07, 0xd7, 0x79, 0x4c, 0x6d, 0x44, 0x3a, 0xa7, 0x34, 0x73, 0x06, 0xf5,
  0x66, 0xee, 0xb5, 0xfe, 0xf3, 0x45, 0x61, 0x2f, 0x56, 0xd9, 0xd7, 0x34,
  0xcc, 0x30, 0x49, 0x4c, 0xa5, 0xad, 0x05, 0xd7, 0x3d, 0xe4, 0xab, 0xe4,
  0xb4, 0x4f, 0xc3, 0x60, 0xa3, 0xeb, 0x6d, 0xf5, 0xd8, 0x66, 0x32, 0x27,
  0x59, 0x91, 0xf6, 0xba, 0xc4, 0xef, 0xa3, 0x9f, 0x88, 0xe6, 0xd4, 0x86,
  0xe9, 0xc8, 0x11, 0x26, 0xab, 0xa6, 0x1e, 0xbe, 0xdf, 0x14, 0x8b, 0xfd,
  0x92, 0x9d, 0x37, 0x31, 0x6c, 0xab, 0x36, 0x53, 0xd0, 0xba, 0x4c, 0x0a,
  0x76, 0xc1, 0x12, 0x43, 0xeb, 0x5e, 0x9b, 0xc8, 0xf1, 0xe7, 0x20, 0xec,
  0xba, 0xf2, 0xb0, 0x4f, 0x5b, 0xba, 0xcc, 0x08, 0x0c, 0x79, 0x4f, 0xbd,
  0x1c, 0xad, 0xbd, 0x9b, 0x8e, 0x3a, 0x26, 0xd2, 0xcc, 0x90, 0xde, 0x46,
  0x2e, 0x4b, 0x18, 0xf5, 0x45, 0x49, 0x8b, 0xa1, 0x83, 0x11, 0x50, 0xbb,
  0x92, 0xc2, 0x90, 0x0d, 0xd6, 0x5f, 0x67, 0x8f, 0x01, 0x0a, 0xbd, 0xea,
  0xb1, 0x5f, 0xde, 0xf8, 0x39, 0x47, 0x5a, 0x03, 0x4a, 0xe0, 0x1a, 0x1b,
  0x07, 0x32, 0x34, 0x9a, 0x00, 0xb7, 0xf0, 0xac, 0x60, 0x2d, 0x37, 0x24,
  0xd0, 0x26, 0xdb, 0xe8, 0xd5, 0x3c, 0x36, 0xb9, 0xf2, 0xc6, 0xb4, 0x04,
  0x1c, 0xd5, 0xeb, 0xe4, 0xc0, 0x57, 0x4f, 0xe3, 0xe3, 0xbd, 0xfd, 0x0d,
  0xe1, 0x57, 0x96, 0x9e, 0x5e, 0x0b, 0x98, 0xa0, 0xd1, 0x6a, 0xa5, 0x37,
  0x3d, 0xef, 0xc4, 0xb8, 0x0e, 0xd9, 0x1d, 0x20, 0x25, 0xca, 0x23, 0x32,
  0x5e, 0x5b, 0xed, 0x9f, 0x51, 0x9b, 0x1c, 0xbc, 0x6c, 0x25, 0xbf, 0xe3,
  0x26, 0x20, 0xf4, 0x2b, 0x64, 0x0f, 0x26, 0xaa, 0x54, 0x56, 0xee, 0x32,
  0x6f, 0x3a, 0x02, 0x65, 0xa5, 0x4e, 0x50, 0xc1, 0x9d, 0x08, 0x4b, 0xe6,
  0x42, 0x10, 0x5b, 0x18, 0x05, 0x55, 0x93, 0xd0, 0x08, 0x9d, 0xcb, 0x6d,
  0xd6, 0x01, 0xfc, 0x2a, 0x13, 0x73, 0xb6, 0xaa, 0x3a, 0x0c, 0xcc, 0x5e,
  0x14, 0x59, 0x20, 0x70, 0x09, 0xb9, 0x66, 0xb3, 0xa8, 0x2f, 0x68, 0x4f,
  0xcf, 0x7b, 0x26, 0x12, 0xac, 0xc4, 0x09, 0xe6, 0x5f, 0x3d, 0x9a, 0xba,
  0x5e, 0xe7, 0x22, 0xe6, 0x26, 0x6c, 0xad, 0x0e, 0x99, 0x6c, 0x4c, 0x1e,
  0xfc, 0x62, 0x71, 0xd1, 0x6f, 0xd1, 0xca, 0x22, 0xd9, 0xdd, 0xba, 0xe1,
  0xf4, 0x34, 0x4e, 0x14, 0x43, 0x4a, 0x20, 0x53, 0x4f, 0xbc, 0xa7, 0xf5,
  0x30, 0x0d, 0xb1, 0x65, 0x2c, 0xc7, 0xc4, 0xdc, 0xb7, 0x7d, 0xbd, 0x7f,
  0x71, 0x69, 0xee, 0xf6, 0x5d, 0xd8, 0x3b, 0x47, 0x10, 0xd5, 0xa9, 0xc6,
  0x9c, 0xfc, 0xc3, 0x3f, 0xce, 0xa7, 0x2a, 0xd6, 0xb0, 0xef, 0x95, 0x6e,
  0xb9, 0x4d, 0x32, 0x3c, 0x5b, 0xf5, 0xae, 0x33, 0x9a, 0xd6, 0xc9, 0xe3,
  0x96, 0x99, 0xa6, 0xf5, 0xd2, 0x40, 0x8e, 0xbf, 0x43, 0x9a, 0x87, 0xc7,
  0xc1, 0x2c, 0x9a, 0x8c, 0x36, 0x58, 0x07, 0x3e, 0xbf, 0xf5, 0x8d, 0xf2,
  0x10, 0x69, 0x34, 0xe0, 0xaf, 0xe1, 0x1f, 0x40, 0x63, 0xe3, 0x5d, 0x87,
  0xf9, 0x04, 0x5f, 0x7a, 0xe0, 0x03, 0x19, 0xb0, 0x2a, 0x7b, 0x64, 0x26,
  0x0c, 0xb0, 0x1e, 0x12, 0x3d, 0x67, 0x5e, 0x3b, 0x19, 0x49, 0xca, 0xf9,
  0x82, 0x31, 0x4c, 0xa1, 0xe4, 0xe7, 0xab, 0x97, 0x3b, 0x4f, 0x62, 0x89,
  0x0a, 0x34, 0x73, 0x52, 0x43, 0x96, 0x5a, 0x67, 0xe2, 0xb0, 0x01, 0x39,
  0x3c, 0x1e, 0xd5, 0xee, 0xdd, 0xe7, 0xcb, 0x1e, 0x5d, 0xbc, 0xbb, 0xf0,
  0x30, 0x85, 0x99, 0xb9, 0x77, 0xe5, 0x8e, 0x3f, 0x0c, 0x55, 0x51, 0x0b,
  0xe9, 0x08, 0x8f, 0xe4, 0x54, 0x96, 0xfd, 0x31, 0x0e, 0x97, 0x45, 0xe0,
  0x23, 0xd8, 0xd2, 0x3d, 0x0b, 0x6a, 0x2a, 0xad, 0xef, 0xf9, 0xe0, 0xdb,
  0x3b, 0xe7, 0x46, 0x81, 0x0c, 0x20, 0x2f, 0x6b, 0x1a, 0x36, 0xdc, 0x30,
  0x96, 0x41, 0xcd, 0x4a, 0x2e, 0x85, 0xde, 0xbd, 0xf0, 0xd8, 0xb9, 0xcf,
  0x29, 0xac, 0x75, 0x03, 0xa4, 0x14, 0x59, 0xe9, 0xf9, 0xeb, 0xd8, 0x68,
  0xdc, 0x6f, 0x98, 0x4d, 0x39, 0x89, 0x99, 0xa6, 0x8e, 0x94, 0x88, 0xb8,
  0x09, 0xaa, 0xf4, 0x7a, 0xa5, 0xc0, 0xed, 0xce, 0xc8, 0xda, 0xbe, 0x5c,
  0x95, 0x86, 0xb2, 0xea, 0x00, 0xdf, 0x61, 0x49, 0x63, 0xac, 0xd5, 0x09,
  0x2b, 0x34, 0xec, 0xdd, 0x38, 0xb0, 0x6a, 0xd7, 0x41, 0xc9, 0xb8, 0xd9,
  0xc6, 0x26, 0xad, 0xac, 0x1f, 0x52, 0x81, 0xf2, 0x16, 0x5e, 0xd0, 0x07,
  0xe6, 0xb5, 0x75, 0x86, 0x59, 0x02, 0xbd, 0x4b, 0xc3, 0x48, 0x75, 0x22,
  0x4f, 0x90, 0x30, 0x2a, 0x1f, 0x6e, 0x0b, 0xca, 0xe7, 0x0c, 0xe5, 0x0d,
  0xaf, 0xdd, 0xd3, 0x3f, 0x1d, 0xb0, 0x92, 0xf5, 0xcb, 0xe7, 0x33, 0x1b,
  0xdf, 0x22, 0xd8, 0x2a, 0xf0, 0x0a, 0x5e, 0x0e, 0xba, 0x03, 0xf9, 0xc5,
  0x08, 0x51, 0xef, 0xcb, 0xc0, 0x1e, 0x81, 0x3b, 0x3b, 0x11, 0x33, 0xe2,
  0xfc, 0x45, 0xf0, 0x12, 0xdf, 0xbb, 0x50, 0xb1, 0xd0, 0x05, 0x59, 0xe2,
  0x50, 0x3d, 0x3a, 0x33, 0x28, 0x67, 0x52, 0x92, 0x5e, 0x50, 0x13, 0x07,
  0xfc, 0x3e, 0x9a, 0x4c, 0xed, 0x4b, 0x0e, 0x8d, 0xb6, 0xc7, 0xdc, 0xfd,
  0x21, 0x2d, 0x1c, 0xae, 0xc0, 0xd6, 0x69, 0x2d, 0xf1, 0xa7, 0x3a, 0xe4,
  0xc5, 0x5c, 0x64, 0xa9, 0xac, 0x22, 0x3a, 0xd1, 0x56, 0xb3, 0x61, 0xce,
  0x1e, 0x4d, 0x30, 0xcc, 0xfc, 0x1d, 0xf3, 0x55, 0xd4, 0xb1, 0xb4, 0x5c,
  0x03, 0x8c, 0xdf, 0x09, 0x9a, 0x2e, 0xe9, 0x47, 0x44, 0x03, 0x4e, 0x05,
  0xc8, 0xb1, 0x66, 0xca, 0x46, 0x44, 0x2b, 0x67, 0xa7, 0xaa, 0x60, 0x3b,
  0x09, 0x34, 0x1c, 0xc4, 0x68, 0x5b, 0xd6, 0x74, 0x70, 0xc6, 0xd1, 0x26,
  0x5c, 0x5c, 0xc9, 0xcd, 0x49, 0xc2, 0x03, 0xc2, 0xf6, 0x2e, 0x32, 0x36,
  0x35, 0xfe, 0x2d, 0xa7, 0xbf, 0x6e, 0x1a, 0x17, 0x2e, 0xb5, 0x38, 0x9d,
  0x3f, 0xbd, 0x1a, 0x56, 0x50, 0xad, 0x60, 0xbd, 0x37, 0x45, 0x2f, 0xc9,
  0xa1, 0x4c, 0xff, 0xe7, 0x74, 0xb8, 0x10, 0x07, 0xfb, 0x34, 0xfe, 0xb5,
  0x4d, 0xd5, 0x6b, 0xfc, 0x33, 0xe7, 0x5a, 0x71, 0xe3, 0x9d, 0xac, 0x1d,
  0x2d, 0xf5, 0x4f, 0x00, 0xd0, 0x98, 0xdf, 0x97, 0xb8, 0xb6, 0x6b, 0x59,
  0xc1, 0xcb, 0x31, 0xf1, 0x21, 0xa4, 0x55, 0x74, 0xf2, 0xaf, 0xb3, 0xb8,
  0xd7, 0x46, 0xa5, 0x04, 0xd6, 0xb6, 0x5f, 0x1e, 0x30, 0x53, 0x02, 0xc8,
  0xd6, 0x5a, 0xcc, 0x42, 0x2d, 0xc3, 0xb6, 0xf7, 0xce, 0x12, 0xb1, 0xb8,
  0x3a, 0xdb, 0xf3, 0x4e, 0x4c, 0xed, 0x4e, 0x04, 0x53, 0x5d, 0x06, 0x52,
  0x6e, 0x31, 0xa9, 0xc8, 0xfe, 0x58, 0x1f, 0xd3, 0xf4, 0x66, 0xba, 0x32,
  0x81, 0xe3, 0xd4, 0xe0, 0x5c, 0xea, 0x9a, 0x32, 0x40, 0x29, 0x2b, 0xb1,
  0xf1, 0x46, 0xbd, 0x43, 0xcd, 0x31, 0x50, 0xe3, 0xa9, 0xf2, 0x38, 0x13,
  0xac, 0xd9, 0xf7, 0xaf, 0x16, 0x25, 0x60, 0xd4, 0xf8, 0xc7, 0xd9, 0x42,
  0x43, 0xf3, 0x60, 0x4f, 0x19, 0xfe, 0x1b, 0xb2, 0x8d, 0x0a, 0x90, 0xb0,
  0x1f, 0x5b, 0xb8, 0x38, 0x21, 0x97, 0x9d, 0x94, 0xcb, 0xcf, 0xd7, 0x15,
  0xa9, 0x3e, 0x10, 0xf4, 0x34, 0xa3, 0x6e, 0xf0, 0x37, 0xc3, 0x4b, 0x5d,
  0xa2, 0xe7, 0x66, 0xf2, 0x5f, 0x13, 0xd4, 0x69, 0xcb, 0x2e, 0xc8, 0x5f,
  0xb4, 0xe3, 0xae, 0xc3, 0xb0, 0xfa, 0xdd, 0xb3, 0xbb, 0x51, 0x66, 0x4d,
  0xb7, 0x1d, 0xd3, 0x3b, 0xde, 0x43, 0xcc, 0x05, 0x50, 0xaf, 0xb7, 0x17,
  0x5b, 0x60, 0xbc, 0x60, 0x13, 0xc6, 0x08, 0xe1, 0xa6, 0x04, 0xe1, 0x40,
  0xf9, 0x1d, 0xcf, 0x3f, 0xf1, 0x61, 0x42, 0xff, 0x21, 0xb9, 0x3a, 0x51,
  0xc4, 0xd5, 0x1d, 0xb2, 0x40, 0x0c, 0xc8, 0x5e, 0xa3, 0xae, 0x4e, 0xac,
  0xf3, 0x6f, 0x4d, 0xa0, 0xf6, 0x5e, 0x2b, 0x20, 0x68, 0xcc, 0x66, 0x4a,
  0x17, 0x9c, 0x4c, 0xa6, 0x36, 0x0b, 0xf4, 0x6b, 0x73, 0x73, 0xfa, 0xf3,
  0xc4, 0x55, 0xdc, 0x6c, 0xcc, 0x97, 0x1a, 0x5e, 0xab, 0x62, 0x4d, 0x48,
  0x8d, 0xc7, 0x29, 0xac, 0x2c, 0xbb, 0x4d, 0xff, 0xb4, 0x24, 0x61, 0x40,
  0xcc, 0xeb, 0xc1, 0xf5, 0xf3, 0xc4, 0x2d, 0x93, 0x05, 0x33, 0x0a, 0x20,
  0xb3, 0xcc, 0x21, 0x5f, 0x43, 0x67, 0x66, 0xc7, 0xbc, 0x5c, 0x9f, 0x36,
  0x78, 0x97, 0x19, 0x62, 0x0f, 0xb7, 0x22, 0x01, 0x2d, 0x1c, 0x54, 0xa1,
  0x35, 0xf4, 0x16, 0xb4, 0x34, 0xde, 0x9e, 0xd3, 0x1e, 0x01, 0x4c, 0xca,
  0x82, 0xcd, 0x5c, 0x35, 0x16, 0x8b, 0x01, 0xa4, 0x79, 0x33, 0x34, 0xc1,
