unsigned char modelo[] = {
  0x20, 0x00, 0x00, 0x00, 0x54, 0x46, 0x4c, 0x33, 0x00, 0x00, 0x00, 0x00,
  0x14, 0x00, 0x20, 0x00, 0x1c, 0x00, 0x18, 0x00, 0x14, 0x00, 0x10, 0x00,
  0x0c, 0x00, 0x00, 0x00, 0x08, 0x00, 0x04, 0x00, 0x14, 0x00, 0x00, 0x00,
  0x1c, 0x00, 0x00, 0x00, 0x8c, 0x00, 0x00, 0x00, 0x0c, 0x01, 0x00, 0x00,
  0x80, 0x5b, 0x00, 0x00, 0x90, 0x5b, 0x00, 0x00, 0x10, 0x7b, 0x00, 0x00,
  0x03, 0x00, 0x00, 0x00, 0x01, 0x00, 0x00, 0x00, 0x04, 0x00, 0x00, 0x00,
  0xfa, 0xa0, 0xff, 0xff, 0x0c, 0x00, 0x00, 0x00, 0x1c, 0x00, 0x00, 0x00,
  0x3c, 0x00, 0x00, 0x00, 0x0f, 0x00, 0x00, 0x00, 0x73, 0x65, 0x72, 0x76,
  0x69, 0x6e, 0x67, 0x5f, 0x64, 0x65, 0x66, 0x61, 0x75, 0x6c, 0x74, 0x00,
  0x01, 0x00, 0x00, 0x00, 0x04, 0x00, 0x00, 0x00, 0x68, 0xff, 0xff, 0xff,
  0x23, 0x00, 0x00, 0x00, 0x04, 0x00, 0x00, 0x00, 0x08, 0x00, 0x00, 0x00,
  0x6f, 0x75, 0x74, 0x70, 0x75, 0x74, 0x5f, 0x30, 0x00, 0x00, 0x00, 0x00,
  0x01, 0x00, 0x00, 0x00, 0x04, 0x00, 0x00, 0x00, 0x02, 0xa1, 0xff, 0xff,
  0x04, 0x00, 0x00, 0x00, 0x0f, 0x00, 0x00, 0x00, 0x6b, 0x65, 0x72, 0x61,
  0x73, 0x5f, 0x74, 0x65, 0x6e, 0x73, 0x6f, 0x72, 0x5f, 0x32, 0x30, 0x00,
  0x03, 0x00, 0x00, 0x00, 0x5c, 0x00, 0x00, 0x00, 0x2c, 0x00, 0x00, 0x00,
  0x04, 0x00, 0x00, 0x00, 0xb8, 0xff, 0xff, 0xff, 0x27, 0x00, 0x00, 0x00,
  0x04, 0x00, 0x00, 0x00, 0x13, 0x00, 0x00, 0x00, 0x43, 0x4f, 0x4e, 0x56,
  0x45, 0x52, 0x53, 0x49, 0x4f, 0x4e, 0x5f, 0x4d, 0x45, 0x54, 0x41, 0x44,
  0x41, 0x54, 0x41, 0x00, 0xdc, 0xff, 0xff, 0xff, 0x26, 0x00, 0x00, 0x00,
  0x04, 0x00, 0x00, 0x00, 0x13, 0x00, 0x00, 0x00, 0x6d, 0x69, 0x6e, 0x5f,
  0x72, 0x75, 0x6e, 0x74, 0x69, 0x6d, 0x65, 0x5f, 0x76, 0x65, 0x72, 0x73,
  0x69, 0x6f, 0x6e, 0x00, 0x08, 0x00, 0x0c, 0x00, 0x08, 0x00, 0x04, 0x00,
  0x08, 0x00, 0x00, 0x00, 0x25, 0x00, 0x00, 0x00, 0x04, 0x00, 0x00, 0x00,
  0x13, 0x00, 0x00, 0x00, 0x6d, 0x69, 0x6e, 0x5f, 0x72, 0x75, 0x6e, 0x74,
  0x69, 0x6d, 0x65, 0x5f, 0x76, 0x65, 0x72, 0x73, 0x69, 0x6f, 0x6e, 0x00,
  0x28, 0x00, 0x00, 0x00, 0x70, 0x5a, 0x00, 0x00, 0x68, 0x5a, 0x00, 0x00,
  0x54, 0x5a, 0x00, 0x00, 0x40, 0x5a, 0x00, 0x00, 0x2c, 0x5a, 0x00, 0x00,
  0x24, 0x5a, 0x00, 0x00, 0x10, 0x5a, 0x00, 0x00, 0xf4, 0x59, 0x00, 0x00,
  0xd8, 0x59, 0x00, 0x00, 0xbc, 0x59, 0x00, 0x00, 0xa4, 0x59, 0x00, 0x00,
  0x84, 0x59, 0x00, 0x00, 0x74, 0x1b, 0x00, 0x00, 0x64, 0x1a, 0x00, 0x00,
  0x54, 0x02, 0x00, 0x00, 0xc4, 0x01, 0x00, 0x00, 0x54, 0x01, 0x00, 0x00,
  0x4c, 0x01, 0x00, 0x00, 0x44, 0x01, 0x00, 0x00, 0x3c, 0x01, 0x00, 0x00,
  0x34, 0x01, 0x00, 0x00, 0x2c, 0x01, 0x00, 0x00, 0x24, 0x01, 0x00, 0x00,
  0x1c, 0x01, 0x00, 0x00, 0x14, 0x01, 0x00, 0x00, 0x0c, 0x01, 0x00, 0x00,
  0x04, 0x01, 0x00, 0x00, 0xfc, 0x00, 0x00, 0x00, 0xf4, 0x00, 0x00, 0x00,
  0xec, 0x00, 0x00, 0x00, 0xe4, 0x00, 0x00, 0x00, 0xdc, 0x00, 0x00, 0x00,
  0xd4, 0x00, 0x00, 0x00, 0xcc, 0x00, 0x00, 0x00, 0xc4, 0x00, 0x00, 0x00,
  0xbc, 0x00, 0x00, 0x00, 0xb4, 0x00, 0x00, 0x00, 0x94, 0x00, 0x00, 0x00,
  0x74, 0x00, 0x00, 0x00, 0x04, 0x00, 0x00, 0x00, 0x46, 0xa2, 0xff, 0xff,
  0x04, 0x00, 0x00, 0x00, 0x60, 0x00, 0x00, 0x00, 0x0c, 0x00, 0x00, 0x00,
  0x08, 0x00, 0x0e, 0x00, 0x08, 0x00, 0x04, 0x00, 0x08, 0x00, 0x00, 0x00,
  0x10, 0x00, 0x00, 0x00, 0x28, 0x00, 0x00, 0x00, 0x00, 0x00, 0x06, 0x00,
  0x08, 0x00, 0x04, 0x00, 0x06, 0x00, 0x00, 0x00, 0x04, 0x00, 0x00, 0x00,
  0x01, 0x00, 0x00, 0x00, 0xeb, 0x03, 0x00, 0x00, 0x0c, 0x00, 0x18, 0x00,
  0x14, 0x00, 0x10, 0x00, 0x0c, 0x00, 0x04, 0x00, 0x0c, 0x00, 0x00, 0x00,
  0x8b, 0x28, 0xc3, 0x1b, 0x77, 0xf7, 0x95, 0xd3, 0x02, 0x00, 0x00, 0x00,
  0x02, 0x00, 0x00, 0x00, 0x04, 0x00, 0x00, 0x00, 0x06, 0x00, 0x00, 0x00,
  0x32, 0x2e, 0x31, 0x39, 0x2e, 0x30, 0x00, 0x00, 0xb2, 0xa2, 0xff, 0xff,
  0x04, 0x00, 0x00, 0x00, 0x10, 0x00, 0x00, 0x00, 0x00, 0x00, 0x00, 0x00,
  0x00, 0x00, 0x00, 0x00, 0x00, 0x00, 0x00, 0x00, 0x00, 0x00, 0x00, 0x00,
  0xce, 0xa2, 0xff, 0xff, 0x04, 0x00, 0x00, 0x00, 0x10, 0x00, 0x00, 0x00,
  0x31, 0x2e, 0x31, 0x34, 0x2e, 0x30, 0x00, 0x00, 0x00, 0x00, 0x00, 0x00,
  0x00, 0x00, 0x00, 0x00, 0x74, 0x87, 0xff, 0xff, 0x78, 0x87, 0xff, 0xff,
  0x7c, 0x87, 0xff, 0xff, 0x80, 0x87, 0xff, 0xff, 0x84, 0x87, 0xff, 0xff,
  0x88, 0x87, 0xff, 0xff, 0x8c, 0x87, 0xff, 0xff, 0x90, 0x87, 0xff, 0xff,
  0x94, 0x87, 0xff, 0xff, 0x98, 0x87, 0xff, 0xff, 0x9c, 0x87, 0xff, 0xff,
  0xa0, 0x87, 0xff, 0xff, 0xa4, 0x87, 0xff, 0xff, 0xa8, 0x87, 0xff, 0xff,
  0xac, 0x87, 0xff, 0xff, 0xb0, 0x87, 0xff, 0xff, 0xb4, 0x87, 0xff, 0xff,
  0xb8, 0x87, 0xff, 0xff, 0xbc, 0x87, 0xff, 0xff, 0xc0, 0x87, 0xff, 0xff,
  0x3a, 0xa3, 0xff, 0xff, 0x04, 0x00, 0x00, 0x00, 0x60, 0x00, 0x00, 0x00,
  0x6f, 0xe2, 0x7f, 0x60, 0x44, 0x81, 0x0b, 0x30, 0x7f, 0xea, 0x81, 0x6d,
  0x50, 0x81, 0x5f, 0xe1, 0x7f, 0x7c, 0x86, 0xbd, 0x81, 0x26, 0x81, 0xb8,
  0x16, 0x81, 0x90, 0x3d, 0xdc, 0x81, 0x2e, 0x41, 0x81, 0x86, 0x81, 0xa6,
  0x81, 0x06, 0x65, 0xb2, 0x81, 0xef, 0x0a, 0xa4, 0x7f, 0x81, 0xba, 0x7d,
  0x7f, 0xa7, 0x82, 0x81, 0xc3, 0x6c, 0x81, 0xbb, 0x1f, 0x7f, 0xf3, 0xde,
  0xa0, 0x81, 0x19, 0x17, 0x7f, 0xdb, 0x81, 0x0d, 0x51, 0x7f, 0x06, 0x1a,
  0x7f, 0x73, 0x92, 0x7f, 0xb3, 0x8f, 0x7f, 0xef, 0xeb, 0x94, 0x63, 0x7f,
  0x81, 0xce, 0x8f, 0xb1, 0x94, 0x7f, 0x55, 0xf0, 0x81, 0xbb, 0x81, 0x7b,
  0xa6, 0xa3, 0xff, 0xff, 0x04, 0x00, 0x00, 0x00, 0x80, 0x00, 0x00, 0x00,
  0x3d, 0xff, 0xff, 0xff, 0xc0, 0xff, 0xff, 0xff, 0xae, 0xff, 0xff, 0xff,
  0xf9, 0xff, 0xff, 0xff, 0xc7, 0xff, 0xff, 0xff, 0x77, 0xff, 0xff, 0xff,
  0x00, 0x00, 0x00, 0x00, 0x1b, 0x00, 0x00, 0x00, 0x0b, 0x00, 0x00, 0x00,
  0x06, 0x00, 0x00, 0x00, 0x5d, 0x00, 0x00, 0x00, 0x00, 0x00, 0x00, 0x00,
  0xe4, 0xff, 0xff, 0xff, 0x00, 0x00, 0x00, 0x00, 0xfd, 0xff, 0xff, 0xff,
  0x09, 0x00, 0x00, 0x00, 0x05, 0x00, 0x00, 0x00, 0xde, 0xff, 0xff, 0xff,
  0xd5, 0xff, 0xff, 0xff, 0x9b, 0xff, 0xff, 0xff, 0x05, 0x00, 0x00, 0x00,
  0x68, 0xff, 0xff, 0xff, 0xf0, 0xff, 0xff, 0xff, 0xc1, 0xff, 0xff, 0xff,
  0x93, 0xff, 0xff, 0xff, 0x00, 0x00, 0x00, 0x00, 0xc4, 0xff, 0xff, 0xff,
  0x9a, 0xff, 0xff, 0xff, 0x00, 0x00, 0x00, 0x00, 0xe5, 0xff, 0xff, 0xff,
  0xe7, 0xff, 0xff, 0xff, 0x10, 0x00, 0x00, 0x00, 0x32, 0xa4, 0xff, 0xff,
  0x04, 0x00, 0x00, 0x00, 0x00, 0x18, 0x00, 0x00, 0xc9, 0x00, 0x9a, 0x18,
  0x5a, 0xe5, 0xab, 0x3e, 0xc8, 0x6b, 0xac, 0x47, 0x5c, 0x6f, 0x6d, 0x50,
  0x4d, 0x4e, 0xfc, 0x3d, 0x38, 0xab, 0x28, 0x81, 0x8d, 0x0f, 0xa8, 0x58,
  0x3b, 0x07, 0xfc, 0xc4, 0xd5, 0x47, 0x58, 0xc8, 0x38, 0x9b, 0x8b, 0xda,
  0xb3, 0x26, 0x52, 0xb0, 0xef, 0x56, 0xe8, 0x18, 0x0e, 0x79, 0xee, 0xe4,
  0xda, 0xc2, 0xe6, 0xbf, 0x2d, 0xc3, 0xfe, 0xc2, 0x97, 0x41, 0x1a, 0x53,
  0x2d, 0x38, 0x46, 0xc8, 0x50, 0x08, 0xcb, 0x0b, 0x5b, 0xa5, 0xc3, 0x8a,
  0xdf, 0x4b, 0x25, 0xf8, 0xf4, 0x88, 0x12, 0xba, 0xcf, 0xcf, 0xb1, 0x74,
  0x17, 0xb6, 0x9c, 0x1e, 0xa6, 0xf2, 0x43, 0xff, 0xcf, 0x65, 0xe9, 0x70,
  0x2f, 0xa4, 0x1d, 0x17, 0xf9, 0xe2, 0xbd, 0x69, 0x4d, 0x27, 0xa0, 0x23,
  0xdd, 0xf8, 0x3a, 0x8e, 0xfe, 0x05, 0xba, 0xf9, 0x05, 0x9c, 0xca, 0x42,
  0x3b, 0x1c, 0x8f, 0x71, 0x62, 0x46, 0x92, 0x99, 0xb4, 0x89, 0xad, 0xfa,
  0x40, 0x91, 0xce, 0x02, 0x60, 0x3f, 0xc0, 0x4c, 0xac, 0x36, 0x81, 0x02,
  0xd4, 0x36, 0xbe, 0x10, 0x8a, 0xa1, 0xd8, 0xae, 0xe4, 0x97, 0x25, 0xe5,
  0x4f, 0xe3, 0xcd, 0x43, 0xed, 0x89, 0x0d, 0x63, 0x9c, 0xd9, 0x26, 0xaa,
  0x22, 0x03, 0x1e, 0x21, 0x1c, 0xb9, 0x9c, 0xed, 0x88, 0xa0, 0xe8, 0x2b,
  0xbb, 0xd8, 0x83, 0x98, 0x7a, 0xc2, 0x4c, 0xed, 0x15, 0x90, 0x2f, 0xf8,
  0xc6, 0x38, 0x22, 0xe9, 0x1c, 0xfc, 0xfd, 0xb4, 0x97, 0x68, 0xbe, 0xd7,
  0xc5, 0xcf, 0x1b, 0x62, 0x1e, 0x81, 0xd3, 0x08, 0x4f, 0x2b, 0x9b, 0xc4,
  0x30, 0x28, 0x4d, 0xeb, 0xc9, 0xc5, 0x39, 0x23, 0xeb, 0xf5, 0x69, 0x00,
  0x64, 0xc5, 0xe6, 0x43, 0x7d, 0x4c, 0xb0, 0xf5, 0x12, 0xb2, 0xfe, 0x8b,
  0x9e, 0xb7, 0x5c, 0xe6, 0xb5, 0x0b, 0xad, 0x55, 0x71, 0x66, 0x02, 0xee,
  0xaf, 0xc6, 0x36, 0xe2, 0x0f, 0x51, 0x2a, 0xf7, 0xec, 0xc0, 0xcb, 0xd6,
  0x4f, 0xc9, 0x91, 0x39, 0x92, 0xa2, 0x6a, 0x21, 0xb9, 0xf2, 0x0a, 0x4c,
  0x9e, 0x5f, 0x12, 0x68, 0xc0, 0xb1, 0x81, 0x0f, 0xda, 0xa8, 0x25, 0x61,
  0xd7, 0xa5, 0xec, 0x21, 0xdb, 0x72, 0x9e, 0x27, 0xc1, 0x21, 0xc3, 0xe5,
  0x2b, 0x1a, 0xdc, 0xb1, 0xcf, 0xff, 0xca, 0x00, 0x57, 0x94, 0x37, 0x84,
  0x40, 0xe4, 0x13, 0x85, 0xef, 0xb9, 0x09, 0x43, 0xb1, 0x9f, 0x91, 0xfb,
  0x40, 0xd5, 0x0f, 0xc0, 0x43, 0xff, 0xcf, 0x43, 0x9e, 0x6f, 0x6d, 0xd4,
  0x7f, 0x59, 0xbc, 0x0d, 0x8b, 0xea, 0x9e, 0xcb, 0xce, 0x98, 0xf9, 0x57,
  0x05, 0x51, 0xe3, 0xdb, 0xd9, 0xa4, 0xad, 0xf3, 0x4a, 0x91, 0xb2, 0x90,
  0x08, 0xcb, 0x99, 0x66, 0x98, 0xa0, 0xb9, 0x56, 0x44, 0x50, 0x9a, 0x4d,
  0xb7, 0xc8, 0x1c, 0xa6, 0xb1, 0xcb, 0x98, 0xc3, 0xf0, 0x46, 0x1d, 0xaf,
  0xa5, 0x4d, 0x3c, 0xb2, 0x5a, 0xae, 0xd0, 0xb6, 0x0b, 0xfa, 0xaa, 0x48,
  0xd3, 0x57, 0x66, 0x5f, 0x99, 0xbb, 0x39, 0x07, 0x95, 0xb3, 0xbc, 0x90,
  0x98, 0x42, 0xca, 0xae, 0x9f, 0xe2, 0xf8, 0xe9, 0x0e, 0x06, 0x31, 0x49,
  0x51, 0x68, 0x68, 0x03, 0xf4, 0x01, 0x34, 0x9a, 0x10, 0x35, 0x97, 0x09,
  0x5d, 0x90, 0x2f, 0xd6, 0xcd, 0xa2, 0x90, 0x90, 0x0e, 0x03, 0x3f, 0xd6,
  0xf6, 0x3b, 0xaf, 0x21, 0x45, 0xf9, 0xda, 0x09, 0xf5, 0x18, 0x8f, 0xca,
  0xbb, 0x5c, 0x40, 0x4f, 0xb4, 0x44, 0x6b, 0xb1, 0x7f, 0x3d, 0xeb, 0x49,
  0x0b, 0x2c, 0xd5, 0xa9, 0xb8, 0xdc, 0x30, 0x70, 0xd8, 0xe5, 0xbf, 0xa4,
  0xd7, 0x53, 0x59, 0xea, 0x57, 0x7f, 0x5b, 0x2c, 0x9e, 0x59, 0xec, 0xe0,
  0xe3, 0xa7, 0xc8, 0x24, 0xa8, 0xd6, 0x31, 0x52, 0x16, 0x52, 0xe2, 0xbd,
  0x4b, 0x4f, 0xcf, 0x59, 0xd0, 0x5b, 0x0f, 0xe4, 0x55, 0x3f, 0x5f, 0xb3,
  0xd2, 0xce, 0x3f, 0x05, 0xaa, 0xb3, 0xc6, 0xd7, 0x5b, 0xf9, 0x3e, 0xbf,
  0xb4, 0xd3, 0x38, 0xf7, 0xcc, 0xbe, 0xdd, 0xc0, 0x1b, 0x19, 0x5e, 0xa2,
  0x27, 0xdf, 0x21, 0x0a, 0x9a, 0xb8, 0x22, 0x56, 0xb0, 0xeb, 0x91, 0x28,
  0xd2, 0xf9, 0xbb, 0xc6, 0xde, 0xd9, 0x45, 0xaf, 0x9f, 0x0b, 0x4b, 0x2f,
  0x99, 0x1c, 0xa4, 0xec, 0xb3, 0xc4, 0x12, 0x4d, 0xe6, 0x1c, 0x4c, 0x50,
  0xd6, 0xc3, 0x41, 0x88, 0xfa, 0xb6, 0x08, 0xf8, 0xa8, 0xe9, 0x51, 0x00,
  0xfd, 0x56, 0x09, 0x14, 0xf9, 0x5c, 0x0b, 0x1b, 0x22, 0x4a, 0xb5, 0x3e,
  0x50, 0xa4, 0x53, 0xc2, 0xbb, 0x07, 0x08, 0xef, 0xc5, 0xec, 0xeb, 0x81,
  0xd6, 0x8c, 0xbb, 0x47, 0x0e, 0x1f, 0x2c, 0x90, 0xd2, 0x48, 0x20, 0x42,
  0x2b, 0xc4, 0x49, 0x3c, 0x3b, 0x3a, 0xdf, 0x23, 0xe1, 0xc1, 0x29, 0x93,
  0xd2, 0x11, 0x64, 0xfe, 0xd2, 0x2a, 0x19, 0x25, 0xa9, 0x02, 0xa8, 0x65,
  0xce, 0xd5, 0xf7, 0x9a, 0xc2, 0x00, 0xa4, 0x2e, 0x39, 0xab, 0xc0, 0x41,
  0xf0, 0xf9, 0xc4, 0x59, 0x61, 0x41, 0x3e, 0x9f, 0x51, 0xa0, 0x0e, 0xa2,
  0x99, 0x89, 0xdf, 0x98, 0x2c, 0xb5, 0xc1, 0xfa, 0x92, 0x01, 0x61, 0xe3,
  0xc5, 0xf5, 0xea, 0x5b, 0xa6, 0xa1, 0xa4, 0x4f, 0x20, 0xc2, 0x62, 0xda,
  0x99, 0x3f, 0x89, 0x52, 0x9f, 0x54, 0x9f, 0xaa, 0x52, 0xac, 0xa7, 0x54,
  0xe0, 0x14, 0xab, 0x90, 0x1e, 0x89, 0xc7, 0xd4, 0xca, 0x50, 0x09, 0x81,
  0xff, 0xa5, 0xbc, 0xb6, 0x53, 0x58, 0x9f, 0x5a, 0x51, 0xf3, 0x57, 0x59,
  0x3b, 0x8e, 0xc3, 0xcc, 0x17, 0x87, 0x5b, 0x11, 0x5a, 0xf5, 0x63, 0x00,
  0x9f, 0x1b, 0x1e, 0x39, 0x1e, 0x23, 0x27, 0x5c, 0x9e, 0x9d, 0xe7, 0xdc,
  0xa4, 0x0a, 0xca, 0x92, 0x37, 0x42, 0x07, 0x33, 0x20, 0xa4, 0x16, 0x1d,
  0x8d, 0x1f, 0x17, 0x0d, 0x3c, 0x96, 0x06, 0xa3, 0xfd, 0xa8, 0xfc, 0x5e,
  0x0f, 0xfa, 0xe8, 0xf8, 0x0b, 0xe4, 0x65, 0xb4, 0x4b, 0xac, 0xa0, 0x3d,
  0x5f, 0x2c, 0x24, 0xf5, 0xb1, 0xfc, 0x05, 0xb1, 0x2e, 0xcb, 0x58, 0x73,
  0x52, 0x45, 0x0d, 0x64, 0xa3, 0x2f, 0x95, 0xa9, 0x18, 0xd8, 0x63, 0x5b,
  0xe8, 0xa0, 0xf5, 0x55, 0x0c, 0x56, 0xf7, 0x0c, 0x2e, 0x79, 0xb3, 0xe3,
  0x07, 0xb1, 0xde, 0x02, 0xf6, 0xfb, 0x3a, 0xe2, 0x6d, 0x23, 0x81, 0x1c,
  0xa9, 0x8c, 0xfc, 0xe6, 0x62, 0x6b, 0xf5, 0x83, 0x51, 0xbd, 0x44, 0x27,
  0xbf, 0xaf, 0xcd, 0xc0, 0x2b, 0x9d, 0x93, 0xf6, 0x3f, 0x0a, 0x41, 0x59,
  0xa0, 0xf6, 0x17, 0x96, 0xb1, 0x05, 0x0a, 0xb8, 0x9a, 0xbc, 0xf0, 0x28,
  0x62, 0xe2, 0xc9, 0x00, 0xf1, 0x58, 0x1a, 0xfe, 0x21, 0xd2, 0x4d, 0x31,
  0x1c, 0x43, 0x13, 0xef, 0x30, 0xc7, 0xc4, 0xe5, 0xe5, 0xb5, 0xa7, 0x07,
  0x95, 0x09, 0xeb, 0x21, 0x03, 0xe8, 0x81, 0xd9, 0xb4, 0x18, 0xbb, 0xd6,
  0xe8, 0x9f, 0xa4, 0x35, 0xe2, 0x6d, 0xaa, 0x11, 0x3d, 0xea, 0xba, 0xd0,
  0x8d, 0x98, 0xd3, 0x1a, 0xcf, 0x3c, 0x9e, 0xa7, 0xc9, 0x9f, 0xcd, 0x15,
  0xe5, 0xb6, 0x3b, 0x47, 0xf4, 0x1c, 0x22, 0x3a, 0x24, 0x88, 0x1f, 0x9d,
  0x1e, 0xe7, 0x41, 0xcc, 0x69, 0x41, 0xb4, 0xbb, 0x33, 0xc1, 0x32, 0xad,
  0xad, 0x52, 0x56, 0x0f, 0x04, 0xa0, 0x52, 0x5f, 0xd4, 0x23, 0x3d, 0x91,
  0x00, 0xbc, 0x47, 0x1c, 0x07, 0xca, 0x98, 0x28, 0xf7, 0x5f, 0xe5, 0xe8,
  0x0d, 0xf8, 0xa4, 0x81, 0x59, 0xc7, 0xbc, 0x50, 0x5f, 0xff, 0x2b, 0xcf,
  0xed, 0xf3, 0xe2, 0x63, 0xc7, 0x3e, 0x40, 0xb1, 0x1c, 0x02, 0x4c, 0x48,
  0xcd, 0xbc, 0xa6, 0x13, 0x2d, 0x31, 0xe5, 0xf9, 0x27, 0xc1, 0x4a, 0x0d,
  0x29, 0x4e, 0xad, 0x3e, 0x3b, 0xaf, 0x0e, 0x29, 0x48, 0xd2, 0x06, 0xff,
  0xc3, 0x22, 0xaa, 0xa3, 0x32, 0xa4, 0xb6, 0xc6, 0xd1, 0x5f, 0xf5, 0x43,
  0xa8, 0xc6, 0xe2, 0x54, 0x50, 0xb4, 0xc1, 0x4a, 0xd1, 0x0a, 0xe7, 0x32,
  0xf3, 0x11, 0xc5, 0x4f, 0x5b, 0x26, 0x2c, 0xd2, 0xe6, 0x0f, 0x23, 0xf1,
  0xe0, 0x8f, 0x9a, 0xc5, 0xfd, 0x4e, 0xa8, 0x4a, 0x0e, 0xad, 0xf3, 0x30,
  0x51, 0x11, 0xc7, 0x8e, 0x4a, 0x29, 0xd2, 0xbe, 0xd3, 0x01, 0xfb, 0xd9,
  0xd7, 0x8e, 0xa8, 0xca, 0xfc, 0xfe, 0xba, 0xc0, 0x81, 0x39, 0x2f, 0x12,
  0xe5, 0x44, 0x3a, 0x33, 0x43, 0x23, 0x3c, 0x16, 0xc8, 0x3b, 0xd3, 0xfc,
  0x0a, 0xed, 0xf3, 0xad, 0xef, 0x1c, 0xab, 0xb4, 0xf7, 0x06, 0x14, 0x2e,
  0x4c, 0x30, 0xfe, 0xc8, 0x0d, 0xb3, 0x1a, 0xdc, 0xee, 0xf1, 0xa7, 0xe8,
  0xe8, 0xd9, 0x11, 0xdc, 0xc9, 0xab, 0xa4, 0xec, 0x15, 0x69, 0x86, 0x0e,
  0x68, 0x8c, 0xac, 0xd2, 0xda, 0x00, 0x50, 0x09, 0x20, 0xab, 0x02, 0x5b,
  0x6c, 0xd8, 0x11, 0xac, 0x98, 0x68, 0xe4, 0x44, 0xd8, 0xb8, 0x49, 0x9d,
  0x7a, 0x0a, 0x23, 0xb9, 0x15, 0x42, 0xf2, 0xdb, 0x35, 0x04, 0x1e, 0xe1,
  0xf8, 0x17, 0xfd, 0xc1, 0xba, 0xee, 0xd0, 0x90, 0xe4, 0x81, 0x68, 0x33,
  0x49, 0xc7, 0xd3, 0x93, 0xce, 0xbd, 0xc5, 0x17, 0x37, 0x0c, 0x5b, 0xfe,
  0xa3, 0xf1, 0x47, 0x22, 0x19, 0x9f, 0x73, 0x32, 0x44, 0x2f, 0xbd, 0xaa,
  0xa6, 0xc4, 0xb6, 0x06, 0xea, 0xee, 0xac, 0xb6, 0x08, 0xca, 0x69, 0xc5,
  0xe5, 0x37, 0x2f, 0xd9, 0x03, 0x53, 0x08, 0x5e, 0x68, 0xbd, 0x4e, 0x2f,
  0x92, 0xc2, 0xb3, 0xa7, 0xbe, 0x9e, 0xe2, 0x19, 0x21, 0x31, 0x17, 0x35,
  0x1c, 0x8d, 0x47, 0x6a, 0x35, 0xa1, 0xdc, 0xf4, 0xf5, 0xe2, 0x08, 0xe2,
  0x9d, 0xf0, 0xec, 0x90, 0xc4, 0x23, 0xe7, 0x3c, 0xa8, 0xd3, 0xe6, 0x7c,
  0x51, 0x27, 0x04, 0x6c, 0xd7, 0x43, 0xfc, 0x56, 0x38, 0xa1, 0x05, 0x97,
  0x2b, 0x46, 0x19, 0x1c, 0xf3, 0x54, 0x9d, 0x52, 0x95, 0xf6, 0x42, 0x1f,
  0xb7, 0xe3, 0xae, 0x0d, 0xdb, 0x39, 0x3a, 0x2b, 0xe0, 0xe1, 0x4c, 0xbc,
  0x98, 0xb4, 0x1b, 0x3f, 0x21, 0xde, 0x15, 0x3b, 0xd0, 0x45, 0xc1, 0x30,
  0xf0, 0x01, 0xa0, 0xb4, 0xf7, 0x3f, 0x81, 0x01, 0xbe, 0x60, 0xa7, 0x9f,
  0x00, 0x8f, 0x32, 0x3a, 0x01, 0x25, 0x1f, 0x00, 0x05, 0x30, 0x50, 0x1a,
  0x7f, 0x91, 0xf9, 0x58, 0xd1, 0x92, 0x43, 0x12, 0xc5, 0x0e, 0xc7, 0xec,
  0xd2, 0x35, 0x09, 0x3d, 0xa5, 0xc9, 0x56, 0xf7, 0x04, 0x15, 0x17, 0xe1,
  0xac, 0xab, 0xa2, 0x18, 0xcd, 0x45, 0xb7, 0x58, 0xbd, 0x20, 0x3c, 0x59,
  0xbc, 0xba, 0x0d, 0x0e, 0x08, 0x2c, 0x96, 0x93, 0xb4, 0xc3, 0xb7, 0x28,
  0xdb, 0x05, 0x01, 0x15, 0xa8, 0x31, 0x33, 0xf1, 0xaa, 0xb1, 0xd9, 0x32,
  0xbb, 0xa6, 0xa2, 0xd2, 0x2f, 0x55, 0xb0, 0x25, 0x27, 0x8e, 0xe0, 0xd4,
  0x44, 0x37, 0x55, 0x85, 0x13, 0x93, 0x11, 0x36, 0x05, 0x4b, 0x30, 0x05,
  0xa7, 0x1e, 0x70, 0x5b, 0x32, 0x94, 0xbd, 0x9e, 0x28, 0x14, 0xb5, 0xe9,
  0xcd, 0xd7, 0x31, 0x2f, 0x6c, 0x2e, 0x2e, 0x93, 0x13, 0x27, 0xe7, 0x20,
  0x6e, 0xf5, 0xac, 0xdf, 0xdc, 0x14, 0xb7, 0xaf, 0xf9, 0x98, 0xfd, 0x31,
  0x53, 0x9b, 0x49, 0xa6, 0xa7, 0xf6, 0xa1, 0x53, 0x97, 0x4c, 0xf7, 0x44,
  0xcf, 0xe5, 0x2a, 0x1d, 0x11, 0x1b, 0x3f, 0xba, 0x38, 0x4f, 0x0a, 0x73,
  0xe9, 0x19, 0xde, 0x9b, 0xf8, 0xe9, 0x19, 0x81, 0x3c, 0xaa, 0x8a, 0xc8,
  0x3b, 0xa6, 0xb6, 0x35, 0x39, 0xe2, 0x57, 0xbe, 0x2f, 0xdf, 0x11, 0xc2,
  0xf6, 0x12, 0xeb, 0xfb, 0xcb, 0x97, 0xd9, 0xcf, 0x2e, 0x28, 0xbd, 0xfa,
  0x92, 0x00, 0x1a, 0xc9, 0x97, 0xeb, 0x25, 0xf0, 0x90, 0x55, 0xcc, 0x9d,
  0x47, 0xa2, 0x5a, 0x3e, 0x68, 0x11, 0xa2, 0xed, 0x26, 0xb8, 0xd2, 0xea,
  0xe9, 0x18, 0xe0, 0xc0, 0x03, 0x43, 0x01, 0x5c, 0x36, 0x10, 0xcc, 0x4b,
  0xd1, 0xa2, 0x9c, 0x6f, 0xda, 0xe8, 0x60, 0x41, 0x99, 0xcc, 0x4e, 0x55,
  0x43, 0x93, 0x51, 0x58, 0xf5, 0x58, 0x9a, 0xc2, 0x6d, 0xa9, 0x68, 0xaa,
  0x4d, 0x81, 0xdd, 0x3a, 0x56, 0xb4, 0xd9, 0xa2, 0x60, 0x61, 0xa8, 0xdf,
  0xfc, 0x6d, 0xab, 0x40, 0xac, 0xbc, 0x47, 0xf2, 0xbd, 0x99, 0xef, 0x4b,
  0xdd, 0x9b, 0xa6, 0x3d, 0xc4, 0x44, 0xf7, 0xad, 0x97, 0xc3, 0xdb, 0x4c,
  0xbc, 0xf6, 0x61, 0xfa, 0xf8, 0x4d, 0xdf, 0xc1, 0x58, 0x69, 0x2f, 0x2c,
  0x40, 0x17, 0xd6, 0xac, 0x8a, 0x5f, 0x23, 0x11, 0x4b, 0xab, 0x16, 0xa0,
  0x04, 0xad, 0x1c, 0x11, 0x07, 0xd2, 0xa5, 0x95, 0xe5, 0x55, 0xa3, 0x89,
  0xda, 0x4d, 0xcc, 0x70, 0x03, 0x5e, 0x33, 0xd2, 0xc7, 0x95, 0x95, 0x4e,
  0x12, 0x12, 0x28, 0x16, 0x10, 0x91, 0x9a, 0xd9, 0x5e, 0x26, 0xce, 0x05,
  0x2f, 0xbf, 0x53, 0x3f, 0x54, 0x36, 0x36, 0xcb, 0x8d, 0xb6, 0xdc, 0x69,
  0x93, 0x64, 0xaf, 0xf6, 0x88, 0x34, 0xf1, 0xb0, 0x81, 0xca, 0x8b, 0xfa,
  0x0f, 0xf9, 0x2d, 0xf2, 0x0a, 0xe9, 0x37, 0xc5, 0xef, 0xc3, 0x9e, 0xc1,
  0x0b, 0xfc, 0x3d, 0xe0, 0x09, 0x49, 0x18, 0x4e, 0x08, 0xa2, 0x3b, 0x9d,
  0x72, 0xa7, 0x81, 0x19, 0x04, 0xdb, 0xe0, 0xc2, 0x30, 0x9e, 0xa3, 0xb2,
  0x00, 0x2b, 0x56, 0xa2, 0x2f, 0xda, 0xa0, 0xa9, 0x3d, 0x47, 0x5d, 0x6b,
  0x50, 0x6a, 0xcb, 0xff, 0x5d, 0x6b, 0x2d, 0xa4, 0xad, 0xd2, 0x85, 0xbe,
  0x3a, 0x88, 0xb8, 0x38, 0xb3, 0xeb, 0xe3, 0x10, 0x4b, 0x5d, 0x4d, 0xbc,
  0xb1, 0x99, 0xe4, 0xfb, 0x44, 0x2e, 0x3e, 0xdf, 0x60, 0xf4, 0xd3, 0xeb,
  0xab, 0x13, 0xb9, 0x2e, 0x45, 0x2d, 0x08, 0x1d, 0x41, 0xb7, 0x5c, 0xba,
  0x5d, 0x4e, 0x2b, 0x95, 0x5f, 0x91, 0xd0, 0x06, 0xba, 0xeb, 0xc8, 0x22,
  0x11, 0x52, 0xdc, 0x66, 0x2c, 0x5b, 0xb4, 0xb2, 0x0a, 0xe0, 0xbd, 0xd4,
  0x77, 0xb7, 0xf0, 0x93, 0x3f, 0xf6, 0xf9, 0x3f, 0xb4, 0x5b, 0x47, 0xe1,
  0x70, 0xd2, 0xd7, 0x40, 0xcd, 0x2d, 0xef, 0xe4, 0x41, 0xf6, 0xec, 0x6a,
  0x0f, 0x05, 0x90, 0x11, 0xa2, 0x68, 0x50, 0x07, 0x1a, 0xe8, 0x22, 0xbf,
  0x40, 0x39, 0x37, 0x18, 0x4d, 0xcd, 0x39, 0xda, 0xff, 0xe4, 0x0a, 0x56,
  0xa0, 0x31, 0x03, 0x62, 0xd3, 0xdb, 0xba, 0x61, 0xa6, 0x48, 0x19, 0x3e,
  0xe3, 0x12, 0xef, 0x42, 0xbb, 0x6b, 0x6f, 0xd0, 0x78, 0x55, 0xc0, 0xac,
  0x81, 0x4f, 0x87, 0x23, 0x08, 0xda, 0x0b, 0x9f, 0x0c, 0xe6, 0x13, 0xe4,
  0x50, 0xe7, 0x3b, 0xb9, 0x22, 0x41, 0xfe, 0xce, 0x1f, 0x41, 0xba, 0x23,
  0x8e, 0x99, 0xa7, 0x3e, 0xd1, 0xda, 0xca, 0x42, 0xfd, 0x89, 0xf7, 0x2f,
  0xd7, 0x02, 0xaf, 0xab, 0x1e, 0x2a, 0x1c, 0xc7, 0x52, 0xb9, 0x08, 0x3f,
  0xc3, 0x17, 0xbc, 0x59, 0xb1, 0xa7, 0x58, 0x23, 0x9e, 0xc6, 0x20, 0xdf,
  0x9e, 0x32, 0x2e, 0xe9, 0x43, 0xc4, 0x1b, 0x58, 0xc8, 0x81, 0xa4, 0x24,
  0x21, 0x32, 0xff, 0xba, 0xfa, 0x62, 0xad, 0x5c, 0x3c, 0xf6, 0xee, 0x34,
  0xc5, 0xb2, 0xda, 0xc7, 0xdb, 0xd9, 0x4a, 0xbb, 0xd9, 0x63, 0xf7, 0xeb,
  0xd3, 0x05, 0xc6, 0x21, 0x60, 0xdf, 0x04, 0x9f, 0xfa, 0x81, 0xfd, 0xa0,
  0x12, 0x52, 0xd2, 0x55, 0x65, 0x8d, 0x82, 0xe1, 0x29, 0x5c, 0x4b, 0xc5,
  0x56, 0x50, 0xdb, 0xa8, 0xa3, 0x2b, 0x3a, 0x15, 0xa5, 0x61, 0xc7, 0x9f,
  0x4b, 0x38, 0xdb, 0x13, 0xb0, 0x4b, 0x26, 0xd9, 0x1e, 0x54, 0xfb, 0x4b,
  0xa2, 0xb0, 0x4e, 0xbb, 0xe2, 0xda, 0xbf, 0x21, 0x9a, 0xd1, 0xf5, 0xa9,
  0x40, 0xb2, 0xcb, 0x42, 0x0a, 0x53, 0xfb, 0xf2, 0xc7, 0x03, 0xa7, 0xb4,
  0xdb, 0xaa, 0x60, 0xdc, 0x21, 0x88, 0x73, 0xc6, 0x55, 0xa1, 0xcd, 0x43,
  0x8d, 0x66, 0xaa, 0x97, 0xc4, 0xd6, 0xe4, 0x18, 0xc0, 0x8b, 0xeb, 0x59,
  0x0e, 0xcf, 0xc7, 0x2f, 0x42, 0x9a, 0xe0, 0xfa, 0x01, 0x3a, 0xf1, 0x08,
  0x21, 0xd5, 0x44, 0xea, 0x41, 0xca, 0xef, 0xbd, 0x3b, 0xde, 0xc6, 0xb7,
  0x33, 0x48, 0xab, 0x35, 0xc7, 0x1e, 0xaf, 0xb1, 0xff, 0x12, 0x1d, 0xd0,
  0xd6, 0x50, 0x35, 0x19, 0x1d, 0xcf, 0x91, 0x38, 0xad, 0xe3, 0xe0, 0x45,
  0xc7, 0x5d, 0x89, 0xd7, 0x45, 0x42, 0x1d, 0x10, 0xa4, 0x60, 0x5c, 0x58,
  0x38, 0xfd, 0xf2, 0x12, 0x09, 0x8d, 0x53, 0x9c, 0x64, 0x0f, 0x19, 0xa0,
  0x48, 0x1f, 0xa4, 0x0a, 0xae, 0xe5, 0xe1, 0x0b, 0x81, 0x1d, 0xb1, 0x5d,
  0x6a, 0x24, 0xec, 0x05, 0xf6, 0x32, 0xa3, 0x2e, 0xf5, 0x53, 0xb9, 0x95,
  0xc9, 0xd2, 0xe0, 0x16, 0xe6, 0xef, 0xcd, 0xd3, 0xee, 0x08, 0xbd, 0x70,
  0x2b, 0x71, 0x01, 0x36, 0xa6, 0xc3, 0x5c, 0x46, 0xf3, 0xe5, 0xea, 0xa3,
  0x07, 0x4e, 0x91, 0x54, 0x22, 0x25, 0x42, 0xd0, 0xbc, 0xd3, 0x9f, 0x9e,
  0xe8, 0x5a, 0xde, 0x85, 0x94, 0xca, 0xcd, 0xf7, 0x0a, 0xae, 0xc7, 0xf6,
  0xb9, 0x57, 0x09, 0xde, 0x95, 0x96, 0x8a, 0x92, 0x32, 0x55, 0xaf, 0x92,
  0x0d, 0x0e, 0xd0, 0x84, 0x90, 0x8f, 0x2b, 0xb9, 0x86, 0x3f, 0x38, 0x4a,
  0x6c, 0x93, 0xdf, 0xc7, 0xdb, 0x60, 0xf3, 0x17, 0xc5, 0xef, 0x35, 0x7f,
  0xac, 0x6c, 0x3d, 0x78, 0x96, 0x3a, 0xc6, 0x3e, 0x1f, 0x29, 0x10, 0x9c,
  0x31, 0x78, 0xf2, 0xc0, 0xb9, 0x54, 0xa5, 0xc9, 0x56, 0xd9, 0xc5, 0x73,
  0x44, 0xd1, 0x1e, 0x93, 0xff, 0x18, 0xa7, 0x66, 0x51, 0x66, 0xa3, 0xa3,
  0x94, 0xc0, 0x45, 0x1a, 0x69, 0x39, 0x50, 0xa7, 0x5e, 0x97, 0xad, 0xf7,
  0x58, 0x6a, 0x71, 0x8d, 0x92, 0xee, 0x0a, 0x30, 0x2f, 0x29, 0xa4, 0x15,
  0x2d, 0x50, 0x46, 0x3e, 0xc0, 0xeb, 0xfa, 0xd3, 0x2d, 0xe1, 0xd6, 0x5a,
  0x42, 0x4e, 0x56, 0xb4, 0xf3, 0x7f, 0xa8, 0xc4, 0xf7, 0xb0, 0x68, 0x36,
  0xf8, 0x97, 0x0f, 0x66, 0x44, 0xea, 0xa1, 0x95, 0x62, 0x86, 0xfd, 0x6d,
  0x00, 0xfc, 0x30, 0x77, 0xf8, 0xa5, 0xd1, 0xfa, 0xc8, 0x10, 0x5f, 0xbd,
  0xfc, 0x2e, 0xf0, 0xfd, 0x93, 0x1d, 0xa8, 0x13, 0x2b, 0x9e, 0x1e, 0x40,
  0x50, 0x45, 0xc2, 0xd3, 0x03, 0xca, 0x30, 0xbc, 0xd8, 0x27, 0x08, 0xbd,
  0xdc, 0xd0, 0x4e, 0x0f, 0xbd, 0x05, 0xd7, 0xcd, 0x34, 0x28, 0x05, 0xf5,
  0xfb, 0xc3, 0xf2, 0x06, 0x0b, 0x48, 0x1e, 0xab, 0x20, 0xef, 0x67, 0x29,
  0xb5, 0x81, 0x87, 0xb5, 0xb0, 0x04, 0xdb, 0xbb, 0x39, 0xe2, 0x30, 0x17,
  0xfb, 0xac, 0x14, 0xc4, 0xf8, 0x1a, 0xdd, 0x23, 0x44, 0xf6, 0x90, 0x14,
  0xd9, 0xb3, 0x1a, 0xd0, 0xda, 0xfa, 0x43, 0x98, 0x9c, 0xa3, 0xde, 0xfd,
  0x9a, 0xbf, 0x18, 0x30, 0xbc, 0xa9, 0x49, 0xf0, 0xe9, 0x6a, 0x23, 0x59,
  0x52, 0x41, 0x0d, 0x4b, 0xad, 0xc2, 0xc7, 0x30, 0x60, 0xba, 0xb9, 0x9a,
  0x7f, 0x96, 0x49, 0x21, 0xb6, 0x63, 0x62, 0x9f, 0xb9, 0x65, 0x15, 0x3f,
  0xdb, 0x95, 0xd4, 0xa7, 0x39, 0x90, 0x35, 0xc4, 0x26, 0xe8, 0xf0, 0x49,
  0x75, 0x88, 0x74, 0xa1, 0x1f, 0x96, 0xae, 0x43, 0xc0, 0xf9, 0x97, 0xa5,
  0xec, 0x57, 0xfc, 0x39, 0xb0, 0xe6, 0xa7, 0xc1, 0xe7, 0xcb, 0x32, 0x55,
  0xd7, 0x10, 0xcd, 0xe9, 0xfc, 0x0f, 0xb2, 0x1f, 0xcf, 0xd7, 0xf7, 0xf7,
  0xae, 0x33, 0x82, 0x43, 0xe6, 0xc7, 0x2c, 0x44, 0xfb, 0x00, 0xae, 0x9d,
  0x69, 0x62, 0xa4, 0x42, 0x03, 0x93, 0xe0, 0x3c, 0x2f, 0xfe, 0xc1, 0x9d,
  0x4b, 0x9c, 0x5e, 0xa7, 0x63, 0xa4, 0xaa, 0x1c, 0xc6, 0x06, 0x10, 0x9d,
  0xef, 0xbd, 0xa1, 0x6c, 0x2f, 0x33, 0x50, 0x5e, 0x5a, 0x9d, 0xd9, 0x98,
  0xe6, 0xd2, 0x4a, 0x4b, 0x59, 0x5d, 0xd7, 0x03, 0xf2, 0x3c, 0x49, 0xe8,
  0x5e, 0x66, 0xa2, 0x37, 0x53, 0xfd, 0xb3, 0x61, 0x4a, 0x2a, 0xec, 0x03,
  0xd1, 0xc1, 0x97, 0x14, 0x59, 0xa7, 0xa1, 0x9d, 0x83, 0xfb, 0x1b, 0xa8,
  0xae, 0xaf, 0x93, 0x45, 0x44, 0x81, 0x9d, 0xd1, 0x9b, 0xf4, 0xf4, 0xf5,
  0xe8, 0xb0, 0xcc, 0x4e, 0xfc, 0x62, 0x40, 0x3e, 0xff, 0x8d, 0xdc, 0xee,
  0xdf, 0x02, 0x1d, 0xb4, 0xde, 0x61, 0xef, 0x57, 0x0a, 0xcb, 0x2c, 0x41,
  0xa8, 0xe6, 0x45, 0x25, 0x15, 0xe0, 0xb2, 0xc4, 0x2e, 0x8f, 0x41, 0xc9,
  0x39, 0x20, 0x39, 0x33, 0xed, 0x5b, 0x2b, 0x9d, 0x55, 0xc8, 0x16, 0xa2,
  0x5f, 0xfb, 0x09, 0x13, 0xc3, 0x09, 0xd8, 0x8a, 0x18, 0x14, 0x39, 0x33,
  0xb7, 0xe8, 0x32, 0x02, 0xe1, 0x36, 0x01, 0xa1, 0x8e, 0xe7, 0x10, 0x33,
  0x18, 0x4d, 0x20, 0x16, 0xc8, 0xb6, 0x54, 0xf4, 0xc6, 0x65, 0xac, 0x53,
  0xc4, 0xad, 0x93, 0x81, 0x97, 0x95, 0x35, 0xe3, 0x9d, 0xce, 0xf7, 0x0c,
  0xaa, 0x53, 0xd7, 0xdc, 0xa7, 0xd8, 0xdb, 0x0c, 0xe8, 0x04, 0xfe, 0xd0,
  0xe4, 0x53, 0xd2, 0xcf, 0x29, 0xf9, 0x27, 0xf3, 0xee, 0xaa, 0x10, 0x55,
  0xfb, 0x87, 0xa1, 0x2a, 0x39, 0x4e, 0xba, 0xbc, 0xef, 0xcf, 0xb7, 0x9b,
  0x3f, 0xfd, 0x0f, 0xf1, 0x3d, 0xf3, 0xe6, 0x58, 0x51, 0xd1, 0xf2, 0xf5,
  0xcb, 0x89, 0xd3, 0xb5, 0xf8, 0x28, 0x88, 0x65, 0xf6, 0xea, 0x6a, 0x25,
  0x17, 0x11, 0xc7, 0x54, 0x12, 0x1d, 0x66, 0xa0, 0xee, 0xe6, 0x8b, 0xb6,
  0x26, 0x19, 0x82, 0x09, 0x14, 0xe4, 0xd6, 0xfd, 0xc6, 0x1c, 0x69, 0x9f,
  0xe5, 0x06, 0xde, 0x57, 0x45, 0xfb, 0xac, 0x3d, 0xf8, 0x2b, 0x3e, 0xd1,
  0x78, 0xf2, 0xe7, 0x96, 0xac, 0x79, 0xe2, 0xc5, 0x4c, 0xbb, 0x4c, 0xd0,
  0xa2, 0x3e, 0x4d, 0xdb, 0x24, 0xb6, 0x47, 0x4e, 0x09, 0x31, 0x1a, 0xb7,
  0xa2, 0x9c, 0xbb, 0xd9, 0x06, 0x84, 0x43, 0x81, 0xcb, 0x07, 0xa7, 0xcb,
  0x6e, 0xf8, 0x93, 0xec, 0x14, 0x35, 0x26, 0x07, 0x47, 0x37, 0x33, 0x5a,
  0x8f, 0x06, 0xbd, 0xcc, 0xf5, 0x82, 0x94, 0xe2, 0x57, 0x66, 0x81, 0xf4,
  0x44, 0x24, 0x39, 0x3f, 0xbc, 0xb2, 0xd8, 0x54, 0x19, 0xb1, 0x10, 0xed,
  0x54, 0x37, 0x5e, 0xba, 0x6b, 0x09, 0xb6, 0xef, 0x58, 0x52, 0x02, 0x03,
  0x55, 0x0b, 0x23, 0xbd, 0x36, 0xde, 0x3e, 0xc1, 0xe4, 0x63, 0x6a, 0x0f,
  0xa9, 0x03, 0xd3, 0xe9, 0x9d, 0x09, 0xed, 0xed, 0x1a, 0x5e, 0x70, 0x5e,
  0x68, 0x4f, 0x53, 0x5b, 0xbf, 0x15, 0x0e, 0x0b, 0x40, 0xbc, 0xe6, 0x2a,
  0x3c, 0x51, 0xfe, 0xcb, 0xff, 0x4f, 0x4d, 0x64, 0x52, 0x01, 0x81, 0x92,
  0xd9, 0xf5, 0x04, 0xe7, 0xb6, 0xf5, 0xc8, 0x60, 0x47, 0x76, 0x01, 0x2d,
  0xbf, 0x40, 0xeb, 0xde, 0x15, 0x2a, 0xd9, 0x9f, 0x14, 0x07, 0x99, 0xef,
  0x08, 0x4f, 0x21, 0x02, 0xe4, 0x04, 0xde, 0x49, 0xaf, 0xaf, 0x48, 0x3e,
  0x91, 0xc0, 0x04, 0xdf, 0x3c, 0xd7, 0x81, 0x40, 0xaa, 0xe1, 0xe5, 0xe9,
  0x20, 0x56, 0x8c, 0xfd, 0xbe, 0x34, 0x26, 0x09, 0x76, 0xdb, 0xe3, 0x0f,
  0x1d, 0xa0, 0xf7, 0xc4, 0x12, 0x19, 0xb0, 0xa0, 0x3b, 0xb0, 0x05, 0x6f,
  0x34, 0x20, 0xea, 0x57, 0xc4, 0xf8, 0xe8, 0x51, 0xeb, 0xc1, 0x9b, 0xfc,
  0x31, 0x0f, 0xb2, 0x05, 0xf9, 0x59, 0xc1, 0x6e, 0x56, 0x47, 0x18, 0xea,
  0x23, 0xa1, 0x10, 0xff, 0xd4, 0xbe, 0x27, 0xb5, 0xe0, 0x58, 0x52, 0x2f,
  0xda, 0x09, 0xa6, 0xa4, 0x84, 0x26, 0xca, 0xb0, 0xb2, 0x75, 0x3b, 0x4a,
  0x12, 0xa1, 0x5d, 0xe6, 0x11, 0x08, 0xb8, 0x1d, 0x46, 0xff, 0x45, 0xe0,
  0x1f, 0x3e, 0xa7, 0x22, 0x5f, 0xe4, 0x08, 0x1c, 0x52, 0xcc, 0xee, 0xd7,
  0x16, 0x42, 0xc1, 0xd2, 0xf3, 0xce, 0x9c, 0x4a, 0xc2, 0x4c, 0x6c, 0x7f,
  0xac, 0xd7, 0xed, 0x64, 0x33, 0xa0, 0x42, 0x1c, 0xe5, 0x67, 0x17, 0x1c,
  0x1f, 0x4d, 0xcc, 0x17, 0x9a, 0xdf, 0xb4, 0x4f, 0xd4, 0xcf, 0x9a, 0x20,
  0xf3, 0xfd, 0xbf, 0xb4, 0x95, 0xb2, 0x1e, 0xe5, 0x53, 0x6f, 0x2c, 0x08,
  0x5b, 0x9a, 0xa6, 0x63, 0xb4, 0xbe, 0x40, 0x1e, 0x47, 0x89, 0xc5, 0x09,
  0xff, 0xda, 0xf1, 0x10, 0x39, 0x90, 0x53, 0x18, 0xdc, 0x2b, 0x06, 0xc9,
  0x00, 0x67, 0xc5, 0x62, 0x0a, 0x21, 0xed, 0xa6, 0xe2, 0xf0, 0x5a, 0x0f,
  0x11, 0x78, 0xcb, 0xaa, 0x4f, 0x00, 0xd3, 0xf2, 0x48, 0x9a, 0x03, 0xd5,
  0x2f, 0x17, 0x19, 0x95, 0x2e, 0x10, 0x2d, 0x9e, 0x78, 0x87, 0x35, 0xae,
  0x13, 0xc9, 0x7a, 0xd0, 0x2d, 0x1c, 0x0c, 0xe9, 0xb6, 0x0d, 0x6b, 0x11,
  0xe7, 0x7b, 0x8f, 0x9f, 0x81, 0x9b, 0xb0, 0x2c, 0x23, 0x12, 0xa5, 0xac,
  0x63, 0xf3, 0xf3, 0x15, 0x2f, 0xf4, 0x62, 0x18, 0x9b, 0xb6, 0xfe, 0xff,
  0xee, 0xdc, 0x3e, 0x2f, 0x27, 0xb5, 0x41, 0x1c, 0x20, 0x93, 0x21, 0x22,
  0xe0, 0x2b, 0x2b, 0x2a, 0xc4, 0x14, 0xad, 0x26, 0x41, 0x58, 0xfd, 0x1d,
  0x39, 0x9a, 0x22, 0xd9, 0x9d, 0xcc, 0x07, 0x2d, 0xaf, 0x38, 0x17, 0x1e,
  0x9e, 0xef, 0x8a, 0x35, 0x39, 0xda, 0xd7, 0x83, 0x81, 0x21, 0x60, 0xae,
  0xd7, 0x15, 0xf4, 0x9f, 0xac, 0xf5, 0x1c, 0xe3, 0xb0, 0xf6, 0x51, 0xc7,
  0x4b, 0xd1, 0xac, 0x97, 0x89, 0xb3, 0x94, 0x9e, 0x59, 0x50, 0x1c, 0xcc,
  0x5f, 0x28, 0xd9, 0x42, 0xc5, 0xf7, 0x17, 0xca, 0xc9, 0x4c, 0x90, 0xc0,
  0x30, 0xff, 0x10, 0x11, 0x43, 0xd7, 0xaa, 0x30, 0x3c, 0x37, 0x91, 0x59,
  0xef, 0xa9, 0x1a, 0xd7, 0x83, 0xa0, 0x08, 0xdb, 0x36, 0x96, 0xe3, 0x47,
  0x47, 0x5b, 0x4f, 0x33, 0x6a, 0x35, 0xa8, 0x36, 0x99, 0xa3, 0xa9, 0xf2,
  0x96, 0x63, 0x9c, 0x0b, 0x1e, 0xca, 0xfc, 0xea, 0x50, 0x2f, 0x95, 0xc1,
  0xcb, 0x5b, 0x3c, 0x60, 0x25, 0x22, 0xfb, 0xc5, 0xee, 0x2a, 0x24, 0x4a,
  0x90, 0x38, 0x15, 0xb0, 0xa1, 0xd3, 0xd8, 0x97, 0x6a, 0x21, 0x51, 0xec,
  0x8e, 0x29, 0x19, 0xc0, 0x30, 0xb2, 0xc6, 0x48, 0x05, 0x22, 0xcb, 0x17,
  0x07, 0xff, 0xa0, 0x0f, 0x81, 0xca, 0xf7, 0x3a, 0x4f, 0x33, 0xe1, 0xc1,
  0x35, 0x1f, 0xdd, 0x10, 0xb1, 0x63, 0x21, 0xf9, 0x1c, 0xab, 0x9f, 0x20,
  0x3c, 0xe5, 0x61, 0xc9, 0xee, 0x12, 0x11, 0x42, 0xc8, 0x34, 0xac, 0x23,
  0x67, 0x36, 0xcd, 0xd6, 0x33, 0xbd, 0x31, 0xfa, 0xc1, 0x12, 0xf6, 0xbb,
  0xa6, 0x4b, 0xc6, 0x7f, 0xdd, 0x15, 0xfd, 0x67, 0xea, 0x4c, 0x28, 0x44,
  0xfe, 0xff, 0x22, 0x46, 0x45, 0x1e, 0x0c, 0x44, 0x09, 0xdf, 0xca, 0x45,
  0xe7, 0xd1, 0xd3, 0x3a, 0xe8, 0x29, 0x09, 0x21, 0xb1, 0xd1, 0x2f, 0xd8,
  0xce, 0x20, 0xb2, 0x39, 0xe0, 0xcd, 0x2e, 0xe9, 0x37, 0x36, 0x67, 0x9f,
  0xaa, 0xd7, 0xa6, 0x4e, 0x55, 0xd0, 0xcd, 0x42, 0xe2, 0xac, 0x41, 0xf4,
  0xfe, 0xf1, 0xf4, 0xb0, 0x18, 0x5e, 0x38, 0x18, 0xe7, 0xdf, 0x16, 0x18,
  0xc2, 0x09, 0x06, 0x8d, 0xf2, 0xb6, 0xa3, 0x05, 0x08, 0x00, 0x87, 0x57,
  0x01, 0xe5, 0xf5, 0xc7, 0xa6, 0xcf, 0x19, 0xf4, 0xfe, 0x02, 0xe4, 0x31,
  0x51, 0x85, 0x13, 0x24, 0x29, 0x00, 0x2a, 0xfb, 0x24, 0xc2, 0x37, 0xcf,
  0xf6, 0x1e, 0x4c, 0xde, 0x50, 0xc5, 0x19, 0x3e, 0x4d, 0x42, 0xcd, 0xbd,
  0x0b, 0x25, 0x81, 0x81, 0xa7, 0xcc, 0x40, 0x21, 0x5e, 0x39, 0x4c, 0x74,
  0xc4, 0xe9, 0xc9, 0xf8, 0x27, 0x38, 0x49, 0xa3, 0xe1, 0xc1, 0x8a, 0x40,
  0x9d, 0x0b, 0x90, 0x85, 0xd4, 0x86, 0x36, 0x57, 0xfd, 0x08, 0xe1, 0xb9,
  0x00, 0x40, 0xf3, 0x43, 0xa8, 0x4c, 0x2f, 0x53, 0x4c, 0xa1, 0xda, 0xbf,
  0x12, 0x27, 0xed, 0x0d, 0x02, 0xbf, 0xcb, 0x5d, 0x9d, 0xb7, 0x50, 0x85,
  0xcd, 0xcd, 0x44, 0x2b, 0x35, 0xb6, 0x2a, 0xd6, 0x3c, 0x1d, 0x01, 0xfa,
  0x5f, 0xeb, 0x43, 0x47, 0xc8, 0xd9, 0x1b, 0x02, 0xbb, 0xdf, 0x1a, 0x03,
  0x29, 0x52, 0x81, 0x25, 0x48, 0xad, 0x96, 0xb6, 0x3c, 0x1c, 0x28, 0x91,
  0xab, 0xb3, 0x0b, 0xf3, 0x17, 0x28, 0xe8, 0x9c, 0xd6, 0xf6, 0x2d, 0xce,
  0x91, 0xde, 0xa6, 0x41, 0x8b, 0xe1, 0x39, 0xe3, 0x43, 0xa3, 0x94, 0x9f,
  0xd9, 0x04, 0x25, 0xf0, 0x2c, 0x5d, 0x32, 0x2f, 0xcd, 0x19, 0x57, 0xa8,
  0x4d, 0xf3, 0x42, 0x42, 0xb9, 0xbf, 0x33, 0xb6, 0x5e, 0x08, 0xd9, 0xe0,
  0x70, 0x1e, 0xc7, 0xe2, 0xad, 0x2f, 0xca, 0x48, 0x1b, 0xe4, 0xbb, 0x5a,
  0x3f, 0x0d, 0x8e, 0x34, 0x0e, 0xd0, 0xea, 0x61, 0x09, 0xc0, 0x0f, 0xac,
  0x2e, 0x81, 0xbd, 0xc2, 0xa1, 0xfe, 0x9b, 0xc3, 0x40, 0x08, 0xe0, 0xba,
  0xbc, 0xce, 0x2b, 0xf0, 0xef, 0x62, 0x38, 0x82, 0x2d, 0xb1, 0xbe, 0xb4,
  0x9f, 0xce, 0x47, 0xcb, 0xcb, 0x46, 0xc0, 0x1c, 0x2a, 0x9a, 0xfb, 0x45,
  0xba, 0x3a, 0x1a, 0x9d, 0x12, 0x07, 0x2f, 0x0a, 0x8b, 0x81, 0xa3, 0x62,
  0x9f, 0x28, 0xfc, 0x64, 0x5d, 0xcf, 0x1d, 0x5a, 0xb3, 0x91, 0xfe, 0x5a,
  0xc1, 0x91, 0x31, 0x58, 0x18, 0xce, 0x26, 0x16, 0x46, 0xca, 0xed, 0xf4,
  0xf5, 0x94, 0x00, 0xc5, 0xc8, 0xbb, 0xa9, 0xe9, 0xba, 0x63, 0xa1, 0xa8,
  0x35, 0x07, 0xf9, 0xf4, 0xee, 0x40, 0x13, 0xb4, 0xac, 0x0d, 0x44, 0x44,
  0xd8, 0x27, 0x97, 0x81, 0x41, 0x1b, 0x3e, 0x9d, 0x09, 0x2c, 0x16, 0x1d,
  0x2e, 0x33, 0x17, 0x06, 0x22, 0xcd, 0x32, 0xc4, 0xb0, 0xac, 0x2c, 0xfc,
  0xb0, 0x12, 0xa6, 0x20, 0xde, 0xac, 0x1d, 0xf0, 0x05, 0x2e, 0xdd, 0x36,
  0x00, 0xa3, 0xa7, 0xaa, 0xe0, 0x06, 0x48, 0x01, 0x24, 0x29, 0xa8, 0x54,
  0x14, 0x1a, 0x9d, 0x9d, 0x25, 0x3d, 0xb1, 0x24, 0x5b, 0x37, 0xc1, 0x3c,
  0xf9, 0x2f, 0xb0, 0xaa, 0xd5, 0x4d, 0x07, 0x11, 0x96, 0xa7, 0xf6, 0xdc,
  0x0a, 0xa0, 0xd1, 0x3a, 0x81, 0x5a, 0x41, 0x9e, 0xdc, 0x14, 0xcf, 0x15,
  0x9a, 0x90, 0x22, 0xa7, 0x18, 0x48, 0x04, 0x1d, 0x44, 0xbb, 0xbe, 0xef,
  0xe8, 0x21, 0x59, 0xe3, 0xb7, 0x4e, 0x03, 0x32, 0x2c, 0xde, 0x53, 0x9c,
  0xd8, 0xdd, 0x9e, 0x50, 0xb8, 0xef, 0x35, 0x4e, 0x2d, 0xd5, 0xaf, 0xac,
  0x1b, 0xeb, 0x62, 0x4a, 0x98, 0x19, 0xba, 0xb1, 0x23, 0xf8, 0xb6, 0x3b,
  0x50, 0xda, 0xfe, 0x5b, 0x5c, 0xbe, 0x23, 0x5e, 0x6d, 0x59, 0x14, 0xe1,
  0xca, 0x24, 0xd1, 0x60, 0xf6, 0x5c, 0xfc, 0x38, 0x7b, 0x31, 0x12, 0xc9,
  0x53, 0xc4, 0x34, 0xfd, 0x0a, 0x33, 0x0d, 0x6a, 0xa1, 0xd3, 0xea, 0xd2,
  0x40, 0x15, 0xba, 0x0d, 0xb4, 0xc0, 0x5f, 0x0b, 0x45, 0xeb, 0x4a, 0xd8,
  0x55, 0x04, 0xad, 0xe5, 0xb3, 0x1b, 0x47, 0xf6, 0xd5, 0x8d, 0xdf, 0xcc,
  0xcd, 0x5b, 0xa7, 0x96, 0xd2, 0xfa, 0x3f, 0xe7, 0xca, 0xea, 0x98, 0xb0,
  0x32, 0x4e, 0xda, 0x62, 0xe3, 0x95, 0x17, 0xb4, 0x3b, 0xfd, 0x2f, 0x2e,
  0xd4, 0xa1, 0xa0, 0x49, 0x0c, 0xda, 0x16, 0x17, 0xbc, 0x46, 0x18, 0xd4,
  0x81, 0x26, 0xa4, 0x44, 0xb2, 0x4a, 0xca, 0x61, 0xba, 0xc8, 0xf7, 0xc4,
  0xc1, 0xe6, 0x0c, 0xe4, 0x40, 0xc3, 0xda, 0x35, 0xd6, 0xcc, 0x12, 0xcc,
  0x86, 0xb6, 0x3d, 0xd7, 0x15, 0x18, 0xa2, 0x53, 0x45, 0xe4, 0xe5, 0x4a,
  0xf4, 0x98, 0x50, 0x54, 0xdb, 0x1c, 0xc9, 0xed, 0x3f, 0x1a, 0x25, 0xc0,
  0x5f, 0x25, 0xb8, 0xcc, 0x49, 0x9d, 0xb0, 0x16, 0xe8, 0x19, 0x33, 0x0c,
  0xae, 0xef, 0x2b, 0x9a, 0xa2, 0x54, 0xa5, 0xf3, 0x97, 0x41, 0x59, 0xc5,
  0xb0, 0x1e, 0xab, 0xf9, 0x30, 0x96, 0x11, 0x24, 0x4c, 0x15, 0x81, 0x5d,
  0x3a, 0xd1, 0x14, 0x03, 0x3c, 0x2c, 0x9c, 0xab, 0x40, 0x0b, 0x87, 0x8a,
  0xff, 0xde, 0x21, 0xcd, 0x98, 0x27, 0x1c, 0x39, 0x30, 0xd9, 0xb7, 0x71,
  0x27, 0xd5, 0x2f, 0x48, 0x46, 0xf4, 0x03, 0x3b, 0x0f, 0x9a, 0xc7, 0x41,
  0x0f, 0x22, 0x45, 0x2c, 0xf1, 0x25, 0x99, 0x23, 0x3f, 0x90, 0xa5, 0xca,
  0x16, 0x92, 0x87, 0x65, 0xe2, 0xa8, 0x2f, 0x04, 0x58, 0x6d, 0x53, 0xe2,
  0x6b, 0x1c, 0x3f, 0xfa, 0xde, 0x97, 0x8d, 0xd1, 0xb8, 0xaf, 0xb5, 0xc8,
  0xf9, 0x47, 0x58, 0xa9, 0x0d, 0x14, 0x65, 0x2b, 0xec, 0xd8, 0xb2, 0xb4,
  0xc6, 0xb6, 0x51, 0x3c, 0xf1, 0xc2, 0x07, 0x2a, 0x9d, 0x32, 0xc9, 0xd3,
  0x39, 0xb9, 0x65, 0x84, 0x28, 0xea, 0xc8, 0xfc, 0xaa, 0x7a, 0xd6, 0x31,
  0xcb, 0xdd, 0x9d, 0xd0, 0xca, 0xec, 0x8c, 0x53, 0xd4, 0xbd, 0x81, 0x67,
  0x60, 0x60, 0x28, 0x01, 0x28, 0x60, 0xc0, 0x20, 0xcc, 0x69, 0x6c, 0x68,
  0xe6, 0x62, 0x45, 0x08, 0x4f, 0x7a, 0x34, 0x58, 0xf5, 0xdb, 0xdd, 0xca,
  0x09, 0x08, 0x90, 0x65, 0x25, 0x0d, 0xad, 0x90, 0xf4, 0x3f, 0xb3, 0x59,
  0xde, 0x88, 0x1f, 0xad, 0x39, 0x4b, 0x41, 0xe5, 0x19, 0xa9, 0x35, 0x4a,
  0x57, 0x16, 0x19, 0x5c, 0x1f, 0x40, 0x19, 0xfb, 0x39, 0x28, 0xdd, 0x13,
  0xce, 0x0c, 0x9d, 0xad, 0xcf, 0x2d, 0xea, 0xee, 0x4e, 0x41, 0x31, 0xf8,
  0xa1, 0x1d, 0xa3, 0x93, 0xb2, 0xd9, 0x21, 0x47, 0xcc, 0x51, 0xde, 0xb3,
  0x3e, 0xa5, 0x5f, 0xf2, 0x43, 0x0a, 0x27, 0x05, 0xdd, 0x1a, 0x81, 0xc8,
  0x1e, 0x20, 0xf5, 0xb4, 0xf1, 0xd7, 0x4f, 0x61, 0xcf, 0x16, 0x01, 0x91,
  0x19, 0xd5, 0x0b, 0xb2, 0xfd, 0x1f, 0xf9, 0x23, 0x39, 0x40, 0x32, 0xda,
  0xef, 0xb2, 0x00, 0x1f, 0x7f, 0xd1, 0x0f, 0x5f, 0x2c, 0xda, 0x0e, 0x2a,
  0xe3, 0x3a, 0xe3, 0xfa, 0x55, 0x38, 0x0d, 0xbe, 0x3c, 0xa5, 0x3c, 0x40,
  0x00, 0xdc, 0x40, 0xa5, 0xac, 0x29, 0x2e, 0x2f, 0xfd, 0x11, 0xc1, 0x0c,
  0x2c, 0x17, 0x96, 0x28, 0xdd, 0xcd, 0xe4, 0xb5, 0x9e, 0xfe, 0xa4, 0x22,
  0x0c, 0xde, 0x29, 0xd5, 0xf7, 0xd2, 0x97, 0x02, 0xce, 0x19, 0xfd, 0xe8,
  0x22, 0xe9, 0x9b, 0x3a, 0x0b, 0xb8, 0xf9, 0xdd, 0x37, 0x42, 0xc4, 0x4b,
  0x0c, 0x41, 0xec, 0xf5, 0x9b, 0x2d, 0xf0, 0xce, 0xbc, 0x4e, 0x45, 0xf6,
  0xf6, 0x29, 0xeb, 0xa8, 0x14, 0xbb, 0xd6, 0xb1, 0x22, 0x10, 0x44, 0x27,
  0xff, 0x58, 0x41, 0x1e, 0xb6, 0x34, 0x05, 0xed, 0xca, 0xb6, 0x1a, 0x5f,
  0x2b, 0x1e, 0x10, 0xa6, 0x30, 0x14, 0x2f, 0xcd, 0xb8, 0x04, 0xcc, 0x9f,
  0xbf, 0xf1, 0xa8, 0xa4, 0xf1, 0x45, 0x10, 0x34, 0x46, 0xbe, 0xde, 0x3b,
  0xe7, 0x68, 0x45, 0xa6, 0xe9, 0x5d, 0xd8, 0x2d, 0x3f, 0x5e, 0x5b, 0xaf,
  0x33, 0x2c, 0xde, 0xca, 0x9d, 0x10, 0xfa, 0x3b, 0xa0, 0xfd, 0x99, 0x7d,
  0xd9, 0x81, 0x22, 0xfd, 0x21, 0xeb, 0x19, 0x06, 0x5f, 0x48, 0xb8, 0xf5,
  0x70, 0xc9, 0x6f, 0x0d, 0x44, 0xf2, 0xf3, 0xca, 0x9d, 0x29, 0x30, 0xed,
  0xe7, 0x24, 0x9b, 0xee, 0x68, 0xed, 0x23, 0x59, 0xbc, 0xbb, 0xc6, 0x18,
  0x25, 0xc0, 0xa6, 0xa7, 0x19, 0x56, 0x9f, 0xf0, 0xc9, 0x15, 0xcc, 0xc3,
  0xdd, 0x59, 0x48, 0xd9, 0x96, 0xbd, 0x45, 0x25, 0xbd, 0xa7, 0x9b, 0xfb,
  0x17, 0x07, 0xe3, 0x45, 0xd5, 0xa5, 0x06, 0x36, 0x06, 0x48, 0xac, 0xb1,
  0xe5, 0xa0, 0xaa, 0xe9, 0x19, 0xf6, 0xd3, 0x4c, 0x1c, 0xfb, 0x63, 0xdb,
  0xce, 0x31, 0x5d, 0x11, 0xf7, 0x71, 0x36, 0x3f, 0x17, 0x0a, 0x1f, 0x7f,
  0xcb, 0x4b, 0xe0, 0x28, 0x23, 0xde, 0xdf, 0xfb, 0xe9, 0x31, 0xb0, 0x16,
  0xc7, 0x20, 0x10, 0x00, 0x9f, 0x3c, 0x08, 0x56, 0x13, 0xaf, 0xa0, 0x04,
  0xd4, 0x31, 0x16, 0x23, 0x65, 0xe7, 0x0d, 0xda, 0xb9, 0xc3, 0x47, 0x5e,
  0xb3, 0xbe, 0x1d, 0xa7, 0x32, 0x4e, 0xaa, 0xb1, 0x0b, 0x13, 0x4e, 0xe7,
  0xbf, 0x0f, 0xbb, 0x16, 0x47, 0x8e, 0xd4, 0x81, 0xd7, 0x1f, 0x96, 0xe8,
  0x4e, 0x98, 0xa2, 0xb7, 0x44, 0x29, 0xe0, 0x00, 0xa4, 0x01, 0x9c, 0xec,
  0x8f, 0x4f, 0xde, 0x32, 0x0c, 0xdf, 0xf5, 0x26, 0xc7, 0xee, 0x4a, 0xfe,
  0xcd, 0x35, 0x1d, 0x46, 0x10, 0x99, 0x9d, 0x30, 0xcf, 0x1e, 0x08, 0xe5,
  0x92, 0x2a, 0x9c, 0xb9, 0xbd, 0xda, 0x39, 0x2a, 0xb9, 0x3f, 0xb1, 0x35,
  0xa8, 0x49, 0xcf, 0x2c, 0xee, 0x4a, 0xc7, 0x4a, 0x40, 0xeb, 0x33, 0x16,
  0xfa, 0x44, 0x0f, 0x50, 0xc5, 0x31, 0x1b, 0x48, 0x47, 0xe2, 0x45, 0x12,
  0xe1, 0xcf, 0x49, 0x06, 0x17, 0x3c, 0x64, 0x27, 0x91, 0xd3, 0xd1, 0xae,
  0xd2, 0xf9, 0xa2, 0xdd, 0x1d, 0x41, 0x1b, 0xce, 0x96, 0x23, 0xcd, 0xf8,
  0x9d, 0xfd, 0xe6, 0xbf, 0xa7, 0xf2, 0x0a, 0xcd, 0x1a, 0xef, 0xd4, 0x8f,
  0x8f, 0x89, 0x81, 0x15, 0xae, 0x3d, 0xfc, 0xf9, 0xb7, 0x49, 0x9d, 0xce,
  0x27, 0x40, 0xf1, 0x31, 0x07, 0xe6, 0x63, 0x92, 0x2e, 0xa7, 0xa2, 0xbc,
  0xc3, 0xfd, 0x10, 0xe9, 0x6b, 0xf2, 0x65, 0xdf, 0xc1, 0x00, 0xb2, 0xcb,
  0x4d, 0x3c, 0x29, 0x11, 0x42, 0x6b, 0x18, 0x41, 0x6d, 0xc6, 0xec, 0xd5,
  0x88, 0xed, 0xba, 0xa2, 0x5b, 0x50, 0x57, 0xa6, 0xd4, 0xd6, 0xcc, 0x4d,
  0x5d, 0x47, 0x60, 0x9f, 0xad, 0x66, 0x56, 0xe0, 0x2b, 0x99, 0xdf, 0x35,
  0x0b, 0xdf, 0x12, 0x92, 0x69, 0xeb, 0x48, 0x59, 0x0c, 0xa4, 0x28, 0xf8,
  0x35, 0xb6, 0x56, 0x62, 0xea, 0x00, 0x09, 0xf8, 0xa8, 0xef, 0x05, 0xf3,
  0x21, 0xbe, 0x16, 0xcc, 0xc3, 0x4e, 0xcd, 0x73, 0x40, 0x37, 0x4e, 0xa9,
  0x89, 0x2a, 0x81, 0xad, 0x3f, 0xa6, 0xb1, 0xec, 0xb6, 0xc7, 0xad, 0xc6,
  0x16, 0x93, 0xcb, 0x13, 0xb4, 0xf7, 0xe6, 0xe2, 0xc6, 0xb8, 0x08, 0xe5,
  0xe9, 0x0b, 0x5d, 0xed, 0xcf, 0x4d, 0xa1, 0xad, 0xaf, 0xe7, 0xc6, 0xd6,
  0x31, 0x4a, 0x0b, 0x52, 0x1c, 0x39, 0x08, 0xec, 0xd3, 0x41, 0x52, 0xe0,
  0x94, 0xa4, 0x69, 0x2c, 0x42, 0xf5, 0x9f, 0xdc, 0xea, 0xc8, 0xa1, 0xd6,
  0x5d, 0x52, 0x34, 0x84, 0x42, 0xb7, 0x81, 0xaf, 0xed, 0xd2, 0xbe, 0x40,
  0x50, 0x49, 0xd6, 0xdc, 0x48, 0xf5, 0x97, 0x30, 0x59, 0x08, 0x5f, 0xa5,
  0xb0, 0x72, 0x09, 0x4b, 0xa2, 0x65, 0xd9, 0xd8, 0x56, 0x16, 0xbb, 0x13,
  0xd5, 0xd6, 0x44, 0xbb, 0x8e, 0x02, 0xe1, 0xfb, 0xcf, 0x9a, 0xf3, 0x3c,
  0x4f, 0x42, 0x55, 0xf1, 0x2e, 0xff, 0xd5, 0x6a, 0xcb, 0xae, 0xf3, 0x0c,
  0x4c, 0x0e, 0xb8, 0xc6, 0x6a, 0x33, 0x0d, 0xf2, 0x56, 0x21, 0xde, 0x8f,
  0x1a, 0x72, 0xfb, 0xf5, 0xad, 0xb4, 0xb1, 0x0b, 0x3e, 0xfd, 0xd1, 0xe1,
  0xa0, 0x29, 0xe4, 0x62, 0x1f, 0x65, 0x9a, 0xd6, 0xe5, 0x5c, 0xb3, 0x82,
  0x8e, 0xe2, 0x29, 0xd7, 0x8c, 0x28, 0x56, 0x1b, 0x08, 0xa6, 0xa6, 0x4e,
  0x9b, 0x55, 0x4c, 0x81, 0xcd, 0xb6, 0xaa, 0x47, 0x09, 0x06, 0xe4, 0xd8,
  0xa3, 0xdc, 0xf4, 0x91, 0x9f, 0xb6, 0xc3, 0xc6, 0x07, 0x8e, 0x21, 0xe0,
  0xa0, 0x56, 0x9a, 0xfa, 0x50, 0xd5, 0xea, 0xf2, 0x0c, 0x99, 0x82, 0x89,
  0x00, 0xf7, 0xe9, 0x10, 0xea, 0x0c, 0xbe, 0x96, 0xf0, 0x00, 0x18, 0xfc,
  0x08, 0xbe, 0xe4, 0x02, 0xe3, 0x21, 0x6c, 0xab, 0xc7, 0x19, 0x1d, 0x0f,
  0x39, 0x94, 0xb8, 0xb1, 0xc8, 0x1c, 0x43, 0xe5, 0xe9, 0x46, 0x8f, 0x28,
  0xc6, 0xb5, 0xbf, 0x32, 0xb7, 0x97, 0x44, 0x49, 0xce, 0xe1, 0xec, 0x34,
  0x97, 0xf3, 0xfb, 0x3c, 0x4a, 0x8f, 0x4a, 0x4d, 0xd9, 0xc6, 0x8a, 0x4c,
  0xef, 0x4d, 0x0b, 0x4c, 0xff, 0x89, 0x61, 0xde, 0x5b, 0x46, 0x34, 0xd4,
  0xb1, 0x1a, 0xf2, 0x05, 0x8d, 0x50, 0x20, 0xae, 0xf3, 0x20, 0x2c, 0xbb,
  0x45, 0x3e, 0x02, 0x0a, 0xcd, 0xff, 0x9e, 0x8b, 0x3f, 0xa7, 0x3f, 0x40,
  0x0c, 0xa2, 0x01, 0xc3, 0xe1, 0xfe, 0xd3, 0x8a, 0x81, 0x1e, 0x08, 0xc6,
  0x44, 0x3b, 0xbf, 0xd5, 0x31, 0xc3, 0xe5, 0xf8, 0x37, 0xff, 0xc8, 0xb1,
  0xee, 0x44, 0x19, 0xf3, 0xa4, 0xf5, 0xa1, 0xf1, 0xab, 0x9f, 0xf6, 0xa8,
  0x35, 0x1e, 0x0a, 0xc0, 0x0c, 0x0b, 0xf3, 0xa2, 0xc8, 0xcb, 0x81, 0x0d,
  0xe0, 0xa5, 0xde, 0x1b, 0xee, 0xe6, 0x96, 0xad, 0x22, 0xc3, 0xe2, 0x2f,
  0xd8, 0x1d, 0xb5, 0xec, 0x27, 0xdf, 0x84, 0x21, 0x1f, 0xb8, 0x13, 0x48,
  0xc5, 0xdf, 0x23, 0xdc, 0xb1, 0xc9, 0xb4, 0x24, 0x0c, 0x4a, 0x39, 0xec,
  0xa9, 0xdc, 0x88, 0x15, 0x3b, 0xd8, 0x3c, 0xd8, 0x6b, 0x9f, 0x2f, 0x31,
  0xeb, 0xf2, 0xd9, 0xe5, 0x53, 0x52, 0x23, 0xc1, 0x15, 0x51, 0x2b, 0xcd,
  0xe0, 0xbc, 0xcc, 0xa2, 0xcc, 0x3e, 0x11, 0xea, 0x69, 0x51, 0x43, 0xed,
  0x52, 0xe5, 0xf0, 0x36, 0xa5, 0xc6, 0x1f, 0xd0, 0xa6, 0x9d, 0x18, 0xbb,
  0x2c, 0x8d, 0x4b, 0xe9, 0x86, 0xe8, 0x25, 0xa8, 0x1a, 0x72, 0x94, 0x2c,
  0xc8, 0xb7, 0xa2, 0x6e, 0x1f, 0x37, 0xf3, 0xae, 0x4a, 0xa1, 0x0b, 0x40,
  0xb7, 0x97, 0xff, 0x99, 0xaa, 0x11, 0x41, 0x7f, 0x05, 0xb5, 0x1c, 0xbc,
  0x8a, 0x3d, 0x0d, 0x87, 0x25, 0x92, 0x56, 0xa6, 0xf9, 0x1a, 0xe7, 0xc7,
  0xd8, 0x62, 0xd4, 0x2c, 0x3a, 0x18, 0xc6, 0xda, 0x32, 0xce, 0x8b, 0x3b,
  0xd4, 0xe4, 0x81, 0x1e, 0x3d, 0x9a, 0x07, 0xe2, 0xad, 0xf3, 0xf9, 0x8d,
  0xbf, 0x89, 0x01, 0x56, 0x95, 0x93, 0xc8, 0x44, 0x77, 0x96, 0x5b, 0xed,
  0x09, 0x3c, 0xad, 0x73, 0xe6, 0x9e, 0x81, 0x34, 0x1c, 0xc5, 0x3b, 0xb8,
  0x08, 0x27, 0xfe, 0x95, 0x86, 0x36, 0x18, 0x54, 0x37, 0xc7, 0xed, 0x45,
  0xbc, 0x48, 0x85, 0xaa, 0x9d, 0x39, 0x15, 0xee, 0x03, 0xed, 0xf7, 0xe8,
  0xdd, 0xd2, 0x59, 0x1a, 0xf0, 0x2f, 0x8e, 0x87, 0xd2, 0x81, 0x45, 0xf5,
  0x0b, 0xd0, 0xd1, 0xfd, 0x83, 0xf3, 0x95, 0xdf, 0xf5, 0xbf, 0xb0, 0x4d,
  0xcf, 0x1e, 0x37, 0xf4, 0x06, 0xcd, 0xa3, 0x57, 0x95, 0x82, 0x95, 0xed,
  0x43, 0xfa, 0xf4, 0x69, 0xf1, 0xec, 0xd7, 0x63, 0xd7, 0x1a, 0xed, 0xc3,
  0x98, 0x29, 0x40, 0x40, 0x4b, 0x22, 0x2f, 0x30, 0xb6, 0xcc, 0x40, 0xe7,
  0x94, 0x38, 0xc6, 0x00, 0x49, 0x09, 0xa0, 0x5a, 0x99, 0xb0, 0x16, 0xb9,
  0xa2, 0x15, 0xca, 0xf4, 0x17, 0x3a, 0xb2, 0x6a, 0xdc, 0xd3, 0xda, 0xbc,
  0xf0, 0x15, 0xaa, 0x8e, 0x12, 0xeb, 0x4a, 0xe1, 0x11, 0x3a, 0xf2, 0x00,
  0xeb, 0x9e, 0x19, 0xce, 0x6a, 0xfd, 0x13, 0xc1, 0x90, 0x00, 0x86, 0xe3,
  0x46, 0xe6, 0x81, 0xf6, 0x3b, 0x41, 0x39, 0xc6, 0xa2, 0x21, 0xcc, 0x4e,
  0x48, 0x40, 0x4c, 0xe7, 0xcd, 0x85, 0x9a, 0xd1, 0x17, 0x92, 0x33, 0xe7,
  0xf2, 0x4a, 0xaa, 0xdd, 0xe4, 0x0e, 0xfd, 0xab, 0x0b, 0xad, 0x96, 0x4b,
  0x33, 0x93, 0xf9, 0x12, 0x40, 0x98, 0xc0, 0x47, 0x92, 0xc6, 0xf4, 0xdc,
  0xdd, 0xfc, 0x8a, 0x1a, 0xdc, 0x34, 0x79, 0xe0, 0x30, 0x8a, 0xc3, 0x97,
  0x34, 0xa9, 0x8f, 0x17, 0x04, 0x9a, 0xf7, 0x1a, 0xd6, 0xc7, 0xa9, 0x43,
  0xa1, 0x42, 0x07, 0x17, 0x93, 0xa3, 0xbb, 0x2d, 0x49, 0x2a, 0xa4, 0xba,
  0xb6, 0x22, 0x18, 0x3e, 0x8f, 0xa7, 0x53, 0xef, 0x97, 0x47, 0x9d, 0x2d,
  0xed, 0xbd, 0x0b, 0x22, 0x88, 0x4d, 0xf6, 0xb9, 0x31, 0x9c, 0x4c, 0x00,
  0xd0, 0x68, 0x55, 0x68, 0xdc, 0x09, 0xae, 0xfd, 0xc3, 0xd5, 0xfb, 0xbb,
  0x0a, 0x81, 0xfa, 0x31, 0x3e, 0xe0, 0x0b, 0x0c, 0x55, 0x4d, 0x34, 0x8a,
  0xb5, 0xa7, 0xf9, 0x6a, 0x3a, 0xac, 0xda, 0xa9, 0x40, 0x65, 0xd5, 0xc2,
  0x33, 0x4a, 0x1f, 0xae, 0x52, 0xac, 0x1a, 0x4d, 0x18, 0xdb, 0x3a, 0xa8,
  0xcb, 0x33, 0xa0, 0xf7, 0xaf, 0x81, 0x94, 0xfa, 0xfb, 0x99, 0xd5, 0xeb,
  0xe0, 0x0b, 0x0b, 0xdb, 0x1e, 0xa6, 0xf6, 0x24, 0x4a, 0x22, 0x48, 0x14,
  0x23, 0x8a, 0xd7, 0x33, 0xec, 0x4e, 0xca, 0x1a, 0xdc, 0xf6, 0x3f, 0x02,
  0x22, 0xa2, 0x1e, 0x0c, 0xc2, 0x09, 0xd9, 0x9a, 0xb7, 0xc1, 0x4c, 0x53,
  0x36, 0xea, 0x17, 0x22, 0xea, 0x89, 0x3b, 0xa8, 0xb8, 0xde, 0xac, 0x28,
  0xc1, 0x55, 0x5d, 0x20, 0x29, 0x37, 0x40, 0xc2, 0x90, 0x1d, 0xc8, 0x18,
  0x16, 0x3a, 0x1a, 0x0f, 0x21, 0x22, 0x40, 0x36, 0xcb, 0xd9, 0x8b, 0x64,
  0xfe, 0x34, 0xc9, 0x19, 0xea, 0xc1, 0x08, 0xcf, 0x55, 0xf3, 0x01, 0x02,
  0x37, 0x3b, 0xab, 0xa2, 0xde, 0xdf, 0x3b, 0x22, 0x4f, 0x02, 0x91, 0xcb,
  0x19, 0x48, 0x9d, 0x2b, 0xf9, 0xb1, 0xa6, 0xa0, 0xb2, 0xf6, 0x4f, 0x4f,
  0x9c, 0xd4, 0x3a, 0xbd, 0x96, 0xcd, 0xa2, 0x81, 0x58, 0xc1, 0xb7, 0x66,
  0x31, 0x4a, 0xb6, 0x9f, 0xc4, 0xbe, 0xf0, 0x01, 0xd0, 0x53, 0x60, 0x43,
  0x36, 0xfc, 0x15, 0x02, 0x5c, 0x5b, 0xa6, 0x5f, 0xe2, 0xd4, 0xb3, 0x18,
  0x14, 0xee, 0xa8, 0xb7, 0x21, 0x92, 0xe0, 0xfb, 0xc8, 0x4c, 0xba, 0x3b,
  0x3e, 0xd0, 0x28, 0xed, 0xc7, 0x33, 0xb5, 0xd0, 0x6e, 0x05, 0x1a, 0xfa,
  0x06, 0xfb, 0x97, 0xc3, 0xf3, 0x3b, 0x5a, 0x9a, 0x15, 0xb0, 0xcf, 0x9d,
  0xca, 0x40, 0x6d, 0x1e, 0x8b, 0xaa, 0xa9, 0x00, 0x2f, 0x63, 0x10, 0x22,
  0x0f, 0x15, 0x81, 0x41, 0x08, 0x53, 0x1b, 0xfa, 0xdf, 0x49, 0xbf, 0x13,
  0xcc, 0xdb, 0x51, 0x1c, 0x60, 0xe0, 0xcd, 0x10, 0xe2, 0x0b, 0xd3, 0xf6,
  0x41, 0xbd, 0x4e, 0xe5, 0xab, 0x27, 0x68, 0x5a, 0xc3, 0x5a, 0x31, 0xe2,
  0x8f, 0x78, 0xfa, 0x56, 0xd0, 0xc4, 0xfb, 0xa7, 0xea, 0x9a, 0x37, 0xd8,
  0x1a, 0x07, 0x16, 0x1f, 0x38, 0x37, 0xec, 0xda, 0x93, 0xe8, 0xbe, 0xd6,
  0xaa, 0x6c, 0xfe, 0xca, 0x0a, 0x29, 0xe0, 0xda, 0x09, 0x24, 0x2e, 0x2e,
  0x2e, 0xe3, 0x5f, 0xbb, 0xb2, 0x49, 0x8b, 0x0f, 0x2d, 0x9f, 0xe1, 0x44,
  0x51, 0x2e, 0x4f, 0x3a, 0xac, 0xdf, 0xe7, 0x2e, 0x10, 0x1d, 0x0c, 0x0a,
  0x1e, 0xf0, 0x1e, 0xa2, 0x5d, 0x17, 0x97, 0xdc, 0x40, 0xc5, 0xe8, 0x44,
  0x3f, 0xfe, 0xbf, 0xea, 0xa7, 0x0d, 0x2b, 0xb0, 0x26, 0x03, 0x01, 0x81,
  0xa2, 0xa1, 0x11, 0xc6, 0x99, 0x25, 0xc4, 0x55, 0x0a, 0x0c, 0xe5, 0x11,
  0xfc, 0x23, 0x44, 0xbd, 0xad, 0x0d, 0x4c, 0xd8, 0x06, 0x1c, 0xd8, 0x3d,
  0xf3, 0x06, 0xa5, 0x02, 0xe3, 0xd5, 0x3d, 0x01, 0xee, 0xf3, 0xdc, 0xa9,
  0xe2, 0x27, 0xe6, 0x56, 0xcc, 0xa9, 0xe6, 0x1b, 0x42, 0xd1, 0x05, 0xbd,
  0xc9, 0xae, 0xfd, 0x08, 0xb0, 0x3d, 0xd3, 0x17, 0x3e, 0xbc, 0xff, 0xff,
  0x04, 0x00, 0x00, 0x00, 0x00, 0x01, 0x00, 0x00, 0xfb, 0xfe, 0xff, 0xff,
  0x2e, 0x02, 0x00, 0x00, 0x1b, 0x00, 0x00, 0x00, 0xf7, 0xff, 0xff, 0xff,
  0xf9, 0xff, 0xff, 0xff, 0xae, 0xff, 0xff, 0xff, 0x7c, 0xff, 0xff, 0xff,
  0x82, 0xff, 0xff, 0xff, 0xc2, 0xff, 0xff, 0xff, 0x3d, 0xff, 0xff, 0xff,
  0x53, 0xff, 0xff, 0xff, 0x1a, 0x00, 0x00, 0x00, 0x35, 0xff, 0xff, 0xff,
  0x96, 0xff, 0xff, 0xff, 0xb2, 0xff, 0xff, 0xff, 0x9b, 0xff, 0xff, 0xff,
  0x68, 0xfe, 0xff, 0xff, 0x58, 0xff, 0xff, 0xff, 0xd3, 0xff, 0xff, 0xff,
  0x50, 0xff, 0xff, 0xff, 0xbc, 0xff, 0xff, 0xff, 0xbc, 0xff, 0xff, 0xff,
  0xde, 0xfe, 0xff, 0xff, 0xdf, 0xff, 0xff, 0xff, 0x02, 0x00, 0x00, 0x00,
  0xa5, 0xfe, 0xff, 0xff, 0xdb, 0xff, 0xff, 0xff, 0x26, 0xff, 0xff, 0xff,
  0xd4, 0xfe, 0xff, 0xff, 0x7f, 0xfe, 0xff, 0xff, 0x9d, 0xff, 0xff, 0xff,
  0xab, 0xff, 0xff, 0xff, 0xb4, 0xff, 0xff, 0xff, 0x7a, 0xff, 0xff, 0xff,
  0xfe, 0xfe, 0xff, 0xff, 0x77, 0xff, 0xff, 0xff, 0xba, 0xff, 0xff, 0xff,
  0x40, 0xff, 0xff, 0xff, 0x89, 0xff, 0xff, 0xff, 0x22, 0x00, 0x00, 0x00,
  0x88, 0xff, 0xff, 0xff, 0x94, 0xff, 0xff, 0xff, 0xe7, 0xfe, 0xff, 0xff,
  0x10, 0x00, 0x00, 0x00, 0xe8, 0xff, 0xff, 0xff, 0x9b, 0xfe, 0xff, 0xff,
  0xec, 0xfe, 0xff, 0xff, 0xac, 0xff, 0xff, 0xff, 0x36, 0xff, 0xff, 0xff,
  0xce, 0xff, 0xff, 0xff, 0x31, 0x00, 0x00, 0x00, 0xc6, 0xff, 0xff, 0xff,
  0xd4, 0xff, 0xff, 0xff, 0x08, 0xff, 0xff, 0xff, 0xa6, 0xff, 0xff, 0xff,
  0xe3, 0xfe, 0xff, 0xff, 0x0d, 0x00, 0x00, 0x00, 0x0b, 0x00, 0x00, 0x00,
  0x03, 0x00, 0x00, 0x00, 0xda, 0xff, 0xff, 0xff, 0x10, 0x00, 0x00, 0x00,
  0x82, 0xff, 0xff, 0xff, 0x59, 0xfe, 0xff, 0xff, 0x04, 0x00, 0x00, 0x00,
  0x4a, 0xbd, 0xff, 0xff, 0x04, 0x00, 0x00, 0x00, 0x00, 0x3e, 0x00, 0x00,
  0x33, 0xed, 0x0d, 0xc1, 0xf1, 0xf3, 0x23, 0xe1, 0x50, 0x2a, 0x2d, 0x2e,
  0x23, 0xfa, 0xdb, 0x4c, 0x0b, 0xdb, 0xf9, 0x22, 0xc2, 0xe4, 0xdb, 0xb9,
  0x2b, 0xdd, 0xdf, 0xb2, 0xe3, 0xcf, 0xeb, 0x35, 0x05, 0xf4, 0x1b, 0x3c,
  0x58, 0x21, 0xf6, 0xb7, 0xfa, 0x20, 0xe8, 0x25, 0x37, 0xe9, 0x06, 0x39,
  0x52, 0x03, 0xfe, 0xf5, 0x47, 0xf0, 0x06, 0x11, 0x35, 0xf6, 0xfa, 0xd1,
  0xf7, 0xc0, 0xf1, 0xf0, 0x04, 0xca, 0x01, 0x41, 0xeb, 0x4c, 0x27, 0x1e,
  0xd8, 0x0e, 0xf4, 0xcc, 0x39, 0xe3, 0x24, 0x1a, 0x2d, 0xd3, 0xfa, 0x0b,
  0xdc, 0xf3, 0xf3, 0xd7, 0xef, 0xc9, 0xdb, 0xdd, 0x26, 0xf6, 0xdf, 0xf7,
  0x18, 0x15, 0xf7, 0xfd, 0xf2, 0xc3, 0x42, 0x15, 0xef, 0x16, 0x2f, 0xfa,
  0x09, 0xf6, 0xf6, 0xd8, 0x0e, 0xe3, 0xcd, 0x0b, 0x3f, 0x01, 0x1a, 0xb1,
  0x31, 0xf7, 0x1c, 0x19, 0xc8, 0xf5, 0x01, 0x25, 0xfd, 0xd8, 0x04, 0x37,
  0xe4, 0x04, 0xc3, 0x16, 0xf3, 0x24, 0xf9, 0xbc, 0xf4, 0xe4, 0x06, 0xf2,
  0xdd, 0xe5, 0xf6, 0xde, 0xb6, 0x13, 0x0f, 0x31, 0xfb, 0x01, 0x0b, 0xda,
  0xdd, 0xe7, 0x15, 0x6c, 0xd7, 0xd3, 0x12, 0x20, 0xf2, 0xe1, 0xad, 0x13,
  0x09, 0x4b, 0x26, 0x0a, 0x6c, 0xe2, 0xa4, 0x11, 0xe5, 0xce, 0x4f, 0xd4,
  0xdd, 0x01, 0xe9, 0xcb, 0xcc, 0x04, 0xdc, 0xc0, 0xf5, 0xb8, 0xac, 0x0e,
  0x27, 0x1f, 0x0d, 0x0b, 0x0e, 0xc4, 0x10, 0xf3, 0x02, 0x20, 0xc3, 0xed,
  0xd6, 0x16, 0xf7, 0xd4, 0x05, 0xe9, 0xe4, 0x25, 0x14, 0x11, 0x2f, 0xf1,
  0xf9, 0x02, 0xcd, 0x02, 0x2c, 0x03, 0xf6, 0x2c, 0xff, 0xc2, 0xdc, 0xee,
  0x25, 0x07, 0x3c, 0x2c, 0xfb, 0x1f, 0x0a, 0xeb, 0x14, 0x27, 0xaf, 0xf6,
  0x19, 0xdd, 0xe2, 0x3a, 0xe1, 0x24, 0xe6, 0x1c, 0xec, 0xe0, 0x44, 0x1b,
  0x2d, 0x2b, 0x1d, 0x1b, 0x0a, 0x30, 0xf4, 0xbc, 0xf5, 0xbf, 0xe0, 0xcb,
  0x0a, 0xbd, 0x19, 0xdd, 0x29, 0xfb, 0xe7, 0x12, 0xd7, 0xe2, 0xe2, 0x29,
  0xdd, 0xfc, 0x51, 0x0f, 0x41, 0x25, 0x35, 0xee, 0x2e, 0xe8, 0xf5, 0x18,
  0xf9, 0xf6, 0xc8, 0xdc, 0xc0, 0xce, 0xff, 0xd8, 0x39, 0xf4, 0x04, 0xd4,
  0x1c, 0xd6, 0x2f, 0xfc, 0x08, 0x26, 0x44, 0xe1, 0xc9, 0x2a, 0xfb, 0xf5,
  0x23, 0x20, 0xcc, 0x31, 0xd8, 0x2b, 0x1b, 0xef, 0xfb, 0x15, 0xf1, 0xf0,
  0x19, 0x1a, 0x11, 0xfa, 0x0d, 0xc7, 0x1a, 0xff, 0xe6, 0x15, 0x0e, 0xdb,
  0x0a, 0xeb, 0x24, 0xcc, 0x22, 0xd3, 0xd9, 0xca, 0x24, 0x27, 0x11, 0xeb,
  0x2d, 0x46, 0x1e, 0x39, 0xe9, 0xdb, 0xea, 0xd7, 0xe2, 0x3a, 0xe6, 0xed,
  0xf5, 0xcf, 0xe8, 0x38, 0xf5, 0xf4, 0xfa, 0x1f, 0xf6, 0x03, 0xf7, 0x2f,
  0xb5, 0xf9, 0x14, 0xd5, 0x27, 0xed, 0x0c, 0x29, 0x01, 0x42, 0xfa, 0xc9,
  0xe2, 0x13, 0xef, 0xe6, 0xdf, 0x43, 0xf5, 0x15, 0x32, 0xdf, 0x20, 0xe3,
  0x44, 0x27, 0xfb, 0x41, 0xe7, 0xf2, 0x22, 0x36, 0x38, 0x3f, 0xf3, 0x0d,
  0x32, 0xfd, 0x1a, 0x54, 0x2c, 0xee, 0xf4, 0x1b, 0xf6, 0x1f, 0x14, 0x02,
  0xe0, 0xc2, 0xff, 0xf4, 0xfb, 0x11, 0x21, 0x02, 0x17, 0x2a, 0x32, 0xf5,
  0xfd, 0x11, 0x1a, 0xf2, 0xc8, 0xf0, 0xc2, 0x13, 0xfa, 0x12, 0x03, 0x2d,
  0x01, 0x08, 0xfb, 0xb7, 0xf8, 0xc3, 0xf9, 0x27, 0xd3, 0x1a, 0xf2, 0x14,
  0x18, 0xe7, 0x29, 0xb2, 0x2f, 0xec, 0x14, 0xb9, 0xe1, 0x01, 0xf8, 0xd9,
  0x03, 0x33, 0x45, 0xd8, 0xfb, 0x1e, 0x03, 0xfb, 0xd0, 0x1e, 0xeb, 0x0b,
  0xea, 0x1e, 0xf6, 0x16, 0xfc, 0xce, 0xc6, 0x4d, 0x1b, 0x0a, 0xe0, 0xe6,
  0x14, 0x0c, 0xc0, 0x02, 0x09, 0x0a, 0xd3, 0xd0, 0x25, 0xc2, 0x30, 0x1f,
  0x0e, 0xfe, 0xd1, 0xcf, 0xde, 0x12, 0xe3, 0xb5, 0xfe, 0xbf, 0x35, 0xa5,
  0x20, 0xab, 0x09, 0x08, 0xd5, 0x1e, 0x1e, 0x1e, 0xd3, 0xed, 0xce, 0xa5,
  0x2c, 0x36, 0x44, 0x16, 0x1c, 0x0b, 0xef, 0x3e, 0xd2, 0xf9, 0xd7, 0xec,
  0x19, 0x08, 0xbd, 0x1f, 0xd0, 0x17, 0xe4, 0xfd, 0xcb, 0xdc, 0x36, 0xc1,
  0xe6, 0xfe, 0xc0, 0xfd, 0x00, 0x1c, 0xfd, 0x06, 0x1e, 0x1d, 0x42, 0x2c,
  0x2e, 0x0e, 0x28, 0x4c, 0x0c, 0xfb, 0xf8, 0xee, 0xf0, 0x15, 0x2f, 0xe7,
  0x29, 0x18, 0xfb, 0xc3, 0x0b, 0xf5, 0x0e, 0xed, 0x13, 0xed, 0xff, 0xfc,
  0xd9, 0x1e, 0x0e, 0xec, 0x28, 0x1f, 0xfa, 0xe0, 0x12, 0xd7, 0xec, 0xd9,
  0x15, 0xe9, 0xfe, 0xe0, 0xe5, 0x2e, 0xf9, 0xbc, 0x0c, 0x14, 0x1f, 0xce,
  0xdf, 0xe1, 0xd9, 0x33, 0x31, 0xfb, 0xdd, 0xfc, 0x1d, 0x39, 0x0c, 0x1e,
  0x2d, 0xf0, 0x14, 0x06, 0xd3, 0xf4, 0x43, 0xe2, 0x06, 0x11, 0x34, 0xfc,
  0x14, 0x0f, 0x02, 0xcb, 0x03, 0x2d, 0x1f, 0xd9, 0x0d, 0x08, 0xed, 0x06,
  0xee, 0x23, 0x40, 0x3c, 0x2e, 0x2c, 0x30, 0xfb, 0x1b, 0x30, 0xc0, 0x18,
  0x2b, 0x1e, 0x08, 0x05, 0x14, 0x44, 0x26, 0x4e, 0x3b, 0x59, 0xe0, 0x3b,
  0xf6, 0x10, 0xfd, 0xd1, 0xe2, 0xfb, 0xd7, 0x32, 0xea, 0xb7, 0x21, 0x00,
  0xd8, 0xdf, 0x0f, 0xb0, 0xfe, 0x23, 0x0e, 0xfe, 0x13, 0x28, 0xcc, 0xf9,
  0x25, 0xfc, 0xf2, 0xeb, 0x0c, 0x1f, 0xde, 0xd6, 0xd7, 0xb2, 0x08, 0x39,
  0x14, 0x2e, 0x02, 0x2e, 0xb4, 0xfe, 0x01, 0xe4, 0x38, 0xdb, 0x2e, 0xbc,
  0x2d, 0x15, 0xf7, 0xf3, 0x34, 0xbb, 0x01, 0xff, 0xf7, 0x35, 0xd3, 0x28,
  0x1d, 0x0b, 0x0f, 0x0e, 0xe0, 0xcc, 0xcb, 0x1a, 0xa2, 0x0a, 0x05, 0x0d,
  0x21, 0x03, 0x29, 0xf2, 0x08, 0x01, 0x02, 0xe4, 0x10, 0xd4, 0xda, 0x30,
  0x35, 0xd1, 0x15, 0xf8, 0xfc, 0xc2, 0xfc, 0x34, 0x1b, 0xf9, 0x20, 0x28,
  0x0f, 0x3e, 0xfa, 0xd8, 0x1e, 0xd3, 0x14, 0xe3, 0xfc, 0x25, 0x45, 0x04,
  0x1a, 0x20, 0x32, 0xf5, 0xb9, 0x0d, 0xc9, 0xf3, 0x17, 0xf8, 0x36, 0x26,
  0xba, 0x3c, 0xf1, 0x03, 0x04, 0x01, 0xe2, 0xc9, 0xcf, 0x37, 0xd2, 0x0d,
  0xf2, 0xe3, 0xfc, 0xf2, 0xe0, 0x15, 0xe3, 0xf6, 0xdd, 0xfb, 0x05, 0xf0,
  0xe5, 0xe9, 0xeb, 0xfe, 0x01, 0x29, 0xd4, 0xe0, 0x05, 0x2d, 0x2c, 0x3e,
  0x10, 0xf5, 0xe6, 0xd2, 0xee, 0x1a, 0x3f, 0xdf, 0x0b, 0x07, 0xd9, 0xf7,
  0xff, 0xf6, 0xf2, 0x00, 0x06, 0x39, 0x1a, 0x13, 0xeb, 0x34, 0xb6, 0x0b,
  0x03, 0xeb, 0xde, 0xe7, 0xc6, 0x34, 0x4e, 0x08, 0xf7, 0x10, 0x09, 0xd7,
  0xd5, 0x0f, 0xcb, 0x20, 0x9c, 0xef, 0xfc, 0xf6, 0x2d, 0x26, 0x11, 0x41,
  0x15, 0xed, 0x13, 0x01, 0xb7, 0x31, 0xdd, 0xf6, 0xc0, 0xec, 0x0a, 0xda,
  0xed, 0xd1, 0xed, 0xeb, 0x0c, 0xe3, 0x0d, 0x03, 0x0c, 0x30, 0x35, 0x14,
  0xff, 0x10, 0x24, 0x4d, 0xb7, 0x28, 0x3e, 0x31, 0xfe, 0x08, 0x0a, 0xb8,
  0xf3, 0xea, 0x32, 0xfc, 0x45, 0x3e, 0x36, 0x0c, 0x1c, 0xd7, 0xf3, 0x2b,
  0x16, 0x52, 0xd6, 0x4a, 0x1a, 0x44, 0xef, 0xc9, 0xd5, 0x31, 0x17, 0xd9,
  0x4a, 0x0e, 0x0e, 0xec, 0x19, 0x1d, 0xff, 0x19, 0xe1, 0x00, 0x4a, 0x16,
  0x2a, 0x08, 0xc0, 0x48, 0xc7, 0x27, 0x1f, 0xeb, 0xf8, 0xfe, 0x1d, 0x20,
  0x12, 0x1f, 0xff, 0xef, 0x0f, 0x0c, 0xf5, 0xbf, 0xe4, 0x37, 0x41, 0xea,
  0xf6, 0x3f, 0xd8, 0x31, 0x2b, 0x15, 0xeb, 0xe7, 0x15, 0x0e, 0x2f, 0xe4,
  0x1e, 0x3e, 0xf8, 0x0f, 0xbf, 0x00, 0x0a, 0xe9, 0x3b, 0xcf, 0xfb, 0xd3,
  0xeb, 0xd8, 0x34, 0x05, 0x3f, 0x19, 0x3f, 0xf4, 0x09, 0x11, 0x11, 0x2e,
  0x1e, 0xd9, 0x06, 0xfb, 0x44, 0xe0, 0x23, 0x3b, 0xbe, 0x0d, 0x01, 0xe6,
  0x05, 0x30, 0x1f, 0x34, 0x22, 0xe7, 0xca, 0xd2, 0xc3, 0xa8, 0xf5, 0x0a,
  0xd4, 0xbc, 0xea, 0x0d, 0x06, 0xed, 0x1d, 0x24, 0x14, 0xf7, 0xd9, 0xfa,
  0xf9, 0x06, 0x04, 0xc7, 0xf6, 0xea, 0x1b, 0x2e, 0x45, 0xd7, 0xf7, 0x52,
  0xe5, 0x0c, 0x21, 0x00, 0xc0, 0x2d, 0xc7, 0xf0, 0xe1, 0xec, 0xd5, 0x24,
  0x00, 0xff, 0x22, 0xb8, 0xba, 0x01, 0xec, 0xcb, 0x08, 0x34, 0xc7, 0x41,
  0x00, 0x13, 0xf2, 0x0a, 0xfb, 0x2c, 0x11, 0xbd, 0x07, 0x41, 0x15, 0x1d,
  0xee, 0x15, 0x23, 0x11, 0xd4, 0x00, 0x5d, 0x1a, 0x3f, 0x3f, 0x3f, 0xe0,
  0x22, 0xf3, 0xd0, 0x46, 0x32, 0x36, 0x09, 0x14, 0xf9, 0x24, 0xee, 0x02,
  0xf3, 0x45, 0xd9, 0x45, 0xec, 0x30, 0x17, 0x0e, 0xcd, 0xd9, 0xfa, 0xec,
  0x13, 0xe7, 0x35, 0xfb, 0xa0, 0xf8, 0xff, 0xcc, 0x11, 0x2c, 0xe6, 0xd7,
  0xf5, 0xdf, 0xdf, 0xde, 0xfd, 0x4b, 0xfe, 0xec, 0xec, 0x2a, 0x45, 0xc8,
  0x16, 0x1d, 0x43, 0x48, 0xbd, 0x38, 0x14, 0x23, 0xdc, 0x1d, 0x10, 0x38,
  0x1a, 0x04, 0x37, 0x32, 0xee, 0xf1, 0xf9, 0x15, 0xf6, 0xe7, 0x4c, 0x26,
  0xec, 0x26, 0x3e, 0x07, 0xf0, 0x40, 0xbb, 0xe3, 0x2a, 0x31, 0x2c, 0xf4,
  0x49, 0x34, 0x16, 0x27, 0x09, 0x0e, 0xc6, 0x10, 0xbf, 0xe5, 0xf4, 0xc6,
  0xce, 0xf8, 0xe0, 0x06, 0x26, 0x51, 0x03, 0xfa, 0x36, 0xf4, 0x34, 0xf9,
  0x25, 0xe0, 0x32, 0x18, 0x37, 0xe1, 0x11, 0x2f, 0xf1, 0x50, 0xdb, 0xb9,
  0xe5, 0x20, 0x0f, 0xc7, 0x51, 0xd2, 0x03, 0x3c, 0xd7, 0x14, 0xf4, 0x14,
  0xe4, 0xfb, 0xd7, 0x1b, 0xde, 0xdb, 0x1d, 0x1c, 0x39, 0x07, 0x13, 0x26,
  0xe8, 0xd4, 0xfd, 0xca, 0xf0, 0x19, 0xdf, 0x35, 0xcd, 0x16, 0xca, 0xec,
  0x03, 0xfa, 0xce, 0xf9, 0x1d, 0xb9, 0x32, 0x34, 0xf3, 0x1f, 0xe1, 0x17,
  0x08, 0xd3, 0xe4, 0xef, 0xfa, 0x28, 0xe2, 0x02, 0x04, 0x0d, 0xee, 0x34,
  0xc0, 0x27, 0xf0, 0xe2, 0xe5, 0x33, 0x0a, 0x06, 0xc3, 0x11, 0x18, 0xe2,
  0x3c, 0x3e, 0xbb, 0xd8, 0x01, 0x19, 0xef, 0xdf, 0xe1, 0xfe, 0x22, 0x2f,
  0x16, 0xff, 0xaa, 0xc8, 0xc5, 0x36, 0x3d, 0x24, 0xc4, 0xed, 0xf1, 0x15,
  0x31, 0xe3, 0x0f, 0x33, 0xb0, 0xfb, 0xf4, 0xb9, 0x03, 0x0c, 0xcf, 0xd0,
  0xd2, 0x49, 0xe4, 0x23, 0xc0, 0x0f, 0xcb, 0xe1, 0xf9, 0x21, 0x15, 0x2a,
  0xc9, 0x06, 0x25, 0x14, 0xca, 0x12, 0xe9, 0xd2, 0x12, 0xf9, 0x27, 0x05,
  0xdf, 0xfc, 0xf3, 0xd0, 0x18, 0xe0, 0x2a, 0x04, 0x16, 0xd9, 0xea, 0xd9,
  0x09, 0x10, 0x48, 0xf3, 0xe2, 0x32, 0xb2, 0xf7, 0xed, 0xd9, 0xea, 0xe7,
  0xb4, 0x35, 0x28, 0xf5, 0xe4, 0xe6, 0xc5, 0xd2, 0xc3, 0xda, 0xf9, 0x24,
  0x13, 0xd2, 0x10, 0x11, 0xcf, 0xaf, 0x34, 0x44, 0xf4, 0xf8, 0xee, 0xf3,
  0x0d, 0xd2, 0xda, 0x16, 0xdc, 0x00, 0xe0, 0xe8, 0x11, 0xdb, 0xe6, 0x1b,
  0xe1, 0x19, 0xe2, 0x1f, 0xec, 0xc6, 0xe0, 0xe8, 0xf6, 0xda, 0xde, 0xf6,
  0x09, 0x09, 0xd8, 0xdc, 0xd6, 0x22, 0xd6, 0xe0, 0xbd, 0xe7, 0x02, 0x19,
  0xf6, 0xe3, 0x14, 0x27, 0xb7, 0xeb, 0x17, 0xfb, 0xbc, 0xe2, 0xa1, 0xd4,
  0x26, 0xb7, 0xf7, 0xdb, 0x3e, 0xd5, 0x08, 0x19, 0x1f, 0x18, 0x34, 0xe4,
  0xcf, 0xf9, 0xc7, 0xea, 0x0c, 0xd4, 0x08, 0xc4, 0x14, 0xb8, 0x32, 0xff,
  0x1b, 0xb7, 0xf1, 0xbb, 0xdc, 0x0d, 0x06, 0xc3, 0xe1, 0xf0, 0x10, 0xc6,
  0x13, 0xfa, 0xe1, 0xc4, 0xf8, 0x19, 0x38, 0x34, 0xc8, 0x19, 0x55, 0xf5,
  0xd2, 0x17, 0x13, 0xca, 0x0d, 0xdc, 0xd4, 0xdc, 0xc5, 0x09, 0xb9, 0x17,
  0xfb, 0x01, 0xdc, 0x27, 0x35, 0xe9, 0xd5, 0xe5, 0x0f, 0xfe, 0x20, 0xf4,
  0xd8, 0xf6, 0x40, 0xfd, 0x31, 0xe5, 0x24, 0x40, 0xd1, 0x08, 0x0a, 0x0b,
  0x14, 0x0a, 0xcc, 0xa4, 0xf0, 0x3a, 0xed, 0xf6, 0x22, 0xce, 0x48, 0xff,
  0x0c, 0x0b, 0x19, 0xde, 0x2b, 0x2a, 0xd4, 0xc8, 0x00, 0x1e, 0x0f, 0x02,
  0xca, 0x1e, 0x23, 0xd9, 0xef, 0xf9, 0xe9, 0x06, 0x24, 0xde, 0x13, 0x31,
  0x1d, 0xba, 0x0e, 0xcc, 0x1d, 0xbe, 0x0d, 0x3d, 0xce, 0x35, 0xec, 0xd8,
  0xf0, 0xe3, 0xe7, 0xeb, 0xdb, 0xbe, 0x07, 0xd9, 0x04, 0xd2, 0xbe, 0x52,
  0xfa, 0xfa, 0xe3, 0x3a, 0xbc, 0x0b, 0x05, 0x34, 0x29, 0x27, 0xe4, 0xee,
  0x33, 0x1e, 0x04, 0xfd, 0x29, 0x1f, 0xe9, 0x1d, 0xfc, 0xd1, 0x30, 0xfc,
  0xf6, 0x0f, 0x28, 0x41, 0x2a, 0x08, 0x1e, 0x34, 0x0f, 0x1d, 0xe2, 0xd4,
  0xf2, 0x1d, 0x01, 0xfc, 0xca, 0x3e, 0xed, 0x20, 0x25, 0x29, 0xc3, 0xe0,
  0xf1, 0x30, 0xf2, 0x1b, 0x04, 0xce, 0x49, 0x34, 0x28, 0xff, 0x2c, 0x0d,
  0x26, 0x37, 0x13, 0x09, 0xe9, 0xfd, 0xdd, 0xe4, 0xfa, 0x3a, 0x37, 0xe0,
  0xdd, 0x29, 0xf9, 0x1e, 0x06, 0xfe, 0xeb, 0xf8, 0x29, 0x0e, 0x2b, 0xc5,
  0x3a, 0x2b, 0x01, 0xde, 0xeb, 0xc8, 0xdc, 0x19, 0xc5, 0x35, 0x09, 0x06,
  0x02, 0xd4, 0xd6, 0x23, 0xf4, 0xd9, 0x0b, 0x06, 0xd9, 0xcb, 0x3b, 0x2b,
  0xd5, 0xb8, 0x12, 0xe0, 0xe8, 0x14, 0x34, 0x04, 0x25, 0x18, 0xe1, 0xe0,
  0x25, 0x41, 0xb4, 0x2a, 0x1d, 0x03, 0xfb, 0xba, 0x2a, 0x1c, 0x1a, 0xc3,
  0xe9, 0x30, 0xfa, 0xe2, 0x4d, 0x2c, 0xe7, 0xd8, 0xa5, 0x45, 0xd4, 0x13,
  0x1d, 0x2d, 0xe3, 0xe2, 0x46, 0xfa, 0x12, 0xd4, 0xf2, 0x11, 0xf3, 0x20,
  0xd1, 0xf0, 0xd5, 0xfe, 0x1e, 0x1d, 0xe8, 0x11, 0x08, 0xb4, 0xf6, 0xec,
  0xd4, 0x21, 0x25, 0xd2, 0xf8, 0xd2, 0x39, 0xea, 0xfb, 0x3d, 0xf8, 0xee,
  0x13, 0x13, 0xc1, 0xca, 0xdc, 0xac, 0xe2, 0x2e, 0x41, 0x04, 0x33, 0x22,
  0x37, 0x05, 0x33, 0xee, 0xf1, 0xb3, 0x06, 0xf8, 0x06, 0x44, 0xee, 0xf4,
  0xfe, 0xb3, 0x02, 0x43, 0xe4, 0x02, 0xdf, 0xc3, 0x23, 0x2b, 0x11, 0x37,
  0xf1, 0x1c, 0xbd, 0xef, 0xe0, 0xe8, 0x01, 0xc2, 0x1b, 0x23, 0xe9, 0x41,
  0x30, 0xfa, 0x17, 0x11, 0xdb, 0x08, 0x49, 0x26, 0x12, 0x08, 0xf2, 0x1f,
  0xd3, 0x05, 0x35, 0xcf, 0x21, 0xcd, 0xc8, 0xbf, 0xbc, 0x28, 0xee, 0x12,
  0xc1, 0x09, 0x30, 0xd7, 0x00, 0x00, 0x11, 0xec, 0xa8, 0xe4, 0xea, 0x23,
  0xf7, 0x10, 0xe4, 0x28, 0x05, 0x1a, 0xe0, 0x09, 0xf6, 0xf7, 0xf9, 0xbf,
  0xd2, 0x1c, 0xf8, 0xea, 0x23, 0xf5, 0xd7, 0xa9, 0x05, 0x0a, 0x29, 0x1a,
  0x40, 0x16, 0xdf, 0x25, 0xf4, 0x04, 0xf4, 0xf2, 0xf2, 0xcc, 0x18, 0xfa,
  0x1a, 0x46, 0xc8, 0x2c, 0xf6, 0xe7, 0x14, 0xf9, 0xed, 0x23, 0x43, 0xe3,
  0xdd, 0xe9, 0x06, 0xd8, 0xf5, 0xf1, 0xe5, 0xfc, 0xe8, 0xed, 0x2a, 0xbb,
  0xd2, 0xcc, 0xb7, 0xb8, 0xa5, 0x12, 0x26, 0x31, 0xee, 0xf6, 0xbd, 0xea,
  0xe9, 0x29, 0x32, 0x4b, 0x17, 0xc8, 0x0e, 0x02, 0xfa, 0xe8, 0xf7, 0xd8,
  0x10, 0x2f, 0x2e, 0xe3, 0xff, 0x3c, 0xd4, 0x20, 0x00, 0xe3, 0x2a, 0x16,
  0xc0, 0xd2, 0x14, 0x25, 0x38, 0xee, 0xbf, 0x14, 0xb1, 0x26, 0xfd, 0xca,
  0x2a, 0x4b, 0xe3, 0xe6, 0x0e, 0x0b, 0xd7, 0x23, 0xe2, 0xbc, 0xfd, 0xeb,
  0x1f, 0xff, 0xfc, 0x2c, 0xce, 0xe5, 0xed, 0xa2, 0x06, 0xb3, 0x06, 0x48,
  0x3e, 0xd5, 0x34, 0xc1, 0xe0, 0x00, 0xfe, 0xf7, 0xc3, 0xf4, 0xfe, 0x08,
  0x15, 0xfa, 0xd7, 0x0c, 0x21, 0xd7, 0xd5, 0x01, 0x38, 0xb6, 0xf8, 0x1f,
  0x03, 0xd2, 0xf2, 0x24, 0x25, 0x07, 0xe3, 0xd6, 0xca, 0xd7, 0x1a, 0xfa,
  0xe6, 0xdd, 0x09, 0xf0, 0xdd, 0x05, 0xc3, 0xf6, 0x12, 0xc8, 0xb1, 0xc8,
  0xf3, 0xea, 0x11, 0x1a, 0xe1, 0x07, 0x21, 0x39, 0xf8, 0xc6, 0xdf, 0x02,
  0x05, 0x5b, 0xd8, 0x3c, 0x43, 0xd5, 0x0f, 0xe7, 0x44, 0x3e, 0xd5, 0xe7,
  0x03, 0xe7, 0xe5, 0x3e, 0x02, 0xdc, 0x1c, 0xfb, 0x21, 0x00, 0xe4, 0x0c,
  0xfe, 0xdf, 0x3d, 0x06, 0xf7, 0xf1, 0xd3, 0xcf, 0x24, 0xfa, 0x18, 0xfc,
  0xe0, 0xc0, 0xf2, 0x1a, 0x2b, 0xed, 0x37, 0x25, 0xfd, 0x26, 0x30, 0x9f,
  0x0b, 0xff, 0x29, 0xc5, 0xf1, 0x36, 0x3d, 0x3d, 0xdf, 0x07, 0x0a, 0x24,
  0xe0, 0xf5, 0x35, 0x19, 0x3c, 0xf2, 0xd4, 0x16, 0xe9, 0xeb, 0x25, 0xf4,
  0x33, 0x1f, 0x2f, 0x11, 0x1b, 0x02, 0xcd, 0x0e, 0x13, 0x0b, 0xe8, 0xe7,
  0x27, 0xdb, 0x5e, 0xd5, 0x34, 0x0c, 0x0d, 0x10, 0xee, 0xff, 0x19, 0xe1,
  0x11, 0xc5, 0x01, 0xce, 0xdc, 0xfc, 0x45, 0x40, 0xf5, 0xdd, 0x02, 0x1e,
  0x40, 0x0b, 0xba, 0xf1, 0x19, 0x23, 0x2b, 0xe2, 0xcc, 0xc1, 0xdc, 0xcc,
  0x08, 0xf7, 0xd8, 0x2b, 0xfc, 0x53, 0xd4, 0x47, 0x35, 0xdf, 0x05, 0x0d,
  0x0d, 0xe2, 0x26, 0xf6, 0x08, 0xd7, 0xfa, 0x03, 0xbd, 0x05, 0xe5, 0x3f,
  0x39, 0x49, 0xff, 0x3b, 0xe7, 0x11, 0x11, 0xfc, 0xf7, 0x25, 0x08, 0x34,
  0xba, 0x28, 0x26, 0xe4, 0xdf, 0xeb, 0xdb, 0xd2, 0xde, 0xe7, 0x1a, 0x42,
  0x63, 0x21, 0x31, 0x37, 0xf6, 0x24, 0x2f, 0xf3, 0xee, 0x20, 0x0e, 0x45,
  0xbb, 0x2d, 0xbe, 0xd2, 0x0a, 0xf2, 0x34, 0x04, 0xf7, 0x48, 0xce, 0x1a,
  0xf3, 0x27, 0x1c, 0x01, 0xc3, 0xfe, 0x03, 0xad, 0xe4, 0x33, 0x76, 0x00,
  0x27, 0x09, 0x14, 0x1a, 0x0c, 0x9f, 0x23, 0x1a, 0x22, 0x0c, 0xe9, 0x18,
  0x23, 0xd8, 0x1c, 0xeb, 0x38, 0xe7, 0x41, 0xfb, 0x76, 0x05, 0xdb, 0x15,
  0xfb, 0x0e, 0xf9, 0xea, 0xe0, 0x0a, 0xd6, 0xc9, 0xe0, 0x3e, 0xfd, 0xdf,
  0xea, 0x1f, 0x08, 0x06, 0xde, 0xd3, 0x31, 0x5d, 0xf3, 0xc1, 0xfd, 0xd0,
  0xdb, 0x46, 0x56, 0xf3, 0x0f, 0x0e, 0x03, 0xe3, 0x3e, 0x39, 0x1f, 0xe8,
  0x69, 0xe9, 0xdb, 0x08, 0xe1, 0xca, 0x32, 0x30, 0xed, 0xcd, 0x1d, 0x01,
  0xfe, 0xc1, 0x44, 0xea, 0xdc, 0x08, 0x75, 0x0c, 0xec, 0x1c, 0x34, 0x0d,
  0x0d, 0xde, 0x59, 0xdd, 0xe0, 0x5d, 0xf1, 0x20, 0x6d, 0xd4, 0x2e, 0x58,
  0x21, 0xdc, 0x41, 0x1b, 0x25, 0xe0, 0xed, 0xbd, 0x06, 0x3c, 0x2f, 0xf0,
  0x03, 0x34, 0xe3, 0x06, 0x11, 0x17, 0x3c, 0x16, 0xe7, 0xe4, 0xde, 0xd2,
  0x1f, 0xd4, 0xe0, 0xca, 0xde, 0xfd, 0x41, 0xfd, 0x25, 0xe6, 0x2c, 0xda,
  0xe6, 0x6e, 0xe3, 0x2f, 0xe9, 0xb8, 0xd1, 0x1b, 0x24, 0xf7, 0xf4, 0x31,
  0x17, 0x08, 0xd8, 0xcd, 0x3d, 0x13, 0x08, 0xf0, 0xdd, 0x0e, 0x42, 0xf5,
  0x0d, 0x24, 0xe1, 0xf3, 0x15, 0x2f, 0xc5, 0x34, 0xe5, 0xf8, 0x3b, 0x03,
  0xb7, 0x32, 0xce, 0xe4, 0xc8, 0x11, 0xf8, 0xde, 0x10, 0xb5, 0xfa, 0xd0,
  0x21, 0x11, 0xec, 0x0f, 0xc4, 0x0c, 0xd5, 0xe1, 0xe5, 0xc3, 0xfe, 0x26,
  0x2a, 0x0a, 0x02, 0x28, 0xf1, 0x58, 0x01, 0x0a, 0xee, 0x06, 0x26, 0xe5,
  0xf5, 0x08, 0xd0, 0x58, 0xdf, 0xec, 0xfb, 0xdc, 0xea, 0x42, 0xf5, 0x2a,
  0x00, 0x36, 0x11, 0x05, 0xf7, 0xda, 0x26, 0x0b, 0x48, 0x1a, 0x33, 0x0e,
  0x37, 0xd5, 0xd3, 0xc3, 0xf8, 0xee, 0x41, 0xd0, 0x12, 0xc0, 0x06, 0x22,
  0x28, 0xc8, 0x04, 0xe9, 0x39, 0xff, 0xfc, 0x00, 0x13, 0xd9, 0xce, 0xd6,
  0xfa, 0xe5, 0x5e, 0x44, 0x3d, 0xcc, 0xfd, 0x40, 0xf1, 0xea, 0xdb, 0x07,
  0x17, 0x30, 0xe1, 0x48, 0xd3, 0x06, 0x03, 0x11, 0x01, 0xd8, 0x2d, 0x18,
  0x52, 0x2c, 0x0d, 0x19, 0x4b, 0x07, 0xfb, 0xf0, 0x35, 0x09, 0xda, 0x37,
  0xfd, 0x04, 0xe5, 0xf8, 0xdd, 0x13, 0x2f, 0xde, 0x0c, 0x04, 0xf2, 0x50,
  0xde, 0xc6, 0x3b, 0x21, 0x0f, 0xd0, 0x27, 0xc6, 0x2b, 0x7a, 0x1b, 0xed,
  0xfc, 0x6f, 0x16, 0x11, 0x33, 0x24, 0x02, 0x1e, 0x05, 0xbf, 0xdc, 0x59,
  0xfd, 0xe5, 0xd4, 0xe6, 0x43, 0xe8, 0xf8, 0x19, 0xdd, 0x14, 0x1e, 0x34,
  0x47, 0x13, 0x11, 0xf6, 0x13, 0x40, 0xe6, 0x63, 0x2d, 0x30, 0x56, 0xeb,
  0xfa, 0x2b, 0x0b, 0x2c, 0xd2, 0x3b, 0xe6, 0xea, 0xe1, 0x46, 0x15, 0xd3,
  0xd1, 0x06, 0x09, 0xfd, 0x0d, 0x36, 0xfc, 0x29, 0x22, 0x3d, 0xde, 0x16,
  0xf9, 0x16, 0x2f, 0xf8, 0x38, 0xea, 0x22, 0xd6, 0x3d, 0xf8, 0x37, 0xd6,
  0x2d, 0x0d, 0x1c, 0xe5, 0xe0, 0x5d, 0x2b, 0xec, 0x2e, 0x31, 0x15, 0x36,
  0x0e, 0x35, 0xf8, 0x4c, 0x36, 0x3a, 0x40, 0xf3, 0x1a, 0x02, 0xdd, 0x23,
  0x01, 0x4b, 0xed, 0xd0, 0x02, 0x19, 0x05, 0xe4, 0x0d, 0x16, 0x0d, 0x5b,
  0x45, 0x3f, 0xc4, 0xe9, 0x2c, 0xc6, 0xe3, 0x24, 0xf6, 0x20, 0x0a, 0xc9,
  0x17, 0xe0, 0xd7, 0x48, 0x11, 0x05, 0x30, 0x23, 0x3c, 0xd8, 0xce, 0x1e,
  0xe9, 0x21, 0x1f, 0xe6, 0x2f, 0x1a, 0x31, 0x2a, 0xdf, 0x37, 0x2e, 0xf5,
  0xd6, 0xc8, 0x71, 0x2f, 0x23, 0x10, 0x0f, 0x10, 0x1e, 0x02, 0xd3, 0x11,
  0xfc, 0x32, 0x0d, 0x55, 0xe1, 0xe9, 0x21, 0x03, 0x14, 0xdd, 0xfe, 0x0c,
  0x55, 0xce, 0xde, 0x30, 0x43, 0x21, 0xca, 0x15, 0xca, 0x0a, 0x14, 0x1b,
  0xf1, 0xca, 0xe4, 0xba, 0x09, 0x36, 0x00, 0xca, 0xe1, 0xce, 0x1e, 0x26,
  0x19, 0x23, 0x25, 0x1f, 0xfc, 0xce, 0x20, 0xf6, 0x1a, 0x18, 0xf7, 0xbd,
  0x1b, 0xeb, 0x0e, 0xe5, 0x3b, 0x2c, 0x34, 0x17, 0xd3, 0xd3, 0xe0, 0xf9,
  0x13, 0x3d, 0x01, 0xb7, 0xf3, 0xec, 0xdb, 0xd9, 0xe7, 0xcf, 0x45, 0xd7,
  0xfa, 0x0f, 0xbc, 0x1a, 0xfc, 0xf0, 0x1e, 0x20, 0x27, 0xb5, 0xbc, 0x1e,
  0xd4, 0xfb, 0x49, 0xde, 0xf7, 0x03, 0xea, 0x2a, 0xf7, 0x21, 0x09, 0x12,
  0x0b, 0x2b, 0xcc, 0x59, 0xe1, 0xd6, 0xf4, 0xc7, 0xcc, 0x1d, 0xbf, 0xe3,
  0x47, 0x1d, 0xab, 0xe1, 0x1b, 0xd1, 0x18, 0xfe, 0xd2, 0xe9, 0x00, 0x04,
  0xd6, 0x21, 0xd7, 0xb9, 0xd1, 0xed, 0x27, 0xd1, 0x2e, 0xc2, 0x16, 0xcd,
  0x0a, 0x2b, 0x17, 0xe9, 0xed, 0xd1, 0xfb, 0x00, 0xd8, 0x2a, 0x38, 0xfd,
  0x23, 0x20, 0xd8, 0xe5, 0x2f, 0xd4, 0xcd, 0xce, 0xd4, 0x35, 0xcc, 0xdf,
  0x01, 0x57, 0xf4, 0xfa, 0x12, 0xfc, 0xdc, 0x0e, 0xc5, 0x12, 0x0e, 0xcf,
  0x29, 0xf5, 0xe2, 0x0c, 0x2e, 0xc3, 0xc1, 0xcd, 0xc3, 0x01, 0xf9, 0x0a,
  0x0e, 0x05, 0x09, 0x14, 0xc4, 0x0c, 0x11, 0xbc, 0xe0, 0xc0, 0xb8, 0x1d,
  0xf0, 0xff, 0x21, 0xc8, 0xdc, 0x01, 0xc5, 0xf2, 0x04, 0x25, 0xed, 0x0e,
  0xb9, 0xf0, 0x08, 0x10, 0x2c, 0x11, 0xca, 0xcb, 0x31, 0xdc, 0x09, 0x10,
  0xca, 0xf6, 0xbb, 0xf9, 0xc5, 0xb3, 0xe2, 0xc0, 0xbd, 0x10, 0xb7, 0xd5,
  0x21, 0x20, 0xb7, 0x1b, 0xf7, 0xce, 0xf0, 0x1c, 0x09, 0xc5, 0x12, 0x07,
  0xb2, 0xed, 0xca, 0xe2, 0xa2, 0xf5, 0xbc, 0xaf, 0x23, 0xd4, 0xe6, 0xc3,
  0x01, 0xc3, 0x37, 0x24, 0xdc, 0xb6, 0x2d, 0xe3, 0xdf, 0xb4, 0x2d, 0xad,
  0xf6, 0x06, 0x08, 0xbd, 0xce, 0x13, 0xcf, 0x19, 0x2d, 0x1e, 0x33, 0xb9,
  0xbc, 0xbd, 0x32, 0xeb, 0x8d, 0xf7, 0xfb, 0x1e, 0x09, 0xcc, 0xfc, 0xb5,
  0x00, 0xb8, 0xd1, 0x26, 0xac, 0x09, 0xe6, 0xfc, 0xd6, 0x10, 0xdf, 0x31,
  0xd2, 0xc6, 0xdb, 0xd6, 0xff, 0x4f, 0xbf, 0x09, 0xd4, 0xe0, 0xd6, 0x0d,
  0xb4, 0xff, 0xd7, 0x0c, 0x0e, 0xbd, 0x12, 0x09, 0xca, 0x2a, 0x32, 0xd9,
  0xe9, 0x02, 0xca, 0x0d, 0x08, 0x0e, 0xe1, 0xc8, 0x15, 0xe8, 0xea, 0x39,
  0x26, 0x31, 0x34, 0xfc, 0x12, 0xec, 0x5e, 0x32, 0xf2, 0xec, 0x05, 0xc7,
  0xde, 0x46, 0xdc, 0xcc, 0xf1, 0xcf, 0xec, 0x31, 0xd0, 0xe8, 0x31, 0x19,
  0xc1, 0xeb, 0xe0, 0x0f, 0xed, 0xe1, 0x26, 0xf9, 0xf9, 0xc8, 0xc4, 0xea,
  0xd1, 0x1c, 0xd8, 0x2f, 0xe9, 0xf5, 0xb9, 0x0c, 0x04, 0x1c, 0xf7, 0x14,
  0xf1, 0x24, 0xc9, 0xc6, 0xdd, 0x12, 0x16, 0xda, 0xd9, 0x20, 0xd0, 0xe2,
  0x2b, 0xf8, 0x05, 0xaf, 0xc1, 0x32, 0x2c, 0xd0, 0x08, 0xc6, 0xd9, 0x22,
  0xec, 0xdf, 0xf0, 0x13, 0x13, 0x07, 0xf6, 0x2d, 0x14, 0x2f, 0x0a, 0xf0,
  0x22, 0x0f, 0x0b, 0xd9, 0x1b, 0x20, 0xff, 0xc1, 0x30, 0x0b, 0xcd, 0xdc,
  0xe3, 0x27, 0xe5, 0xcd, 0xdf, 0xd6, 0xe7, 0x03, 0xe1, 0x18, 0x17, 0x19,
  0xd0, 0xb5, 0x05, 0x00, 0xc4, 0x0c, 0x0d, 0x23, 0xe1, 0xd2, 0xdf, 0xcd,
  0xa6, 0x0c, 0x30, 0xd9, 0xc6, 0x26, 0x12, 0xd6, 0x28, 0xc5, 0x21, 0xd7,
  0x1d, 0xea, 0x07, 0xef, 0xe0, 0xff, 0xf8, 0x0e, 0x01, 0xae, 0x16, 0x09,
  0x32, 0x06, 0xb5, 0xff, 0x20, 0xe6, 0xe5, 0xb1, 0xed, 0xe0, 0xd1, 0x20,
  0x0a, 0xe9, 0x03, 0x16, 0xca, 0x28, 0x27, 0xb3, 0xb4, 0x01, 0x1b, 0x31,
  0x08, 0xce, 0xf7, 0x3a, 0x02, 0xed, 0x03, 0xdf, 0xc2, 0x40, 0x04, 0x19,
  0x09, 0xd1, 0x2c, 0xb9, 0x34, 0xd0, 0xf0, 0xf7, 0xe9, 0x24, 0xf1, 0x1f,
  0x41, 0x3b, 0xd1, 0xe4, 0xfa, 0xd5, 0x0a, 0xd6, 0x20, 0xbc, 0xb6, 0xb5,
  0x01, 0x44, 0xc7, 0x1f, 0x37, 0x06, 0xc4, 0x30, 0xe5, 0xdd, 0x24, 0x2b,
  0x1c, 0xed, 0x4b, 0x18, 0xfc, 0xdf, 0x26, 0xed, 0xf4, 0xeb, 0xa9, 0xc1,
  0x11, 0xde, 0xee, 0xb8, 0xdf, 0xf7, 0xfa, 0xd2, 0x34, 0xd7, 0xbb, 0xff,
  0x03, 0x1c, 0xfe, 0x04, 0x36, 0xf9, 0xf2, 0xbd, 0x02, 0xb4, 0xf7, 0xe9,
  0xd9, 0xf7, 0xe0, 0x23, 0xb9, 0x21, 0xda, 0xe9, 0xb2, 0xc8, 0x48, 0x3b,
  0xea, 0xdb, 0xec, 0x21, 0xe5, 0xcd, 0x14, 0x19, 0xdc, 0xde, 0xfc, 0x46,
  0x04, 0x34, 0x0b, 0xc5, 0x36, 0xc5, 0xe5, 0x07, 0x42, 0x13, 0x1a, 0xfc,
  0xa7, 0x06, 0xd3, 0x28, 0x20, 0x04, 0xa8, 0x3a, 0x19, 0xd1, 0xfd, 0x35,
  0x30, 0x08, 0xe2, 0xe1, 0xec, 0x33, 0x32, 0x1c, 0xff, 0x39, 0x1f, 0xc8,
  0x0e, 0xd1, 0xfc, 0x53, 0xd6, 0xd6, 0xdc, 0xfb, 0xd8, 0x10, 0xd2, 0x0e,
  0xb7, 0xec, 0x2f, 0xe9, 0xd3, 0xd3, 0xc7, 0x47, 0x3c, 0xef, 0x3f, 0xe0,
  0xdd, 0xc3, 0xd8, 0x1c, 0x39, 0xef, 0xce, 0xdb, 0x17, 0xd3, 0x28, 0x23,
  0x09, 0xce, 0xf5, 0x22, 0xba, 0xef, 0x04, 0x06, 0xcb, 0xc8, 0xf1, 0xe9,
  0xd3, 0xbe, 0xeb, 0xce, 0xf6, 0x12, 0x3b, 0x0c, 0x1e, 0xda, 0xea, 0x07,
  0x0e, 0x49, 0x14, 0xfe, 0xf1, 0x2a, 0x0a, 0x4d, 0x37, 0x61, 0xf9, 0x1a,
  0x4f, 0x07, 0xcb, 0xc9, 0xea, 0x44, 0x34, 0x32, 0xf3, 0xe6, 0xf1, 0x4d,
  0x20, 0xbe, 0xc7, 0xb1, 0x10, 0x15, 0xbe, 0x03, 0x28, 0xb6, 0xc1, 0xbd,
  0xae, 0xf6, 0x0c, 0x1d, 0xd8, 0x1b, 0xe4, 0xf9, 0xf2, 0x5a, 0x1a, 0x38,
  0xc9, 0x04, 0x31, 0xc2, 0xfa, 0xe7, 0x40, 0x2f, 0xf4, 0x27, 0x1c, 0x09,
  0x39, 0x16, 0xb3, 0x12, 0xcd, 0x07, 0x0c, 0x14, 0x45, 0xcc, 0xd2, 0xf1,
  0x34, 0x2b, 0x42, 0x01, 0x09, 0x13, 0xf7, 0xe3, 0xea, 0xf4, 0x3f, 0xc6,
  0xee, 0xb9, 0x19, 0x1a, 0xda, 0x04, 0xff, 0xc5, 0xf1, 0xdc, 0x33, 0xc4,
  0x32, 0xc7, 0x39, 0x33, 0x28, 0x31, 0xf8, 0x03, 0x11, 0xde, 0xc9, 0x1b,
  0xd4, 0x22, 0xbf, 0xde, 0x24, 0xb9, 0x07, 0xe8, 0xcb, 0xd9, 0xfc, 0x39,
  0xff, 0xf1, 0x22, 0x10, 0x23, 0xe4, 0x23, 0xe5, 0x4b, 0x0a, 0xc0, 0x08,
  0x08, 0xcf, 0xc0, 0x1d, 0xf7, 0x2f, 0xde, 0xd0, 0x49, 0x1b, 0x05, 0x13,
  0x14, 0xc5, 0x42, 0xce, 0x2a, 0xe3, 0x2b, 0x22, 0x09, 0xfa, 0x0f, 0x45,
  0x6f, 0x02, 0x0b, 0xf6, 0xd8, 0xfd, 0x07, 0xe2, 0xf2, 0x10, 0x19, 0x07,
  0xfa, 0xe3, 0x3f, 0x2c, 0x0e, 0x0a, 0xfe, 0x7f, 0xe2, 0x0e, 0xf2, 0x20,
  0xde, 0x05, 0x50, 0xe8, 0xec, 0x29, 0x24, 0xfc, 0x1f, 0xfd, 0x0a, 0x07,
  0x1d, 0x26, 0x38, 0x10, 0x08, 0x00, 0xc1, 0x25, 0x27, 0xde, 0x28, 0x41,
  0x53, 0xfc, 0x08, 0x05, 0x06, 0x3e, 0xd0, 0xeb, 0x01, 0xe5, 0xde, 0x39,
  0x7b, 0xc7, 0x36, 0x49, 0xfa, 0xf5, 0x12, 0x06, 0xf4, 0x35, 0xe2, 0xe9,
  0xdc, 0x1a, 0x27, 0x47, 0xe1, 0x26, 0xf8, 0x37, 0x09, 0x3c, 0x3f, 0x00,
  0x5d, 0x05, 0xea, 0xec, 0x27, 0x30, 0x2a, 0x5c, 0x15, 0x05, 0x1a, 0x73,
  0x25, 0xe0, 0xd3, 0xee, 0x4d, 0x2a, 0x28, 0x10, 0x3a, 0x27, 0x1c, 0x11,
  0x27, 0x4a, 0x0f, 0xff, 0x00, 0xca, 0x32, 0xf8, 0xff, 0xf3, 0x13, 0x0e,
  0x06, 0x0d, 0x58, 0xdf, 0x21, 0xe5, 0x35, 0xfd, 0xe5, 0x0e, 0x29, 0x1b,
  0x58, 0x2e, 0x49, 0x04, 0xf1, 0x0c, 0x53, 0x0c, 0x06, 0x0d, 0x2e, 0x48,
  0xff, 0x47, 0xfb, 0x54, 0x2c, 0x1f, 0xe6, 0x40, 0x34, 0xff, 0x11, 0x39,
  0x5a, 0x09, 0x2e, 0xe7, 0x50, 0x30, 0xd4, 0xd8, 0xf6, 0xff, 0x3f, 0x3c,
  0x31, 0x3a, 0x0f, 0x04, 0x54, 0x08, 0xf2, 0x2e, 0x51, 0xf1, 0x1d, 0xd8,
  0x15, 0x32, 0x1a, 0xea, 0xc8, 0x2a, 0xdf, 0x31, 0xee, 0xe3, 0xd0, 0xe3,
  0x94, 0x47, 0xe4, 0xda, 0xb8, 0x2d, 0x20, 0xc0, 0x13, 0x3d, 0xc8, 0xd7,
  0xeb, 0xba, 0x3b, 0x13, 0xfe, 0xdc, 0xca, 0xf7, 0xf3, 0x13, 0xc3, 0x1f,
  0xf2, 0xa7, 0xf6, 0x30, 0x1a, 0x10, 0x32, 0xca, 0x11, 0xff, 0x20, 0xe5,
  0x09, 0xe9, 0xd3, 0x14, 0x29, 0xf3, 0xc2, 0xd4, 0x1a, 0xb9, 0x37, 0xf6,
  0xdf, 0x50, 0x22, 0x1b, 0x4f, 0xdf, 0xc7, 0x49, 0x08, 0xfa, 0xcf, 0x21,
  0xfb, 0x90, 0x49, 0x2e, 0x64, 0x48, 0xd7, 0xc9, 0xf3, 0xce, 0xe7, 0x10,
  0x29, 0xef, 0xfc, 0xde, 0xfc, 0xf5, 0x45, 0x0f, 0x0a, 0x21, 0x27, 0xec,
  0x1d, 0x05, 0x4c, 0xe5, 0xd9, 0xe2, 0xd8, 0x54, 0x0a, 0x20, 0xe8, 0x55,
  0xea, 0x38, 0xfa, 0xc4, 0x04, 0x6b, 0xf5, 0x39, 0x51, 0x40, 0x0a, 0x15,
  0x37, 0x38, 0x57, 0xff, 0x53, 0xe5, 0x00, 0x41, 0x17, 0x02, 0x57, 0x25,
  0x3f, 0x48, 0xf6, 0x0c, 0x05, 0x0e, 0x3a, 0x43, 0x39, 0x4b, 0x3a, 0x4f,
  0x13, 0x39, 0xfc, 0x55, 0x1a, 0xe7, 0xc6, 0x33, 0xd8, 0x34, 0x1e, 0x14,
  0xe2, 0x42, 0x22, 0x00, 0xec, 0xec, 0xfd, 0x0f, 0x45, 0x27, 0x5d, 0x3c,
  0xe2, 0x52, 0xf3, 0x29, 0x16, 0xeb, 0xcd, 0xde, 0xff, 0x15, 0x76, 0xe7,
  0x72, 0x6c, 0x3b, 0xfb, 0x31, 0xf2, 0xc5, 0xf7, 0x28, 0xe0, 0x75, 0x3b,
  0xd5, 0x09, 0xd8, 0xbb, 0xf6, 0x26, 0x55, 0xed, 0x0c, 0x42, 0x41, 0x29,
  0x0e, 0xb6, 0x35, 0xd1, 0xd6, 0x0e, 0x43, 0x37, 0xe0, 0x0e, 0xe0, 0xe3,
  0x2c, 0x02, 0xe7, 0x0b, 0xe5, 0xfd, 0xfc, 0x3e, 0x16, 0x11, 0x16, 0xe3,
  0x06, 0xee, 0x04, 0x39, 0xd2, 0xed, 0xe5, 0x0b, 0xdc, 0xe5, 0x0a, 0xe5,
  0xf8, 0xfc, 0xee, 0x15, 0x23, 0x03, 0x23, 0x2a, 0x11, 0xe2, 0x35, 0xd3,
  0x2d, 0x23, 0xf3, 0x38, 0xe1, 0x13, 0x35, 0xc5, 0x07, 0xb5, 0x0f, 0xeb,
  0xe8, 0xbe, 0x0f, 0x97, 0x2a, 0x9c, 0x34, 0xb3, 0xb4, 0xd2, 0x01, 0x05,
  0x9f, 0xc1, 0xf9, 0x0d, 0xdc, 0x2d, 0xfb, 0xbf, 0x24, 0x47, 0xf4, 0xb6,
  0xd9, 0x1f, 0x22, 0x32, 0xde, 0x1a, 0x9d, 0xf4, 0xd4, 0xf8, 0x05, 0x3f,
  0xf3, 0xe7, 0x1e, 0x2d, 0x31, 0xc0, 0x32, 0xee, 0x3d, 0x09, 0xf0, 0xc1,
  0x14, 0xf9, 0xe1, 0xd0, 0x02, 0x12, 0xf4, 0xd9, 0x2f, 0xd6, 0x14, 0x08,
  0xfd, 0xe4, 0x4f, 0x3e, 0x10, 0xc3, 0x18, 0xf1, 0xb2, 0xc2, 0xea, 0x27,
  0xe5, 0xf8, 0x1d, 0x33, 0xcc, 0x27, 0x8c, 0x18, 0x46, 0xf1, 0xf9, 0xf1,
  0x63, 0x26, 0xee, 0xdc, 0x24, 0x4f, 0x8e, 0xf2, 0xc9, 0x0f, 0x3d, 0xfe,
  0xd4, 0x36, 0x9c, 0x63, 0x31, 0xeb, 0xf1, 0x27, 0x59, 0xd0, 0x3b, 0x31,
  0xbe, 0x12, 0xdc, 0xe1, 0xc8, 0xcb, 0x0b, 0xe3, 0xeb, 0xfd, 0x12, 0x26,
  0x42, 0x26, 0xef, 0x2c, 0x52, 0xda, 0xfd, 0x4b, 0x0b, 0xfb, 0x14, 0xd5,
  0xef, 0x39, 0x34, 0x3a, 0xe4, 0xf4, 0x47, 0x20, 0xe0, 0x1c, 0x03, 0x14,
  0xed, 0x07, 0x21, 0x07, 0xf9, 0x46, 0x39, 0xa9, 0x14, 0x09, 0x29, 0xfe,
  0xd8, 0x1b, 0xb2, 0xbc, 0xde, 0xd8, 0xfc, 0x0e, 0x29, 0xcc, 0x23, 0x20,
  0xf7, 0xdb, 0x29, 0x0f, 0x00, 0x2d, 0xf1, 0xe7, 0xde, 0xbc, 0xd0, 0x18,
  0xac, 0x46, 0xe7, 0xdb, 0xc6, 0x15, 0xcc, 0xd9, 0x35, 0xde, 0x07, 0xf0,
  0x02, 0xc4, 0xfc, 0x15, 0xed, 0xf1, 0xd5, 0xee, 0x0b, 0xd9, 0xec, 0xe3,
  0xc0, 0xda, 0x23, 0xc2, 0xbf, 0x17, 0x44, 0xd2, 0xe6, 0xe8, 0x24, 0xcf,
  0x27, 0x09, 0x32, 0xf7, 0x07, 0x0b, 0x20, 0xff, 0x32, 0xe3, 0xbd, 0xf2,
  0xd3, 0x3e, 0xbf, 0xde, 0x39, 0x22, 0xd2, 0xe6, 0x2e, 0xe1, 0x0a, 0x02,
  0x35, 0x09, 0x28, 0xf4, 0xf8, 0x08, 0x1b, 0xde, 0xd3, 0x31, 0xe0, 0xe3,
  0xe0, 0x1e, 0x10, 0x0c, 0xc7, 0xe4, 0xfa, 0xad, 0xeb, 0xef, 0xff, 0xc2,
  0xe2, 0xba, 0xf4, 0x27, 0xc6, 0x26, 0xe5, 0x09, 0x23, 0x1b, 0xdd, 0xdb,
  0x0d, 0xf9, 0xd0, 0x39, 0xcf, 0x30, 0x22, 0xdb, 0x16, 0x48, 0x2f, 0x17,
  0xfb, 0xe4, 0x2f, 0x1d, 0xc0, 0xc0, 0x16, 0x20, 0x0f, 0xbc, 0xf4, 0x21,
  0x1c, 0xf0, 0x20, 0xf1, 0x2c, 0x32, 0x04, 0x11, 0xfb, 0x3c, 0x3c, 0x0b,
  0x18, 0x33, 0xda, 0xfb, 0x16, 0x00, 0xf0, 0x00, 0xc3, 0xf2, 0x09, 0x0b,
  0xe9, 0x22, 0xfa, 0x1f, 0xd2, 0x32, 0x1e, 0xe9, 0x24, 0xc9, 0xbe, 0x45,
  0x2d, 0xf5, 0xdb, 0x2d, 0x1c, 0x48, 0xd9, 0xbc, 0x31, 0xd7, 0xd5, 0x2c,
  0xd0, 0xe2, 0xee, 0x25, 0xf5, 0x1b, 0x1d, 0x35, 0xbb, 0x41, 0x06, 0x10,
  0x3b, 0x4c, 0xf8, 0xef, 0xd0, 0x1d, 0xd6, 0x44, 0x06, 0xc9, 0x3a, 0x00,
  0x08, 0x3e, 0xba, 0x32, 0x34, 0xfc, 0xe2, 0x38, 0x26, 0x0f, 0x2f, 0x22,
  0xf1, 0xf7, 0x17, 0xc9, 0x03, 0xd6, 0x25, 0x2f, 0x10, 0xe7, 0x1c, 0x41,
  0xe3, 0xfd, 0x3b, 0x2f, 0xdc, 0xe2, 0x06, 0x11, 0xf9, 0x4f, 0x0d, 0xd1,
  0x10, 0x21, 0x43, 0x11, 0x43, 0x11, 0x12, 0xf3, 0xdb, 0x2a, 0xca, 0xd9,
  0x48, 0xe7, 0x1a, 0x44, 0xee, 0xf2, 0x18, 0xed, 0x20, 0xeb, 0xe2, 0xfc,
  0xea, 0xd6, 0x08, 0xe1, 0x19, 0x0f, 0x15, 0xf3, 0xbc, 0x08, 0x1a, 0x05,
  0xe7, 0x01, 0xdf, 0x21, 0x01, 0xce, 0x11, 0xe1, 0xde, 0x16, 0x02, 0xe1,
  0x02, 0xdd, 0x37, 0x24, 0xda, 0x12, 0x32, 0xcf, 0x14, 0xdb, 0x3e, 0x16,
  0x1a, 0x14, 0x20, 0xe7, 0x13, 0x03, 0xe9, 0x1a, 0x07, 0x10, 0x30, 0xd0,
  0x29, 0x09, 0xe7, 0xff, 0xfe, 0x26, 0x3f, 0xc5, 0x2e, 0x13, 0xc3, 0xe5,
  0x3d, 0x06, 0xf8, 0xfb, 0x37, 0x2b, 0xf8, 0xf8, 0x33, 0xd7, 0xd0, 0xe7,
  0x3a, 0x23, 0x1a, 0xff, 0xf8, 0x34, 0x33, 0x04, 0x25, 0x03, 0xff, 0xa7,
  0xd9, 0x0d, 0x2c, 0xf1, 0x3f, 0x41, 0xe9, 0xf8, 0xd2, 0xea, 0xdb, 0x10,
  0xfc, 0x24, 0xf4, 0x2a, 0xec, 0x09, 0x21, 0x2d, 0x26, 0xe5, 0x3a, 0xda,
  0x2e, 0x01, 0xfd, 0x08, 0xf5, 0x06, 0xdf, 0xde, 0xee, 0xcd, 0xe4, 0x39,
  0xf5, 0xfd, 0xd3, 0x1a, 0x1a, 0x0a, 0x18, 0x39, 0x15, 0xef, 0xda, 0x18,
  0xee, 0x02, 0x30, 0xfe, 0x09, 0xdf, 0x26, 0xf5, 0x03, 0x2c, 0xec, 0x2f,
  0x28, 0x36, 0x1d, 0xe8, 0x3a, 0x36, 0xf6, 0xf2, 0x42, 0x15, 0xdb, 0xf5,
  0x04, 0xe4, 0xc2, 0x42, 0x36, 0xd1, 0xf9, 0x15, 0x06, 0x41, 0xf2, 0xdd,
  0x09, 0x20, 0x22, 0x2e, 0xe3, 0xee, 0xe6, 0x46, 0xcf, 0x15, 0xf8, 0x41,
  0xf2, 0x31, 0x32, 0x39, 0x25, 0x36, 0x53, 0x35, 0x14, 0x22, 0x00, 0x0c,
  0x3d, 0xd1, 0x4e, 0x1a, 0xc5, 0x19, 0xde, 0xe7, 0xee, 0xf4, 0x04, 0xf2,
  0x04, 0x03, 0x0c, 0xd3, 0xd0, 0x0f, 0xf1, 0x19, 0xe7, 0xfe, 0x08, 0x41,
  0x3e, 0xec, 0xd8, 0x17, 0x01, 0xce, 0x44, 0x19, 0xd2, 0xe3, 0xec, 0x19,
  0x1a, 0x03, 0xd2, 0xcc, 0xf9, 0x2c, 0x34, 0x2d, 0x41, 0xfe, 0x11, 0xe7,
  0xf8, 0x39, 0x35, 0xe8, 0x2a, 0x16, 0xc2, 0x27, 0x12, 0x09, 0xf5, 0x13,
  0x00, 0xef, 0xfb, 0xc0, 0xf7, 0xe1, 0xef, 0xec, 0xe0, 0xfb, 0x02, 0xd8,
  0xdc, 0x06, 0x26, 0x10, 0xf3, 0x27, 0xfb, 0xe9, 0x0b, 0x23, 0x4e, 0x3a,
  0x2f, 0xfd, 0x01, 0x12, 0x2b, 0x42, 0x2b, 0xe3, 0xc6, 0xcd, 0x55, 0x03,
  0xe2, 0xce, 0x01, 0x2f, 0xff, 0x02, 0x1a, 0x1f, 0xfa, 0xe6, 0xeb, 0xfc,
  0xee, 0xda, 0xec, 0x3b, 0x12, 0x30, 0x2a, 0xf5, 0x25, 0xf8, 0xc8, 0xee,
  0xf8, 0xe5, 0xd2, 0xd1, 0x38, 0xf7, 0xc8, 0x38, 0x32, 0x37, 0x17, 0xf2,
  0x3c, 0x02, 0x36, 0x04, 0x3b, 0xd6, 0xdb, 0x14, 0x06, 0xd9, 0xda, 0x2b,
  0x02, 0x18, 0x3b, 0xd4, 0x37, 0xdb, 0xf4, 0xec, 0xf5, 0x3c, 0xe6, 0xf5,
  0x11, 0xe3, 0xf1, 0xf5, 0x0e, 0x1b, 0xe5, 0xfa, 0xc8, 0x23, 0x18, 0xf7,
  0xec, 0xf0, 0x36, 0x07, 0xcd, 0xd3, 0x1d, 0x13, 0x20, 0x01, 0xd7, 0x27,
  0x18, 0x2b, 0xea, 0xf4, 0xc3, 0xcb, 0x42, 0x45, 0x00, 0xc2, 0xfb, 0xe9,
  0x36, 0xf2, 0x1c, 0xf7, 0x1a, 0xf9, 0xef, 0xbe, 0x07, 0x27, 0xcc, 0x31,
  0xed, 0xfb, 0xd1, 0x2c, 0xe8, 0xd8, 0xed, 0xbf, 0xdc, 0xf7, 0x21, 0xd5,
  0x17, 0x04, 0x05, 0x02, 0xf3, 0x22, 0xd7, 0xe2, 0xbe, 0x33, 0x23, 0xe4,
  0xe0, 0x1d, 0x0f, 0xc0, 0xca, 0xde, 0x19, 0xc5, 0xe0, 0x1d, 0xee, 0xe0,
  0xd4, 0x0c, 0xcc, 0x1f, 0x27, 0xeb, 0x21, 0xf1, 0x01, 0xcc, 0xe3, 0xeb,
  0x24, 0x35, 0x0f, 0x3c, 0xe2, 0x35, 0x3b, 0xcf, 0xb9, 0xd3, 0xfb, 0xef,
  0xbd, 0x01, 0x48, 0xeb, 0xbb, 0xfa, 0x1d, 0xe8, 0xf7, 0xdd, 0xeb, 0xc5,
  0xe1, 0x42, 0x11, 0x01, 0x32, 0x33, 0xc1, 0x0f, 0x1e, 0xe2, 0x32, 0x05,
  0x33, 0xdb, 0xce, 0x0f, 0xed, 0x3d, 0xbf, 0xfd, 0xe1, 0xe3, 0xf8, 0xf6,
  0x10, 0xc9, 0xd3, 0x00, 0x0b, 0x16, 0x31, 0xfb, 0x0a, 0xf0, 0xde, 0x12,
  0xef, 0x0d, 0xd8, 0x05, 0x05, 0xd8, 0x21, 0x1e, 0xee, 0xee, 0x1b, 0x1e,
  0x39, 0xd5, 0xdb, 0x03, 0xc5, 0x36, 0x33, 0x1d, 0xe4, 0x0d, 0xdd, 0x2f,
  0x20, 0x39, 0xed, 0xf1, 0x24, 0x0d, 0xdb, 0x31, 0x35, 0x2e, 0x0e, 0x0e,
  0xfe, 0x27, 0x40, 0x35, 0xf8, 0xd2, 0xdf, 0x40, 0xd7, 0x0b, 0xee, 0xf3,
  0x1d, 0xcf, 0xf2, 0xf6, 0x23, 0xdf, 0x5d, 0xfe, 0x39, 0xf7, 0x2d, 0x1b,
  0x06, 0x2a, 0x29, 0xda, 0x2d, 0x19, 0xc9, 0x0f, 0x5e, 0xd7, 0x05, 0xf9,
  0xe9, 0x1e, 0xfe, 0xb0, 0x3d, 0x31, 0xeb, 0xf8, 0xe1, 0x0e, 0x2e, 0xf9,
  0xf4, 0xf9, 0x0a, 0xce, 0x25, 0x33, 0x3b, 0xfe, 0xdf, 0x14, 0x2f, 0x14,
  0x23, 0x20, 0x37, 0x04, 0x33, 0x31, 0xea, 0x0d, 0xf6, 0xee, 0x1a, 0x3b,
  0xde, 0x28, 0x15, 0x0c, 0x10, 0xf1, 0x40, 0x02, 0xe6, 0x1f, 0x0d, 0x2e,
  0x18, 0x02, 0x3d, 0xc6, 0xf4, 0x08, 0x28, 0xfa, 0x31, 0x3f, 0x0c, 0x34,
  0x17, 0x10, 0x23, 0xf0, 0x0b, 0xc1, 0x2b, 0x01, 0x0c, 0x18, 0xd4, 0xe7,
  0xd6, 0xc5, 0x27, 0xdc, 0xc3, 0x2b, 0x0d, 0xd0, 0xfe, 0x22, 0x3d, 0xf6,
  0x48, 0x06, 0xed, 0xc9, 0xe3, 0x25, 0xdb, 0x1e, 0x0b, 0xf8, 0x20, 0x40,
  0xc5, 0xd3, 0x25, 0x00, 0xc9, 0xd5, 0x1e, 0xf8, 0x1f, 0x1d, 0x1c, 0x38,
  0x09, 0x16, 0x02, 0x13, 0xfb, 0x16, 0x24, 0x17, 0x16, 0x00, 0x0b, 0x24,
  0x07, 0x3f, 0xf4, 0x0a, 0x7f, 0x35, 0xd6, 0x19, 0xce, 0xf7, 0x0a, 0xfd,
  0x39, 0xdd, 0x0d, 0xf3, 0x08, 0x3f, 0x1f, 0x0d, 0xe3, 0xd4, 0x14, 0xeb,
  0x4c, 0x18, 0x22, 0xeb, 0xfa, 0x0f, 0xf2, 0x5d, 0xfe, 0xe4, 0x1f, 0xe5,
  0x3f, 0xcd, 0xdb, 0xde, 0xdc, 0xf8, 0x10, 0xbb, 0xe9, 0x1e, 0x27, 0xfe,
  0xd3, 0xd9, 0x33, 0x0a, 0xf7, 0x26, 0x28, 0x17, 0xb0, 0x18, 0x30, 0xbd,
  0xf6, 0xf1, 0xe7, 0x0e, 0x11, 0xe8, 0x4c, 0xf9, 0x1a, 0x0b, 0x05, 0x24,
  0x18, 0xcd, 0x0b, 0x08, 0x1a, 0xde, 0xca, 0x21, 0x3c, 0xd8, 0x08, 0x36,
  0x29, 0x3a, 0x05, 0x17, 0x14, 0xc7, 0x16, 0x41, 0x0b, 0x4f, 0x22, 0xe3,
  0x2b, 0x0c, 0xe7, 0x1f, 0xc2, 0x0e, 0x25, 0xe5, 0x0b, 0x02, 0xea, 0xf7,
  0x10, 0x0f, 0xf7, 0xb9, 0xd6, 0x2b, 0xe8, 0x00, 0x15, 0xfa, 0xfb, 0x04,
  0x08, 0x2c, 0xdb, 0x41, 0x31, 0x36, 0x12, 0x43, 0x3e, 0x4c, 0x1c, 0x2a,
  0x2c, 0x00, 0xf8, 0x30, 0x39, 0xfe, 0xff, 0xd0, 0x18, 0x3a, 0x40, 0xf3,
  0xea, 0x23, 0x0d, 0xfa, 0x06, 0x3b, 0x25, 0xd4, 0x09, 0xde, 0xec, 0x2f,
  0x18, 0x5c, 0x09, 0xe8, 0x3c, 0x35, 0x36, 0x00, 0x20, 0xe0, 0xcb, 0x1e,
  0xee, 0xd6, 0xfe, 0x29, 0x03, 0xff, 0xf5, 0xd8, 0x2c, 0x22, 0x2e, 0x09,
  0x33, 0x35, 0xf3, 0x07, 0x31, 0x03, 0x36, 0x37, 0x2c, 0xd8, 0x2f, 0xee,
  0x0a, 0xeb, 0x34, 0x2f, 0xe8, 0x28, 0xf7, 0x4a, 0xda, 0x3d, 0xde, 0xf6,
  0xbe, 0xdc, 0x21, 0x0b, 0xdf, 0x13, 0x2b, 0xd4, 0x13, 0x1c, 0x0f, 0x3d,
  0xf4, 0x02, 0x05, 0x05, 0xf3, 0xfa, 0x13, 0x03, 0xf8, 0x08, 0xfe, 0x01,
  0x31, 0xc2, 0x32, 0x21, 0xdf, 0x0f, 0xe2, 0xf1, 0xfd, 0xd2, 0x21, 0x3d,
  0x2c, 0x15, 0x33, 0x30, 0xfc, 0xe0, 0xe9, 0xe6, 0x14, 0x2b, 0x26, 0x0c,
  0xe0, 0x49, 0x0e, 0x4a, 0xe2, 0x00, 0xe8, 0xe5, 0x4b, 0x37, 0x40, 0xe6,
  0x26, 0x2c, 0xd0, 0x29, 0x46, 0xdb, 0x4a, 0xc4, 0x19, 0xf5, 0x27, 0x4a,
  0x1b, 0x30, 0xfb, 0xd4, 0x0f, 0x36, 0x21, 0x34, 0x1a, 0x3b, 0x2a, 0x1c,
  0xe4, 0x2f, 0xd0, 0x14, 0x22, 0xd6, 0xbd, 0x08, 0x37, 0x05, 0xd6, 0x0e,
  0xea, 0xec, 0x1b, 0xdb, 0xea, 0xdb, 0x3d, 0xfd, 0x42, 0xd8, 0xd9, 0xdb,
  0xf5, 0x46, 0x18, 0x1a, 0x44, 0xc6, 0xd8, 0x2f, 0x0b, 0xd0, 0x29, 0x1d,
  0x24, 0xb4, 0x4b, 0xf4, 0xe2, 0x14, 0xe6, 0xdf, 0xe9, 0x48, 0x02, 0xc8,
  0x0e, 0x35, 0x10, 0xdb, 0x0f, 0x3b, 0xd4, 0x0f, 0xff, 0xbb, 0x58, 0x2f,
  0xd1, 0x46, 0xd1, 0xea, 0xe8, 0xed, 0x25, 0xdb, 0x32, 0x15, 0x41, 0xf0,
  0x0c, 0x10, 0x2d, 0xc1, 0xd8, 0x09, 0x37, 0x4e, 0x2d, 0xd0, 0x0b, 0xbd,
  0xfe, 0xde, 0x2f, 0x24, 0x06, 0xf9, 0x00, 0x25, 0x55, 0xf8, 0xde, 0xc6,
  0xf6, 0x2f, 0xd5, 0x2f, 0x25, 0x15, 0xd2, 0x37, 0x13, 0xe7, 0x41, 0xae,
  0x2a, 0xce, 0xbf, 0x0d, 0x03, 0xfa, 0x3d, 0x2a, 0xe9, 0xf8, 0xec, 0x35,
  0xfa, 0xd5, 0x2f, 0x34, 0xfe, 0xed, 0xdb, 0xc3, 0x3e, 0x01, 0xf5, 0x19,
  0x17, 0x2c, 0x00, 0xed, 0xd9, 0x00, 0xdb, 0x13, 0xd9, 0xe1, 0x21, 0xd7,
  0x3c, 0xda, 0x44, 0x20, 0xff, 0xc6, 0xde, 0xb6, 0xfe, 0xfa, 0x34, 0xfc,
  0x02, 0x06, 0xe0, 0xf6, 0xfb, 0x41, 0x3e, 0x09, 0xe1, 0xff, 0xec, 0xe8,
  0xcd, 0x16, 0xd3, 0x57, 0x0e, 0xd7, 0x3b, 0xd3, 0xe1, 0x02, 0xbc, 0x31,
  0xcb, 0x19, 0xcc, 0x23, 0xde, 0x26, 0xe3, 0x24, 0xf3, 0x06, 0x0e, 0xe6,
  0xfd, 0x1a, 0xda, 0xd0, 0xed, 0x00, 0x04, 0xc8, 0xf8, 0xd8, 0x42, 0xd2,
  0xae, 0xd6, 0xf1, 0xb1, 0xbb, 0x12, 0xfe, 0x1f, 0x0c, 0xeb, 0x27, 0xfb,
  0xe8, 0x07, 0xc5, 0xe0, 0x0e, 0xe1, 0xb6, 0xf9, 0xd7, 0x16, 0xf8, 0x04,
  0xc9, 0xec, 0xd6, 0xfa, 0xf6, 0x16, 0xa9, 0x17, 0xbe, 0x27, 0xe7, 0x06,
  0xf0, 0xe9, 0x2f, 0x2f, 0xcc, 0x0a, 0x0a, 0xe1, 0x95, 0x32, 0xc7, 0x2d,
  0x21, 0x2e, 0xbb, 0x26, 0x3e, 0xda, 0xf8, 0xe9, 0x07, 0x0d, 0x1d, 0x25,
  0xe9, 0xa4, 0xe4, 0xbd, 0xbe, 0xe7, 0xca, 0xf4, 0xe2, 0xa7, 0x33, 0xb3,
  0x3a, 0xab, 0xc5, 0x2d, 0xe8, 0xd7, 0xf0, 0xa7, 0x2e, 0x15, 0xe2, 0xe1,
  0x1e, 0xa2, 0x24, 0xc4, 0xcc, 0xc2, 0xc1, 0x9f, 0xd8, 0xd2, 0xee, 0x04,
  0x10, 0xc1, 0xef, 0xe9, 0xe3, 0x30, 0xda, 0xe2, 0xe8, 0x2c, 0xc8, 0xd9,
  0xbb, 0xda, 0x3e, 0x33, 0xee, 0x08, 0xce, 0x23, 0x17, 0xe4, 0xbd, 0x06,
  0xce, 0x37, 0x39, 0x2a, 0x07, 0xf1, 0xd7, 0xfb, 0xb7, 0x03, 0xd3, 0x0b,
  0xfb, 0xce, 0xd0, 0x9c, 0xf6, 0xc6, 0x11, 0x2a, 0x28, 0xdb, 0xfb, 0xdd,
  0x2d, 0xbd, 0xfb, 0xf4, 0xc2, 0x36, 0xf2, 0xd2, 0xe0, 0xdb, 0x21, 0x13,
  0x12, 0xed, 0x21, 0x2b, 0xe7, 0xcc, 0xe9, 0x0b, 0xba, 0xc9, 0xd8, 0x02,
  0xb6, 0xda, 0xc9, 0xd8, 0xda, 0xf2, 0x0b, 0xf4, 0x40, 0xbe, 0xaa, 0xee,
  0x33, 0xea, 0x9d, 0x04, 0xfd, 0x20, 0x0d, 0xd5, 0xaf, 0xfe, 0xd9, 0xf2,
  0xc2, 0x28, 0xd5, 0x21, 0x13, 0xc0, 0x0b, 0xf5, 0xf9, 0xab, 0xf9, 0x06,
  0xf6, 0xf7, 0xd5, 0xe3, 0x33, 0xee, 0x23, 0xdb, 0xda, 0x2d, 0xd9, 0x07,
  0x59, 0xf8, 0xe0, 0xc2, 0x08, 0x2e, 0xd1, 0x18, 0xdd, 0x13, 0xbf, 0xb2,
  0x2e, 0x10, 0xdd, 0x1d, 0xb4, 0xa9, 0xbe, 0xd7, 0x0b, 0x08, 0xe7, 0xe0,
  0xb3, 0xbe, 0xe3, 0xbb, 0x08, 0x94, 0x92, 0xca, 0xa4, 0x18, 0x03, 0xd5,
  0xd6, 0xda, 0xdc, 0xc3, 0xf0, 0x2a, 0x04, 0xbf, 0xef, 0xd0, 0xd5, 0x91,
  0xc6, 0xe1, 0xb3, 0xf6, 0xc4, 0xc0, 0xeb, 0x1e, 0xd7, 0xd1, 0xbb, 0xf3,
  0x25, 0xee, 0xf4, 0xa9, 0x07, 0xfa, 0xce, 0xb4, 0xdb, 0x06, 0x0b, 0xcd,
  0x3c, 0xf3, 0x00, 0xe1, 0xef, 0xf3, 0xf5, 0xd6, 0xbc, 0x0a, 0xc7, 0x29,
  0xaa, 0xc5, 0xe6, 0x05, 0x17, 0x26, 0xef, 0x14, 0xff, 0xb1, 0xfb, 0xce,
  0xf3, 0xe4, 0x28, 0x34, 0xe4, 0xb6, 0x16, 0xee, 0xe3, 0xef, 0xaf, 0x1a,
  0xb9, 0xa8, 0x41, 0xd1, 0xf3, 0x9c, 0xf3, 0xc6, 0x09, 0xe8, 0xd2, 0xda,
  0xdd, 0xd3, 0x12, 0x24, 0xac, 0xaf, 0x27, 0xbc, 0xee, 0xed, 0xc3, 0xcd,
  0xb6, 0xd4, 0x1b, 0xe6, 0x10, 0xe8, 0xee, 0xcb, 0xf0, 0x12, 0x3e, 0xbc,
  0xe7, 0x42, 0xec, 0x32, 0xf9, 0xf1, 0x45, 0x1b, 0xf5, 0xd1, 0xd5, 0xc9,
  0x2f, 0xf3, 0xf1, 0xf3, 0x27, 0x39, 0xc4, 0xbb, 0xd9, 0xab, 0x33, 0xec,
  0xd1, 0xd8, 0x29, 0xf2, 0xc2, 0xdf, 0xf0, 0x04, 0xf3, 0xa1, 0x2e, 0x0e,
  0xda, 0xc0, 0xfa, 0xcf, 0x14, 0x3d, 0x34, 0xb9, 0xfb, 0x2b, 0xda, 0xf0,
  0x47, 0xdf, 0x26, 0x04, 0xec, 0x42, 0xdb, 0xdb, 0xc9, 0x14, 0xc1, 0x21,
  0x36, 0x34, 0xfb, 0xfc, 0xba, 0xc4, 0xe4, 0x09, 0xe9, 0x0c, 0xe6, 0x27,
  0x2d, 0xd4, 0xbf, 0xfd, 0xe8, 0xba, 0xf3, 0xc4, 0x20, 0x02, 0x21, 0xd1,
  0x0b, 0x1d, 0xcb, 0xad, 0xda, 0x13, 0xdb, 0xcb, 0xd9, 0xea, 0x29, 0xc9,
  0xd4, 0xd9, 0xe0, 0x12, 0xca, 0xc3, 0x22, 0x01, 0x23, 0x2b, 0x05, 0xaf,
  0xce, 0xfe, 0xe6, 0xe7, 0x4f, 0xae, 0x1e, 0x14, 0x32, 0xdc, 0xec, 0xd5,
  0xda, 0xe4, 0x3a, 0xd1, 0x1c, 0x04, 0x26, 0xfb, 0xf9, 0xd6, 0xbb, 0xfc,
  0x0d, 0xd7, 0xfe, 0x20, 0x0f, 0xdc, 0xb5, 0x03, 0xd1, 0xf4, 0xf8, 0xa3,
  0xf6, 0x20, 0xd7, 0xdd, 0xd3, 0x12, 0xc4, 0x13, 0x0f, 0x0d, 0xc3, 0x12,
  0xe9, 0x01, 0x02, 0x14, 0xe8, 0x09, 0xff, 0xe3, 0xb0, 0x23, 0xda, 0xbc,
  0x17, 0x0b, 0xc0, 0xc6, 0xa8, 0xec, 0xcb, 0x05, 0x2e, 0xfb, 0x00, 0xdc,
  0x3e, 0x49, 0xab, 0xd0, 0x10, 0x1a, 0x09, 0x04, 0x07, 0x02, 0xc0, 0x10,
  0x07, 0xbf, 0x08, 0xe8, 0xd8, 0xf7, 0x0d, 0x1c, 0x2d, 0xe5, 0x1f, 0x03,
  0xea, 0xd6, 0x1c, 0xf4, 0x1b, 0xfb, 0x9d, 0xc2, 0xdf, 0xc8, 0x24, 0xdb,
  0xd7, 0xb5, 0xc6, 0x21, 0x0f, 0xbc, 0x10, 0xdd, 0xb8, 0xd8, 0xe3, 0x02,
  0xbf, 0x1d, 0x07, 0xc7, 0xd3, 0x08, 0x19, 0x10, 0xe7, 0x0a, 0xbb, 0x0f,
  0xc6, 0x07, 0xc1, 0xdb, 0xe9, 0xc1, 0x13, 0xe5, 0xe0, 0xd3, 0xc5, 0xe5,
  0xe3, 0x2b, 0x51, 0x02, 0x01, 0xf0, 0xd9, 0x3f, 0xcc, 0x0e, 0xe0, 0xf5,
  0x20, 0x0b, 0xf3, 0x0f, 0x16, 0xe2, 0x0b, 0xe5, 0xd0, 0x33, 0x16, 0xfc,
  0xb3, 0xd2, 0xf4, 0x24, 0xfb, 0xbd, 0xd7, 0xe9, 0xf0, 0xfa, 0x35, 0xf8,
  0xda, 0x02, 0x33, 0xca, 0x10, 0xdf, 0xc0, 0xd1, 0xca, 0xc5, 0x1c, 0xce,
  0x22, 0xc3, 0xac, 0xf4, 0x2e, 0xf0, 0xcf, 0xdd, 0x0c, 0xc2, 0xe4, 0xf4,
  0x12, 0x21, 0x26, 0xd4, 0xd5, 0x0c, 0xcf, 0x37, 0x28, 0xdc, 0xca, 0xe4,
  0xdf, 0x2f, 0xf8, 0x3b, 0x3e, 0x1b, 0xd7, 0x04, 0x03, 0x10, 0xd7, 0xc9,
  0xca, 0x19, 0xe4, 0xc0, 0x30, 0xbd, 0x28, 0xda, 0x1b, 0x2c, 0x03, 0xbd,
  0x1b, 0xd2, 0xfb, 0xbe, 0xf5, 0xde, 0x02, 0x35, 0x2c, 0x1d, 0x12, 0xc8,
  0xdc, 0xf7, 0xef, 0x14, 0x0f, 0x16, 0xc8, 0xb4, 0x0d, 0xf7, 0xed, 0xf5,
  0xbc, 0x24, 0x1e, 0xce, 0x30, 0xc7, 0x24, 0xde, 0xdc, 0x1e, 0xa7, 0x00,
  0xd6, 0xd2, 0xd7, 0x13, 0x1c, 0x1f, 0xe6, 0xc9, 0xff, 0xfa, 0xd5, 0x13,
  0xb8, 0x10, 0xb9, 0xf5, 0xf8, 0xea, 0x05, 0x1d, 0x13, 0x37, 0xfe, 0xe2,
  0x00, 0x3a, 0x0a, 0x05, 0xe0, 0xca, 0xc1, 0x04, 0x11, 0x06, 0xf6, 0x30,
  0xde, 0xf3, 0xf4, 0xf6, 0x18, 0xfc, 0xfa, 0x1e, 0x01, 0xde, 0xf2, 0xd8,
  0x25, 0xcb, 0x1a, 0xcc, 0xea, 0x26, 0xfe, 0xe6, 0x1f, 0xe2, 0xf9, 0x2a,
  0xf0, 0x15, 0x2c, 0x02, 0x23, 0xdd, 0xcc, 0x30, 0x14, 0xf9, 0x64, 0x0b,
  0x16, 0xf6, 0xef, 0x32, 0xe4, 0xe6, 0xd3, 0xc5, 0x01, 0x29, 0x27, 0x16,
  0x2d, 0x10, 0x2a, 0x1b, 0x0b, 0xf8, 0xba, 0x33, 0x56, 0x52, 0xb6, 0x40,
  0xc2, 0x1c, 0xce, 0x45, 0xce, 0x27, 0xbd, 0x22, 0xa4, 0xf8, 0x23, 0x18,
  0xe2, 0xfd, 0x4f, 0xed, 0x49, 0xf8, 0xfe, 0x5b, 0xd5, 0x16, 0x1d, 0x07,
  0xf4, 0x3a, 0x35, 0x36, 0x36, 0x5e, 0x44, 0xca, 0x2d, 0xe9, 0x0f, 0xd6,
  0xfb, 0x17, 0x01, 0x1d, 0xe1, 0xd9, 0x18, 0xd5, 0xb3, 0xd7, 0x32, 0xed,
  0xe4, 0xfa, 0xe0, 0xfc, 0xd9, 0x02, 0xce, 0xec, 0x5c, 0x39, 0x26, 0xb7,
  0x02, 0x18, 0x0d, 0x20, 0xd5, 0x43, 0xf6, 0xc6, 0xf4, 0xed, 0x1b, 0x26,
  0x0d, 0x2e, 0xbf, 0xe6, 0x2a, 0xe2, 0x09, 0x18, 0x0c, 0x29, 0xef, 0xfe,
  0xd3, 0x00, 0xfc, 0xc6, 0x32, 0xf0, 0xe2, 0x0e, 0xef, 0x16, 0x0a, 0xba,
  0x2b, 0x3c, 0x15, 0xc2, 0xf3, 0x0a, 0xc4, 0x12, 0xe2, 0x24, 0x1b, 0xf5,
  0x43, 0xe8, 0x46, 0x2c, 0xfa, 0x12, 0x08, 0x1b, 0xee, 0x00, 0x37, 0x2d,
  0x51, 0xfa, 0x04, 0x17, 0x19, 0x2d, 0x4c, 0x19, 0x15, 0x49, 0xef, 0xed,
  0x43, 0x28, 0x27, 0x37, 0xe8, 0xf4, 0xdf, 0x47, 0x3c, 0x25, 0xcd, 0xe3,
  0xcc, 0x11, 0x18, 0xd3, 0xd1, 0xc7, 0xd7, 0x28, 0xe9, 0xf3, 0x20, 0x4a,
  0x35, 0xdc, 0xc8, 0x1a, 0x42, 0x0c, 0x00, 0x17, 0xe1, 0x41, 0xe3, 0xe8,
  0x09, 0x39, 0x47, 0xeb, 0x15, 0xe9, 0xf2, 0x13, 0x1c, 0xf3, 0x13, 0x13,
  0x0b, 0x10, 0x5f, 0x4d, 0x32, 0x1e, 0xe3, 0x49, 0xfc, 0xf7, 0x0e, 0x34,
  0x48, 0x17, 0x1d, 0x45, 0x41, 0x35, 0x15, 0xd7, 0x22, 0xcc, 0x47, 0x69,
  0xec, 0xdf, 0xcd, 0xe3, 0x1c, 0x3a, 0x40, 0x16, 0xfe, 0xcd, 0x3c, 0x20,
  0x56, 0xf0, 0x4d, 0xfd, 0xe4, 0x28, 0x0c, 0x41, 0x0e, 0x1a, 0x0b, 0xf6,
  0xff, 0x15, 0x36, 0xf2, 0xd2, 0x0a, 0xf5, 0x3d, 0xf5, 0xd8, 0x17, 0x36,
  0xc6, 0xd3, 0x26, 0x3a, 0xd9, 0x08, 0xde, 0x20, 0x21, 0x43, 0xef, 0xc5,
  0x36, 0x2f, 0x39, 0xf3, 0x10, 0xf8, 0x17, 0x2a, 0xdb, 0x12, 0x3c, 0xd2,
  0x06, 0x07, 0xd7, 0xe6, 0xfa, 0xef, 0x19, 0xeb, 0x16, 0x2e, 0xed, 0x11,
  0xec, 0x00, 0x0f, 0x3a, 0x28, 0xde, 0x2e, 0xfb, 0xc0, 0x27, 0x27, 0xc1,
  0xf2, 0xd7, 0xe7, 0xdd, 0xf2, 0xca, 0xc8, 0x18, 0x19, 0xd9, 0xd9, 0x2b,
  0xe8, 0x15, 0xf9, 0xcf, 0xf9, 0x3b, 0xdb, 0xb7, 0x20, 0x25, 0x03, 0xcc,
  0x30, 0x06, 0xfc, 0xc1, 0x01, 0x27, 0xc6, 0xd6, 0xd5, 0x05, 0xdc, 0xcc,
  0xdf, 0xfb, 0x22, 0xee, 0x26, 0xce, 0xdd, 0xfc, 0xd1, 0x34, 0x03, 0x2f,
  0xf0, 0x1a, 0x06, 0xdd, 0x0b, 0x27, 0x15, 0xfd, 0x16, 0x26, 0xf5, 0xcf,
  0xf8, 0xcf, 0xfe, 0x1b, 0x01, 0xee, 0xe6, 0xd9, 0x12, 0x35, 0x2f, 0xe2,
  0xd5, 0xcd, 0xe7, 0x25, 0xdd, 0x2c, 0x13, 0x09, 0xdf, 0x37, 0x04, 0xfe,
  0x0f, 0xf0, 0xda, 0x09, 0xfd, 0xe7, 0x06, 0xff, 0x47, 0x01, 0xea, 0x00,
  0xfb, 0x07, 0x05, 0xf6, 0x22, 0x12, 0xbb, 0x42, 0x2b, 0xf7, 0xd7, 0x0b,
  0x29, 0x31, 0xcf, 0x20, 0x3b, 0xed, 0xfe, 0x2f, 0x09, 0x17, 0x22, 0x44,
  0x16, 0x1b, 0xe8, 0x1c, 0x02, 0xe3, 0x1d, 0x44, 0x0c, 0x13, 0x2a, 0x41,
  0xff, 0xe5, 0x40, 0x25, 0x4b, 0x21, 0xf8, 0x40, 0x3e, 0x3d, 0x15, 0x23,
  0x1f, 0x15, 0xf5, 0x2d, 0x0d, 0x03, 0x04, 0x12, 0x21, 0xec, 0x09, 0x5b,
  0xca, 0xfe, 0x03, 0xd9, 0x04, 0xe3, 0x21, 0x27, 0x30, 0x04, 0x36, 0xd9,
  0x0c, 0xe4, 0x0d, 0x25, 0xe3, 0x47, 0x1a, 0x12, 0x28, 0x48, 0x3f, 0xe5,
  0xc7, 0x1a, 0x47, 0x3d, 0xd8, 0x2f, 0x1c, 0xec, 0xf2, 0xd8, 0xf9, 0x3a,
  0xd6, 0x3d, 0x00, 0x48, 0x14, 0x12, 0xf6, 0xbf, 0xd2, 0x31, 0x0b, 0x32,
  0xfd, 0x16, 0xd8, 0x28, 0x0e, 0xce, 0x2f, 0xf5, 0x38, 0xc8, 0x38, 0x2d,
  0xfe, 0xf2, 0x14, 0x28, 0x02, 0x15, 0x15, 0x11, 0xe8, 0x38, 0xf6, 0x46,
  0xec, 0xdd, 0x22, 0x17, 0xc5, 0x09, 0xe0, 0x2f, 0x11, 0xee, 0x2d, 0x12,
  0x33, 0xf4, 0xdc, 0xe6, 0xfe, 0x34, 0x09, 0x26, 0x42, 0xed, 0xed, 0xf8,
  0x07, 0x21, 0x49, 0x09, 0x3d, 0xeb, 0x25, 0xdb, 0xee, 0x3b, 0xdd, 0x06,
  0x44, 0x0d, 0x0f, 0x0c, 0x0d, 0x01, 0xff, 0xfe, 0x1a, 0x13, 0xc5, 0xa7,
  0xe6, 0x26, 0x1f, 0xd3, 0xf5, 0x01, 0x01, 0x39, 0xf7, 0x01, 0x19, 0x3e,
  0x16, 0xef, 0x17, 0x04, 0xff, 0xf6, 0xdf, 0xf3, 0x08, 0x27, 0xb8, 0x11,
  0x12, 0x21, 0xdf, 0x13, 0x0e, 0x37, 0x37, 0xd4, 0x06, 0x2d, 0xc3, 0x2c,
  0xe3, 0xdf, 0x00, 0x00, 0xdf, 0x16, 0x10, 0xe4, 0x0b, 0x2d, 0x0b, 0x36,
  0x28, 0x3b, 0xca, 0x22, 0xfd, 0x3a, 0xed, 0xce, 0x08, 0xff, 0xf0, 0xec,
  0xe3, 0x29, 0xee, 0xe0, 0xea, 0x1d, 0xf8, 0x25, 0x0b, 0x01, 0x09, 0x1d,
  0x06, 0xd9, 0x35, 0x39, 0x2e, 0x37, 0xeb, 0xe2, 0xf5, 0xce, 0x15, 0xd3,
  0xc2, 0xf0, 0xc9, 0x27, 0x13, 0x2f, 0xe6, 0x1d, 0x0e, 0x0e, 0x05, 0x16,
  0xd7, 0x22, 0x26, 0xe1, 0xcb, 0xe8, 0x22, 0xfa, 0xd6, 0x0a, 0x0a, 0xf0,
  0x14, 0x1f, 0x08, 0x13, 0xf2, 0xdc, 0x4a, 0x29, 0xef, 0x39, 0x0f, 0xf6,
  0x16, 0x19, 0xfd, 0x07, 0x20, 0x1b, 0x2d, 0x0c, 0x20, 0xd0, 0xf3, 0x2b,
  0x10, 0xf4, 0x31, 0x3c, 0xcf, 0x2c, 0x0a, 0xf6, 0x4a, 0xf1, 0x3a, 0xf0,
  0x2d, 0x20, 0xd3, 0xca, 0x21, 0xeb, 0x2e, 0x23, 0xe4, 0x34, 0xff, 0x38,
  0x52, 0xd4, 0xe5, 0x0c, 0xff, 0x3a, 0x45, 0x1b, 0xfa, 0x06, 0x49, 0x3d,
  0xd4, 0x18, 0xd5, 0x01, 0x22, 0xfb, 0xde, 0x32, 0x42, 0x2e, 0x05, 0x1c,
  0x33, 0xff, 0x58, 0xe9, 0xf0, 0xdc, 0x5f, 0xd3, 0x3a, 0xf6, 0xdd, 0xc3,
  0xfb, 0x0f, 0xdf, 0x1b, 0x12, 0x3a, 0xf2, 0xf7, 0x2e, 0x69, 0xba, 0x38,
  0x17, 0x0f, 0x19, 0x24, 0xf1, 0x3d, 0x4a, 0x1f, 0xf2, 0x06, 0xd9, 0x0a,
  0x38, 0x19, 0x1a, 0x19, 0x18, 0x02, 0x3b, 0x3d, 0x04, 0x22, 0x1e, 0x04,
  0x3c, 0x53, 0x13, 0xff, 0xdf, 0x08, 0xfe, 0x23, 0x1d, 0xf6, 0x12, 0xe2,
  0x30, 0xc8, 0x15, 0xde, 0xd0, 0x0b, 0xfb, 0x10, 0x04, 0xf6, 0x2b, 0x01,
  0xe1, 0xd5, 0x14, 0x0f, 0x1e, 0x23, 0x2a, 0xfe, 0x25, 0xfb, 0xf4, 0x18,
  0xea, 0x49, 0x26, 0x41, 0xf5, 0x24, 0xe6, 0x38, 0xee, 0x13, 0xe7, 0x2e,
  0xf0, 0xf5, 0x16, 0x40, 0x0b, 0x09, 0x15, 0x2f, 0xed, 0x07, 0x05, 0x0b,
  0xdd, 0x32, 0x19, 0x19, 0xb7, 0x0a, 0x43, 0x42, 0xf9, 0xea, 0x3a, 0x05,
  0x15, 0xe3, 0x2d, 0x23, 0xdd, 0x29, 0x13, 0x21, 0x1c, 0x1f, 0x1f, 0x3d,
  0x19, 0x21, 0x39, 0x3d, 0x0b, 0x0d, 0x13, 0x4c, 0x10, 0x0f, 0x0a, 0xf0,
  0x21, 0xf5, 0x0f, 0x0d, 0xd1, 0x49, 0x30, 0xfe, 0xee, 0x21, 0x0e, 0x2e,
  0x24, 0x3c, 0xee, 0x01, 0x23, 0xdf, 0x2d, 0x1e, 0x30, 0x08, 0x25, 0xed,
  0xb4, 0x04, 0x23, 0xe5, 0xb6, 0xde, 0xee, 0xcd, 0xec, 0x06, 0x3f, 0x3e,
  0x53, 0x35, 0xb7, 0xe3, 0x37, 0x23, 0x1f, 0x26, 0x32, 0xe2, 0x2c, 0xc8,
  0x40, 0x5d, 0xfb, 0x02, 0xf8, 0xd4, 0x2a, 0x02, 0x23, 0xef, 0x08, 0x29,
  0x21, 0x4e, 0x34, 0x06, 0xf6, 0x09, 0x3c, 0x39, 0xf1, 0x20, 0x02, 0x48,
  0xe6, 0x54, 0x2a, 0x40, 0x2d, 0x44, 0xfc, 0x13, 0x21, 0x18, 0xfa, 0x4e,
  0x06, 0x13, 0x14, 0x4b, 0xda, 0xda, 0x16, 0xe3, 0xf3, 0xc9, 0x2f, 0x23,
  0xd8, 0xf9, 0x11, 0xd3, 0x14, 0x22, 0x14, 0xf7, 0x52, 0x23, 0x21, 0x2d,
  0x5c, 0x61, 0x40, 0x48, 0x32, 0xcd, 0x44, 0xcf, 0x54, 0x3d, 0xfb, 0x3a,
  0x44, 0xd6, 0xf0, 0xbb, 0x29, 0x68, 0xe3, 0xd3, 0x1e, 0x30, 0x0b, 0xdf,
  0x5e, 0x00, 0x03, 0x72, 0xe3, 0xfb, 0xfe, 0x15, 0xe9, 0xeb, 0xe0, 0x20,
  0xce, 0x11, 0x27, 0x32, 0x4c, 0x0b, 0xdc, 0x3e, 0x34, 0x01, 0xc6, 0x68,
  0x0b, 0x29, 0x1f, 0x28, 0x0c, 0x0e, 0xf4, 0xe7, 0xf1, 0x0a, 0x05, 0x04,
  0x53, 0xf8, 0x1e, 0xfd, 0x07, 0x16, 0x22, 0xe0, 0xe5, 0xee, 0x16, 0x2c,
  0xb3, 0xe6, 0xec, 0x5b, 0x25, 0xd2, 0x3a, 0xe9, 0xea, 0x0b, 0xd1, 0x19,
  0x72, 0x3c, 0x3e, 0x04, 0x19, 0x2d, 0xc8, 0x26, 0xe3, 0x14, 0x0b, 0xc7,
  0xff, 0x53, 0xf0, 0x2a, 0xfd, 0xf2, 0x1d, 0xcf, 0xff, 0xb6, 0x1c, 0x07,
  0xe5, 0x43, 0xdd, 0x02, 0xfe, 0xfa, 0xd0, 0x3a, 0x25, 0x38, 0x39, 0x11,
  0xf7, 0x09, 0x0e, 0xce, 0x7f, 0xe3, 0x10, 0x03, 0x2a, 0x17, 0x22, 0x02,
  0x1d, 0xf9, 0x0d, 0x04, 0xf6, 0x43, 0x1b, 0xf5, 0x1d, 0x50, 0x07, 0xea,
  0x14, 0xfe, 0x2b, 0x18, 0x52, 0xe4, 0xee, 0x24, 0x36, 0x54, 0x04, 0x23,
  0x3b, 0x47, 0xda, 0xc9, 0x07, 0x09, 0x1e, 0x47, 0xf0, 0x2c, 0x21, 0xf9,
  0xf0, 0xc8, 0x37, 0x43, 0xcd, 0x34, 0x1e, 0xc5, 0xe3, 0xf1, 0x45, 0x2e,
  0xfb, 0xe7, 0x31, 0x40, 0x16, 0x42, 0xea, 0x06, 0x67, 0xe6, 0x4d, 0xd6,
  0x30, 0xeb, 0x04, 0x0b, 0x02, 0x36, 0x64, 0xfc, 0x3a, 0x22, 0x53, 0x43,
  0xe4, 0x42, 0x15, 0x21, 0xd8, 0x46, 0x45, 0x3c, 0x65, 0xf4, 0x42, 0xca,
  0xfb, 0x67, 0x48, 0x39, 0x11, 0x57, 0x38, 0x51, 0xef, 0x54, 0xf7, 0xf5,
  0x2f, 0x1b, 0x43, 0x10, 0xf3, 0xd5, 0x4a, 0x58, 0x08, 0x05, 0xfd, 0x14,
  0x15, 0x3a, 0x15, 0x34, 0x1a, 0xfa, 0x30, 0x12, 0x33, 0x00, 0xe0, 0xe2,
  0x63, 0x2c, 0xf3, 0x00, 0xde, 0x30, 0x39, 0x35, 0xd5, 0x02, 0xf5, 0xf2,
  0x30, 0x01, 0x43, 0x08, 0x39, 0xee, 0x48, 0xf8, 0x47, 0x01, 0x1b, 0xdc,
  0x34, 0x49, 0x18, 0xf5, 0x42, 0x65, 0xf5, 0x72, 0x03, 0x41, 0x1c, 0x2e,
  0xcf, 0xe3, 0xe0, 0x16, 0x33, 0x23, 0xf9, 0x3a, 0x1a, 0xdb, 0x47, 0x45,
  0x2f, 0x2c, 0x3f, 0x3a, 0x4d, 0xfe, 0xef, 0xf8, 0x3e, 0x08, 0x0f, 0xf4,
  0xfa, 0xc9, 0x14, 0xd6, 0x3d, 0x03, 0x30, 0xfc, 0x3d, 0xd6, 0xfc, 0xde,
  0x9e, 0xf9, 0x3f, 0x10, 0xd4, 0xdf, 0xe3, 0x4f, 0x23, 0xc9, 0xfc, 0x06,
  0xdb, 0x37, 0x06, 0xdf, 0x60, 0x18, 0xc3, 0x0e, 0xdc, 0xfe, 0xc0, 0xc1,
  0x3b, 0x34, 0xfd, 0xff, 0x1c, 0x36, 0x37, 0xff, 0x0e, 0xfd, 0xe8, 0xd6,
  0x25, 0xa2, 0xeb, 0x37, 0xa0, 0xe6, 0x3e, 0xdc, 0xea, 0xf8, 0xca, 0xad,
  0xfb, 0x60, 0x37, 0xec, 0x09, 0xdf, 0xf9, 0x25, 0x2e, 0x07, 0x3d, 0x17,
  0xd8, 0xec, 0xf5, 0xdd, 0x2f, 0x08, 0xfc, 0xdb, 0x24, 0x06, 0x50, 0x48,
  0xe4, 0x1c, 0xf2, 0x09, 0x1e, 0xcb, 0xfa, 0xe8, 0xe6, 0x04, 0xb3, 0xeb,
  0xf6, 0x1d, 0x21, 0x33, 0xdd, 0x2c, 0x25, 0x2c, 0x03, 0xcd, 0xd6, 0x29,
  0xf9, 0x2d, 0x44, 0xf3, 0x20, 0x13, 0x25, 0x2b, 0x25, 0x30, 0xee, 0xec,
  0xb0, 0xdf, 0xc1, 0xfb, 0xd9, 0x22, 0xb1, 0xc9, 0xe1, 0xcf, 0xea, 0xcf,
  0x16, 0xc8, 0x04, 0x1b, 0x17, 0xd5, 0xb2, 0xfa, 0xce, 0xde, 0x20, 0x30,
  0x24, 0x13, 0x30, 0x26, 0x08, 0xf3, 0xe5, 0x18, 0x0e, 0xe1, 0xde, 0x0f,
  0xd5, 0xdc, 0x07, 0xe7, 0xe3, 0xec, 0xf2, 0xca, 0x1a, 0xdd, 0xe0, 0xd0,
  0xd5, 0xf5, 0xc3, 0x22, 0x06, 0x01, 0xda, 0xd6, 0x14, 0xc3, 0xf3, 0x0f,
  0xbe, 0xef, 0xfa, 0x33, 0xf4, 0x0a, 0x13, 0x09, 0x17, 0xea, 0xed, 0x00,
  0x34, 0x08, 0xe8, 0xf5, 0xfd, 0xd7, 0xf6, 0xed, 0xfd, 0x1e, 0xff, 0x55,
  0x32, 0x3d, 0x15, 0x3e, 0x05, 0x07, 0xf7, 0xd6, 0x21, 0xeb, 0x26, 0x1e,
  0x1b, 0xd6, 0x00, 0x11, 0xea, 0xe3, 0x16, 0xdf, 0x15, 0xe6, 0x28, 0xd5,
  0x0b, 0x0e, 0xfa, 0xf5, 0xf7, 0x09, 0x43, 0x1d, 0x19, 0x0f, 0x20, 0xfb,
  0x10, 0xc5, 0xf7, 0x15, 0x30, 0xfb, 0xf6, 0x1a, 0x31, 0x0b, 0xe2, 0xf7,
  0x08, 0xff, 0xd0, 0xce, 0xe8, 0x26, 0x31, 0xfe, 0xcf, 0xf0, 0x02, 0xfd,
  0xee, 0xf9, 0xed, 0xf6, 0xe4, 0xfe, 0xc3, 0x09, 0xd4, 0x16, 0x13, 0xf6,
  0xee, 0xd5, 0x19, 0x0c, 0x01, 0xf2, 0x28, 0x13, 0x05, 0x1e, 0x02, 0xd8,
  0xe6, 0x06, 0xfc, 0xf6, 0xf6, 0x05, 0x1b, 0xcb, 0x00, 0x09, 0x25, 0xf2,
  0xe2, 0x34, 0xbe, 0x15, 0xb6, 0x27, 0x1c, 0x16, 0x3c, 0xd6, 0xda, 0xe3,
  0x13, 0xb9, 0x24, 0xff, 0x1f, 0x19, 0x35, 0x19, 0xc6, 0xd6, 0x3b, 0xe9,
  0xe9, 0xc0, 0xc3, 0xed, 0x29, 0x26, 0x10, 0x0e, 0x24, 0xdf, 0xef, 0x0a,
  0xfc, 0x3d, 0xea, 0x18, 0x0e, 0xe8, 0x19, 0xf2, 0xe7, 0xff, 0x07, 0x13,
  0x08, 0x20, 0x1d, 0x06, 0x1f, 0xfa, 0x37, 0xfe, 0x12, 0xfa, 0xfc, 0x0f,
  0x2b, 0xbb, 0xd0, 0xf4, 0x1f, 0x26, 0xf2, 0x30, 0x2b, 0x1d, 0x23, 0x00,
  0x15, 0x18, 0xeb, 0xee, 0x0f, 0xfc, 0x05, 0x40, 0x00, 0x01, 0xc9, 0x13,
  0xf9, 0x0b, 0xe4, 0x34, 0x22, 0xd7, 0x12, 0xc3, 0x08, 0xe3, 0xb0, 0xc0,
  0xdf, 0x3f, 0xe3, 0xfd, 0xf4, 0xd0, 0x19, 0xd7, 0x2b, 0xff, 0x0f, 0x3d,
  0x33, 0xe7, 0x05, 0x05, 0xd9, 0xdb, 0x17, 0xf7, 0x21, 0x04, 0x44, 0xd2,
  0x2b, 0xea, 0xec, 0xe2, 0x1e, 0x11, 0x34, 0xf8, 0x01, 0xe3, 0xdb, 0xdc,
  0x14, 0xcc, 0x04, 0xd2, 0x17, 0xc7, 0x1d, 0x1d, 0xe3, 0x1b, 0xdc, 0x24,
  0x18, 0x15, 0xd6, 0x00, 0x29, 0x19, 0x2c, 0xf2, 0xd3, 0x33, 0x08, 0x30,
  0xff, 0x29, 0x35, 0x1f, 0x3f, 0x15, 0x07, 0xec, 0x2e, 0xe8, 0x0f, 0xed,
  0x05, 0xfb, 0x39, 0xce, 0xfc, 0x1d, 0xf0, 0xd7, 0xe2, 0x10, 0xe5, 0x33,
  0xfe, 0xf0, 0x2a, 0xff, 0x24, 0x12, 0xec, 0x30, 0xf9, 0xd9, 0x0a, 0x04,
  0x1e, 0xc9, 0xfa, 0xf9, 0xf4, 0xef, 0x25, 0x06, 0xca, 0xde, 0xed, 0xd1,
  0xd2, 0xca, 0xd3, 0x36, 0xcd, 0x0c, 0xec, 0xc2, 0x27, 0x24, 0xf0, 0x28,
  0xef, 0x2d, 0xd2, 0xe8, 0xd4, 0xff, 0x02, 0x11, 0xd6, 0xd4, 0xdd, 0x1c,
  0x23, 0xcb, 0xf0, 0xf0, 0x16, 0xce, 0xfd, 0x13, 0xd1, 0xd8, 0xd7, 0x04,
  0xed, 0xcd, 0xcb, 0x03, 0x0f, 0xdf, 0xe9, 0x0a, 0xe2, 0xb3, 0xe2, 0xeb,
  0xcf, 0xe8, 0x1a, 0xdc, 0x11, 0xdb, 0xf8, 0xac, 0xb5, 0x2a, 0xc5, 0xd9,
  0x27, 0x08, 0xec, 0xf3, 0xed, 0xf6, 0x22, 0x08, 0x40, 0xe4, 0xbe, 0xd6,
  0xf7, 0x06, 0x0f, 0xcc, 0xc5, 0xda, 0xf9, 0xbf, 0x06, 0x07, 0xf6, 0xe4,
  0xf0, 0x04, 0xd3, 0x14, 0xc2, 0x1a, 0xe7, 0x0c, 0xe1, 0xe4, 0x29, 0xec,
  0xd6, 0x22, 0x12, 0x17, 0x05, 0xf2, 0x0d, 0xdc, 0x0d, 0xf9, 0x33, 0x09,
  0xdd, 0x02, 0xf8, 0x28, 0x0b, 0xee, 0x0d, 0xef, 0x45, 0xf9, 0xe2, 0x2d,
  0x29, 0x0f, 0xe9, 0xe4, 0x10, 0x08, 0x04, 0x00, 0x11, 0x37, 0x1b, 0xd7,
  0x20, 0x1d, 0xea, 0x16, 0x32, 0x2d, 0xe2, 0xf2, 0xd9, 0x03, 0xea, 0xb6,
  0xf7, 0xf0, 0x0a, 0xfe, 0x35, 0x02, 0xf4, 0xf4, 0x1c, 0x3a, 0x14, 0x03,
  0x35, 0xe1, 0x2c, 0xd6, 0x33, 0x08, 0xf3, 0xf8, 0x0b, 0xef, 0xdb, 0x3c,
  0x08, 0xda, 0x09, 0xd2, 0xf6, 0x07, 0xf3, 0xfb, 0x14, 0x18, 0xe5, 0x01,
  0x01, 0xe5, 0x17, 0xeb, 0x02, 0xfe, 0xcc, 0xf5, 0xdb, 0x02, 0x21, 0x13,
  0x0a, 0x18, 0xd6, 0x24, 0xd8, 0x0c, 0x13, 0x25, 0x37, 0x14, 0xd7, 0xd6,
  0xe2, 0x09, 0x1b, 0xda, 0x36, 0x28, 0x0c, 0x45, 0x25, 0x22, 0x06, 0x0f,
  0x3a, 0x12, 0xf0, 0xf0, 0xdc, 0x0b, 0x26, 0xda, 0xef, 0xd6, 0x33, 0xeb,
  0xf2, 0x0b, 0xee, 0xfb, 0xf4, 0xda, 0x12, 0x1c, 0x23, 0xdb, 0xcf, 0x39,
  0x16, 0x03, 0x08, 0x11, 0x31, 0x0e, 0xc7, 0x26, 0xd4, 0x21, 0xe3, 0xe9,
  0xcc, 0x16, 0x14, 0xf0, 0x21, 0xd0, 0xf0, 0x42, 0x31, 0x0a, 0xcd, 0xe2,
  0xd8, 0xdc, 0x19, 0x1b, 0xe6, 0xf1, 0xdb, 0xdd, 0xf3, 0x54, 0xfc, 0xf5,
  0xde, 0xbc, 0xd8, 0x16, 0xfb, 0xfc, 0xfb, 0xe0, 0xcb, 0xb2, 0xff, 0xdd,
  0xbb, 0xe8, 0xc9, 0x0d, 0xd3, 0xce, 0xf9, 0x09, 0xcf, 0xf1, 0xfd, 0xf7,
  0xd1, 0x01, 0xdf, 0x3b, 0xb7, 0x0c, 0x12, 0xee, 0xc9, 0x28, 0x09, 0xd1,
  0xcb, 0xf5, 0xd8, 0x0f, 0xe1, 0xf9, 0xda, 0xba, 0xe5, 0x27, 0x0b, 0xf8,
  0x3d, 0xbf, 0xf6, 0xce, 0xe1, 0xcd, 0xf8, 0xf4, 0xca, 0xff, 0x0e, 0xf5,
  0xd6, 0xd7, 0xed, 0x43, 0x19, 0x2a, 0xe6, 0xc9, 0xaf, 0xee, 0xf2, 0xdd,
  0x26, 0xd4, 0xf7, 0xe5, 0xe7, 0xe8, 0x18, 0x2b, 0x27, 0xf9, 0xe7, 0xdd,
  0x04, 0x27, 0x2a, 0x0e, 0xce, 0x0f, 0xf5, 0x27, 0x27, 0x07, 0xe2, 0xea,
  0x05, 0x15, 0x1b, 0x16, 0x19, 0x13, 0xd9, 0xe8, 0xff, 0xf1, 0xc5, 0xe4,
  0x06, 0xdf, 0xde, 0x14, 0xed, 0x0f, 0x1d, 0x1c, 0xd4, 0xf1, 0x0b, 0x0b,
  0x0d, 0x29, 0x09, 0xce, 0x04, 0x29, 0x14, 0xd9, 0xe4, 0x2c, 0x0b, 0x08,
  0x2b, 0x27, 0x34, 0xfc, 0x3e, 0x33, 0x13, 0x38, 0xd7, 0x11, 0xd4, 0x2d,
  0xfe, 0xf8, 0x27, 0xd6, 0x1e, 0x1b, 0x00, 0xed, 0x02, 0xe7, 0xdc, 0x24,
  0xd2, 0x1f, 0x1e, 0xf7, 0xf9, 0xd8, 0xe5, 0x03, 0xf1, 0xc7, 0xf3, 0xdc,
  0xd9, 0xf2, 0x21, 0x27, 0xf9, 0xd8, 0x07, 0x32, 0x1b, 0xde, 0x23, 0xdb,
  0x0c, 0xdd, 0x09, 0x3c, 0xfc, 0x1c, 0xe6, 0x08, 0x12, 0xe2, 0x22, 0xf0,
  0xc1, 0xd9, 0xdd, 0xd2, 0xdc, 0x03, 0xe5, 0xe6, 0xed, 0x1a, 0x04, 0xd8,
  0xfb, 0x35, 0x1d, 0xe3, 0xf3, 0x27, 0x00, 0x17, 0xee, 0xf3, 0xf1, 0xeb,
