unsigned char modelo[] = {
  0x1c, 0x00, 0x00, 0x00, 0x54, 0x46, 0x4c, 0x33, 0x14, 0x00, 0x20, 0x00,
  0x1c, 0x00, 0x18, 0x00, 0x14, 0x00, 0x10, 0x00, 0x0c, 0x00, 0x00, 0x00,
  0x08, 0x00, 0x04, 0x00, 0x14, 0x00, 0x00, 0x00, 0x1c, 0x00, 0x00, 0x00,
  0x8c, 0x00, 0x00, 0x00, 0x0c, 0x01, 0x00, 0x00, 0x44, 0x44, 0x00, 0x00,
  0x54, 0x44, 0x00, 0x00, 0xec, 0x50, 0x00, 0x00, 0x03, 0x00, 0x00, 0x00,
  0x01, 0x00, 0x00, 0x00, 0x04, 0x00, 0x00, 0x00, 0x6a, 0xbb, 0xff, 0xff,
  0x0c, 0x00, 0x00, 0x00, 0x1c, 0x00, 0x00, 0x00, 0x3c, 0x00, 0x00, 0x00,
  0x0f, 0x00, 0x00, 0x00, 0x73, 0x65, 0x72, 0x76, 0x69, 0x6e, 0x67, 0x5f,
  0x64, 0x65, 0x66, 0x61, 0x75, 0x6c, 0x74, 0x00, 0x01, 0x00, 0x00, 0x00,
  0x04, 0x00, 0x00, 0x00, 0x68, 0xff, 0xff, 0xff, 0x09, 0x00, 0x00, 0x00,
  0x04, 0x00, 0x00, 0x00, 0x08, 0x00, 0x00, 0x00, 0x6f, 0x75, 0x74, 0x70,
  0x75, 0x74, 0x5f, 0x30, 0x00, 0x00, 0x00, 0x00, 0x01, 0x00, 0x00, 0x00,
  0x04, 0x00, 0x00, 0x00, 0x76, 0xbb, 0xff, 0xff, 0x04, 0x00, 0x00, 0x00,
  0x0c, 0x00, 0x00, 0x00, 0x6b, 0x65, 0x72, 0x61, 0x73, 0x5f, 0x74, 0x65,
  0x6e, 0x73, 0x6f, 0x72, 0x00, 0x00, 0x00, 0x00, 0x03, 0x00, 0x00, 0x00,
  0x5c, 0x00, 0x00, 0x00, 0x2c, 0x00, 0x00, 0x00, 0x04, 0x00, 0x00, 0x00,
  0xb8, 0xff, 0xff, 0xff, 0x0d, 0x00, 0x00, 0x00, 0x04, 0x00, 0x00, 0x00,
  0x13, 0x00, 0x00, 0x00, 0x43, 0x4f, 0x4e, 0x56, 0x45, 0x52, 0x53, 0x49,
  0x4f, 0x4e, 0x5f, 0x4d, 0x45, 0x54, 0x41, 0x44, 0x41, 0x54, 0x41, 0x00,
  0xdc, 0xff, 0xff, 0xff, 0x0c, 0x00, 0x00, 0x00, 0x04, 0x00, 0x00, 0x00,
  0x13, 0x00, 0x00, 0x00, 0x6d, 0x69, 0x6e, 0x5f, 0x72, 0x75, 0x6e, 0x74,
  0x69, 0x6d, 0x65, 0x5f, 0x76, 0x65, 0x72, 0x73, 0x69, 0x6f, 0x6e, 0x00,
  0x08, 0x00, 0x0c, 0x00, 0x08, 0x00, 0x04, 0x00, 0x08, 0x00, 0x00, 0x00,
  0x0b, 0x00, 0x00, 0x00, 0x04, 0x00, 0x00, 0x00, 0x13, 0x00, 0x00, 0x00,
  0x6d, 0x69, 0x6e, 0x5f, 0x72, 0x75, 0x6e, 0x74, 0x69, 0x6d, 0x65, 0x5f,
  0x76, 0x65, 0x72, 0x73, 0x69, 0x6f, 0x6e, 0x00, 0x0e, 0x00, 0x00, 0x00,
  0x34, 0x43, 0x00, 0x00, 0x2c, 0x43, 0x00, 0x00, 0x0c, 0x43, 0x00, 0x00,
  0xfc, 0x41, 0x00, 0x00, 0xec, 0x40, 0x00, 0x00, 0xdc, 0x00, 0x00, 0x00,
  0xd4, 0x00, 0x00, 0x00, 0xcc, 0x00, 0x00, 0x00, 0xc4, 0x00, 0x00, 0x00,
  0xbc, 0x00, 0x00, 0x00, 0xb4, 0x00, 0x00, 0x00, 0x94, 0x00, 0x00, 0x00,
  0x74, 0x00, 0x00, 0x00, 0x04, 0x00, 0x00, 0x00, 0x52, 0xbc, 0xff, 0xff,
  0x04, 0x00, 0x00, 0x00, 0x60, 0x00, 0x00, 0x00, 0x0c, 0x00, 0x00, 0x00,
  0x08, 0x00, 0x0e, 0x00, 0x08, 0x00, 0x04, 0x00, 0x08, 0x00, 0x00, 0x00,
  0x10, 0x00, 0x00, 0x00, 0x28, 0x00, 0x00, 0x00, 0x00, 0x00, 0x06, 0x00,
  0x08, 0x00, 0x04, 0x00, 0x06, 0x00, 0x00, 0x00, 0x04, 0x00, 0x00, 0x00,
  0x01, 0x00, 0x00, 0x00, 0xeb, 0x03, 0x00, 0x00, 0x0c, 0x00, 0x18, 0x00,
  0x14, 0x00, 0x10, 0x00, 0x0c, 0x00, 0x04, 0x00, 0x0c, 0x00, 0x00, 0x00,
  0xaf, 0x8f, 0x0e, 0x93, 0x06, 0x2c, 0x0f, 0xb5, 0x02, 0x00, 0x00, 0x00,
  0x02, 0x00, 0x00, 0x00, 0x04, 0x00, 0x00, 0x00, 0x06, 0x00, 0x00, 0x00,
  0x32, 0x2e, 0x31, 0x39, 0x2e, 0x30, 0x00, 0x00, 0xbe, 0xbc, 0xff, 0xff,
  0x04, 0x00, 0x00, 0x00, 0x10, 0x00, 0x00, 0x00, 0x00, 0x00, 0x00, 0x00,
  0x00, 0x00, 0x00, 0x00, 0x00, 0x00, 0x00, 0x00, 0x00, 0x00, 0x00, 0x00,
  0xda, 0xbc, 0xff, 0xff, 0x04, 0x00, 0x00, 0x00, 0x10, 0x00, 0x00, 0x00,
  0x31, 0x2e, 0x31, 0x34, 0x2e, 0x30, 0x00, 0x00, 0x00, 0x00, 0x00, 0x00,
  0x00, 0x00, 0x00, 0x00, 0x2c, 0xb1, 0xff, 0xff, 0x30, 0xb1, 0xff, 0xff,
  0x34, 0xb1, 0xff, 0xff, 0x38, 0xb1, 0xff, 0xff, 0x3c, 0xb1, 0xff, 0xff,
  0x0a, 0xbd, 0xff, 0xff, 0x04, 0x00, 0x00, 0x00, 0x00, 0x40, 0x00, 0x00,
  0xdc, 0x27, 0xa7, 0x4b, 0xa4, 0x19, 0xbc, 0x96, 0x68, 0x5e, 0x2e, 0x97,
  0x15, 0x01, 0xd9, 0x3c, 0xd9, 0x53, 0x0e, 0x5a, 0xff, 0xb2, 0xae, 0xac,
  0x67, 0x47, 0xde, 0x6b, 0x47, 0x2e, 0xfc, 0xdc, 0xe1, 0xa9, 0x17, 0x3a,
  0xa5, 0xc1, 0xd8, 0x1c, 0xcd, 0xa8, 0xcb, 0x23, 0xc3, 0x4b, 0x3b, 0xce,
  0x65, 0x08, 0x32, 0x14, 0xb8, 0x00, 0x71, 0x0a, 0xc6, 0x98, 0x9a, 0x45,
  0xc4, 0x93, 0x3a, 0x96, 0xe7, 0xa6, 0x00, 0xa2, 0xd0, 0x41, 0x2a, 0x1b,
  0x5f, 0xba, 0xa9, 0xb6, 0x01, 0x00, 0xa5, 0x0e, 0x4d, 0x50, 0x0b, 0x37,
  0x44, 0xe1, 0x7a, 0xce, 0x06, 0xab, 0x97, 0x12, 0xca, 0x14, 0x43, 0x5b,
  0x17, 0x9b, 0xf6, 0x81, 0x4f, 0xd1, 0xfc, 0xf0, 0x06, 0x41, 0x00, 0x1e,
  0xb1, 0xd4, 0xd8, 0x9b, 0x34, 0x04, 0x4d, 0xf5, 0x65, 0xc7, 0xcf, 0xb1,
  0x47, 0x3e, 0x53, 0x9b, 0xcb, 0x6d, 0x3a, 0x29, 0x39, 0xff, 0x2e, 0x0e,
  0xe2, 0x26, 0x1a, 0xa4, 0x10, 0xca, 0x0e, 0xb0, 0x27, 0x6b, 0xac, 0x26,
  0xce, 0x9f, 0x60, 0x0d, 0xb3, 0x3b, 0xcb, 0x5c, 0x01, 0xc0, 0x5c, 0x05,
  0x4d, 0xc9, 0x17, 0x0e, 0x0c, 0x2d, 0x25, 0xc9, 0x9f, 0x38, 0x2d, 0x42,
  0xf1, 0x6a, 0x43, 0x6a, 0xc0, 0x5d, 0x4b, 0xda, 0x01, 0x10, 0x4c, 0x66,
  0x28, 0x4c, 0x39, 0xd7, 0x08, 0xb2, 0x63, 0x59, 0x44, 0x35, 0x46, 0x0f,
  0x66, 0x2a, 0x1e, 0x2f, 0xcc, 0x48, 0x38, 0x58, 0x39, 0x32, 0xe8, 0x33,
  0x14, 0x47, 0xca, 0x0a, 0xc4, 0x68, 0x6a, 0xcd, 0xd0, 0x65, 0xdf, 0x2c,
  0x4d, 0x09, 0xff, 0x2b, 0xe1, 0xf6, 0xe8, 0xaf, 0xf7, 0xa6, 0xf7, 0xd8,
  0xcc, 0x47, 0x51, 0x2a, 0xd3, 0x2e, 0x62, 0x33, 0x9e, 0xe3, 0x68, 0x61,
  0x07, 0x32, 0x21, 0xe0, 0xb9, 0x50, 0x1c, 0xf6, 0x3e, 0x56, 0xff, 0x97,
  0xc1, 0x42, 0xe9, 0x46, 0x15, 0xe5, 0x04, 0x98, 0x2e, 0x54, 0x39, 0xf6,
  0x16, 0xf6, 0x98, 0x8d, 0x46, 0x1a, 0xfe, 0x99, 0x3a, 0xa9, 0xe7, 0xf4,
  0x09, 0xb8, 0xb5, 0x13, 0xaa, 0x10, 0x39, 0xf2, 0xdd, 0xaa, 0x28, 0x9d,
  0xec, 0x41, 0x07, 0xa9, 0x97, 0x0e, 0xc7, 0xb9, 0xf2, 0x0b, 0xf9, 0xdf,
  0xb7, 0x16, 0x92, 0x68, 0x35, 0x4d, 0xce, 0xd1, 0x36, 0xe1, 0xc0, 0x11,
  0xc7, 0x96, 0x64, 0x5e, 0x3f, 0xe0, 0x44, 0x16, 0xa6, 0x2b, 0x05, 0xd1,
  0xc0, 0xbb, 0xd1, 0x9b, 0x9c, 0x05, 0x3a, 0x48, 0x13, 0x2a, 0x3a, 0xb4,
  0x59, 0x7f, 0x74, 0x3a, 0x67, 0x09, 0x2f, 0x35, 0x08, 0x05, 0xad, 0xf8,
  0xe4, 0x21, 0x3a, 0x35, 0x5d, 0x96, 0xfd, 0xb7, 0x40, 0xfd, 0xfd, 0xad,
  0xa6, 0x36, 0x2d, 0x38, 0x44, 0x08, 0xf0, 0x05, 0x3b, 0xb2, 0xe6, 0xfc,
  0x40, 0x07, 0x6e, 0x6f, 0xc9, 0x3d, 0x45, 0xa9, 0xb5, 0x71, 0x0c, 0x48,
  0xa7, 0x77, 0xee, 0x9d, 0x3a, 0xe7, 0xbd, 0xb6, 0x61, 0xfe, 0x2d, 0x0b,
  0xf3, 0xcb, 0x48, 0xb8, 0x90, 0xaa, 0xa1, 0x68, 0xf9, 0x32, 0x77, 0x39,
  0x5c, 0x06, 0x16, 0x3d, 0x48, 0xb0, 0x8d, 0x3a, 0x34, 0x56, 0xee, 0xd3,
  0x07, 0xee, 0x31, 0xf0, 0xa0, 0xf0, 0x5f, 0x9b, 0xbe, 0x31, 0x1d, 0xa5,
  0x19, 0x45, 0x1f, 0x38, 0xde, 0x29, 0x52, 0x29, 0xe2, 0x07, 0xce, 0x1a,
  0xdd, 0xe9, 0x14, 0xf9, 0xaf, 0x3f, 0x04, 0x66, 0xa1, 0x5c, 0x54, 0xc6,
  0x3a, 0x31, 0x6d, 0xb0, 0xeb, 0x72, 0xb3, 0x2a, 0x66, 0x9a, 0xbc, 0x40,
  0x27, 0x4b, 0xe2, 0x0c, 0x37, 0x0f, 0x6d, 0xcc, 0x3f, 0x6e, 0x68, 0x00,
  0x2d, 0x1a, 0xe5, 0xb8, 0xe6, 0xe7, 0x55, 0x10, 0x32, 0xa4, 0x65, 0x62,
  0x5b, 0x51, 0x24, 0x68, 0xd2, 0xaa, 0xde, 0x56, 0xdb, 0xd7, 0x96, 0x34,
  0xda, 0xb1, 0x01, 0x19, 0xae, 0x67, 0x4c, 0xda, 0xc9, 0xc0, 0x52, 0x9d,
  0xb2, 0xe1, 0x98, 0x23, 0x5a, 0x02, 0xff, 0xbb, 0x34, 0x99, 0xad, 0xd9,
  0x18, 0x9b, 0x4d, 0x05, 0x09, 0x96, 0x66, 0xa7, 0x5a, 0x5c, 0xe5, 0xe6,
  0x5c, 0xa4, 0x10, 0xe1, 0xc2, 0x3f, 0x0a, 0xff, 0x22, 0xd6, 0x1b, 0x2e,
  0xf1, 0xa1, 0xb6, 0x1f, 0x95, 0xdb, 0x4b, 0xc0, 0x5c, 0x4b, 0x69, 0xd2,
  0x81, 0xb3, 0x32, 0x41, 0x4b, 0x43, 0xf7, 0x6a, 0xa3, 0x97, 0x3a, 0xf6,
  0xeb, 0x50, 0xe7, 0xc4, 0x45, 0xae, 0xf8, 0x58, 0xce, 0xf7, 0x17, 0x33,
  0x0d, 0x20, 0xf1, 0x60, 0x3f, 0x01, 0x22, 0xc5, 0xe7, 0xb3, 0x2f, 0x51,
  0xb0, 0x42, 0x0b, 0x42, 0x9c, 0xaf, 0x58, 0xcb, 0xda, 0xf4, 0xaf, 0x69,
  0x3c, 0xf4, 0xd2, 0x9c, 0x4c, 0xb3, 0xfc, 0x45, 0xdd, 0x2f, 0xb4, 0xee,
  0x1d, 0xaa, 0x72, 0x4d, 0xcb, 0x23, 0x32, 0xb7, 0x4f, 0xd4, 0xa6, 0xc6,
  0xbd, 0xb5, 0x2f, 0xc4, 0xcb, 0xb1, 0x5d, 0xf0, 0xf7, 0x0d, 0x93, 0xe0,
  0xd9, 0xcc, 0x36, 0x4b, 0xd0, 0x11, 0xc1, 0x5f, 0x4f, 0xe9, 0xee, 0xab,
  0xc1, 0x4e, 0x15, 0x5b, 0x03, 0x35, 0x99, 0xd8, 0x0f, 0xa5, 0x4a, 0x56,
  0xa8, 0x9c, 0x52, 0x6f, 0x4b, 0xc3, 0xd2, 0xe4, 0xbf, 0xef, 0x9e, 0x57,
  0x48, 0xf3, 0xda, 0x21, 0x1b, 0xdf, 0x22, 0xe7, 0x19, 0x15, 0x43, 0xfc,
  0x02, 0xfd, 0xdc, 0x27, 0x02, 0x18, 0x4d, 0xd9, 0xf0, 0x40, 0xe6, 0xe9,
  0xa1, 0x17, 0x14, 0xff, 0xfc, 0x9d, 0xf9, 0xad, 0x32, 0x33, 0xb6, 0xe1,
  0xd4, 0x65, 0x1f, 0xf8, 0xa1, 0xdc, 0x56, 0xc4, 0x1d, 0xe7, 0xc8, 0x9d,
  0xb2, 0x98, 0x32, 0xf2, 0xf2, 0x55, 0x39, 0x8e, 0x23, 0x56, 0x5e, 0x36,
  0x2e, 0x98, 0xaf, 0xf6, 0x67, 0x0c, 0x0b, 0xce, 0xb4, 0x0f, 0x15, 0x0d,
  0x2f, 0xc5, 0x0d, 0xbc, 0xc8, 0xce, 0x29, 0xe9, 0xc9, 0x64, 0x35, 0x56,
  0xc7, 0x52, 0x52, 0x95, 0xe5, 0xec, 0x01, 0x5a, 0xaa, 0xe2, 0x3b, 0xc7,
  0xf4, 0x37, 0xb7, 0x4a, 0xa8, 0x9f, 0x16, 0xcf, 0x3e, 0xd9, 0x33, 0x5e,
  0xd0, 0xe8, 0xa4, 0x40, 0xf0, 0x37, 0xf5, 0x39, 0x38, 0x2e, 0x25, 0xb4,
  0xe2, 0x61, 0x5b, 0x31, 0x66, 0x8c, 0xa9, 0xc5, 0x3f, 0x0b, 0xd0, 0x0e,
  0xd1, 0x92, 0x9c, 0x34, 0x3b, 0x0f, 0x5e, 0x16, 0x72, 0x48, 0x12, 0xe0,
  0x2c, 0x17, 0xa1, 0x1d, 0x88, 0x4c, 0x3f, 0xba, 0x5a, 0xb5, 0xf1, 0x03,
  0x3a, 0x22, 0xaf, 0x33, 0x0f, 0x0a, 0xd8, 0x21, 0xf5, 0x07, 0x20, 0x07,
  0x70, 0xd6, 0x0f, 0x79, 0x04, 0xb5, 0xb6, 0x00, 0xca, 0xbb, 0xce, 0x21,
  0x4d, 0x17, 0x44, 0xc1, 0xcd, 0xc1, 0x56, 0xee, 0x6c, 0xae, 0x17, 0x35,
  0xb2, 0x6f, 0xb1, 0xd8, 0x49, 0xad, 0x99, 0xed, 0x67, 0xd1, 0x64, 0xd4,
  0xe7, 0xd3, 0xc0, 0xb4, 0xfb, 0xd2, 0x93, 0xa3, 0x11, 0x65, 0x3e, 0x50,
  0x15, 0xce, 0x30, 0x2f, 0xfa, 0x1b, 0x38, 0x07, 0x33, 0x54, 0xbe, 0x73,
  0x91, 0xf7, 0x5d, 0x00, 0x51, 0x1d, 0x23, 0x22, 0xf5, 0xda, 0x33, 0x62,
  0x3a, 0x73, 0x72, 0x90, 0x5c, 0x24, 0x68, 0x6a, 0x53, 0x22, 0xd2, 0xc2,
  0xf0, 0xc7, 0xf8, 0x3e, 0x3e, 0x33, 0xfb, 0x8e, 0x0b, 0xaf, 0x6d, 0x10,
  0xe6, 0xb2, 0x68, 0xe7, 0x81, 0x15, 0x99, 0xc8, 0x31, 0x93, 0x92, 0xe7,
  0x49, 0x59, 0x39, 0x16, 0x1c, 0xe2, 0xe9, 0xec, 0xcc, 0x5f, 0x2d, 0x90,
  0xe3, 0x12, 0x0f, 0xe3, 0xb2, 0x4b, 0x42, 0x9c, 0x43, 0x5a, 0x36, 0xa6,
  0xd9, 0xa2, 0x5b, 0x49, 0x9b, 0xa8, 0x54, 0x46, 0x1d, 0x55, 0x9c, 0x63,
  0x58, 0x41, 0xe3, 0xe0, 0x0b, 0x2a, 0xab, 0xca, 0xe8, 0x59, 0x6c, 0xcd,
  0x1e, 0xb6, 0x60, 0xf2, 0xd8, 0x0f, 0x36, 0x38, 0xda, 0x04, 0xac, 0xbb,
  0xd7, 0xfb, 0xab, 0xd4, 0x11, 0x09, 0x44, 0xe1, 0xd1, 0xd8, 0x89, 0x98,
  0x45, 0x1d, 0xdb, 0xb3, 0xfb, 0xd8, 0x6f, 0xa4, 0x72, 0xb0, 0xa6, 0xb9,
  0x56, 0x2c, 0x86, 0xcd, 0x5c, 0xd8, 0xcb, 0xfa, 0xf7, 0x27, 0x33, 0xba,
  0x2e, 0x23, 0x11, 0x63, 0xd2, 0xf7, 0x05, 0xb9, 0x61, 0xbf, 0x6d, 0x6a,
  0x50, 0x60, 0x4c, 0x69, 0x22, 0xdc, 0x36, 0x4c, 0x00, 0x8a, 0x81, 0x13,
  0x4b, 0x2b, 0x9b, 0x55, 0x6a, 0xe8, 0xcd, 0x0c, 0xb1, 0x88, 0x04, 0x37,
  0xfb, 0xf9, 0x58, 0x91, 0x2c, 0xae, 0x02, 0x3d, 0x0d, 0xd3, 0x67, 0xa9,
  0x4d, 0x3c, 0xf7, 0x6d, 0xd6, 0x45, 0x2d, 0xe2, 0xe5, 0x05, 0xa5, 0x9e,
  0xa3, 0xff, 0xf1, 0x01, 0x14, 0x16, 0xf0, 0x8a, 0xfe, 0xe1, 0xb7, 0x02,
  0x20, 0x5f, 0x07, 0x67, 0x8f, 0x57, 0x06, 0x99, 0x0f, 0xc8, 0x2e, 0xde,
  0x93, 0x06, 0x93, 0x82, 0x1e, 0x2b, 0xc2, 0x1c, 0xfa, 0xf3, 0x35, 0x66,
  0xb3, 0x52, 0xda, 0xc4, 0xa4, 0xfa, 0x5e, 0x3c, 0x97, 0x69, 0x71, 0x10,
  0x68, 0xcc, 0x4c, 0xf7, 0xcb, 0xf0, 0x6e, 0x0a, 0xcb, 0x01, 0x1a, 0x62,
  0x87, 0xc5, 0x38, 0x9a, 0x9d, 0x99, 0x19, 0x5e, 0x0f, 0xb0, 0x1e, 0x2a,
  0x4e, 0x2b, 0x13, 0xee, 0x04, 0x23, 0x9c, 0xe0, 0xcd, 0x9c, 0x55, 0x9d,
  0x46, 0x54, 0x8f, 0x5f, 0x0c, 0x24, 0x2f, 0x2c, 0x18, 0x57, 0x0f, 0x06,
  0xcf, 0xcf, 0x19, 0x4a, 0x29, 0x5d, 0x65, 0xd5, 0x4e, 0xd1, 0xc2, 0x02,
  0x1b, 0xe1, 0xf6, 0xb1, 0x40, 0xcc, 0x66, 0x31, 0xed, 0xfb, 0x08, 0xca,
  0x08, 0x45, 0xf5, 0x3b, 0xc6, 0x9a, 0x2c, 0x1b, 0xea, 0x5c, 0x2c, 0x5f,
  0x00, 0xaa, 0x19, 0xe2, 0xbd, 0xf8, 0x5e, 0x1e, 0x47, 0xea, 0xf0, 0x3b,
  0x66, 0x01, 0xc6, 0xb5, 0xfc, 0x24, 0xa9, 0xef, 0xe8, 0x51, 0x22, 0x6a,
  0x3a, 0xcb, 0xf3, 0x38, 0xa5, 0xcc, 0x1c, 0x49, 0xd1, 0x48, 0xad, 0x50,
  0xc8, 0x59, 0xd1, 0xde, 0xca, 0xbf, 0xe0, 0x4a, 0xf0, 0xc4, 0xd2, 0xc4,
  0x11, 0xcd, 0xd8, 0xb3, 0x19, 0xb7, 0xf2, 0x9c, 0x2d, 0xe3, 0x0f, 0xac,
  0xba, 0x0d, 0x11, 0x9b, 0x55, 0x6e, 0xb7, 0x03, 0x96, 0x4d, 0x44, 0x31,
  0x0e, 0xb1, 0xfb, 0x0f, 0xdf, 0x13, 0xc1, 0x21, 0xd1, 0x06, 0x0d, 0x2d,
  0x5c, 0xd1, 0x43, 0x2a, 0xd1, 0xbe, 0x56, 0xeb, 0xf3, 0xa4, 0xfa, 0x6b,
  0x2e, 0xbd, 0x36, 0xf3, 0xf8, 0xf7, 0x02, 0x9b, 0x2e, 0xfd, 0x09, 0x30,
  0x3a, 0xb3, 0x01, 0x33, 0x61, 0x67, 0x1c, 0x68, 0x20, 0xca, 0xe5, 0x49,
  0xff, 0x38, 0xdc, 0x17, 0x3c, 0xb5, 0x40, 0x65, 0x22, 0x9d, 0xa1, 0x5f,
  0x0c, 0xba, 0x4e, 0x4a, 0x58, 0x01, 0x67, 0xff, 0xfa, 0xec, 0xb9, 0xb9,
  0xda, 0x3c, 0x9b, 0x0c, 0xf0, 0xc7, 0x1a, 0xf8, 0x41, 0x42, 0xa7, 0x30,
  0xe3, 0xfb, 0xfc, 0x94, 0xc9, 0xef, 0x24, 0xdb, 0xba, 0xf5, 0x3f, 0x9d,
  0x4c, 0x68, 0x0f, 0xc0, 0x0a, 0x26, 0x69, 0xfe, 0x70, 0x5f, 0xe4, 0x16,
  0xd2, 0x9e, 0xf9, 0x02, 0x7f, 0xc3, 0x17, 0x40, 0xb4, 0xb8, 0xfd, 0xd8,
  0x26, 0xfa, 0xe6, 0x19, 0x30, 0xce, 0x12, 0xa2, 0xb8, 0x94, 0x0e, 0xe5,
  0x22, 0xd2, 0x00, 0xc5, 0x41, 0xfb, 0xa9, 0x94, 0x42, 0xa1, 0xee, 0x58,
  0xb6, 0xd2, 0x65, 0xf6, 0xc4, 0xd8, 0xf3, 0xa3, 0xee, 0xcc, 0x13, 0x3d,
  0x3d, 0x23, 0xe6, 0x2b, 0xf3, 0xd4, 0x1e, 0x9c, 0x36, 0x62, 0x94, 0x67,
  0x45, 0xba, 0x2d, 0x47, 0x35, 0x44, 0xd8, 0xe3, 0xf4, 0xe3, 0x94, 0x4a,
  0xc7, 0xd1, 0x57, 0x45, 0x1f, 0x5d, 0x44, 0x26, 0xef, 0xea, 0xf8, 0xfc,
  0x42, 0xfa, 0xf0, 0x1c, 0x32, 0xbf, 0x4e, 0xea, 0x0f, 0x1a, 0xb0, 0x51,
  0xb0, 0xca, 0xaa, 0x82, 0xe7, 0x46, 0x13, 0xb1, 0xaa, 0x0d, 0xa2, 0xf0,
  0x97, 0xb2, 0x86, 0x02, 0xc2, 0x04, 0xdf, 0xde, 0x95, 0xff, 0xde, 0x72,
  0x4e, 0x76, 0x0d, 0x44, 0x8a, 0x03, 0xd7, 0x8b, 0x89, 0x6c, 0x30, 0xb3,
  0x58, 0xd5, 0x7d, 0x91, 0x15, 0xe9, 0x1d, 0x0a, 0x01, 0xe1, 0x7a, 0x3b,
  0xfe, 0x22, 0x64, 0x1b, 0xe7, 0x8c, 0xcd, 0xbf, 0x5d, 0x84, 0x98, 0x0a,
  0x37, 0x71, 0xb8, 0xa3, 0xf0, 0xc5, 0xa7, 0xa5, 0x87, 0xff, 0x6a, 0x6d,
  0xed, 0x7f, 0x29, 0x53, 0xc5, 0x6b, 0x25, 0xd8, 0x68, 0x67, 0x13, 0x85,
  0x1f, 0xea, 0x2a, 0x2c, 0x65, 0x2f, 0x24, 0xa8, 0xfd, 0x17, 0x79, 0xb8,
  0x8f, 0x05, 0x6d, 0xac, 0x32, 0x72, 0x4b, 0xf1, 0xf9, 0x6b, 0xa9, 0x70,
  0x39, 0xca, 0x0d, 0xed, 0x52, 0xa1, 0x5c, 0x4c, 0x61, 0x03, 0x99, 0xa7,
  0x6d, 0x4e, 0xa5, 0x32, 0x9a, 0xa2, 0xc3, 0xcc, 0x76, 0xbe, 0xef, 0x61,
  0xc0, 0xf0, 0x14, 0x1f, 0x22, 0x83, 0xd5, 0x0b, 0xe1, 0x8a, 0xde, 0xd2,
  0x5a, 0x6e, 0x41, 0x02, 0x18, 0xb1, 0xcb, 0xb6, 0xa7, 0x5b, 0x11, 0xd4,
  0x75, 0x03, 0x3a, 0xe7, 0xe0, 0x8a, 0xaf, 0xc8, 0x62, 0x17, 0x4c, 0x6b,
  0x5c, 0x62, 0xe9, 0x96, 0xf3, 0xa6, 0xc2, 0x69, 0x97, 0xc0, 0x09, 0x76,
  0xc0, 0x52, 0xef, 0xab, 0x7b, 0x6d, 0x9d, 0xe8, 0x4b, 0xe4, 0x23, 0x64,
  0x07, 0xa2, 0xda, 0xfa, 0x79, 0x37, 0x30, 0x64, 0x02, 0x79, 0x3b, 0x6f,
  0x83, 0x7f, 0xc6, 0x5d, 0x5b, 0x53, 0x82, 0xb6, 0xa1, 0x8a, 0xd6, 0xf5,
  0xd9, 0x4d, 0x6d, 0x85, 0x46, 0x96, 0x3d, 0x08, 0x11, 0x27, 0x37, 0x0f,
  0x24, 0xfc, 0xef, 0x10, 0x0f, 0xc7, 0x2e, 0x8e, 0xda, 0x11, 0x63, 0xd5,
  0xa0, 0xfd, 0x35, 0x96, 0xc4, 0xa0, 0x84, 0xdd, 0xdd, 0x34, 0xae, 0x00,
  0xd6, 0xb2, 0xe4, 0x69, 0x61, 0x1e, 0xcc, 0x02, 0xb8, 0x83, 0x27, 0x70,
  0xdb, 0xd8, 0x7b, 0x36, 0x33, 0xd5, 0xac, 0xdc, 0xb6, 0x03, 0x3f, 0x0c,
  0x91, 0x20, 0x1b, 0xe1, 0x34, 0x0f, 0xe2, 0x11, 0x25, 0xf2, 0x6d, 0x3d,
  0x13, 0xa4, 0x86, 0x15, 0x73, 0x09, 0x1f, 0x2c, 0xc0, 0x35, 0xdc, 0xa7,
  0x25, 0xa8, 0xae, 0x59, 0x30, 0x12, 0x5c, 0xa9, 0xd8, 0xfd, 0xd1, 0x89,
  0x6c, 0x75, 0x6d, 0x9a, 0xa8, 0x38, 0x2d, 0x5a, 0x23, 0x1c, 0xf3, 0x97,
  0x3e, 0xd6, 0xab, 0x88, 0xdc, 0x1b, 0xd3, 0x27, 0x67, 0x12, 0x8a, 0x74,
  0xd7, 0xb3, 0xf2, 0x9f, 0x71, 0x1d, 0x72, 0x63, 0x33, 0xc2, 0x02, 0x07,
  0xca, 0xde, 0xfb, 0x30, 0x8e, 0xdf, 0x32, 0xe6, 0xd6, 0x67, 0x46, 0x34,
  0x18, 0xb6, 0xd1, 0xef, 0x55, 0xe7, 0x41, 0xc9, 0x1b, 0x18, 0x9b, 0x5c,
  0xb8, 0xff, 0xba, 0xa5, 0xb6, 0xb3, 0x17, 0x0d, 0xe7, 0x6f, 0x50, 0x0b,
  0xcb, 0x43, 0x9c, 0xe4, 0xb9, 0x4d, 0x9c, 0x9e, 0xb4, 0x71, 0x9d, 0xf1,
  0x73, 0xe7, 0x5d, 0x0f, 0xba, 0xd8, 0x34, 0xb8, 0x90, 0x6e, 0xa2, 0x01,
  0xb8, 0x0f, 0xbe, 0xfb, 0x2f, 0xbd, 0x51, 0xe0, 0x74, 0xb2, 0x26, 0x45,
  0x5a, 0x1d, 0xde, 0x1e, 0x03, 0xc3, 0x8e, 0xf9, 0x42, 0xd6, 0x29, 0x6b,
  0xf8, 0xd5, 0xf0, 0x60, 0x2b, 0x9d, 0xae, 0xad, 0xb8, 0xe4, 0xc5, 0xa1,
  0xf0, 0x3a, 0x92, 0x61, 0xf1, 0x16, 0x32, 0xc4, 0x2d, 0xac, 0xf0, 0xce,
  0xbf, 0xf5, 0xac, 0x9a, 0xc6, 0xb1, 0x22, 0x72, 0xa8, 0x11, 0x08, 0xe7,
  0x50, 0xde, 0x3e, 0xae, 0xab, 0x33, 0xa9, 0xc0, 0x0e, 0xa6, 0x4f, 0x63,
  0x0e, 0x6e, 0x32, 0xfe, 0x83, 0xf1, 0x06, 0x2c, 0x05, 0x0c, 0xbd, 0x89,
  0x4b, 0xbd, 0x4c, 0xea, 0xd5, 0x03, 0xfb, 0x34, 0x2d, 0x8c, 0x90, 0xbf,
  0x70, 0xf4, 0x8e, 0xdb, 0x8c, 0xcb, 0x43, 0xc9, 0x92, 0x8a, 0xd3, 0x81,
  0xa2, 0xf4, 0xcf, 0xbb, 0x29, 0xb3, 0xb9, 0x16, 0x95, 0xa9, 0x4f, 0x6c,
  0x43, 0xfa, 0x30, 0x66, 0x65, 0xe9, 0x4e, 0xd8, 0x96, 0x9f, 0xc3, 0x27,
  0x17, 0x66, 0xac, 0xb5, 0xf4, 0x24, 0xb7, 0x81, 0x4b, 0x26, 0xdc, 0x13,
  0x71, 0x4e, 0x23, 0x33, 0x3e, 0xf3, 0x02, 0x68, 0x50, 0x13, 0x64, 0xd4,
  0x85, 0x8a, 0x11, 0xd3, 0x50, 0x45, 0x3a, 0xd7, 0x98, 0x71, 0x23, 0x4d,
  0xaf, 0xf9, 0x4a, 0xe6, 0xe6, 0x33, 0xa1, 0x41, 0x38, 0x97, 0x77, 0xb9,
  0x35, 0xb7, 0xa9, 0xd7, 0x45, 0x54, 0xae, 0x9c, 0x8b, 0x3b, 0x4f, 0x1d,
  0x19, 0x57, 0x6e, 0xe3, 0xe2, 0xe8, 0x0b, 0x71, 0xff, 0x4b, 0x4f, 0x92,
  0xcc, 0x16, 0xca, 0x68, 0xe6, 0xdc, 0x5f, 0xa0, 0xe5, 0xab, 0xa6, 0x8b,
  0xa4, 0x9e, 0x09, 0x8f, 0x86, 0xf5, 0x90, 0xbc, 0x31, 0x03, 0xc8, 0xb6,
  0xd4, 0xb9, 0x61, 0xdd, 0xfb, 0x3b, 0xac, 0x2c, 0xb6, 0xe2, 0xec, 0x37,
  0xb3, 0x7c, 0x65, 0x8d, 0xbf, 0xbb, 0x62, 0x0f, 0x2e, 0x70, 0x40, 0x2a,
  0xb0, 0x63, 0xca, 0x29, 0x63, 0xd2, 0x47, 0x5e, 0xb5, 0xa0, 0xd3, 0xe6,
  0x14, 0x34, 0x9d, 0xd8, 0xd2, 0xbe, 0x1c, 0xe1, 0x96, 0x8b, 0x06, 0x8a,
  0x0f, 0xa1, 0xca, 0x9f, 0x62, 0xf3, 0x36, 0x12, 0xa0, 0x16, 0x36, 0x95,
  0x5f, 0x28, 0x01, 0xb8, 0x78, 0x35, 0x3d, 0x4f, 0x33, 0x1d, 0x93, 0x4f,
  0xd4, 0xd3, 0x51, 0xa4, 0x9f, 0x23, 0xe2, 0xfd, 0xa4, 0x96, 0x63, 0x9d,
  0x8c, 0xd4, 0xa6, 0xd5, 0xa6, 0x11, 0x17, 0x42, 0x98, 0x6c, 0x01, 0x49,
  0x3e, 0x57, 0x6a, 0x8b, 0xd1, 0xf9, 0x6e, 0xe1, 0x4d, 0x65, 0xcc, 0x1a,
  0xc7, 0x71, 0xc4, 0x87, 0x07, 0xb5, 0x49, 0xdf, 0x86, 0xf1, 0x67, 0x05,
  0x46, 0x55, 0xd9, 0xa4, 0xd2, 0x7c, 0x31, 0x24, 0x3d, 0x0d, 0xd5, 0x14,
  0x1c, 0xf0, 0xf6, 0x2b, 0xad, 0xe5, 0xcd, 0x0c, 0xa2, 0x3b, 0x45, 0x3b,
  0x76, 0x01, 0xba, 0x90, 0xc9, 0x36, 0x4b, 0xb8, 0x4d, 0xfe, 0xe7, 0x66,
  0x60, 0x0e, 0x50, 0x19, 0xc8, 0xd2, 0x0e, 0xec, 0x0c, 0x25, 0x49, 0x56,
  0x0f, 0xe6, 0xfd, 0x21, 0x35, 0x39, 0xa1, 0xb8, 0xbd, 0x23, 0x4b, 0xee,
  0x9a, 0x12, 0xf7, 0x68, 0xa2, 0x2b, 0x0a, 0x99, 0xc1, 0x16, 0x17, 0x25,
  0xf6, 0x44, 0x07, 0x0f, 0x16, 0xf9, 0x9c, 0x9b, 0xfe, 0xce, 0xbb, 0x3c,
  0x3c, 0xd0, 0xf7, 0x29, 0xcc, 0x6d, 0xb6, 0xd9, 0x0e, 0x0d, 0x65, 0x02,
  0x54, 0x5f, 0xfa, 0x70, 0xdb, 0xe5, 0xdf, 0xbe, 0x27, 0x07, 0x8c, 0xbb,
  0x63, 0x56, 0x3f, 0x14, 0x36, 0xbb, 0x1d, 0xbc, 0x3f, 0x1b, 0x95, 0xe0,
  0xba, 0x54, 0xdb, 0x7f, 0xac, 0x1f, 0x98, 0x3b, 0x4a, 0x65, 0x46, 0xf9,
  0x95, 0x48, 0x54, 0xc8, 0x17, 0x33, 0x40, 0x3a, 0xea, 0xf5, 0xe8, 0x4a,
  0xbc, 0xfb, 0xf4, 0x60, 0xa0, 0xc2, 0x96, 0x37, 0xee, 0xde, 0xab, 0xb2,
  0x66, 0xd7, 0xf1, 0x12, 0xf3, 0xc0, 0x0f, 0x08, 0xc0, 0xa5, 0x9a, 0x39,
  0xae, 0xec, 0x49, 0x5e, 0xc3, 0x12, 0x5d, 0x0a, 0x60, 0xcb, 0x09, 0x64,
  0xb2, 0xfd, 0xb6, 0x39, 0x2f, 0xc3, 0x63, 0x41, 0x08, 0xfe, 0xfd, 0x09,
  0xdc, 0xb1, 0x71, 0x42, 0x34, 0x63, 0x4d, 0x47, 0xd2, 0xd6, 0xa9, 0xcc,
  0x44, 0xed, 0xc1, 0xa4, 0xb2, 0xae, 0xc4, 0xc0, 0x10, 0x02, 0x24, 0xa9,
  0x12, 0x35, 0x5e, 0x38, 0x2a, 0x3e, 0xec, 0x15, 0x2b, 0x33, 0xf6, 0xb3,
  0x49, 0xda, 0xd7, 0xf8, 0x65, 0x02, 0x5a, 0x07, 0xe8, 0xa6, 0x6a, 0x3c,
  0x62, 0xed, 0x25, 0xf5, 0x4d, 0x04, 0x1d, 0x45, 0x04, 0x8d, 0xf3, 0x4b,
  0x15, 0x75, 0x27, 0xdc, 0xb6, 0x1b, 0x34, 0x33, 0x4b, 0x5a, 0x8f, 0x5c,
  0x56, 0xe1, 0x56, 0xd0, 0x34, 0xb6, 0x26, 0x63, 0x52, 0x93, 0x53, 0x6e,
  0xbb, 0xf6, 0x8f, 0xe5, 0xd8, 0xd6, 0x4b, 0xe2, 0xb4, 0x70, 0xff, 0x38,
  0xa5, 0xae, 0xad, 0xbf, 0xbe, 0xa4, 0xef, 0xd1, 0x65, 0x42, 0xc0, 0x62,
  0xaf, 0xdc, 0x03, 0x36, 0xef, 0xa9, 0x1e, 0xcc, 0xfd, 0x3d, 0x1f, 0x48,
  0xec, 0x3e, 0x17, 0x1b, 0xa1, 0x12, 0x02, 0x33, 0xb3, 0x1f, 0xe5, 0x2c,
  0xea, 0xb0, 0x0e, 0xed, 0x57, 0xa8, 0x00, 0x52, 0x13, 0xb7, 0xe9, 0xe1,
  0xc0, 0x07, 0x50, 0x2f, 0x57, 0x03, 0xdd, 0xf4, 0x35, 0x06, 0x50, 0x20,
  0x6d, 0xf6, 0xdd, 0x23, 0x49, 0xc2, 0x0d, 0xf7, 0xf0, 0xd4, 0x9c, 0xdf,
  0x81, 0x53, 0xef, 0x42, 0x9a, 0x03, 0x21, 0x05, 0xec, 0x3a, 0x43, 0xe8,
  0x29, 0xe2, 0x3e, 0x3e, 0x27, 0x21, 0xed, 0xeb, 0xdb, 0xed, 0xb4, 0xb8,
  0xa6, 0x49, 0x2b, 0xdb, 0xea, 0xb8, 0xcb, 0xf0, 0x98, 0xa9, 0xee, 0xf3,
  0xdc, 0xae, 0x04, 0xc0, 0x35, 0xa8, 0xf5, 0x37, 0x59, 0xf8, 0x24, 0x19,
  0x58, 0x2e, 0xc7, 0x34, 0xfe, 0x1f, 0x4c, 0x2f, 0x5a, 0xa9, 0x50, 0x09,
  0xfc, 0x60, 0xac, 0xde, 0xc4, 0x46, 0x3f, 0x92, 0x9e, 0x11, 0xe6, 0x1a,
  0x1c, 0x43, 0xb8, 0x13, 0xdf, 0x3c, 0x2e, 0x30, 0x64, 0x56, 0x3c, 0xcc,
  0x24, 0x5f, 0xf9, 0xfa, 0x4a, 0x04, 0xb7, 0xb2, 0xe5, 0xdf, 0x20, 0xdb,
  0x26, 0x1c, 0x33, 0xf4, 0xa6, 0x30, 0xb6, 0x3e, 0x5a, 0xb2, 0x9a, 0x24,
  0x0e, 0xa6, 0x37, 0x35, 0xdc, 0x19, 0x39, 0x2f, 0x28, 0xa1, 0x31, 0xa6,
  0xd4, 0xb2, 0x4c, 0x20, 0x63, 0x26, 0x3a, 0xc4, 0xda, 0x39, 0x39, 0x9c,
  0xb7, 0x3e, 0x4b, 0x98, 0x2d, 0xc2, 0xa2, 0xf0, 0x30, 0x17, 0xaa, 0x28,
  0x06, 0x1f, 0x66, 0x34, 0xa6, 0x3c, 0x3b, 0x1d, 0x17, 0x3e, 0xfe, 0x30,
  0x1b, 0x46, 0x33, 0xe8, 0xed, 0xed, 0x40, 0xba, 0x55, 0xf3, 0xe2, 0xf7,
  0x38, 0x43, 0x5d, 0x1c, 0x1c, 0x41, 0xb6, 0xa3, 0x0d, 0xe9, 0x94, 0xe8,
  0x55, 0xd2, 0x9c, 0xc6, 0x4e, 0xa1, 0x9c, 0x04, 0xc4, 0x3d, 0x5a, 0x1b,
  0x39, 0xe2, 0x21, 0x1e, 0x36, 0x8f, 0x2d, 0xf4, 0x4d, 0xed, 0xc8, 0x4f,
  0x03, 0x1f, 0xe1, 0xd4, 0x3d, 0x23, 0xd7, 0x3f, 0x99, 0xe7, 0xaf, 0x0e,
  0x16, 0x16, 0xb9, 0x03, 0xce, 0x02, 0x47, 0x2d, 0xff, 0x93, 0x3a, 0xd8,
  0xd6, 0xc7, 0xf3, 0x92, 0xf7, 0x34, 0x16, 0xb6, 0x3c, 0xc3, 0xa7, 0xe1,
  0x05, 0xc5, 0xe4, 0x02, 0x64, 0x11, 0x04, 0xf9, 0x1f, 0x4d, 0xf0, 0x4f,
  0xdd, 0xf3, 0x1a, 0x5b, 0xce, 0x32, 0x0f, 0x97, 0x28, 0xe8, 0xc0, 0xc3,
  0xea, 0xa5, 0xe6, 0x05, 0x64, 0x63, 0x05, 0x98, 0x68, 0x62, 0xef, 0xa8,
  0x24, 0x60, 0x14, 0xa3, 0xc4, 0xce, 0x42, 0xce, 0x1d, 0x3f, 0xd8, 0x40,
  0x25, 0xf1, 0xbf, 0x2f, 0x40, 0x31, 0x4d, 0x18, 0xf6, 0xf5, 0x52, 0xb6,
  0x08, 0x23, 0x20, 0x58, 0xc3, 0xa7, 0x49, 0x62, 0x30, 0xf7, 0x26, 0xc7,
  0x46, 0xa3, 0xe2, 0xfd, 0xc6, 0xca, 0xb0, 0x1f, 0xf5, 0x23, 0x3f, 0x4a,
  0x2a, 0x52, 0x15, 0x00, 0xe9, 0x4a, 0x5b, 0xdb, 0x1a, 0xe9, 0x3c, 0x13,
  0x24, 0x4a, 0x06, 0x1c, 0x1c, 0xcd, 0xdc, 0xb8, 0x64, 0x46, 0x5f, 0x69,
  0x47, 0xcf, 0xbe, 0x30, 0xd8, 0xcb, 0xb2, 0xd6, 0x3e, 0xaf, 0x2a, 0x4e,
  0x12, 0x1a, 0xd2, 0x64, 0xe2, 0x46, 0xc5, 0x27, 0x0e, 0xab, 0xff, 0x21,
  0x93, 0xf0, 0xa0, 0xf8, 0xdc, 0xd0, 0xa3, 0xa9, 0x21, 0xcf, 0x3b, 0x07,
  0x1e, 0x01, 0x4d, 0x07, 0xec, 0x2a, 0x5d, 0x31, 0xab, 0xbd, 0x66, 0xab,
  0xfd, 0x55, 0x5d, 0x67, 0x4e, 0x14, 0x8f, 0x97, 0x53, 0x0a, 0x2f, 0x7f,
  0x67, 0x06, 0x23, 0x23, 0xdd, 0xeb, 0x9e, 0xa6, 0xc3, 0x4f, 0x58, 0x24,
  0xea, 0x59, 0x48, 0x0b, 0xf3, 0xd6, 0x14, 0x9f, 0x5e, 0xfe, 0xa2, 0x68,
  0x4f, 0x88, 0x3f, 0x01, 0xcb, 0xac, 0x60, 0x9b, 0xe1, 0x32, 0x2a, 0x3e,
  0x30, 0x65, 0xed, 0xc0, 0xc5, 0x29, 0xad, 0xe9, 0xf8, 0x13, 0xf1, 0x3b,
  0xad, 0xd1, 0x5f, 0xad, 0x33, 0x3e, 0x36, 0x5b, 0x5d, 0xc2, 0x2f, 0x49,
  0xd0, 0xd9, 0xbf, 0x36, 0xd0, 0xe0, 0x5f, 0x2b, 0x2e, 0x50, 0xa3, 0x74,
  0x38, 0x79, 0x06, 0xb4, 0xe0, 0x6c, 0xbb, 0x3a, 0xc0, 0xbf, 0xd9, 0xa5,
  0x57, 0x4a, 0x94, 0xcb, 0xae, 0x5d, 0x3a, 0x03, 0x3b, 0xfb, 0xfa, 0xd0,
  0xb5, 0xd4, 0xb7, 0x5a, 0xb2, 0x2c, 0x1d, 0x12, 0x5a, 0xa3, 0x6e, 0x5e,
  0x1d, 0x4f, 0xc9, 0x12, 0x25, 0x3a, 0x49, 0x46, 0x41, 0xd7, 0x33, 0xfb,
  0x29, 0xa3, 0xee, 0x7f, 0x35, 0x44, 0x1d, 0xd5, 0xf3, 0x2b, 0xa4, 0xe8,
  0xc1, 0xc9, 0x2f, 0xb2, 0x71, 0x9c, 0xff, 0x2e, 0x4b, 0x4b, 0x69, 0xae,
  0x4a, 0x43, 0xfd, 0xf3, 0xe5, 0xe4, 0x9c, 0x73, 0x75, 0xac, 0x3c, 0xe2,
  0x22, 0xe1, 0xcb, 0x1f, 0x54, 0x1f, 0x27, 0x6f, 0x1b, 0xc3, 0x58, 0xc2,
  0xa2, 0xdf, 0x9d, 0xf7, 0xcd, 0x37, 0x3d, 0xce, 0x59, 0xf5, 0x36, 0xc2,
  0xc8, 0x96, 0xb4, 0xc5, 0xf8, 0x51, 0x06, 0xfd, 0xb5, 0x44, 0x67, 0x95,
  0x2f, 0x47, 0x60, 0x3c, 0x5f, 0x02, 0xe8, 0x95, 0x40, 0x3e, 0xcf, 0x5e,
  0xc0, 0x6d, 0xaa, 0x2b, 0x4c, 0xe6, 0x8e, 0xfb, 0x46, 0x00, 0xaf, 0xde,
  0x89, 0xbf, 0x29, 0x0b, 0x26, 0xca, 0x6f, 0xaf, 0x0f, 0xa3, 0xde, 0x11,
  0x21, 0x8d, 0xa8, 0xf3, 0xe1, 0xe6, 0x54, 0xde, 0xc9, 0x9d, 0x1f, 0x1d,
  0x11, 0x0c, 0x3f, 0xe5, 0xfc, 0x3f, 0x36, 0x02, 0x4f, 0xd1, 0x0d, 0x26,
  0xcd, 0xeb, 0xfc, 0xde, 0x52, 0xec, 0xfa, 0x72, 0x51, 0x38, 0xae, 0x59,
  0x8e, 0x5e, 0xea, 0xee, 0x07, 0xd7, 0x57, 0xa1, 0x32, 0xc7, 0xe7, 0x03,
  0xe8, 0xba, 0xa1, 0x43, 0xf8, 0xe6, 0xe6, 0x53, 0xc8, 0xf1, 0x40, 0xb5,
  0x0e, 0xfb, 0x53, 0xe4, 0x34, 0xb2, 0x1b, 0xe3, 0x25, 0xdd, 0x27, 0xb3,
  0x0d, 0x4d, 0x23, 0x0e, 0x17, 0xf0, 0xb9, 0xbb, 0xef, 0xed, 0xd9, 0x2a,
  0x6e, 0x04, 0x6a, 0x45, 0xc7, 0xca, 0xd8, 0xb1, 0x11, 0x4e, 0x24, 0x13,
  0xa1, 0x42, 0x11, 0x03, 0x2b, 0xf4, 0x39, 0xca, 0x11, 0x36, 0xbc, 0xaa,
  0xaa, 0x00, 0x47, 0x5d, 0x5c, 0xff, 0x5a, 0x31, 0x19, 0xca, 0x24, 0x67,
  0x55, 0xfb, 0xc0, 0xd3, 0x99, 0x52, 0x16, 0xe1, 0xff, 0x35, 0x40, 0xc7,
  0x37, 0x4c, 0xf6, 0xa3, 0xf9, 0x55, 0x34, 0x06, 0xc1, 0x33, 0x25, 0x40,
  0x20, 0x32, 0xda, 0x12, 0xf2, 0x1e, 0xb2, 0xea, 0xc1, 0xc0, 0x2e, 0xc1,
  0x3d, 0xc3, 0xb6, 0xdb, 0xd9, 0x30, 0x2b, 0xe6, 0x38, 0x4c, 0xc0, 0xcd,
  0x0d, 0x51, 0xe3, 0xbe, 0xbf, 0xe7, 0x0f, 0xf7, 0xe4, 0xbe, 0xb3, 0x2a,
  0xdb, 0x13, 0xf6, 0xda, 0xa4, 0xfe, 0x93, 0xe1, 0xd9, 0x27, 0x39, 0x5d,
  0xbc, 0x44, 0x28, 0xe3, 0xd9, 0xb9, 0xaf, 0x27, 0x56, 0x9f, 0x2b, 0x5a,
  0xd2, 0xd1, 0x2c, 0x2c, 0x0a, 0xdf, 0x08, 0xe0, 0xb1, 0x08, 0x18, 0xd8,
  0x56, 0x46, 0x48, 0xf5, 0xf2, 0x2f, 0x0a, 0xa5, 0xb8, 0x05, 0xfc, 0x0e,
  0x1b, 0x24, 0xc3, 0xed, 0x9b, 0x11, 0xef, 0x35, 0x14, 0x13, 0x2d, 0xba,
  0xe7, 0x14, 0x2c, 0x41, 0x00, 0x27, 0x6d, 0xbc, 0xed, 0x2b, 0x9c, 0x99,
  0xce, 0x22, 0x9c, 0xf2, 0x47, 0xdd, 0x38, 0xa8, 0x44, 0xd4, 0x7f, 0xff,
  0xfc, 0x70, 0xb2, 0x0f, 0x09, 0xb6, 0xce, 0x00, 0xcb, 0xfd, 0xe7, 0xf4,
  0x51, 0xe6, 0x61, 0x10, 0x9f, 0xe5, 0x14, 0xa6, 0xe0, 0xdb, 0xea, 0x1c,
  0x25, 0xe6, 0xc0, 0xf1, 0xda, 0xe8, 0x37, 0xe8, 0xce, 0xe1, 0xe0, 0x9b,
  0x48, 0xc3, 0x5e, 0x32, 0xfb, 0xb8, 0x13, 0xb9, 0xad, 0x11, 0x1e, 0xfe,
  0x52, 0x2e, 0xd5, 0x01, 0x37, 0x3d, 0x57, 0x54, 0xa7, 0x2b, 0xbf, 0x07,
  0x3c, 0x91, 0xe2, 0x56, 0xf5, 0x39, 0xf0, 0x11, 0x30, 0xaf, 0xce, 0xcc,
  0xfb, 0x02, 0x3d, 0x0e, 0xd1, 0x21, 0xfc, 0x4c, 0x14, 0x9a, 0xfd, 0xd3,
  0xcb, 0x33, 0xec, 0x06, 0xe3, 0x2a, 0x47, 0xcb, 0xf2, 0xd4, 0xf8, 0xa7,
  0x05, 0xde, 0xa1, 0x25, 0x0e, 0xc7, 0x43, 0x1b, 0xc9, 0x49, 0xbb, 0xe8,
  0xbc, 0xae, 0xbb, 0x5a, 0xee, 0x30, 0xf5, 0x41, 0xcd, 0x45, 0x45, 0x2f,
  0x34, 0x0e, 0x1e, 0x1f, 0xad, 0x02, 0x43, 0x34, 0x0e, 0xea, 0xc0, 0x4c,
  0x4d, 0xa8, 0xa2, 0xb7, 0xe8, 0x1f, 0xb4, 0x00, 0x59, 0xbc, 0x22, 0x1b,
  0xd5, 0xb0, 0xe9, 0x22, 0xd8, 0xb7, 0x26, 0x12, 0x2d, 0x5b, 0xea, 0x00,
  0x54, 0xf6, 0x0d, 0x7f, 0x01, 0x23, 0x1e, 0x4e, 0x33, 0xd4, 0x10, 0x33,
  0x14, 0x1a, 0x59, 0xd1, 0xce, 0x4a, 0xdb, 0xbc, 0x46, 0xd4, 0x01, 0x09,
  0xc6, 0x12, 0xb5, 0x56, 0x3d, 0x2a, 0xac, 0xc8, 0xee, 0xd3, 0xde, 0x03,
  0xaa, 0xc5, 0xfd, 0xe9, 0xd9, 0xff, 0x2e, 0xe5, 0xca, 0x33, 0xef, 0x52,
  0x1c, 0xd2, 0x14, 0xde, 0xf3, 0x16, 0xf6, 0x28, 0xef, 0x3c, 0x41, 0x25,
  0x16, 0xe4, 0x3e, 0x09, 0x1f, 0xf7, 0x69, 0xc5, 0x19, 0xd9, 0xfb, 0xba,
  0x04, 0x0f, 0x5d, 0x48, 0x38, 0x55, 0xd6, 0x21, 0xfc, 0xdc, 0xf2, 0x1f,
  0x17, 0x36, 0xef, 0xd1, 0xbd, 0x4f, 0xce, 0x5c, 0x15, 0x0a, 0xd7, 0xe5,
  0xc9, 0xe2, 0x37, 0xf8, 0xfc, 0x1f, 0xa7, 0x69, 0x22, 0x1a, 0x2e, 0xf9,
  0x1c, 0x22, 0xd9, 0xf7, 0xf6, 0xf2, 0x4a, 0xd0, 0xe8, 0x34, 0x14, 0xed,
  0x2d, 0xf2, 0xd3, 0x10, 0xa3, 0x3c, 0x0f, 0x56, 0xd4, 0x0b, 0x05, 0x3f,
  0x5f, 0xfa, 0xd5, 0x1d, 0x05, 0x3f, 0xc1, 0x08, 0xe0, 0x51, 0x3b, 0xb0,
  0xa8, 0xf9, 0x33, 0xae, 0xf4, 0x3e, 0xf1, 0x40, 0xd7, 0x35, 0x3c, 0xec,
  0x66, 0x29, 0x4b, 0xcb, 0x28, 0x8b, 0x33, 0x36, 0xcf, 0x43, 0x7f, 0xba,
  0x9e, 0x6c, 0x70, 0xda, 0xa8, 0xd1, 0xda, 0x41, 0x92, 0x49, 0x1f, 0x5b,
  0x1e, 0x67, 0xee, 0xfd, 0x30, 0xa9, 0x43, 0xf7, 0xcf, 0x3f, 0x2c, 0xbd,
  0x6c, 0xdb, 0xcb, 0xa4, 0x01, 0x5a, 0xbd, 0x26, 0x59, 0x70, 0xf9, 0xb6,
  0x48, 0x61, 0xdc, 0xa3, 0x9f, 0xb0, 0xf9, 0xa6, 0x88, 0x92, 0x06, 0xfc,
  0x78, 0x86, 0xfa, 0xe4, 0xbd, 0xcc, 0x73, 0xf2, 0x3c, 0x4c, 0xc9, 0xa4,
  0x43, 0x1c, 0xa8, 0xa3, 0x3e, 0xfb, 0x14, 0x16, 0xcb, 0x15, 0xc9, 0xb9,
  0x31, 0xd4, 0x21, 0x4d, 0x6d, 0xbf, 0xe9, 0x35, 0x3e, 0xff, 0x65, 0x4d,
  0x44, 0xfd, 0xb9, 0x9a, 0xd3, 0xc5, 0x39, 0x50, 0x97, 0xde, 0x48, 0x44,
  0x16, 0xfb, 0x40, 0x74, 0xf8, 0x76, 0x85, 0xe3, 0xf6, 0x08, 0xe6, 0x45,
  0x22, 0x95, 0x3b, 0xf0, 0x3b, 0xc0, 0x78, 0xb6, 0x9f, 0xbd, 0xa9, 0x5c,
  0x2a, 0x98, 0x60, 0x52, 0x8c, 0x86, 0xce, 0xa1, 0x5a, 0x1e, 0x52, 0xb5,
  0x5b, 0xc1, 0xef, 0x0f, 0xe1, 0xf6, 0x8a, 0xe6, 0x97, 0xc1, 0xf6, 0x46,
  0x19, 0xe3, 0xc4, 0xb9, 0xe9, 0xe1, 0x83, 0x75, 0x2c, 0x42, 0x01, 0x54,
  0x1c, 0x2e, 0x72, 0x35, 0x70, 0x45, 0x2a, 0x67, 0xee, 0x02, 0x37, 0x59,
  0x66, 0x6d, 0x64, 0xbc, 0xd3, 0xdf, 0x23, 0xf4, 0xcd, 0xf8, 0x08, 0x10,
  0x3c, 0xf9, 0x67, 0x3a, 0x23, 0x56, 0x68, 0x99, 0x61, 0xf0, 0x24, 0x4b,
  0x8d, 0x73, 0x42, 0x8f, 0x90, 0x3d, 0x50, 0xc6, 0xba, 0x25, 0xc1, 0xae,
  0x2f, 0x64, 0x49, 0x69, 0xd7, 0x10, 0xe1, 0xbf, 0xef, 0xd0, 0xcf, 0x23,
  0x53, 0x7b, 0x4c, 0x33, 0x60, 0xff, 0xfb, 0x3a, 0x0c, 0x58, 0x61, 0x2f,
  0x56, 0xe3, 0x7c, 0xb9, 0x99, 0xe1, 0xe0, 0x1f, 0xf7, 0x53, 0x3f, 0x0f,
  0x5b, 0x29, 0x5b, 0x7a, 0x22, 0x85, 0xe2, 0x9e, 0xc6, 0xa6, 0x1b, 0x95,
  0x9d, 0x98, 0x2c, 0x6b, 0xbd, 0x19, 0xf6, 0x58, 0x31, 0x52, 0x0a, 0x24,
  0xac, 0x46, 0x1d, 0x67, 0x5c, 0x56, 0x01, 0xb4, 0xc9, 0x6a, 0xe2, 0x6c,
  0xea, 0x6d, 0x7b, 0x53, 0x7c, 0x62, 0x50, 0x2e, 0xe2, 0x67, 0x1f, 0x91,
  0x74, 0xd7, 0xac, 0x57, 0x31, 0xd4, 0x31, 0xbc, 0x7d, 0xa5, 0x9b, 0xb2,
  0xae, 0xd9, 0xf4, 0x27, 0x63, 0x5a, 0x90, 0xc7, 0x2b, 0x5c, 0x3b, 0x0b,
  0xc3, 0xc7, 0x9e, 0xbc, 0xe8, 0xd6, 0x43, 0xd3, 0x4b, 0x7a, 0xfa, 0xe0,
  0x96, 0x19, 0xd0, 0x21, 0x4f, 0x4e, 0xa0, 0x7f, 0x1e, 0xd2, 0x0c, 0x70,
  0x5a, 0xbc, 0x0a, 0x1d, 0x93, 0xce, 0x89, 0x0e, 0xe7, 0x7e, 0xdf, 0xfd,
  0xc8, 0x20, 0xfd, 0x1d, 0x09, 0xa6, 0x3e, 0xfb, 0x26, 0x4e, 0xa7, 0x9c,
  0x98, 0x6a, 0xc3, 0xa0, 0x1e, 0x93, 0x5d, 0x7d, 0x0f, 0xbe, 0xa1, 0x8d,
  0x36, 0x06, 0x6a, 0x73, 0x35, 0xf3, 0xa8, 0x30, 0x98, 0x3d, 0x35, 0xef,
  0xdd, 0xe2, 0xff, 0x33, 0x4c, 0x16, 0x6b, 0x92, 0xd2, 0xed, 0x6b, 0xa2,
  0xd8, 0x3e, 0x90, 0xe3, 0xcd, 0xfe, 0xe3, 0xb5, 0xd6, 0xb2, 0x20, 0x76,
  0xdd, 0x7f, 0x49, 0x35, 0xb6, 0x93, 0x1a, 0x33, 0x9c, 0x71, 0xf0, 0x42,
  0xc5, 0xae, 0x5b, 0x6f, 0x07, 0x4e, 0x95, 0xca, 0xef, 0x30, 0x46, 0x01,
  0x59, 0x0b, 0xff, 0x15, 0xdd, 0x23, 0x8d, 0x2e, 0x9c, 0x36, 0x19, 0x16,
  0xa1, 0xf5, 0x67, 0x53, 0x3a, 0x54, 0x71, 0x4b, 0x2a, 0xec, 0x3b, 0xa9,
  0x39, 0x40, 0xb5, 0x19, 0x3a, 0x0a, 0x3e, 0x00, 0x5c, 0xe3, 0xc2, 0xbc,
  0xea, 0x3c, 0x01, 0x90, 0xbd, 0xb2, 0x1c, 0xda, 0xd7, 0xc6, 0x68, 0x3c,
  0x14, 0x92, 0xbd, 0xea, 0x74, 0xdb, 0x85, 0xbc, 0xff, 0x2c, 0x82, 0xa3,
  0xf0, 0x33, 0x36, 0x87, 0xd1, 0xf5, 0xf5, 0xcf, 0x1b, 0x15, 0xec, 0x35,
  0xfc, 0x34, 0x9b, 0xcf, 0xca, 0xee, 0xd6, 0x5c, 0x4f, 0x08, 0xe2, 0x40,
  0x30, 0x9c, 0xe7, 0x92, 0xbe, 0x06, 0x9e, 0x3a, 0xf3, 0xe5, 0xd9, 0xdf,
  0xa6, 0xc0, 0x62, 0x3f, 0x01, 0x6f, 0x24, 0x37, 0x88, 0x19, 0xe3, 0x83,
  0x4e, 0x6b, 0x4e, 0x40, 0x3a, 0x65, 0xd1, 0xf0, 0x59, 0xf2, 0xae, 0x41,
  0x2b, 0x5c, 0x9a, 0x21, 0x64, 0xfe, 0xa6, 0x43, 0xf2, 0x05, 0xe5, 0xb9,
  0x16, 0x64, 0xa0, 0x2c, 0x48, 0xec, 0x2f, 0xf2, 0x85, 0x6a, 0x49, 0x07,
  0x4a, 0x42, 0x2e, 0x2b, 0x2d, 0x4c, 0xeb, 0xd8, 0xab, 0x98, 0xb0, 0x3d,
  0xeb, 0xe3, 0xb1, 0xb7, 0x56, 0x68, 0x92, 0xca, 0x3a, 0xb5, 0x42, 0x04,
  0x70, 0x04, 0xbb, 0x0a, 0xe5, 0x2f, 0x31, 0x44, 0x50, 0x66, 0x95, 0xe7,
  0x26, 0x15, 0x26, 0x1e, 0x96, 0x0e, 0xc1, 0x51, 0xf9, 0x69, 0xe3, 0xd1,
  0x6e, 0x2c, 0xaf, 0x9c, 0x38, 0xa4, 0xcc, 0x56, 0xe0, 0x05, 0xc8, 0x20,
  0xa2, 0x43, 0x9e, 0xdb, 0x43, 0xe9, 0x46, 0xe0, 0xbe, 0x28, 0xa9, 0x0b,
  0x2a, 0x11, 0xf9, 0x0a, 0x9a, 0x71, 0x69, 0x4a, 0xed, 0xdc, 0xd7, 0x74,
  0xbe, 0x62, 0xeb, 0x67, 0xe6, 0xf3, 0x01, 0xc1, 0x99, 0x03, 0x33, 0x2f,
  0xc6, 0xcb, 0x0f, 0x4e, 0x24, 0xca, 0x1f, 0x06, 0x6c, 0x9b, 0x31, 0xc3,
  0x3e, 0x31, 0x00, 0xa3, 0x4f, 0x32, 0xf0, 0x23, 0x12, 0x9a, 0x46, 0x3b,
  0xde, 0x9f, 0x5b, 0x19, 0x7f, 0x5b, 0x26, 0xfc, 0xdb, 0x5d, 0xf8, 0x5b,
  0xdf, 0x2e, 0xe3, 0x2c, 0xca, 0xfb, 0x38, 0x9e, 0xf4, 0x94, 0x5d, 0xb1,
  0x2a, 0x6d, 0x13, 0x22, 0x63, 0xe9, 0xbf, 0x54, 0xae, 0x53, 0x73, 0x41,
  0x38, 0xfb, 0xfd, 0x71, 0xe2, 0xeb, 0xc5, 0x02, 0x51, 0x52, 0xff, 0x0f,
  0xad, 0x63, 0x12, 0x9c, 0x69, 0x50, 0x30, 0xf1, 0x5c, 0x27, 0x44, 0x5e,
  0x94, 0x29, 0xd1, 0x09, 0x39, 0x17, 0x24, 0x16, 0x12, 0xfe, 0x43, 0xf2,
  0x5e, 0xe6, 0x11, 0x0b, 0xe9, 0xda, 0xa0, 0x0f, 0x27, 0xb0, 0x03, 0x81,
  0x45, 0x42, 0x63, 0xc7, 0x22, 0x3a, 0xe2, 0xc2, 0x17, 0xc5, 0x6d, 0x2b,
  0x99, 0x83, 0x1a, 0xe3, 0x9e, 0x78, 0x64, 0x8a, 0x67, 0x07, 0x07, 0x72,
  0x10, 0x36, 0xfe, 0x9f, 0xdd, 0xac, 0xfc, 0xf7, 0xdf, 0xcc, 0xef, 0x31,
  0x5f, 0xc9, 0x5a, 0xa6, 0x06, 0x50, 0x29, 0x5e, 0x49, 0x2d, 0x0e, 0x11,
  0x30, 0x78, 0x07, 0xc8, 0xac, 0x27, 0x99, 0x8b, 0x03, 0x64, 0x51, 0xf1,
  0x2b, 0xb1, 0xab, 0xed, 0xf4, 0x2a, 0x1e, 0x47, 0xbc, 0x9a, 0xea, 0xa6,
  0xb6, 0x36, 0xa6, 0x8d, 0x96, 0xa6, 0x63, 0x56, 0x5f, 0x56, 0x64, 0xcd,
  0xd2, 0x41, 0x42, 0x63, 0x3a, 0x0c, 0xfc, 0x60, 0x0e, 0xdb, 0x15, 0x91,
  0x49, 0x4b, 0xdf, 0xbe, 0xef, 0x19, 0x2b, 0x89, 0x28, 0x46, 0x93, 0x73,
  0xb5, 0x17, 0xbe, 0x33, 0xe4, 0x04, 0x22, 0x97, 0x96, 0x5c, 0xf0, 0x3b,
  0x14, 0xc1, 0x61, 0x10, 0x5d, 0xb2, 0x8c, 0xab, 0xc7, 0x2e, 0x23, 0x5e,
  0x14, 0x8e, 0x94, 0x4d, 0x55, 0x46, 0x47, 0xd8, 0xb8, 0x0b, 0xe5, 0x9d,
  0xba, 0x0e, 0x89, 0x99, 0x13, 0x59, 0x2b, 0xe6, 0x3c, 0x2f, 0xad, 0x95,
  0x4e, 0x6c, 0x67, 0x91, 0x08, 0x64, 0x5a, 0x41, 0xf2, 0xd4, 0x40, 0xd5,
  0x0b, 0x73, 0xe0, 0x36, 0xf0, 0xf4, 0xd7, 0x46, 0xdc, 0xec, 0xe5, 0x10,
  0xbb, 0x08, 0x3e, 0x06, 0x67, 0x91, 0xef, 0x12, 0x57, 0xde, 0x36, 0xb2,
  0x0f, 0xcd, 0x8c, 0x81, 0xbf, 0x10, 0xb8, 0xcb, 0xe9, 0xad, 0x1c, 0xae,
  0xae, 0xf1, 0x9f, 0xb6, 0x07, 0xe6, 0x38, 0x99, 0xa5, 0xf5, 0xe4, 0x16,
  0xa5, 0x6c, 0x0d, 0x8e, 0x62, 0xe2, 0x9b, 0xc9, 0xe1, 0xc6, 0xea, 0xa2,
  0x91, 0x14, 0xd1, 0x53, 0x64, 0xbf, 0x1b, 0x38, 0xdb, 0x60, 0x9e, 0x86,
  0x16, 0x4c, 0xfb, 0xfe, 0xe1, 0x50, 0x32, 0xc4, 0x17, 0xaa, 0x0a, 0xd6,
  0xbf, 0x1f, 0xb1, 0xfd, 0xab, 0x16, 0xb6, 0x49, 0xa7, 0xf8, 0x21, 0xed,
  0x8f, 0xfc, 0x52, 0x48, 0x86, 0xf9, 0xd1, 0xb3, 0xe6, 0x3d, 0x04, 0x43,
  0xce, 0xca, 0xd5, 0xbe, 0x56, 0x8b, 0x57, 0x2e, 0x99, 0xbc, 0x87, 0xfc,
  0x81, 0x59, 0x6d, 0xd2, 0xb6, 0xb2, 0x8e, 0x5c, 0xb6, 0xbb, 0xdd, 0x51,
  0x3b, 0xaf, 0xee, 0xe2, 0xfd, 0x68, 0x58, 0x63, 0xd3, 0x58, 0x3a, 0x4f,
  0x65, 0xef, 0x9b, 0xc5, 0x18, 0x5b, 0xe4, 0x5a, 0xce, 0x1c, 0xad, 0xc3,
  0x41, 0xcf, 0xde, 0x69, 0x45, 0x5e, 0xc6, 0x3e, 0xd2, 0x47, 0xa3, 0x30,
  0x38, 0x4c, 0x27, 0x57, 0x83, 0xec, 0xfc, 0x28, 0xfd, 0xd2, 0x8a, 0xe2,
  0x25, 0xc7, 0x68, 0xad, 0x64, 0xc2, 0x5f, 0x6d, 0xfd, 0x36, 0x2a, 0x04,
  0x3a, 0x19, 0x55, 0xf1, 0x34, 0xb7, 0x43, 0x6c, 0x9e, 0xfd, 0xa6, 0xc4,
  0xa7, 0xb4, 0xdd, 0xb8, 0xa9, 0xec, 0x5b, 0xc1, 0x36, 0x0c, 0x58, 0x70,
  0x4e, 0x3f, 0xb8, 0x9f, 0x0a, 0x63, 0x9e, 0x9c, 0x4d, 0xa2, 0xa1, 0xc1,
  0x41, 0xe9, 0x94, 0xbf, 0xe2, 0x15, 0xd5, 0x18, 0x8f, 0x9d, 0xa9, 0xb3,
  0xf2, 0x77, 0x34, 0xa4, 0x8d, 0xb5, 0xfb, 0x00, 0x1d, 0x0f, 0x19, 0x10,
  0x08, 0xbf, 0xf6, 0xb5, 0xe6, 0x94, 0x0f, 0x2a, 0x40, 0xa0, 0xdc, 0xde,
  0x3a, 0x1f, 0xd8, 0x44, 0x89, 0xeb, 0x53, 0xdb, 0x42, 0x96, 0xee, 0xe1,
  0x63, 0x51, 0xef, 0xc3, 0xb3, 0x3c, 0xe7, 0x34, 0xfc, 0xac, 0x63, 0xa5,
  0xb8, 0xa3, 0x44, 0xb4, 0x6c, 0x07, 0xe7, 0xc5, 0x8a, 0xf7, 0xf1, 0xfb,
  0x4f, 0x96, 0x95, 0x74, 0x93, 0x0a, 0xd6, 0x47, 0x21, 0xb3, 0x07, 0xdc,
  0x3d, 0xf9, 0x22, 0xd0, 0xab, 0x9b, 0x0b, 0x05, 0x49, 0xdf, 0x4a, 0x35,
  0x57, 0x8b, 0xcc, 0x91, 0xd4, 0xed, 0xfc, 0x36, 0x3a, 0xf5, 0x3e, 0x99,
  0x3e, 0xe1, 0xd7, 0xa9, 0x04, 0x5c, 0xab, 0x65, 0x3b, 0x37, 0xd4, 0xe7,
  0xd3, 0x6b, 0xd1, 0x5e, 0xa7, 0xda, 0xc1, 0xd6, 0xa6, 0xe8, 0x5f, 0xf1,
  0x66, 0x48, 0xa9, 0x71, 0xd1, 0x11, 0x21, 0xae, 0xe6, 0x14, 0xcf, 0x5d,
  0x89, 0xb0, 0x2f, 0x4e, 0x1d, 0x81, 0x2a, 0x23, 0xca, 0x02, 0xd2, 0x8d,
  0x2b, 0xd8, 0xfa, 0x3b, 0x2d, 0x0e, 0x08, 0x39, 0xa8, 0x06, 0x07, 0x3f,
  0xa8, 0x6f, 0xda, 0xc1, 0x73, 0xed, 0xbe, 0x6c, 0x38, 0x10, 0x65, 0x18,
  0x51, 0x3b, 0xa6, 0xea, 0x05, 0xd8, 0xc2, 0x6b, 0xee, 0xd6, 0xf1, 0x19,
  0xd7, 0xa3, 0xc9, 0x64, 0xc7, 0xce, 0x69, 0x49, 0x18, 0x94, 0x9e, 0xaa,
  0xfd, 0x58, 0xae, 0x16, 0xbf, 0x66, 0x54, 0x6b, 0xdf, 0xe4, 0x6a, 0xcd,
  0x74, 0x64, 0xdf, 0x32, 0x22, 0xec, 0x67, 0x1e, 0xd7, 0xf3, 0x5a, 0x09,
  0x70, 0xbc, 0x41, 0x97, 0xe0, 0x35, 0x1e, 0xfc, 0x59, 0xec, 0x65, 0xbb,
  0xa3, 0x62, 0x5d, 0x2e, 0x28, 0x5e, 0x46, 0x33, 0xcb, 0xf0, 0xcf, 0x4c,
  0x56, 0x0c, 0xd0, 0xf0, 0x88, 0xb0, 0x60, 0x00, 0x71, 0xbf, 0x1d, 0x5d,
  0xdf, 0x96, 0xbe, 0x47, 0x8d, 0x6b, 0xd1, 0xca, 0x3b, 0xdc, 0x11, 0xf9,
  0xc2, 0x6d, 0xb4, 0x1f, 0x65, 0xe7, 0xa3, 0xa8, 0xb7, 0xbb, 0x22, 0x0f,
  0xa7, 0xaf, 0xdd, 0x9c, 0x0d, 0xa8, 0x12, 0x45, 0x53, 0xb9, 0xdb, 0x03,
  0x4d, 0xbc, 0x70, 0x5e, 0xa3, 0x6f, 0x71, 0xb8, 0x40, 0xd8, 0x68, 0x18,
  0xd1, 0x71, 0x75, 0x47, 0x4d, 0x0f, 0xcd, 0xed, 0xd4, 0x8f, 0xa9, 0xff,
  0xff, 0xe7, 0xd9, 0x11, 0x48, 0x5b, 0x95, 0xfe, 0xdc, 0x25, 0x38, 0x71,
  0x00, 0xdb, 0x2e, 0x85, 0x25, 0x1c, 0xaa, 0x69, 0x11, 0x53, 0x91, 0x16,
  0xbc, 0x22, 0x18, 0x1a, 0x58, 0x22, 0xfa, 0xe3, 0xaa, 0xa9, 0xc5, 0xd2,
  0x4c, 0x68, 0x26, 0x55, 0xfd, 0x4a, 0xcc, 0x9c, 0xf2, 0x2e, 0xf7, 0x62,
  0xa1, 0xa2, 0x31, 0x90, 0x50, 0xa7, 0x6e, 0xe9, 0xda, 0x0b, 0x09, 0xa5,
  0x3b, 0x63, 0x86, 0xb2, 0xf7, 0x5f, 0x6f, 0x03, 0x6b, 0xfe, 0x96, 0xfa,
  0x6f, 0x6b, 0x6c, 0xa2, 0xf6, 0x33, 0xca, 0xe2, 0x8c, 0x37, 0x6d, 0x73,
  0x39, 0x70, 0xb8, 0x7f, 0x87, 0x26, 0x24, 0x8b, 0x3e, 0x93, 0xa0, 0x5e,
  0xff, 0x04, 0xa8, 0x97, 0xba, 0x98, 0x6e, 0x62, 0x2b, 0xb9, 0x2d, 0xae,
  0x67, 0x43, 0x88, 0xa6, 0xb8, 0x1c, 0x4b, 0xd6, 0xff, 0x08, 0x0e, 0x17,
  0x0d, 0xc4, 0xe1, 0xf1, 0xc5, 0xf1, 0x38, 0xb7, 0xc1, 0x30, 0x0a, 0x9a,
  0x77, 0xd0, 0x0c, 0x04, 0x11, 0xcb, 0xe4, 0x7b, 0x7b, 0x6c, 0xfa, 0x87,
  0xc0, 0x44, 0xe5, 0x4e, 0xf1, 0x84, 0x47, 0xc5, 0x0b, 0x00, 0x5a, 0x64,
  0x14, 0x69, 0xc6, 0xd4, 0x4e, 0x38, 0x86, 0xa1, 0x3c, 0x5c, 0x5e, 0x32,
  0xcc, 0xf4, 0x8e, 0x3b, 0xa7, 0xb0, 0x82, 0xb7, 0x9b, 0x18, 0xc8, 0xff,
  0x97, 0x5f, 0x20, 0x56, 0x9b, 0xf9, 0xd4, 0xea, 0xa6, 0x76, 0xeb, 0xe2,
  0xdf, 0xe8, 0x0f, 0x0d, 0xe4, 0x58, 0x6a, 0x35, 0xc7, 0x12, 0x4c, 0xf1,
  0xe5, 0x3d, 0x42, 0x0d, 0x8e, 0x40, 0x8d, 0xa5, 0xb3, 0xff, 0x21, 0xb7,
  0xcb, 0xea, 0x21, 0x97, 0xd5, 0xac, 0x77, 0xd5, 0xb5, 0x71, 0xdd, 0x1c,
  0x7c, 0xe2, 0x33, 0x3b, 0x58, 0x62, 0xe1, 0xdb, 0x05, 0x23, 0xdd, 0xab,
  0x4d, 0xc3, 0x93, 0x1d, 0x3c, 0xb9, 0x28, 0x51, 0xbf, 0xd6, 0xca, 0x4d,
  0x30, 0x05, 0xa2, 0xf3, 0x3b, 0xba, 0x20, 0x95, 0x05, 0x7e, 0xae, 0xfa,
  0x78, 0x99, 0x08, 0xa7, 0xad, 0x30, 0xcc, 0xb0, 0xcb, 0x57, 0xa4, 0x1c,
  0x87, 0x41, 0x63, 0x5a, 0x4d, 0xb9, 0x15, 0xe2, 0xcb, 0xbc, 0x81, 0xaf,
  0x9c, 0x89, 0xd2, 0x4b, 0x09, 0x65, 0x58, 0x34, 0x16, 0x2e, 0xdb, 0x4f,
  0x83, 0xca, 0x87, 0xad, 0xd7, 0xb3, 0xec, 0x6d, 0x09, 0xa2, 0xf3, 0x9b,
  0x94, 0xf7, 0x87, 0xc0, 0x0a, 0x9c, 0xa6, 0x03, 0x4e, 0xf4, 0x5b, 0x1a,
  0xcc, 0xb3, 0xcd, 0x19, 0x8b, 0x92, 0x17, 0x50, 0x10, 0x86, 0x85, 0x8c,
  0xab, 0x0b, 0xc1, 0x14, 0xac, 0xcc, 0x5d, 0xea, 0x38, 0x3c, 0xe4, 0x9e,
  0x4b, 0x50, 0x31, 0x9a, 0x63, 0xe9, 0x70, 0xa2, 0x8b, 0x07, 0x04, 0x07,
  0x5d, 0x9e, 0x1f, 0xcb, 0x06, 0xe6, 0xee, 0x46, 0x67, 0xb1, 0x9b, 0xca,
  0x22, 0x02, 0x9b, 0xa1, 0xa2, 0x79, 0x6a, 0xb9, 0xcd, 0x5b, 0x62, 0x8f,
  0xe7, 0x1a, 0x4c, 0x22, 0x88, 0xb9, 0x74, 0xc0, 0x61, 0x68, 0xb0, 0x8c,
  0xa0, 0xb1, 0x49, 0xff, 0xb9, 0x83, 0xe7, 0x43, 0xf8, 0x29, 0xfd, 0x0e,
  0xac, 0x7c, 0x87, 0xdc, 0xd2, 0x1d, 0x2b, 0xc0, 0x32, 0x3f, 0x15, 0x57,
  0x34, 0x46, 0xc1, 0x74, 0x57, 0x85, 0xdc, 0x0e, 0x98, 0x05, 0xe1, 0x9f,
  0x52, 0x4a, 0x07, 0x2b, 0xe8, 0xf0, 0x79, 0xd4, 0x8d, 0x47, 0xd4, 0xe0,
  0x02, 0x8f, 0x0a, 0xda, 0xd3, 0x17, 0x64, 0x57, 0xdc, 0x08, 0xe2, 0x86,
  0x21, 0x94, 0x44, 0x14, 0xdf, 0xc3, 0x35, 0xe7, 0x4b, 0xa7, 0xbf, 0xff,
  0x0d, 0x65, 0x46, 0x36, 0xdf, 0x87, 0x04, 0xe9, 0x0b, 0x2f, 0x82, 0xc5,
  0x9e, 0x97, 0x60, 0x38, 0x90, 0xe5, 0x45, 0x2b, 0xaf, 0xbb, 0x0d, 0xf7,
  0x13, 0xf9, 0x5c, 0xf8, 0x46, 0x9a, 0xf0, 0x4d, 0xc7, 0x6b, 0xc5, 0x93,
  0x6e, 0xaa, 0xb6, 0xf4, 0x88, 0x0a, 0x47, 0x53, 0xac, 0xdd, 0x01, 0x24,
  0x5c, 0x97, 0xc8, 0x08, 0xcf, 0xf2, 0xd8, 0xba, 0xdc, 0xac, 0x21, 0x21,
  0xd6, 0x73, 0x2d, 0xe8, 0x63, 0x0f, 0xca, 0x24, 0xf3, 0xe4, 0xb5, 0x29,
  0x43, 0x98, 0x4c, 0x8e, 0x29, 0x7d, 0xff, 0x16, 0x7f, 0xbf, 0x43, 0x75,
  0xc7, 0x42, 0x53, 0xa0, 0x99, 0x98, 0x58, 0x58, 0x25, 0x1c, 0xcb, 0x35,
  0xff, 0x6c, 0x22, 0x49, 0xad, 0xb5, 0x47, 0x68, 0x3d, 0x76, 0x3e, 0xbf,
  0x2b, 0x16, 0x4e, 0xa5, 0x24, 0x61, 0xb5, 0x06, 0xc9, 0xa6, 0x64, 0x68,
  0x1b, 0xb1, 0xa3, 0xc9, 0x3c, 0xef, 0x62, 0xd4, 0x97, 0xc9, 0x99, 0x3b,
  0x9b, 0x18, 0xbb, 0x66, 0x3c, 0x07, 0x9a, 0xfd, 0x76, 0x74, 0xa9, 0xe0,
  0xf7, 0x27, 0xa9, 0xea, 0x5b, 0x31, 0x38, 0x17, 0x30, 0x0e, 0xc0, 0x56,
  0x63, 0x11, 0xd3, 0x1c, 0xf0, 0xdc, 0x05, 0x04, 0xb2, 0x47, 0xd2, 0xee,
  0x57, 0x6f, 0x35, 0xc0, 0x84, 0xa8, 0x5a, 0x12, 0x81, 0x62, 0xcf, 0x94,
  0x21, 0x4e, 0x17, 0x04, 0xf2, 0xcb, 0x1c, 0x10, 0x91, 0xb7, 0x55, 0x91,
  0xb2, 0x4c, 0x17, 0xbe, 0x90, 0x4f, 0xbf, 0x72, 0xd4, 0xba, 0xe8, 0x5e,
  0xe7, 0x8c, 0x26, 0x93, 0x94, 0x98, 0x2d, 0xe1, 0x94, 0x12, 0x19, 0xc6,
  0x67, 0xdb, 0x63, 0x25, 0x5a, 0x29, 0x95, 0xa8, 0xc3, 0xf3, 0x5a, 0x53,
  0xde, 0xdd, 0xb2, 0x35, 0xd5, 0xee, 0xe5, 0xd1, 0x51, 0xf3, 0xc4, 0xf0,
  0xa1, 0x45, 0x9b, 0x1d, 0x2d, 0xa1, 0x0c, 0xcb, 0x1b, 0xab, 0xeb, 0xdd,
  0x2a, 0xe3, 0x16, 0x4e, 0xcc, 0xbb, 0x14, 0xed, 0x5d, 0x38, 0x07, 0x00,
  0xf6, 0x14, 0xef, 0xf5, 0xae, 0x58, 0x08, 0x51, 0x04, 0xf8, 0x2f, 0x09,
  0xe2, 0xc2, 0x8a, 0xb7, 0x7a, 0x32, 0x67, 0x99, 0xf8, 0x61, 0x1d, 0x22,
  0xd7, 0x89, 0xb3, 0xff, 0x16, 0xcd, 0x1b, 0xcc, 0x16, 0xd1, 0xad, 0x39,
  0x64, 0x22, 0xbc, 0xdc, 0x02, 0xb6, 0xfb, 0x4c, 0x6d, 0x6e, 0x6b, 0x2e,
  0x16, 0x24, 0x81, 0xa9, 0x3b, 0xb6, 0xd8, 0x2a, 0xc0, 0x49, 0x0a, 0x92,
  0xac, 0x53, 0x92, 0xac, 0x59, 0x10, 0xce, 0x00, 0x9a, 0x3e, 0xc2, 0xd6,
  0x08, 0xfa, 0x8d, 0x40, 0xbc, 0x75, 0x3d, 0x95, 0x48, 0xce, 0x65, 0x24,
  0x35, 0x14, 0x23, 0x76, 0x2b, 0x00, 0x8e, 0x9d, 0xfb, 0x33, 0x6e, 0xa0,
  0xc0, 0x9c, 0xaa, 0xda, 0xb4, 0x70, 0xbe, 0xda, 0x5c, 0xf8, 0x3f, 0x14,
  0xf0, 0x22, 0xfc, 0x34, 0xdf, 0xd0, 0xd5, 0x44, 0x09, 0x04, 0xe4, 0x27,
  0x01, 0x05, 0x35, 0x45, 0xa5, 0x5c, 0xb8, 0xdb, 0x65, 0x21, 0xbc, 0xef,
  0x3b, 0x60, 0x1e, 0x2d, 0xb5, 0xe9, 0x68, 0x19, 0x05, 0x47, 0x9f, 0x07,
  0x3c, 0xc9, 0xa0, 0x9f, 0x57, 0x18, 0xb3, 0xb8, 0xd1, 0xd7, 0xb3, 0xeb,
  0xa8, 0xf2, 0x5a, 0xdf, 0x4f, 0x5f, 0xa9, 0x06, 0x2c, 0xc8, 0x3c, 0x8f,
  0xda, 0x1a, 0x54, 0x33, 0x40, 0x09, 0x91, 0x1e, 0xda, 0xbd, 0x60, 0xba,
  0xc2, 0xa5, 0xdd, 0x28, 0x01, 0x3a, 0x37, 0x1d, 0x4a, 0x1f, 0xdd, 0xf7,
  0x36, 0x5e, 0x61, 0x88, 0x39, 0xcb, 0xa9, 0x37, 0xea, 0x09, 0xc2, 0x12,
  0x68, 0x29, 0xed, 0x69, 0xbd, 0xa8, 0x13, 0x95, 0x0c, 0x38, 0x4b, 0x6b,
  0x48, 0x2c, 0xcd, 0x18, 0xca, 0x54, 0x74, 0x0c, 0x90, 0x14, 0x65, 0xfa,
  0x1a, 0xfb, 0x39, 0xd8, 0x0f, 0x11, 0xf6, 0xf5, 0x16, 0xc9, 0xaf, 0x74,
  0x14, 0xb2, 0x05, 0x3f, 0x67, 0x04, 0xb2, 0x40, 0xed, 0x48, 0x20, 0x60,
  0xaa, 0x26, 0x2c, 0xf4, 0xa8, 0xca, 0x6f, 0x5f, 0x2b, 0x6e, 0x30, 0x2a,
  0x59, 0xbd, 0x1c, 0xfb, 0x05, 0xa7, 0x8c, 0xb0, 0x86, 0x25, 0x47, 0x47,
  0x97, 0x4e, 0xcf, 0xbf, 0x12, 0x73, 0x70, 0x32, 0x0d, 0x24, 0x69, 0xa6,
  0x9c, 0xca, 0x17, 0x0d, 0x0b, 0xd8, 0xbf, 0x8f, 0x97, 0x70, 0xd5, 0xff,
  0xd1, 0x4f, 0x90, 0x4b, 0x4a, 0xff, 0x91, 0xd3, 0xa1, 0x3a, 0x8a, 0xe4,
  0x6f, 0x6f, 0x91, 0x01, 0xe5, 0x22, 0x95, 0x6c, 0xb6, 0x6f, 0xca, 0xda,
  0x01, 0x16, 0x4f, 0x95, 0x62, 0x43, 0x17, 0x96, 0x96, 0x0a, 0x73, 0x30,
  0x20, 0xc7, 0x2e, 0x90, 0xbe, 0x25, 0x12, 0x36, 0x63, 0x54, 0x0b, 0x07,
  0x36, 0x24, 0x5b, 0x97, 0xd5, 0xb7, 0x72, 0xef, 0xf7, 0xc8, 0x5d, 0x81,
  0x90, 0x2d, 0x8b, 0xf5, 0x39, 0x2d, 0x53, 0x99, 0xb0, 0x4f, 0xb1, 0xab,
  0x4b, 0x98, 0x64, 0x38, 0x10, 0x61, 0xa0, 0xc9, 0x9b, 0x62, 0xf2, 0xf6,
  0x5d, 0x41, 0x97, 0x89, 0xb7, 0x8b, 0x1a, 0xc6, 0x04, 0x39, 0x4f, 0x5c,
  0x9b, 0x0c, 0x94, 0xd4, 0x8b, 0x08, 0xce, 0x85, 0x44, 0x31, 0x28, 0x60,
  0xf3, 0x94, 0x75, 0xe2, 0xd5, 0x29, 0x5f, 0x08, 0xa5, 0xf0, 0xca, 0xd2,
  0xb2, 0xa5, 0x12, 0x4f, 0x3d, 0x30, 0xa2, 0xb5, 0x2c, 0xeb, 0x88, 0x1d,
  0xfe, 0x43, 0xc7, 0x69, 0x10, 0x14, 0x5e, 0x9d, 0xf3, 0xe1, 0x34, 0xfc,
  0x51, 0xde, 0x28, 0x9b, 0x1c, 0xe3, 0x74, 0xe0, 0xf1, 0x0f, 0x5f, 0x0b,
  0xbc, 0x54, 0x47, 0xff, 0xa1, 0x2e, 0xe2, 0x37, 0x18, 0xe4, 0x62, 0x93,
  0x3b, 0xa0, 0xac, 0x31, 0x96, 0x66, 0x18, 0xa5, 0x51, 0xbe, 0x06, 0xd7,
  0x20, 0x74, 0xdd, 0xfd, 0x7b, 0x29, 0xbe, 0x9b, 0x51, 0xba, 0x77, 0x68,
  0xe5, 0xb9, 0x34, 0x5e, 0x72, 0x61, 0x6c, 0x10, 0xd9, 0x3b, 0x5b, 0x3d,
  0xea, 0xcc, 0xcd, 0x4a, 0xad, 0xe7, 0xa3, 0xe9, 0x08, 0xca, 0xc7, 0xb7,
  0xaf, 0x38, 0xa4, 0x88, 0x8b, 0x1b, 0xe5, 0xae, 0xe1, 0x76, 0x9c, 0x40,
  0x9f, 0xec, 0xee, 0x13, 0x6d, 0x5d, 0xd8, 0x97, 0x46, 0xe2, 0xaa, 0xc0,
  0x2e, 0x56, 0xda, 0x0c, 0x4d, 0x99, 0x6e, 0x14, 0x7b, 0xaf, 0x53, 0xf4,
  0xd2, 0xc8, 0x2a, 0x04, 0x2b, 0x2d, 0x2a, 0xaf, 0xe4, 0xaf, 0xce, 0x47,
  0x70, 0x1c, 0xa4, 0x21, 0xc4, 0x92, 0xe9, 0xf0, 0xee, 0x59, 0x2c, 0x05,
  0x5b, 0x72, 0xe7, 0x8d, 0xbb, 0x9e, 0x84, 0x1e, 0xe6, 0x62, 0x4b, 0xb1,
  0x38, 0x75, 0x89, 0x2b, 0xd3, 0x94, 0xd4, 0xb0, 0x02, 0x8a, 0x1c, 0x8c,
  0x4f, 0xf5, 0xd9, 0x86, 0xf3, 0xa5, 0xfc, 0x0c, 0x78, 0xfc, 0x70, 0x35,
  0x79, 0xe2, 0xa4, 0xaf, 0xe3, 0x98, 0x8f, 0xd7, 0xf1, 0x5e, 0x5e, 0x69,
  0x30, 0xce, 0x98, 0x2c, 0x8e, 0x9d, 0xc7, 0x13, 0xfa, 0xde, 0x05, 0x56,
  0x54, 0x33, 0x67, 0x24, 0xa9, 0x0e, 0xc9, 0x4a, 0xce, 0xb9, 0x1b, 0xe3,
  0x1f, 0x2f, 0xb5, 0x3a, 0x64, 0x37, 0x68, 0x93, 0x2d, 0x9b, 0xb8, 0x9c,
  0xaf, 0x35, 0x97, 0xad, 0xc1, 0x70, 0x05, 0x1c, 0x24, 0x90, 0x58, 0xec,
  0x62, 0x85, 0xa5, 0x92, 0x78, 0xe8, 0xdc, 0xd9, 0x25, 0xe3, 0xda, 0xc9,
  0x67, 0xbd, 0x5e, 0x5e, 0xc0, 0x58, 0x94, 0xda, 0xe5, 0xba, 0xb0, 0xac,
  0x28, 0xe5, 0x81, 0x7d, 0x47, 0xed, 0x7c, 0xa4, 0xb3, 0x8b, 0x3b, 0xcc,
  0x2b, 0xd6, 0x43, 0x85, 0x2c, 0xdf, 0x07, 0x46, 0xd6, 0xa7, 0x81, 0x3a,
  0x0c, 0x78, 0x77, 0x3c, 0x69, 0x06, 0x98, 0x48, 0x38, 0xeb, 0x7a, 0xfa,
  0x2b, 0xf1, 0xf6, 0xb0, 0xba, 0xf7, 0x81, 0x03, 0x30, 0x74, 0x4a, 0x82,
  0x5e, 0x7a, 0xbf, 0xdf, 0x3a, 0x01, 0x48, 0x51, 0x42, 0x15, 0x41, 0x4e,
  0xee, 0xa1, 0x11, 0x46, 0x0b, 0x1c, 0x77, 0xcc, 0x91, 0x68, 0x01, 0xee,
  0x1f, 0x55, 0x91, 0xc6, 0xa8, 0x49, 0xf9, 0x8f, 0x30, 0x0c, 0x11, 0xc6,
  0xed, 0x37, 0x23, 0x61, 0x18, 0xcc, 0x6d, 0x81, 0x36, 0x72, 0xa6, 0x60,
  0xb3, 0x4d, 0x5b, 0xe6, 0x55, 0xe7, 0x9d, 0x87, 0x29, 0xcb, 0xf4, 0x65,
  0x42, 0x14, 0x3c, 0x5b, 0x4e, 0x9b, 0x88, 0xb2, 0x8a, 0x1f, 0xf4, 0xbc,
  0x05, 0x44, 0xab, 0x30, 0x6f, 0x94, 0xdf, 0x4e, 0x33, 0x62, 0x5b, 0x2e,
  0xf7, 0xc0, 0x94, 0x84, 0xef, 0x6a, 0x0a, 0xaa, 0x25, 0xda, 0xcc, 0x84,
  0x1e, 0xf9, 0xbc, 0x01, 0x4e, 0x97, 0x89, 0x4a, 0x2f, 0x3f, 0xdd, 0x5c,
  0x6c, 0xf1, 0xa4, 0xd3, 0xe6, 0x22, 0xf9, 0xd0, 0x2d, 0x75, 0xa5, 0x39,
  0xdc, 0xba, 0x19, 0xb7, 0x40, 0x36, 0x2b, 0x4c, 0x3f, 0xb1, 0x02, 0x74,
  0x67, 0xc9, 0xe6, 0xa3, 0xbc, 0xf3, 0xf5, 0x61, 0x22, 0x70, 0xf5, 0xcd,
  0x1f, 0xc0, 0xe2, 0x18, 0x74, 0x45, 0x33, 0xe5, 0xd0, 0x9e, 0xba, 0x15,
  0xca, 0xe9, 0x18, 0xfb, 0xdf, 0x98, 0x53, 0x9c, 0x74, 0x72, 0x31, 0x01,
  0xe4, 0x3f, 0x22, 0x40, 0x2b, 0x4c, 0x58, 0x8f, 0x3b, 0x2d, 0x1d, 0x76,
  0xf4, 0x67, 0xa2, 0x5c, 0x5b, 0x67, 0xaf, 0x26, 0x81, 0xb5, 0x4d, 0x5c,
  0x10, 0x6d, 0xe1, 0x9e, 0xc1, 0x74, 0xe8, 0xee, 0xd9, 0xaf, 0xf4, 0x43,
  0xf1, 0x0b, 0xf2, 0x54, 0xe2, 0xc8, 0x7a, 0xbc, 0x7c, 0x8f, 0x86, 0x07,
  0x25, 0xfe, 0xa0, 0xda, 0x05, 0xdb, 0x36, 0xd3, 0x39, 0xe7, 0x22, 0xac,
  0x90, 0xb0, 0x7a, 0x23, 0xdd, 0xb5, 0x48, 0xe5, 0xa1, 0xfa, 0x10, 0xcd,
  0x84, 0x77, 0x42, 0xa8, 0x48, 0x89, 0x47, 0x3e, 0x6c, 0x7c, 0xad, 0xa2,
  0x91, 0xa4, 0xec, 0xb8, 0xff, 0x4a, 0x39, 0xea, 0xf8, 0x9a, 0x0e, 0xef,
  0xe4, 0xe8, 0x6d, 0x66, 0xeb, 0xa7, 0x1d, 0x1d, 0xd1, 0x50, 0xb7, 0x54,
  0x26, 0x43, 0x2c, 0xad, 0x2f, 0x51, 0xad, 0x52, 0xd7, 0x65, 0x6e, 0x9a,
  0xef, 0xa7, 0x39, 0x2e, 0xd2, 0x9d, 0x96, 0x74, 0xfa, 0x34, 0x6d, 0x34,
  0x5c, 0x23, 0xc6, 0x4d, 0x55, 0xa7, 0xc8, 0x22, 0xc4, 0x02, 0x8a, 0xe7,
  0x42, 0x0f, 0x52, 0x06, 0x9d, 0x77, 0x63, 0xbc, 0xb0, 0xe3, 0xfb, 0x8b,
  0xd5, 0x59, 0xe9, 0xdf, 0xb8, 0x50, 0x96, 0x61, 0x9e, 0x69, 0x35, 0xa8,
  0xc8, 0x97, 0x24, 0x45, 0x90, 0xbd, 0x2b, 0x62, 0xc8, 0x3f, 0x29, 0xf5,
  0x6a, 0x4c, 0x9e, 0x35, 0x5b, 0x3c, 0xbf, 0x08, 0x95, 0xbb, 0x3e, 0xeb,
  0x16, 0x23, 0xa5, 0xd1, 0xa2, 0x43, 0xc9, 0x49, 0xaf, 0xcd, 0xdc, 0x6d,
  0x45, 0xad, 0xc0, 0x67, 0xb5, 0x2a, 0x41, 0xb0, 0x0e, 0xf2, 0x61, 0xba,
  0xeb, 0x35, 0x44, 0xa1, 0xd1, 0x2b, 0x68, 0x60, 0xdd, 0xf1, 0x79, 0x48,
  0x24, 0x67, 0xcd, 0x52, 0x3a, 0x17, 0xb1, 0x3f, 0xd7, 0x92, 0xeb, 0x01,
  0x9b, 0x66, 0x4f, 0xc5, 0x14, 0xdd, 0xcf, 0x56, 0xa1, 0x30, 0x92, 0xd2,
  0x27, 0x02, 0xd6, 0x1c, 0xa6, 0x9a, 0x7f, 0xb9, 0x2c, 0xe1, 0x60, 0xf2,
  0xb5, 0x65, 0x27, 0x45, 0xe1, 0xc4, 0x97, 0xcc, 0x0b, 0x32, 0x1f, 0xc7,
  0x17, 0xba, 0x14, 0xd0, 0xc6, 0x48, 0x1e, 0x58, 0x2d, 0xb3, 0xd5, 0x9d,
  0x14, 0xd9, 0xed, 0xe9, 0x5b, 0xf4, 0x60, 0xa4, 0x4d, 0x6d, 0x1d, 0x9b,
  0xa1, 0x49, 0x18, 0x04, 0x10, 0x44, 0x63, 0x12, 0x9c, 0x2e, 0x53, 0xdf,
  0x5e, 0xb9, 0x9f, 0xa7, 0xd2, 0x67, 0x49, 0xff, 0x4c, 0x73, 0xc2, 0xef,
  0xf0, 0x97, 0xf2, 0xd4, 0x5f, 0xc3, 0x38, 0xde, 0xf5, 0x07, 0xf2, 0xd1,
  0x00, 0x6a, 0x37, 0xf4, 0x08, 0x2d, 0xa8, 0xad, 0x61, 0x5f, 0x2b, 0x9d,
  0x5c, 0x0d, 0xb5, 0xee, 0x9d, 0xfa, 0xf7, 0x6c, 0xfd, 0xd7, 0xb7, 0x6b,
  0x68, 0x48, 0xc7, 0x61, 0xea, 0xca, 0x1c, 0xb9, 0x37, 0xf8, 0x5c, 0x3e,
  0xbb, 0xf3, 0x49, 0xf9, 0x41, 0x0f, 0xc9, 0x0e, 0xa0, 0xeb, 0x70, 0xf9,
  0x87, 0x14, 0xcf, 0x26, 0x09, 0x55, 0x40, 0xbd, 0xa4, 0x22, 0x28, 0x54,
  0x2d, 0x50, 0x6c, 0xfc, 0xf9, 0x31, 0x8d, 0xe1, 0x3b, 0xd1, 0x0d, 0xba,
  0x53, 0x6f, 0x9a, 0x19, 0x4a, 0x27, 0x0d, 0x2c, 0xe3, 0x0d, 0xf4, 0x5d,
  0x0e, 0xdf, 0x03, 0xc8, 0x2a, 0xef, 0x9a, 0x1a, 0x43, 0x21, 0xa6, 0xfd,
  0x1b, 0x3b, 0x4b, 0xe8, 0x8b, 0x3c, 0x43, 0x5e, 0xb7, 0xeb, 0x62, 0xb3,
  0xe9, 0xec, 0x01, 0xb5, 0x48, 0x5a, 0x00, 0xf1, 0x8b, 0xcc, 0x23, 0xd3,
  0xde, 0x56, 0x2d, 0x2c, 0x48, 0xac, 0x1c, 0x10, 0xe5, 0x43, 0xaa, 0x45,
  0xae, 0x82, 0xfa, 0x64, 0x4d, 0xb8, 0xfe, 0xb0, 0x21, 0xab, 0xbb, 0xf9,
  0xfa, 0x39, 0x08, 0xac, 0xc1, 0x92, 0xc1, 0xfb, 0xf7, 0x26, 0x64, 0xce,
  0xac, 0x2e, 0xdf, 0x1a, 0xe1, 0x4f, 0xae, 0xc0, 0x23, 0xcc, 0xe0, 0xfd,
  0xb3, 0x42, 0x47, 0xf4, 0x5b, 0xd7, 0x45, 0xd6, 0xe0, 0x00, 0xc3, 0xe0,
  0x1b, 0x6b, 0xae, 0x03, 0x1f, 0xe6, 0x9d, 0x2a, 0x02, 0x20, 0x54, 0x15,
  0x0d, 0x5e, 0x1e, 0x1b, 0x11, 0x28, 0xc9, 0x4f, 0x2e, 0x3d, 0xe6, 0x3d,
  0x16, 0xa1, 0x36, 0xa7, 0xbf, 0xc4, 0xd1, 0x6b, 0x0d, 0x2a, 0x1a, 0xaa,
  0xdc, 0x9a, 0xf1, 0xc2, 0xe6, 0xa6, 0x05, 0x61, 0x3b, 0x03, 0x48, 0xca,
  0xb4, 0x04, 0x93, 0x9e, 0x12, 0x69, 0x08, 0xb0, 0x64, 0x28, 0xfd, 0x46,
  0x5a, 0xaa, 0x96, 0x18, 0x40, 0x18, 0xc9, 0xf0, 0xbc, 0x2f, 0xff, 0x14,
  0x03, 0xa3, 0xb8, 0xb2, 0xcb, 0xad, 0x02, 0xb5, 0xaa, 0xdb, 0x58, 0xfc,
  0x48, 0x17, 0xde, 0xaf, 0x46, 0x53, 0x2f, 0xc9, 0xf2, 0x6e, 0x61, 0xd7,
  0x3f, 0x5a, 0x3c, 0x2b, 0x57, 0xe2, 0xdf, 0x35, 0xd3, 0x02, 0xfe, 0xbd,
  0xbc, 0x16, 0x9b, 0x1e, 0xe4, 0x58, 0x49, 0xce, 0x01, 0x3a, 0x9c, 0x61,
  0xed, 0xe4, 0xc8, 0x05, 0x1d, 0xf2, 0x56, 0x4b, 0x16, 0x4e, 0xa0, 0xe2,
  0xe5, 0x9a, 0xf5, 0x13, 0x41, 0x11, 0xcc, 0x1c, 0x96, 0x87, 0xdb, 0x60,
  0x7f, 0xd2, 0x5c, 0x26, 0xda, 0x20, 0xab, 0x98, 0xcf, 0xf0, 0xf7, 0x07,
  0x59, 0x43, 0x92, 0x1e, 0xf2, 0x52, 0x05, 0x51, 0xdf, 0x6e, 0x34, 0xb5,
  0xbe, 0xe8, 0xd2, 0x9f, 0x36, 0x1f, 0xcd, 0x20, 0x5f, 0xff, 0x00, 0xeb,
  0x12, 0x62, 0x1d, 0xb0, 0x06, 0x0c, 0xa8, 0xd8, 0xaa, 0x5c, 0x1c, 0x29,
  0x2c, 0xcf, 0x96, 0x4a, 0x11, 0x00, 0x17, 0xfa, 0xd9, 0x59, 0x17, 0x32,
  0x18, 0x69, 0xd6, 0x04, 0x23, 0xc9, 0xbc, 0x51, 0xef, 0xc2, 0x40, 0x70,
  0x11, 0xb2, 0xba, 0x3a, 0x0e, 0xd8, 0x5b, 0x55, 0xa4, 0xeb, 0xff, 0xff,
  0x3b, 0x5b, 0x94, 0x2e, 0xa4, 0x0f, 0x9d, 0xb4, 0x50, 0x64, 0xd0, 0x4c,
  0x61, 0x33, 0x98, 0x45, 0x40, 0xe3, 0x4d, 0x99, 0xd8, 0xb2, 0x9d, 0xc6,
  0xf7, 0x2b, 0x2b, 0x8f, 0x3e, 0xdb, 0x4d, 0xad, 0xcd, 0x25, 0x15, 0x1b,
  0xed, 0x70, 0xd5, 0xed, 0x22, 0x61, 0xd0, 0x49, 0x99, 0x4b, 0x81, 0x87,
  0xe1, 0xe1, 0x11, 0x27, 0xa2, 0xa3, 0xbc, 0x18, 0x4e, 0xd3, 0x2d, 0xb4,
  0x90, 0x17, 0x35, 0x4d, 0x09, 0x36, 0x38, 0x5a, 0x40, 0xa3, 0x67, 0x3c,
  0xc2, 0xbd, 0x16, 0xec, 0x4b, 0x32, 0x02, 0xfe, 0xf3, 0x0c, 0x98, 0xa8,
  0x38, 0x12, 0xce, 0x3f, 0xc3, 0xae, 0xbf, 0xa2, 0xb7, 0x99, 0xca, 0x6a,
  0xfe, 0xa7, 0x95, 0x6d, 0x1c, 0xd1, 0x69, 0xba, 0x07, 0xe6, 0x22, 0xfe,
  0x5e, 0xf3, 0x1c, 0x49, 0xc2, 0x40, 0xa5, 0xac, 0xdd, 0xa8, 0xf1, 0x98,
  0x2f, 0xad, 0x98, 0xf8, 0xda, 0xec, 0x5f, 0xb6, 0x3d, 0xc4, 0x25, 0xf9,
  0x63, 0x4a, 0x6e, 0xaf, 0x92, 0xc1, 0x5a, 0x1d, 0x31, 0x43, 0xfb, 0x54,
  0xc3, 0x5e, 0xee, 0x68, 0xde, 0x59, 0xbc, 0xec, 0x6c, 0x96, 0xda, 0x4a,
  0x50, 0xe6, 0x9c, 0x3d, 0x2f, 0xb4, 0x07, 0x9d, 0xb3, 0x3c, 0xa5, 0x1a,
  0x34, 0xf6, 0x4e, 0x7b, 0x6f, 0xac, 0x71, 0xcb, 0xd5, 0xab, 0x10, 0xa3,
  0x6f, 0xba, 0x42, 0xac, 0x1e, 0x8e, 0xbf, 0x07, 0x92, 0x49, 0x93, 0xa9,
  0xb3, 0xb5, 0x25, 0x85, 0x5e, 0xc9, 0x1e, 0xe8, 0xa1, 0xb4, 0x62, 0xa7,
  0x93, 0x0e, 0x32, 0x07, 0x1b, 0xd5, 0x87, 0x3a, 0x57, 0x8c, 0x5f, 0xa3,
  0x1d, 0x86, 0x69, 0x71, 0xbb, 0xf5, 0x35, 0x51, 0x48, 0x60, 0xe2, 0x5a,
  0x4e, 0x05, 0x9e, 0xc4, 0x99, 0x1e, 0x81, 0x46, 0x98, 0x8b, 0xc1, 0x65,
  0x84, 0x70, 0x31, 0x3f, 0xb6, 0xc1, 0xc5, 0xa4, 0x7a, 0x0f, 0xbd, 0x19,
  0xa3, 0xa5, 0xec, 0x88, 0x07, 0x73, 0x70, 0xa2, 0xa1, 0xd1, 0x55, 0xf6,
  0xe5, 0xa6, 0x5e, 0x8c, 0xf7, 0x50, 0x00, 0xa1, 0xe3, 0xe4, 0x41, 0xf8,
  0x0d, 0x7a, 0x71, 0xfa, 0x60, 0xf8, 0xaf, 0x03, 0x91, 0x21, 0x46, 0xa8,
  0x0d, 0xf3, 0x5d, 0xbf, 0x19, 0x99, 0xff, 0x67, 0x43, 0x15, 0x09, 0x57,
  0x4b, 0xac, 0x86, 0xb4, 0x35, 0x96, 0x93, 0xff, 0x87, 0x7a, 0x8c, 0x73,
  0x5f, 0x08, 0x86, 0xfc, 0x30, 0x37, 0x51, 0x71, 0x95, 0x34, 0x5e, 0xd1,
  0x51, 0xfd, 0x66, 0x8a, 0x4d, 0x3e, 0x8a, 0xd6, 0xbd, 0xd3, 0xdc, 0xa0,
  0x30, 0x41, 0xc1, 0x20, 0xbe, 0x18, 0xe5, 0xc3, 0x4d, 0x10, 0x19, 0xfb,
  0x45, 0x2d, 0x6f, 0xe7, 0x53, 0xbd, 0xf7, 0xc9, 0xa1, 0x88, 0x71, 0x1e,
  0xcc, 0x97, 0xbe, 0xbd, 0x4d, 0x48, 0x4a, 0x49, 0xd0, 0x11, 0x83, 0x53,
  0xf3, 0x9b, 0xf6, 0x50, 0xff, 0x55, 0x75, 0xfe, 0xf0, 0x14, 0xb2, 0x43,
  0xb4, 0x3b, 0x09, 0x3a, 0x8e, 0x4b, 0x3e, 0x9a, 0x23, 0x5e, 0xf6, 0xf5,
  0x0f, 0x5f, 0x04, 0xf7, 0x84, 0x05, 0xde, 0x7b, 0xe9, 0x2a, 0x21, 0x33,
  0xf8, 0xe6, 0xf4, 0x8c, 0x62, 0xd3, 0x6f, 0x23, 0x51, 0x1e, 0xa7, 0xc0,
  0x33, 0x7d, 0xd8, 0x5b, 0xfc, 0x48, 0x54, 0xa5, 0xf9, 0xda, 0xff, 0xb3,
  0x22, 0xe7, 0x89, 0x95, 0xfa, 0xd1, 0xed, 0x60, 0x21, 0x16, 0xd8, 0xac,
  0xee, 0x57, 0x60, 0xcb, 0x1e, 0xdd, 0xc7, 0x71, 0xee, 0x54, 0xf1, 0x3f,
  0xff, 0x90, 0x6a, 0x51, 0xe9, 0xa2, 0x4b, 0x4e, 0xf3, 0xfa, 0x0b, 0x54,
  0xb2, 0xac, 0x3f, 0xfc, 0x92, 0xbe, 0x23, 0xcb, 0x37, 0x05, 0x33, 0x04,
  0xee, 0x1d, 0x39, 0x6e, 0x02, 0x5b, 0x27, 0x26, 0x20, 0xa4, 0x52, 0xf2,
  0xdf, 0xc1, 0x25, 0xaa, 0x13, 0x05, 0xe5, 0xed, 0xf3, 0xc7, 0xfa, 0x02,
  0xb9, 0x1c, 0x95, 0xde, 0x41, 0x3a, 0xda, 0x4b, 0x4f, 0xeb, 0x03, 0x4b,
  0x26, 0x3f, 0xad, 0x98, 0xc9, 0x66, 0x1f, 0x00, 0x42, 0x54, 0x54, 0xed,
  0x4d, 0xa4, 0x4b, 0xe8, 0x98, 0x40, 0x5f, 0x3e, 0x54, 0xd8, 0xbe, 0x34,
  0x5d, 0x92, 0x11, 0xa1, 0xf6, 0x27, 0xee, 0x39, 0x0e, 0x9a, 0x5b, 0xce,
  0x68, 0x50, 0x53, 0xbd, 0xc0, 0x55, 0xca, 0xe0, 0xf1, 0xb8, 0xec, 0x0c,
  0x05, 0xa7, 0x0a, 0x10, 0x45, 0xce, 0xe9, 0x1f, 0xa3, 0xf4, 0x44, 0xf5,
  0xf5, 0xb4, 0x0a, 0x0b, 0x9e, 0xff, 0x38, 0x37, 0xbc, 0x10, 0x5f, 0x61,
  0x45, 0x4e, 0x28, 0x62, 0x0f, 0xc5, 0x63, 0x45, 0x13, 0xcf, 0xbd, 0xd0,
  0x1d, 0x2d, 0x0f, 0xe9, 0x62, 0x00, 0x96, 0x00, 0xc3, 0x0b, 0x34, 0xd3,
  0x52, 0x01, 0x55, 0x6a, 0xd1, 0x54, 0x50, 0x13, 0xe6, 0x04, 0x1d, 0xb9,
  0x6d, 0xb0, 0xfe, 0x3d, 0xbb, 0x6c, 0x4c, 0xb1, 0x36, 0xa3, 0x34, 0xe7,
  0xea, 0x13, 0xd4, 0xbd, 0xf4, 0x5d, 0x0d, 0x14, 0xb9, 0x39, 0x05, 0xd1,
  0x0c, 0x43, 0x16, 0x38, 0xf5, 0x27, 0xb2, 0xb3, 0xf8, 0x58, 0x0c, 0x37,
  0xc4, 0x4e, 0x3b, 0x44, 0x02, 0x6a, 0xa7, 0x6e, 0x26, 0x23, 0x4d, 0xaa,
  0xca, 0xa4, 0xa7, 0xdb, 0x43, 0xb2, 0x6a, 0xa1, 0xc3, 0x4d, 0x81, 0x90,
  0xfd, 0x8b, 0x4a, 0x41, 0xc7, 0x3a, 0xaa, 0xe0, 0x2a, 0x9c, 0xff, 0x55,
  0xd6, 0x30, 0xa6, 0xa2, 0x3f, 0x28, 0xbf, 0x11, 0x35, 0x1b, 0x33, 0x60,
  0x16, 0xf7, 0xe3, 0xef, 0xd8, 0x2f, 0x0f, 0x6d, 0xad, 0x1c, 0xb8, 0x41,
  0xd9, 0xc4, 0x9a, 0x4e, 0xe3, 0xd4, 0xe2, 0xfb, 0x66, 0x53, 0xdf, 0xa9,
  0xe7, 0x1d, 0x41, 0x56, 0xd5, 0xfa, 0xa5, 0xb6, 0x3d, 0x38, 0x57, 0xcf,
  0x5e, 0xd6, 0x0b, 0x29, 0xde, 0x4e, 0xfb, 0x58, 0xdf, 0x99, 0x98, 0xb2,
  0x9c, 0x3b, 0x02, 0xdd, 0x0c, 0xf3, 0x41, 0xfb, 0xa3, 0x1c, 0x18, 0x3f,
  0x5c, 0xfc, 0x6b, 0xac, 0xe8, 0xa3, 0xf0, 0x97, 0x9e, 0x24, 0x7f, 0x59,
  0x55, 0xf0, 0x14, 0x53, 0x29, 0xa2, 0xd3, 0xec, 0x00, 0xc7, 0x56, 0x9d,
  0xd7, 0x4b, 0x60, 0xcd, 0x38, 0x67, 0x4e, 0xaa, 0x1d, 0x5f, 0xcc, 0xd2,
  0xa3, 0x09, 0x44, 0x2e, 0x3b, 0x1d, 0xf9, 0x46, 0x29, 0xdb, 0x6e, 0xde,
  0xb2, 0x68, 0x46, 0x25, 0xcb, 0xc2, 0x5f, 0x08, 0xa1, 0x0e, 0xbd, 0xb3,
  0x14, 0xd5, 0xb1, 0xe6, 0xbf, 0x2d, 0x47, 0xc4, 0xf9, 0x9e, 0xea, 0x2e,
  0xba, 0xbf, 0x10, 0x0e, 0xd4, 0xf7, 0xd1, 0x06, 0x50, 0xa6, 0xba, 0x18,
  0x28, 0x02, 0x21, 0x9d, 0xec, 0xaf, 0x24, 0x3f, 0x6c, 0xba, 0xa9, 0xdc,
  0xf9, 0xd3, 0x2f, 0xb0, 0x49, 0x13, 0x25, 0xf5, 0xe9, 0x0d, 0xb5, 0xea,
  0x37, 0x2e, 0x3c, 0x0e, 0x0e, 0x12, 0xaa, 0xdf, 0xcc, 0x19, 0xe8, 0x56,
  0x1d, 0xd0, 0xa8, 0x25, 0xb3, 0x65, 0xa9, 0xe4, 0xe6, 0xff, 0x06, 0x3b,
  0x9e, 0xd4, 0x00, 0x3f, 0xba, 0xf2, 0x5f, 0xb3, 0xf7, 0xb9, 0x14, 0x58,
  0xad, 0x20, 0x40, 0xaa, 0xdc, 0x3c, 0x20, 0xe8, 0x30, 0x01, 0xc5, 0xcd,
  0xf6, 0x6d, 0xd2, 0x57, 0x04, 0xe8, 0x2d, 0x20, 0x6b, 0xba, 0x43, 0xa7,
  0xad, 0xbc, 0xe3, 0xf4, 0x95, 0x1b, 0xc0, 0x98, 0x21, 0xce, 0x47, 0x95,
  0x97, 0xae, 0x33, 0x98, 0x2f, 0x9a, 0xc7, 0x3f, 0xb2, 0x90, 0xc5, 0x75,
  0x24, 0xfa, 0x7b, 0xeb, 0x5d, 0x7e, 0xae, 0xd4, 0x29, 0x69, 0x91, 0xcb,
  0x71, 0x7a, 0x65, 0x2c, 0x0f, 0xe9, 0x89, 0x4f, 0x89, 0xef, 0xa6, 0x1e,
  0xb9, 0x10, 0x08, 0x4b, 0x2c, 0xe1, 0xf3, 0x3a, 0x63, 0xa2, 0x0c, 0x1e,
  0xcb, 0x44, 0x4b, 0xd2, 0xf0, 0xf4, 0xd0, 0x94, 0x16, 0x5d, 0x35, 0x77,
  0x8f, 0xf6, 0xb0, 0xfd, 0xe0, 0x19, 0x0b, 0x17, 0xcb, 0x76, 0x91, 0x4c,
  0x6c, 0xc3, 0xef, 0xe9, 0xb6, 0x01, 0x4d, 0x6e, 0x08, 0xef, 0xcc, 0x66,
  0x73, 0x52, 0x4e, 0xc2, 0xd0, 0x39, 0x43, 0xcc, 0xa1, 0x82, 0xc0, 0x3d,
  0x2d, 0x29, 0x2d, 0x30, 0xb7, 0xb2, 0x8f, 0x9b, 0xd2, 0x3b, 0x9d, 0x68,
  0xad, 0x63, 0xe9, 0xf6, 0xfe, 0xbd, 0x99, 0xe9, 0xf4, 0x0e, 0x59, 0xf7,
  0x84, 0xf7, 0x1e, 0xb7, 0x8e, 0x09, 0x22, 0xcb, 0x2a, 0x78, 0x12, 0xb3,
  0x81, 0x99, 0xd9, 0xe4, 0x66, 0xeb, 0x4d, 0xfe, 0x87, 0x00, 0x72, 0x8f,
  0xb9, 0x4d, 0x6c, 0x7c, 0x0d, 0xf1, 0x97, 0x97, 0xf5, 0xa5, 0xa1, 0x56,
  0xa1, 0x81, 0x1b, 0xd7, 0x86, 0x0f, 0xf3, 0xc1, 0xea, 0xdf, 0xe4, 0xe3,
  0xdd, 0x77, 0xd9, 0x89, 0xa1, 0x35, 0x8c, 0x77, 0x7b, 0x99, 0x25, 0x15,
  0x02, 0xb2, 0xea, 0x78, 0x81, 0xe7, 0x90, 0xa7, 0x45, 0x4c, 0xe9, 0x4e,
  0x9a, 0x19, 0xa5, 0xcb, 0x7b, 0xc3, 0xa7, 0x8b, 0xa5, 0xcd, 0x55, 0xc2,
  0x1b, 0x5c, 0x40, 0x84, 0xad, 0x7e, 0x24, 0x91, 0x8a, 0x9d, 0xfb, 0x98,
  0xd5, 0xf5, 0x45, 0xe5, 0x82, 0x06, 0x64, 0x55, 0x09, 0x50, 0xd9, 0x50,
  0xc7, 0xcb, 0x7d, 0xef, 0xff, 0x85, 0x9e, 0xf8, 0xa4, 0x59, 0x6b, 0x87,
  0x6e, 0x5c, 0x66, 0xe9, 0x5c, 0xfa, 0xa5, 0xe2, 0x27, 0x8f, 0x72, 0xad,
  0xb4, 0xc9, 0x7d, 0x20, 0xa0, 0xba, 0x86, 0x39, 0xc5, 0xd7, 0xd4, 0x62,
  0xa0, 0x62, 0x3a, 0x6c, 0x1a, 0x11, 0x12, 0x25, 0x57, 0xa4, 0x6a, 0xe1,
  0x5a, 0x26, 0xca, 0xe7, 0xad, 0x8b, 0xcb, 0x5d, 0x3b, 0x1f, 0x95, 0xaf,
  0x1f, 0x34, 0x5a, 0x95, 0xa4, 0xf0, 0x5a, 0xc5, 0x1e, 0xa9, 0x3a, 0xa3,
  0x26, 0xd4, 0xa0, 0x42, 0x53, 0xe6, 0x48, 0x47, 0x6d, 0xc7, 0x2e, 0xbb,
  0x58, 0x9c, 0x3e, 0xdf, 0xa5, 0x6e, 0xf6, 0x3e, 0xd4, 0x00, 0x45, 0x6a,
  0x24, 0xf8, 0x46, 0x4d, 0x63, 0x21, 0x09, 0xa4, 0xe7, 0x33, 0xd5, 0x2b,
  0xea, 0xee, 0x30, 0x39, 0x3b, 0x69, 0xe9, 0x29, 0xc7, 0x4f, 0x3e, 0x1f,
  0xef, 0xe8, 0xd1, 0xdf, 0x05, 0x54, 0x98, 0xef, 0x29, 0x66, 0x51, 0x4f,
  0x19, 0x59, 0xb1, 0x4a, 0xd8, 0xf0, 0xf6, 0x0a, 0x10, 0x39, 0xbc, 0xf2,
  0xe4, 0xa5, 0x06, 0x35, 0x59, 0x10, 0xd9, 0xa7, 0x50, 0xc2, 0x59, 0xe3,
  0xd7, 0xbc, 0x10, 0x61, 0x0f, 0x45, 0x38, 0xdc, 0x93, 0x1c, 0x0c, 0xd1,
  0xa7, 0x0b, 0x2b, 0x02, 0xdd, 0xe3, 0x5f, 0x05, 0xd7, 0x5b, 0xf8, 0xe7,
  0x08, 0x7a, 0xad, 0x70, 0xf6, 0x2a, 0xc8, 0x24, 0x27, 0x27, 0xee, 0xae,
  0xbb, 0x1e, 0xee, 0xb9, 0xd5, 0xdd, 0xef, 0xd2, 0x13, 0x6b, 0x10, 0x1f,
  0x29, 0xdc, 0xb5, 0x59, 0x26, 0x5f, 0xa6, 0x32, 0xfd, 0xdc, 0xbc, 0xdb,
  0x97, 0x07, 0x92, 0xde, 0xdf, 0xa9, 0x1c, 0xf8, 0xcb, 0x69, 0x48, 0xa4,
  0x97, 0x3b, 0xf8, 0xf8, 0x63, 0xa3, 0xf1, 0xe5, 0x58, 0x10, 0xb2, 0x43,
  0x4f, 0xc9, 0xe7, 0x17, 0xd2, 0x06, 0xbd, 0xa5, 0x0a, 0x4d, 0x56, 0xa5,
  0xf0, 0x52, 0xb8, 0x6e, 0xb5, 0xf3, 0x55, 0xed, 0x6a, 0x2c, 0x2b, 0xaf,
  0xf5, 0x5a, 0x02, 0xdc, 0x30, 0x92, 0xe5, 0xe7, 0x2d, 0x03, 0xb1, 0x3e,
  0xc3, 0xb2, 0x1b, 0x81, 0xe0, 0x69, 0xca, 0x95, 0x69, 0xe2, 0xa1, 0xeb,
  0xe8, 0x60, 0x68, 0x03, 0x69, 0xb5, 0x31, 0x95, 0x48, 0xb1, 0xef, 0xcf,
  0x20, 0xef, 0x4b, 0x22, 0x3d, 0x11, 0x44, 0xfb, 0xc4, 0xdd, 0x1c, 0x20,
  0x23, 0x6b, 0xc0, 0xff, 0x2f, 0x5f, 0x3f, 0x4d, 0x65, 0x47, 0x9a, 0xcf,
  0xfd, 0xcb, 0x32, 0xa7, 0xc9, 0xbf, 0xa1, 0x21, 0x69, 0xac, 0x48, 0x35,
  0x5a, 0xff, 0xc7, 0xd9, 0xd7, 0x4e, 0x3d, 0xb7, 0x31, 0xcc, 0xcf, 0xdf,
  0xdf, 0x29, 0x27, 0x04, 0xf5, 0xa9, 0xe5, 0x68, 0x2d, 0x01, 0x13, 0x7a,
  0x47, 0x00, 0x97, 0xb5, 0xc7, 0xbd, 0x9f, 0xe7, 0xc5, 0x1a, 0x02, 0x9c,
  0x59, 0xf8, 0xdb, 0x69, 0x68, 0x15, 0x20, 0x9d, 0x17, 0xcb, 0xea, 0x4f,
  0xd6, 0xd0, 0x52, 0x38, 0x1b, 0x67, 0xce, 0xe2, 0x7f, 0xff, 0x19, 0xe3,
  0x6d, 0x31, 0x48, 0x1a, 0xcb, 0xe4, 0x32, 0x00, 0xf3, 0x99, 0x3e, 0x04,
  0x2c, 0xd1, 0x3a, 0x9a, 0xe3, 0xf4, 0x93, 0x2f, 0xfc, 0xe6, 0xc6, 0x47,
  0x4b, 0x08, 0x0b, 0xd4, 0x0b, 0xba, 0x9d, 0xcf, 0xe1, 0xc7, 0x44, 0x62,
  0x69, 0xe2, 0xfb, 0xb3, 0x54, 0xbb, 0xeb, 0xc8, 0x92, 0x19, 0x9b, 0x2e,
  0x22, 0x18, 0xbd, 0x22, 0xb9, 0x49, 0x3e, 0x73, 0x1d, 0x56, 0xb2, 0xdb,
  0x96, 0x1d, 0x28, 0x65, 0x99, 0x6d, 0x5a, 0x50, 0x18, 0x0c, 0xfe, 0xe1,
  0xac, 0xbc, 0x93, 0xb1, 0x5b, 0xaf, 0x6f, 0x07, 0x63, 0x9c, 0x4e, 0xb5,
  0xee, 0x9b, 0x01, 0x51, 0x50, 0x99, 0xf6, 0xbb, 0x18, 0xfc, 0x5d, 0x21,
  0x55, 0xc8, 0x5a, 0x69, 0xf7, 0x91, 0xc3, 0x45, 0x50, 0x57, 0xbb, 0x0b,
  0xa4, 0x36, 0x2e, 0xd8, 0x28, 0xce, 0x33, 0xb3, 0x9c, 0x41, 0xa5, 0x3f,
  0xd4, 0xdf, 0xd2, 0x24, 0x52, 0xc4, 0x08, 0x0f, 0x37, 0xb4, 0xff, 0x2e,
  0xd2, 0xfe, 0xa0, 0x04, 0x1e, 0x31, 0x9e, 0xed, 0xbc, 0x08, 0xf9, 0x9b,
  0xf1, 0x10, 0xd1, 0x9a, 0x0d, 0x95, 0xd4, 0xdb, 0x27, 0xb3, 0xe9, 0x0b,
  0xad, 0xfa, 0x31, 0xfe, 0xf7, 0x49, 0x06, 0x16, 0x5a, 0x39, 0xc5, 0x87,
  0xf7, 0xb0, 0xe6, 0x52, 0xcd, 0x64, 0x42, 0xfa, 0xf4, 0xa0, 0x19, 0xa5,
  0xcf, 0x55, 0x36, 0x4b, 0x97, 0xa9, 0x60, 0x03, 0x44, 0x74, 0x7b, 0x4a,
  0x25, 0x63, 0xa5, 0x5f, 0x71, 0xee, 0x1b, 0x75, 0x00, 0xc1, 0x5f, 0x65,
  0x0d, 0xd1, 0x5a, 0x1b, 0x3a, 0xb9, 0x63, 0xff, 0x32, 0x3d, 0xfa, 0x84,
  0x76, 0x34, 0x08, 0xff, 0x41, 0xf5, 0x85, 0xf4, 0xc4, 0xed, 0xbb, 0xa9,
  0xb1, 0xd2, 0xe8, 0x5c, 0xe6, 0xa0, 0x4d, 0x2f, 0x17, 0x2e, 0xc2, 0x72,
  0x9c, 0x2b, 0x4b, 0x38, 0x49, 0xc3, 0xcd, 0xfe, 0xee, 0x2e, 0xda, 0x8c,
  0x42, 0x3c, 0x3f, 0x66, 0x3b, 0x05, 0x1e, 0x71, 0x8f, 0x2f, 0xa4, 0xb4,
  0x16, 0xcc, 0x82, 0xe5, 0x45, 0xd9, 0x4b, 0x13, 0x12, 0x37, 0x05, 0x00,
  0x1c, 0x60, 0xbf, 0xa9, 0xa4, 0x89, 0x9c, 0xbb, 0xc1, 0xe2, 0x78, 0xd8,
  0xe4, 0xa5, 0x69, 0xf3, 0x26, 0xca, 0x92, 0x2f, 0x4b, 0x85, 0xab, 0x57,
  0x86, 0xbd, 0x56, 0xc3, 0xf9, 0x1e, 0xb0, 0xb1, 0x50, 0x00, 0xcc, 0x12,
  0xf0, 0xf5, 0x15, 0xf1, 0x2a, 0x32, 0xa9, 0xb5, 0xe1, 0xdd, 0x90, 0xdd,
  0xe1, 0x35, 0x23, 0xf7, 0x61, 0xe8, 0x68, 0x59, 0xe7, 0x2a, 0xd4, 0xe1,
  0xbb, 0x11, 0xf2, 0x05, 0x2f, 0x70, 0x5a, 0xa9, 0xac, 0x81, 0x6c, 0x89,
  0xd8, 0xc8, 0xf4, 0x3d, 0xec, 0xed, 0xed, 0x98, 0x42, 0x9c, 0xd7, 0x59,
  0xb2, 0x3a, 0x91, 0x6a, 0xe3, 0x6d, 0x00, 0xf0, 0xd0, 0x7a, 0xec, 0xd2,
  0x06, 0x1d, 0xed, 0x26, 0x96, 0x8a, 0xd6, 0x92, 0x0a, 0xbc, 0xb7, 0x35,
  0xef, 0x93, 0x4b, 0xfd, 0xb4, 0x8f, 0x38, 0x1e, 0x31, 0x19, 0x85, 0x95,
  0x08, 0xbc, 0xd3, 0x67, 0xb0, 0xa8, 0xd2, 0x05, 0x59, 0xfc, 0x08, 0x3a,
  0xda, 0xa1, 0x99, 0x37, 0xfb, 0xaa, 0x6d, 0xb3, 0xcd, 0xc1, 0x90, 0xc7,
  0xdd, 0x21, 0xa9, 0xfe, 0x67, 0xc6, 0x3a, 0x2a, 0x5f, 0x26, 0x69, 0xf0,
  0x1a, 0x58, 0x41, 0xdb, 0xcd, 0xe0, 0x62, 0x1f, 0xe4, 0xd8, 0x12, 0x57,
  0xa5, 0xb9, 0x23, 0x08, 0x16, 0xc7, 0x2b, 0x24, 0x36, 0x2c, 0xff, 0xcf,
  0x59, 0x24, 0xab, 0x87, 0xf5, 0x0c, 0xdb, 0x4b, 0xb7, 0xf7, 0x4f, 0x55,
  0xad, 0x0c, 0xaa, 0xe6, 0x5f, 0xd1, 0x5a, 0x53, 0x61, 0x27, 0xa4, 0xc1,
  0xd3, 0xdb, 0x56, 0x6c, 0x5d, 0x22, 0x2c, 0x08, 0xf8, 0x1f, 0xb4, 0x10,
  0xcc, 0xae, 0x5e, 0xa0, 0x12, 0xd2, 0xb6, 0x5d, 0x4d, 0x8b, 0xf7, 0x15,
  0x81, 0x15, 0x9f, 0x24, 0x9d, 0xfa, 0x9c, 0xe2, 0x39, 0xe0, 0x52, 0x04,
  0xc5, 0x5c, 0xcf, 0x4e, 0x97, 0x99, 0x5c, 0xe6, 0x17, 0x0f, 0x09, 0x5e,
  0xe0, 0x2b, 0x39, 0x5c, 0xa1, 0xc1, 0x6a, 0xdb, 0x27, 0x03, 0x4e, 0x1a,
  0xf9, 0xaf, 0xd1, 0x43, 0x01, 0xcf, 0xf7, 0x06, 0x98, 0xcf, 0x20, 0xac,
  0x55, 0x07, 0x59, 0x44, 0xb0, 0xbd, 0xd7, 0x05, 0x3a, 0x4b, 0x21, 0xb5,
  0x46, 0xb0, 0x53, 0xd0, 0x5d, 0x5b, 0x86, 0x08, 0xb5, 0x50, 0xbf, 0x2e,
  0x95, 0xa7, 0xe7, 0xb4, 0x29, 0x03, 0x90, 0x55, 0xb5, 0xa6, 0x32, 0xa2,
  0x63, 0x33, 0xae, 0xc6, 0xdd, 0x94, 0xbe, 0x37, 0x36, 0x0b, 0x4c, 0x49,
  0x03, 0xc3, 0x4c, 0x1e, 0x77, 0xfe, 0x59, 0x41, 0x5e, 0x99, 0x47, 0xd0,
  0x2a, 0xba, 0x40, 0x6e, 0x6f, 0xb6, 0x03, 0xbf, 0x1f, 0x49, 0x99, 0xd9,
  0x38, 0x1a, 0x91, 0x1a, 0xb9, 0x6b, 0x03, 0x58, 0xcf, 0x3e, 0xa2, 0x43,
  0x36, 0xbd, 0x30, 0x2b, 0xcc, 0xa9, 0x37, 0x33, 0xc3, 0xcb, 0xad, 0xdb,
  0xf8, 0xb6, 0x9e, 0x47, 0x44, 0x09, 0x68, 0xe4, 0xe8, 0x5b, 0x4c, 0x07,
  0x98, 0x94, 0x91, 0xf8, 0x45, 0xab, 0x27, 0xf0, 0xf4, 0xf1, 0x37, 0x78,
  0x61, 0x8b, 0x5a, 0x73, 0xea, 0xc5, 0x99, 0xd9, 0x5e, 0xf6, 0x16, 0xa7,
  0x38, 0x56, 0x91, 0x61, 0xcb, 0x22, 0xc2, 0xae, 0x1a, 0xe8, 0x3e, 0x06,
  0xb3, 0x6b, 0x5f, 0x1f, 0x17, 0x85, 0xaf, 0xd3, 0xfc, 0x52, 0x90, 0xbc,
  0x01, 0xbd, 0x56, 0x5c, 0xa9, 0x14, 0x42, 0xb7, 0xcd, 0x31, 0x77, 0x27,
  0x95, 0x1c, 0xa4, 0x67, 0x0f, 0x91, 0xfe, 0xfd, 0x30, 0x81, 0x2d, 0x09,
  0xdc, 0xaf, 0x1a, 0x4f, 0xad, 0xc4, 0x2b, 0x55, 0xe5, 0x67, 0x27, 0xef,
  0xb0, 0xb0, 0x5e, 0xf9, 0xe8, 0x0c, 0x41, 0xe0, 0xb4, 0x85, 0x93, 0x74,
  0x98, 0x2e, 0xd9, 0x0f, 0xe3, 0x37, 0x0f, 0x63, 0x26, 0x71, 0xc8, 0x1e,
  0xcc, 0x86, 0xa3, 0xaa, 0xd5, 0xb5, 0x5b, 0x1a, 0x39, 0x29, 0x1b, 0xe2,
  0x81, 0x9d, 0x09, 0xf8, 0x78, 0x9d, 0x98, 0x6b, 0xcc, 0xe6, 0x42, 0x07,
  0x6f, 0x66, 0xc4, 0x0c, 0x10, 0x0b, 0xe1, 0x97, 0x92, 0xf3, 0x12, 0xbd,
  0x58, 0x56, 0x0b, 0x2a, 0xda, 0x92, 0xa3, 0x06, 0x98, 0x71, 0x28, 0x2c,
  0xa6, 0x8e, 0x72, 0xc9, 0xb5, 0x9a, 0xdd, 0xfe, 0x07, 0x50, 0x89, 0x67,
  0x04, 0xed, 0x96, 0xa5, 0xfe, 0xb7, 0x0b, 0xb6, 0x70, 0x87, 0x26, 0x34,
  0x98, 0x93, 0xa1, 0xa5, 0x05, 0xde, 0x5d, 0xca, 0xcf, 0x08, 0x93, 0xa2,
  0x2e, 0xae, 0x29, 0xec, 0x1d, 0x41, 0x65, 0xfc, 0x3a, 0x99, 0x68, 0xc5,
  0x06, 0x0d, 0x3a, 0x36, 0x67, 0x18, 0x0b, 0x01, 0x4f, 0xd2, 0x1d, 0x9a,
  0x20, 0x47, 0x13, 0xb6, 0x76, 0x0d, 0x35, 0x65, 0x4c, 0xfa, 0x85, 0x00,
  0x9c, 0x42, 0xee, 0x88, 0xdc, 0x60, 0x9d, 0x3d, 0x68, 0x1a, 0x33, 0x0d,
  0x3a, 0x8f, 0x8a, 0xcd, 0x2b, 0x6e, 0xf6, 0xa6, 0xaa, 0x07, 0xda, 0x9d,
  0x46, 0xed, 0x52, 0xa8, 0xe0, 0x0f, 0x02, 0xa9, 0x65, 0xba, 0x9e, 0x2b,
  0xe8, 0x92, 0xba, 0xe0, 0x21, 0x42, 0x8e, 0x0d, 0xac, 0xb4, 0x45, 0x55,
  0xcb, 0x94, 0x43, 0xf5, 0xf4, 0xae, 0x25, 0x90, 0x2d, 0xab, 0xf9, 0x61,
  0xac, 0xdf, 0xbd, 0xa0, 0x0f, 0xad, 0x05, 0x44, 0x30, 0xa9, 0x39, 0x11,
  0x49, 0x1c, 0xde, 0xae, 0x45, 0x66, 0x2a, 0xbd, 0x8f, 0x17, 0x18, 0xd5,
  0xc4, 0xf2, 0x03, 0x45, 0xa3, 0xb5, 0x15, 0x1a, 0xff, 0x2b, 0x40, 0x0d,
  0x1a, 0x33, 0x40, 0x64, 0xaf, 0xe5, 0x99, 0xb9, 0x8d, 0x6d, 0xad, 0xe4,
  0x28, 0xbb, 0xaa, 0x19, 0x8b, 0xa2, 0xc4, 0xd2, 0x2b, 0x3c, 0x55, 0x58,
  0xf5, 0x25, 0x95, 0xa5, 0x03, 0x55, 0x13, 0x4d, 0xee, 0x35, 0xd7, 0xf0,
  0x98, 0x3d, 0xfe, 0xf7, 0x52, 0x04, 0x91, 0x38, 0x5e, 0x12, 0x21, 0x21,
  0x9b, 0xa4, 0x2b, 0xb1, 0x85, 0x6d, 0xaf, 0x4f, 0xe0, 0x8f, 0x75, 0x9c,
  0x81, 0x5b, 0x07, 0x4c, 0x31, 0x53, 0xb2, 0x67, 0xa0, 0x15, 0x37, 0x57,
  0x3b, 0xa9, 0xcd, 0x54, 0x47, 0x43, 0x10, 0x5d, 0x19, 0x15, 0x4f, 0x19,
  0x5f, 0xb7, 0x09, 0xd2, 0x1f, 0x47, 0x60, 0xe2, 0x0e, 0x10, 0x1e, 0x59,
  0x70, 0x35, 0x61, 0xc7, 0x9b, 0xfc, 0x4a, 0x6b, 0x66, 0x15, 0x43, 0xdc,
  0xa3, 0xc2, 0xb6, 0x3b, 0x19, 0x7f, 0x9a, 0x63, 0x0b, 0xd1, 0x5f, 0x93,
  0x3d, 0x00, 0xf9, 0xb4, 0x05, 0x98, 0xa7, 0x33, 0x4c, 0xdc, 0xd6, 0x10,
  0x51, 0x24, 0x00, 0x06, 0x4f, 0xaf, 0x32, 0x0b, 0xf0, 0xc2, 0xac, 0x0b,
  0xbf, 0xfd, 0xce, 0x1d, 0xfe, 0x26, 0x8e, 0x46, 0xcb, 0x67, 0x59, 0x5c,
  0x5e, 0x4f, 0x44, 0x2b, 0x46, 0x1f, 0x42, 0xfb, 0x73, 0x11, 0x47, 0x4b,
  0xe1, 0x0f, 0x6f, 0xf5, 0x75, 0xde, 0xc3, 0x29, 0x0e, 0x1c, 0xdb, 0xb4,
  0x57, 0x4d, 0xa7, 0x43, 0x76, 0x27, 0x2a, 0x5e, 0x2b, 0x39, 0xa3, 0x5f,
  0x9f, 0xa1, 0x22, 0xba, 0x0d, 0x13, 0xae, 0x19, 0x62, 0x42, 0xee, 0xd1,
  0xdc, 0x26, 0xfb, 0xaf, 0x47, 0xda, 0x10, 0xbd, 0x60, 0xc1, 0xe3, 0x34,
  0x9c, 0x56, 0xa7, 0xe0, 0x0a, 0x4f, 0xdd, 0xd9, 0xc3, 0xd4, 0x3f, 0xab,
  0x2c, 0xd2, 0x3f, 0x3c, 0xd8, 0xa0, 0x98, 0x35, 0x30, 0xec, 0xd7, 0xa1,
  0xb7, 0x19, 0x9a, 0xf1, 0x4f, 0x4b, 0x48, 0x3b, 0xce, 0x2a, 0x0f, 0xc7,
  0x3f, 0xfd, 0x0a, 0x4c, 0xde, 0x35, 0xdc, 0x30, 0xed, 0x2d, 0x9f, 0xc1,
  0x61, 0x23, 0xf0, 0xa6, 0x43, 0xe4, 0x26, 0x9a, 0x1a, 0x52, 0x23, 0xef,
  0xf3, 0x9e, 0x28, 0xb3, 0xd0, 0x19, 0x03, 0x5d, 0x47, 0xcb, 0xda, 0xc0,
  0xaa, 0x05, 0x96, 0x1a, 0x22, 0xf9, 0xab, 0x3a, 0x33, 0x48, 0xa9, 0xbe,
  0x7f, 0xa8, 0xc3, 0xda, 0xe3, 0xb5, 0x2e, 0xf1, 0xe5, 0x4b, 0x2a, 0x1c,
  0x17, 0xd3, 0xee, 0x66, 0xf0, 0x43, 0x1a, 0xe7, 0xfb, 0x56, 0x03, 0x3f,
  0x61, 0x16, 0xe7, 0xce, 0xef, 0x65, 0x22, 0x40, 0xbb, 0xbe, 0xbc, 0xb5,
  0x1c, 0x48, 0xc5, 0x2f, 0x10, 0xfa, 0xbd, 0x69, 0x49, 0x28, 0xca, 0xdc,
  0xe0, 0x3c, 0xa9, 0x14, 0x0f, 0x1a, 0xfb, 0x3c, 0x06, 0x3d, 0xf7, 0xe0,
  0xdd, 0xd2, 0x9a, 0xad, 0x62, 0x19, 0x27, 0x66, 0x43, 0xb8, 0x6a, 0x42,
  0x37, 0x0d, 0xb9, 0x10, 0xe6, 0x24, 0xce, 0x1c, 0x5e, 0xd9, 0xec, 0x16,
  0xb8, 0x3b, 0x35, 0xe5, 0x5d, 0x25, 0xca, 0xbe, 0x59, 0xbc, 0xeb, 0x23,
  0x69, 0x41, 0x1b, 0x2a, 0xa1, 0x09, 0x65, 0xee, 0xbd, 0x57, 0x28, 0x50,
  0x42, 0xc3, 0xbe, 0x20, 0x4c, 0xcb, 0x3e, 0xf3, 0x38, 0xbc, 0x2e, 0xfb,
  0x25, 0x48, 0x61, 0x27, 0x64, 0xd9, 0x4f, 0x38, 0xa2, 0xb9, 0x5c, 0x4e,
  0xd0, 0xaf, 0xf6, 0xec, 0x0e, 0xb7, 0xd9, 0x28, 0x2e, 0x1c, 0xe3, 0x25,
  0xb0, 0xc7, 0xfa, 0x02, 0x5d, 0xf6, 0xd8, 0x16, 0x03, 0x34, 0x9c, 0x1e,
  0x49, 0xd5, 0x29, 0x09, 0xe0, 0xd2, 0x50, 0xf5, 0xe4, 0x3b, 0x46, 0xe5,
  0x05, 0x4d, 0x3c, 0x9e, 0x05, 0xc1, 0x6a, 0xa8, 0x69, 0x2f, 0x6c, 0x25,
  0x17, 0x0d, 0x0f, 0x2f, 0x5d, 0xe0, 0xd5, 0x45, 0xd8, 0xf6, 0x9c, 0x2c,
  0x14, 0x95, 0x99, 0x2c, 0x23, 0xce, 0x68, 0xf3, 0x4a, 0x98, 0x38, 0x26,
  0x1a, 0xdd, 0x37, 0x19, 0xed, 0x5c, 0x42, 0xfe, 0xa3, 0xb9, 0xe2, 0x16,
  0xa0, 0x2b, 0xbc, 0xf7, 0x1b, 0x98, 0xaf, 0xeb, 0xb9, 0xff, 0x58, 0x17,
  0x64, 0x57, 0x0b, 0xce, 0x55, 0x3b, 0xc0, 0x5e, 0xb1, 0x52, 0x02, 0xd3,
  0xfe, 0x69, 0x4b, 0xc2, 0x7f, 0xc4, 0x5a, 0xb7, 0x6c, 0xfe, 0x0e, 0x48,
  0x04, 0xc6, 0x11, 0x34, 0x64, 0xe3, 0x7b, 0x64, 0x35, 0xf0, 0xed, 0xcf,
  0x60, 0xe9, 0xbd, 0x37, 0xc6, 0xec, 0x48, 0x43, 0xa9, 0x55, 0x5f, 0xb8,
  0x10, 0xcb, 0x07, 0xc4, 0x2c, 0x10, 0xd9, 0x57, 0x17, 0xee, 0xd8, 0xf0,
  0xad, 0x14, 0xbd, 0xfb, 0xaa, 0xb0, 0x64, 0xb5, 0x26, 0x0d, 0xad, 0xe6,
  0xd4, 0x45, 0xb2, 0x32, 0xbe, 0x2a, 0x05, 0x2d, 0xb6, 0x54, 0x15, 0x02,
  0xc3, 0xbe, 0xea, 0xe7, 0xea, 0x2e, 0xdd, 0x23, 0xf8, 0x41, 0xd3, 0xb8,
  0x38, 0x5a, 0x48, 0x57, 0x3a, 0xe7, 0x0a, 0xf0, 0x42, 0x2e, 0x33, 0xf4,
  0x5c, 0x62, 0x98, 0x34, 0x91, 0x05, 0x2e, 0xd0, 0x62, 0xa1, 0xfe, 0x63,
  0xf7, 0x69, 0xaf, 0xea, 0x00, 0x99, 0x0a, 0xa1, 0xa5, 0x4e, 0x23, 0x00,
  0x30, 0xc1, 0x94, 0xaf, 0x2f, 0x6b, 0x02, 0x5c, 0x0a, 0x3f, 0xc1, 0x41,
  0x3c, 0xf5, 0xb9, 0xd8, 0x0d, 0x57, 0x3d, 0x2e, 0xd8, 0x55, 0x38, 0x9d,
  0xe2, 0x2c, 0xe1, 0xae, 0xd5, 0x0b, 0x5c, 0xdc, 0xcb, 0xce, 0x21, 0x2e,
  0x4d, 0x52, 0xe9, 0x20, 0xf0, 0x7c, 0xea, 0x5c, 0xb6, 0x52, 0x01, 0xce,
  0xc4, 0xf5, 0xb2, 0x86, 0x59, 0x64, 0x7b, 0xe1, 0xe8, 0x2c, 0x47, 0x76,
  0x06, 0xb3, 0xf6, 0x75, 0x59, 0x02, 0x19, 0xa8, 0x87, 0xfe, 0x74, 0xee,
  0x9c, 0xd2, 0xe1, 0xd9, 0x32, 0x16, 0x73, 0xb1, 0xbd, 0x92, 0x6f, 0xb9,
  0xb6, 0xe9, 0xa1, 0x8f, 0x58, 0x44, 0x86, 0xb4, 0x2e, 0x20, 0xb6, 0x47,
  0xca, 0x33, 0x59, 0x58, 0xba, 0x53, 0x93, 0xc8, 0xa0, 0xaa, 0xd3, 0x9e,
  0xee, 0xcd, 0xd6, 0x55, 0x30, 0x45, 0x87, 0x5b, 0x88, 0x40, 0xc4, 0x29,
  0x53, 0x46, 0x17, 0x3b, 0xfc, 0xb3, 0x52, 0x18, 0xf2, 0xcd, 0x64, 0x1a,
  0x13, 0x8d, 0xbb, 0x66, 0xf2, 0x63, 0x29, 0xeb, 0x7f, 0xc8, 0xb6, 0x3c,
  0xf7, 0x21, 0xe5, 0x73, 0xaf, 0xdf, 0xc7, 0xd0, 0x5e, 0xa4, 0xf2, 0x40,
  0x1e, 0x15, 0x71, 0x69, 0xcb, 0xb5, 0xf5, 0x7a, 0x85, 0x0a, 0x09, 0xb7,
  0x58, 0x19, 0xb3, 0x32, 0x95, 0x97, 0x99, 0x23, 0xf0, 0xbe, 0x3d, 0xe2,
  0x5f, 0xd6, 0x79, 0x94, 0xc5, 0xe6, 0x3b, 0x9b, 0xbe, 0xed, 0xad, 0x4b,
  0xfb, 0x26, 0x49, 0x8e, 0x23, 0x8d, 0x5d, 0x21, 0xd8, 0x04, 0x7b, 0x49,
  0xcd, 0x0f, 0xce, 0x2f, 0xcf, 0x35, 0xeb, 0xfa, 0x3e, 0x64, 0x62, 0xff,
  0x0b, 0xd2, 0x96, 0xcc, 0x03, 0x2d, 0x45, 0x5a, 0x66, 0x93, 0x56, 0x65,
  0x4e, 0x1a, 0x2b, 0x11, 0xbb, 0x96, 0x3d, 0x6a, 0xbe, 0xbe, 0x39, 0x71,
  0x1a, 0x36, 0x98, 0xe0, 0x23, 0x49, 0x71, 0xd6, 0xba, 0x73, 0x11, 0x63,
  0xca, 0x03, 0x58, 0xfa, 0x54, 0xdb, 0x44, 0xf5, 0xe8, 0x1c, 0x1b, 0x55,
  0x61, 0x4d, 0xfb, 0x81, 0x1e, 0x18, 0xf9, 0x2e, 0xe1, 0xb1, 0xd0, 0x15,
  0x47, 0xe6, 0xc8, 0xf7, 0x99, 0xe7, 0x4d, 0x44, 0x17, 0xbf, 0xd0, 0x14,
  0x06, 0xe6, 0x7a, 0x05, 0x5e, 0xb2, 0x24, 0x11, 0x68, 0xef, 0x05, 0x30,
  0xbd, 0xeb, 0xe3, 0xe7, 0x40, 0x32, 0x0a, 0xf5, 0x59, 0x94, 0xca, 0xc6,
  0x52, 0x38, 0x46, 0x64, 0xc1, 0x65, 0x97, 0x66, 0x05, 0x34, 0x4c, 0xba,
  0x99, 0x37, 0x41, 0xeb, 0xb4, 0x0c, 0xb1, 0xf0, 0xab, 0xf4, 0xb7, 0xf9,
  0xa9, 0x6a, 0x47, 0x33, 0xde, 0x6d, 0x6f, 0xfc, 0xa2, 0xfc, 0x1a, 0x0d,
  0x5d, 0x04, 0x37, 0x15, 0x46, 0x2d, 0xc1, 0x8d, 0x20, 0xaa, 0x5c, 0xc0,
  0xc8, 0xf2, 0x23, 0xd1, 0x2e, 0xfc, 0x9e, 0x72, 0x40, 0x70, 0xc4, 0x2e,
  0xf7, 0x69, 0x90, 0x1b, 0x62, 0xbf, 0xe7, 0xfa, 0xc7, 0x0a, 0x09, 0xd0,
  0xc6, 0xd4, 0xcf, 0x47, 0x63, 0xef, 0x62, 0x2f, 0x55, 0x20, 0xb5, 0x0a,
  0x1f, 0xee, 0x04, 0x65, 0x3c, 0x13, 0x1f, 0xb3, 0x52, 0x3d, 0x3e, 0xe8,
  0x1c, 0x33, 0x10, 0x07, 0x11, 0x0f, 0xbf, 0xd9, 0xb2, 0x53, 0xcb, 0x08,
  0x68, 0x42, 0xb1, 0x5a, 0x7f, 0x2f, 0x9b, 0x69, 0x17, 0xdc, 0x62, 0x3f,
  0x30, 0x55, 0x06, 0xee, 0x1e, 0xe5, 0x96, 0xe8, 0xd8, 0xd3, 0x11, 0xbb,
  0xdb, 0x6f, 0x37, 0x30, 0xd0, 0x40, 0xc6, 0x4c, 0xbd, 0xe2, 0x31, 0xe3,
  0x16, 0xbf, 0x10, 0xa4, 0xd6, 0x06, 0x12, 0x3b, 0xb3, 0xeb, 0x54, 0x62,
  0x6f, 0x43, 0x3d, 0xdc, 0xb7, 0x58, 0xc9, 0xba, 0xc7, 0xff, 0xdb, 0x8f,
  0xf6, 0x74, 0x73, 0xd2, 0x0e, 0xdd, 0x75, 0xd6, 0x24, 0xf4, 0x2d, 0x00,
  0x58, 0xc3, 0x70, 0x68, 0xf1, 0xce, 0xca, 0xa5, 0xca, 0x5c, 0xee, 0xf3,
  0x2a, 0x13, 0x08, 0x97, 0x54, 0x72, 0xf3, 0x31, 0xdf, 0x1d, 0xf0, 0x49,
  0x5d, 0x30, 0x04, 0xee, 0x67, 0xe1, 0xf5, 0xca, 0xc5, 0x33, 0x9f, 0x61,
  0xb5, 0xe6, 0x3b, 0x15, 0xc1, 0x72, 0x60, 0x4f, 0x04, 0x0b, 0x60, 0xbe,
  0x49, 0x05, 0x31, 0xff, 0x3f, 0xcc, 0xbb, 0x50, 0x13, 0x23, 0x3c, 0xf4,
  0x1f, 0x62, 0x05, 0xf0, 0x58, 0x4a, 0x48, 0xde, 0x6a, 0x2a, 0x66, 0x6b,
  0x62, 0xf9, 0x5e, 0xd0, 0xbe, 0x9b, 0xe4, 0x6a, 0x41, 0x38, 0x08, 0xf4,
  0x91, 0x2a, 0xc7, 0xb0, 0x23, 0x05, 0x45, 0xae, 0xad, 0xac, 0x0c, 0xe7,
  0xd2, 0x3f, 0x32, 0x23, 0xe3, 0x24, 0x69, 0x21, 0xf2, 0xc2, 0x0d, 0x52,
  0xec, 0x2e, 0xf7, 0xbe, 0x0a, 0xcc, 0x3a, 0xa7, 0x9e, 0x65, 0xbd, 0xac,
  0xc9, 0xe7, 0x1e, 0xdf, 0x43, 0x69, 0x2d, 0xb1, 0x0f, 0xd8, 0x4b, 0x24,
  0xfa, 0xc4, 0xee, 0x12, 0xf6, 0x0e, 0x05, 0x27, 0x1c, 0x7e, 0x74, 0xe2,
  0x4a, 0x62, 0xb9, 0xda, 0xf6, 0xa2, 0x12, 0x20, 0x2f, 0xe8, 0x4e, 0x5a,
  0xf6, 0x02, 0x46, 0x5e, 0x57, 0x31, 0x64, 0xc2, 0x39, 0x10, 0x12, 0x01,
  0xba, 0xa3, 0x6b, 0xdb, 0xf5, 0x4a, 0x46, 0x6d, 0xa8, 0x32, 0x2c, 0x61,
  0xb3, 0x1d, 0xa9, 0x40, 0xb0, 0x0b, 0x30, 0xc6, 0xab, 0x4e, 0xf6, 0xc5,
  0x56, 0x96, 0xd7, 0x0f, 0x74, 0xe6, 0xcb, 0xf6, 0xea, 0xbd, 0x9a, 0x2c,
  0x31, 0x52, 0xcf, 0x45, 0xc5, 0x59, 0xd2, 0x56, 0xfa, 0xc7, 0xd7, 0x3d,
  0x1c, 0xcb, 0x4f, 0xd0, 0x52, 0x40, 0xa5, 0xec, 0x50, 0xf8, 0x52, 0xd0,
  0xeb, 0xfd, 0x5a, 0xb7, 0x39, 0x06, 0x41, 0x60, 0xd5, 0x21, 0xa2, 0x2e,
  0xb7, 0xcc, 0x38, 0xf6, 0x52, 0x40, 0x69, 0xf1, 0x56, 0x05, 0xe5, 0x6a,
  0x36, 0x38, 0xd3, 0xc4, 0xe8, 0x2b, 0xd4, 0x51, 0xf9, 0xd7, 0x58, 0xe6,
  0xb5, 0xc3, 0xcc, 0x46, 0xa2, 0x33, 0x36, 0x32, 0x6f, 0xd6, 0x06, 0x45,
  0xab, 0x40, 0xd0, 0x4f, 0xd3, 0x16, 0x97, 0xce, 0x4b, 0x43, 0x10, 0xa1,
  0xa6, 0x17, 0xfc, 0x37, 0xf8, 0xc3, 0x55, 0xe2, 0xce, 0xd8, 0x63, 0xb0,
  0x5a, 0xdb, 0xdd, 0xc0, 0x81, 0xd6, 0x21, 0x8a, 0xe9, 0xed, 0x28, 0xd0,
  0xf8, 0x17, 0xee, 0xc2, 0xc2, 0xc2, 0xd2, 0xbd, 0xdd, 0x9f, 0x73, 0x53,
  0x9a, 0x29, 0x3b, 0x9c, 0x0a, 0xcc, 0x9f, 0xf8, 0x90, 0x6b, 0x4f, 0xeb,
  0x45, 0x12, 0x5e, 0x3b, 0x57, 0xb1, 0x18, 0x90, 0x4b, 0xfa, 0xbe, 0xae,
  0x56, 0x66, 0xf5, 0x58, 0xe4, 0x44, 0x1e, 0xf7, 0x19, 0xda, 0xa5, 0x3c,
  0x59, 0x6e, 0xa8, 0xa4, 0x27, 0xf4, 0x31, 0xa5, 0xa9, 0x9b, 0x54, 0xd7,
  0xe6, 0x1b, 0x9b, 0xeb, 0xb3, 0xcf, 0x95, 0x26, 0x6f, 0xf4, 0xdc, 0x24,
  0xaa, 0x92, 0xeb, 0x4b, 0xf6, 0x9b, 0xe2, 0x28, 0xf0, 0xc1, 0xaa, 0xd8,
  0xff, 0xd2, 0x11, 0xd1, 0x41, 0x6b, 0xb9, 0x3e, 0x2f, 0xaf, 0xdd, 0xbb,
  0x1b, 0xdd, 0x1f, 0x76, 0x90, 0x67, 0xaa, 0x9f, 0xa6, 0xc1, 0x21, 0xe5,
  0x26, 0x24, 0xec, 0x2c, 0x0b, 0xc3, 0xd0, 0x2a, 0x96, 0x4c, 0x3e, 0x37,
  0x2e, 0x16, 0xc0, 0x40, 0xfd, 0xb2, 0x25, 0xfa, 0xc6, 0x4c, 0x9f, 0x24,
  0xf7, 0x2a, 0xa6, 0x42, 0x6e, 0x65, 0x5c, 0x66, 0x4e, 0x71, 0x40, 0x45,
  0xb4, 0x9b, 0xef, 0xa5, 0xda, 0x62, 0xa5, 0xfa, 0xa0, 0xd9, 0xa2, 0x9a,
  0x04, 0x94, 0x72, 0x6a, 0x90, 0xe5, 0x33, 0x11, 0x94, 0xd4, 0xec, 0x6e,
  0x70, 0xcf, 0x22, 0x05, 0xdf, 0x53, 0x37, 0xf0, 0x5f, 0x57, 0x91, 0x48,
  0x4d, 0x52, 0xb0, 0x6d, 0xed, 0xd6, 0x66, 0x87, 0x17, 0x3d, 0xb5, 0xe7,
  0x95, 0x0a, 0x61, 0xb9, 0xfe, 0xa8, 0xf8, 0x7f, 0x20, 0xc7, 0xf4, 0x45,
  0x52, 0x3c, 0x4f, 0xde, 0xd6, 0xbe, 0xdb, 0x72, 0x0e, 0x3b, 0xcd, 0x69,
  0xa0, 0x4c, 0x6a, 0xdb, 0xd9, 0x50, 0xe8, 0x9c, 0x67, 0x30, 0xd3, 0xbf,
  0xed, 0x76, 0x64, 0x9c, 0x59, 0x21, 0xc5, 0x9c, 0x12, 0x63, 0xd3, 0x1b,
  0xe9, 0x92, 0xa0, 0xb7, 0x0b, 0xc0, 0x68, 0xb9, 0x4c, 0x45, 0x99, 0xc1,
  0xbf, 0x24, 0xf7, 0xd2, 0xbd, 0xb9, 0xa2, 0xaa, 0x76, 0xfa, 0xc1, 0xbc,
  0x5a, 0xab, 0xb6, 0xaa, 0xbc, 0xe7, 0x64, 0x1d, 0x3a, 0xec, 0xfc, 0x2b,
  0x19, 0xa4, 0xa9, 0x77, 0x4a, 0x49, 0xad, 0x33, 0xc8, 0x3f, 0x53, 0xcb,
  0xbe, 0x0b, 0x3b, 0xb7, 0xe6, 0x74, 0xc5, 0x7f, 0xea, 0xc4, 0x33, 0x3a,
  0x18, 0x6f, 0xb8, 0xae, 0xaa, 0x60, 0xd5, 0xe8, 0xb3, 0xd6, 0x06, 0x97,
  0x57, 0x61, 0x2c, 0xd4, 0x33, 0xa7, 0x5a, 0x05, 0x12, 0x29, 0xb0, 0x04,
  0x0a, 0x0f, 0x34, 0x61, 0xef, 0xcd, 0x40, 0x1c, 0x69, 0xc9, 0x2a, 0x19,
  0xa0, 0x61, 0xb1, 0x4d, 0x74, 0x09, 0x0f, 0xc4, 0xfe, 0xda, 0x0f, 0x8a,
  0xee, 0xe5, 0xe7, 0xbe, 0xdf, 0xd9, 0x0b, 0x0c, 0x01, 0x65, 0x4d, 0x51,
  0x00, 0x09, 0x2f, 0x13, 0x47, 0xdc, 0x59, 0x1f, 0x90, 0x60, 0xab, 0xa8,
  0xf2, 0x9f, 0xd8, 0xe6, 0xb5, 0x03, 0x70, 0x42, 0xd1, 0xd5, 0xb8, 0xc4,
  0x50, 0x19, 0x1f, 0x69, 0x2e, 0x36, 0xf4, 0x3b, 0x3b, 0x5a, 0xef, 0x32,
  0x9c, 0xbb, 0x1b, 0x2c, 0x25, 0xcc, 0x72, 0x11, 0xf3, 0x4b, 0xe1, 0x34,
  0xa6, 0x44, 0xfc, 0x57, 0x12, 0x4d, 0x8d, 0xfb, 0x3e, 0x2b, 0x6b, 0x72,
  0x76, 0xbe, 0x6d, 0xfb, 0x63, 0x69, 0xe4, 0xf8, 0xe7, 0x45, 0xc1, 0x70,
  0xa9, 0xee, 0x1e, 0x0f, 0xe6, 0xbf, 0x3e, 0x4f, 0x57, 0x4b, 0xdf, 0x11,
  0x3a, 0x38, 0xde, 0xcd, 0x33, 0xe7, 0x6f, 0xcd, 0xb4, 0x6f, 0x6d, 0xc3,
  0x3d, 0xa8, 0x0e, 0x0a, 0xf7, 0x2c, 0x44, 0xbd, 0xf4, 0xf3, 0x5e, 0x49,
  0xd5, 0x29, 0xba, 0x6d, 0x3f, 0x1d, 0xc0, 0xad, 0x27, 0xf2, 0x70, 0xa3,
  0xae, 0x19, 0xf3, 0xde, 0xf5, 0x3d, 0x3d, 0xc7, 0x04, 0xfd, 0xd8, 0x12,
  0xcd, 0xeb, 0x15, 0xe1, 0x65, 0xca, 0x55, 0xd1, 0x93, 0xb6, 0x2e, 0xb5,
  0xe5, 0xf1, 0x6f, 0xdd, 0xee, 0xeb, 0xff, 0xdc, 0x08, 0x0f, 0x1e, 0xde,
  0xff, 0x50, 0x8b, 0x31, 0xa8, 0xd0, 0x7a, 0x29, 0x95, 0xee, 0x3e, 0x6c,
  0x67, 0x39, 0xea, 0x13, 0xf2, 0x86, 0xa4, 0xe7, 0xe8, 0xcd, 0xb0, 0xaf,
  0x36, 0x87, 0xd8, 0x21, 0xc9, 0x65, 0x09, 0x04, 0xaf, 0x6d, 0xb4, 0x7e,
  0x91, 0xf0, 0x44, 0x57, 0x6d, 0xe1, 0xe4, 0x12, 0x63, 0xfc, 0xce, 0x61,
  0x56, 0x31, 0x5d, 0x7e, 0x85, 0x2f, 0x7a, 0xb7, 0xca, 0xc1, 0x8f, 0x29,
  0x4b, 0x72, 0x52, 0xe7, 0x7c, 0x63, 0xd6, 0x83, 0xe0, 0x51, 0xa7, 0x06,
  0x96, 0x41, 0xa1, 0xec, 0xb1, 0xec, 0xa2, 0x65, 0x67, 0xb3, 0xc0, 0x81,
  0x3a, 0x8a, 0x18, 0x3a, 0xf3, 0xef, 0x1b, 0x5a, 0xbd, 0x98, 0x64, 0x16,
  0x8e, 0x68, 0xd8, 0x7a, 0xc5, 0x1a, 0x0c, 0x8d, 0x53, 0xd0, 0xc1, 0x4b,
  0xc1, 0x92, 0xc2, 0xce, 0xda, 0xb9, 0x18, 0x9f, 0xa7, 0x93, 0xbd, 0x2c,
  0xfb, 0x11, 0x19, 0x68, 0x28, 0x95, 0xf6, 0x3f, 0x45, 0x07, 0x97, 0xdc,
  0x02, 0xcb, 0x69, 0x8f, 0xb2, 0x27, 0x41, 0xa8, 0x8f, 0xf1, 0x74, 0x78,
  0xc9, 0x46, 0x23, 0xfb, 0x85, 0x0d, 0xc0, 0x90, 0x50, 0x3e, 0x0c, 0xda,
  0xb1, 0xf5, 0xb8, 0x7c, 0xa6, 0xf0, 0xbb, 0x52, 0xb7, 0xeb, 0x9f, 0x86,
  0x12, 0x9d, 0x51, 0x37, 0x09, 0x84, 0x23, 0x19, 0xec, 0xec, 0x20, 0xe7,
  0x67, 0x41, 0xd4, 0x78, 0x8c, 0x6f, 0xc6, 0xc8, 0x77, 0x55, 0x8f, 0xfc,
  0x99, 0x63, 0x67, 0xe7, 0xa8, 0xb9, 0xfc, 0xef, 0x31, 0xcb, 0xaa, 0x91,
  0xa1, 0xb2, 0x3a, 0xae, 0xa8, 0x5d, 0xee, 0x00, 0x1e, 0x36, 0x21, 0xcf,
  0x5b, 0x91, 0xb3, 0xd7, 0x0b, 0xea, 0xab, 0xd8, 0x22, 0xbd, 0x6e, 0xf2,
  0xb7, 0x57, 0x00, 0x33, 0x82, 0xc1, 0xc5, 0xaf, 0xce, 0xf9, 0x68, 0x3b,
  0xb6, 0xa3, 0x52, 0xb4, 0x1f, 0xea, 0x9a, 0x68, 0x5d, 0x1d, 0x5c, 0xbc,
  0x09, 0x48, 0xe1, 0xaa, 0x4e, 0x42, 0x5e, 0x3d, 0xd9, 0xa7, 0x11, 0xf5,
  0xd8, 0xdc, 0xab, 0xf5, 0xb8, 0x61, 0x52, 0x62, 0x28, 0xc4, 0x09, 0x46,
  0x2d, 0x36, 0xd4, 0x49, 0x5b, 0x1d, 0x63, 0xcc, 0x57, 0xd3, 0x4b, 0xcc,
  0xb3, 0xee, 0x4f, 0xfb, 0xfa, 0x28, 0x3b, 0xb9, 0xe2, 0x55, 0x4f, 0xf8,
  0xfd, 0x59, 0xdc, 0x20, 0x09, 0x1e, 0x38, 0x1c, 0xe4, 0x0f, 0xd0, 0xb4,
  0x53, 0xba, 0x40, 0xe9, 0x21, 0xdd, 0xba, 0xd0, 0xc9, 0x24, 0x1f, 0x2f,
  0xfc, 0x5b, 0xa4, 0x1e, 0x1d, 0x08, 0x1c, 0x04, 0xdd, 0xf9, 0x59, 0xfa,
  0x24, 0x37, 0xf0, 0xaa, 0x0c, 0x49, 0x5a, 0x09, 0xbf, 0xc9, 0x50, 0x2d,
  0xd5, 0x21, 0x9e, 0xa3, 0x42, 0x4c, 0xe1, 0xfd, 0xfa, 0x4d, 0xb6, 0xcf,
  0x52, 0x11, 0x20, 0x16, 0xff, 0xcb, 0xc8, 0x67, 0xbd, 0xf4, 0x5c, 0xb7,
  0x36, 0x07, 0x15, 0x45, 0x19, 0x06, 0xce, 0xfe, 0x5c, 0x04, 0x01, 0xd9,
  0x32, 0xf3, 0xa9, 0x2e, 0xd1, 0x5a, 0x10, 0xc1, 0x9b, 0xc6, 0xef, 0x62,
  0x23, 0xe7, 0x58, 0xda, 0xa0, 0xec, 0x32, 0x9a, 0xd8, 0xef, 0xc2, 0xbe,
  0x4a, 0xde, 0x47, 0x3f, 0xc5, 0x9b, 0xf4, 0xb9, 0xf1, 0x4e, 0x2e, 0xbf,
  0x54, 0xd9, 0x52, 0x3b, 0x53, 0xb4, 0x38, 0x07, 0x5b, 0xe8, 0x52, 0xca,
  0xa9, 0x35, 0xfa, 0xf3, 0xe9, 0xb8, 0xac, 0x2c, 0xe3, 0xa0, 0x0b, 0x02,
  0x1d, 0x34, 0xb0, 0x3f, 0x31, 0xb2, 0x33, 0xaa, 0xe9, 0xc6, 0xd6, 0x22,
  0x5a, 0xc5, 0x29, 0x12, 0x31, 0x02, 0x4b, 0xed, 0xa3, 0xb5, 0xaf, 0xc4,
  0xfe, 0x0c, 0x00, 0x81, 0xef, 0xba, 0xef, 0x31, 0xf7, 0x3d, 0x49, 0x60,
  0x0f, 0x06, 0xc2, 0x57, 0xec, 0x3f, 0xab, 0x2d, 0xa8, 0xd5, 0xb2, 0xb4,
  0xee, 0xd1, 0xbd, 0xf1, 0x1b, 0x31, 0x5b, 0xcc, 0x1c, 0xd7, 0x2d, 0xf2,
  0x34, 0x14, 0x3f, 0x2e, 0xff, 0xec, 0x2f, 0x54, 0x11, 0x3a, 0xa0, 0xec,
  0x6a, 0x13, 0x28, 0xf0, 0x1d, 0x08, 0xa3, 0xc4, 0x00, 0xec, 0xbb, 0x06,
  0xa0, 0xc7, 0x0e, 0xd4, 0xc5, 0x5e, 0xe5, 0x37, 0x6e, 0x59, 0x21, 0x0a,
  0xf0, 0xf1, 0xfc, 0xfb, 0xa4, 0xb7, 0x25, 0xd4, 0x49, 0xf9, 0x4e, 0xec,
  0x18, 0x19, 0x2a, 0xa4, 0x9d, 0xa0, 0x3a, 0x5e, 0xdf, 0x4b, 0x03, 0x6a,
  0xcb, 0xb8, 0x2b, 0xd6, 0x7f, 0x05, 0xea, 0x02, 0xc1, 0xe5, 0x52, 0x00,
  0x50, 0xba, 0x31, 0xbc, 0x16, 0x0f, 0xdd, 0x36, 0x69, 0xb1, 0x66, 0x15,
  0x60, 0xd9, 0xed, 0x5e, 0x4d, 0x4d, 0x6b, 0x35, 0xca, 0xef, 0xbb, 0x4c,
  0xed, 0x58, 0x25, 0x2d, 0xd6, 0x20, 0xcc, 0x06, 0xef, 0xff, 0xa0, 0xe4,
  0x51, 0xbf, 0x15, 0x34, 0xdf, 0x9a, 0x4c, 0xfa, 0x3f, 0x60, 0xe9, 0x50,
  0xfb, 0xf8, 0x31, 0x9b, 0xa1, 0xf4, 0x39, 0xdf, 0x01, 0x27, 0xfc, 0xcc,
  0xc7, 0x47, 0xe3, 0x4b, 0xcc, 0xd5, 0x63, 0x35, 0xa4, 0xfd, 0x5b, 0xb1,
  0x59, 0x2d, 0x5b, 0xe4, 0x27, 0x48, 0x2c, 0x37, 0x44, 0xb8, 0x1a, 0xa8,
  0xc6, 0xac, 0x4f, 0xf3, 0x1b, 0x38, 0x64, 0x30, 0xed, 0x9c, 0xe6, 0xf7,
  0xf1, 0x23, 0xa3, 0x37, 0x55, 0x56, 0x55, 0x8e, 0xfe, 0xe9, 0x2f, 0xa2,
  0x3a, 0xb0, 0xbf, 0xe8, 0x52, 0x27, 0xfe, 0x9a, 0x38, 0x2b, 0xf9, 0x1a,
  0x94, 0xca, 0x03, 0xf4, 0x2a, 0x0b, 0xce, 0xf4, 0x33, 0x48, 0x2f, 0xed,
  0x52, 0xc7, 0x65, 0x9d, 0xd1, 0xff, 0x2c, 0xd9, 0xd7, 0xce, 0xe7, 0xf8,
  0x13, 0xad, 0xa9, 0xe6, 0x3c, 0x11, 0x23, 0x17, 0x1f, 0xbb, 0xf9, 0x21,
  0x31, 0xa2, 0xc6, 0x38, 0xc3, 0xd7, 0xc6, 0xfb, 0xcc, 0x9c, 0xc8, 0xbc,
  0x42, 0xf0, 0x4f, 0x0c, 0xe4, 0x52, 0xcc, 0x3f, 0xd0, 0x0e, 0x0b, 0xc2,
  0x0d, 0x01, 0x3f, 0xb6, 0xe3, 0xf7, 0x39, 0xe5, 0x4a, 0x37, 0xc1, 0x28,
  0x9f, 0x7b, 0xcd, 0x68, 0xcc, 0x06, 0xb8, 0xdf, 0xe2, 0x11, 0x08, 0xc1,
  0x87, 0x22, 0xd5, 0xf5, 0x46, 0xf3, 0xb2, 0xad, 0x4b, 0xb3, 0x23, 0x00,
  0xc8, 0xc9, 0x5f, 0xb2, 0xa1, 0x94, 0x6e, 0x3a, 0xc3, 0x07, 0xe0, 0x88,
  0xdb, 0x5a, 0xed, 0xe9, 0xc3, 0x3a, 0x90, 0xc0, 0x95, 0x12, 0xe2, 0x67,
  0xbf, 0x83, 0x5d, 0xa6, 0x7a, 0x59, 0x61, 0x4b, 0xa6, 0x65, 0x38, 0xf0,
  0xdf, 0x60, 0x57, 0x74, 0x0d, 0xd3, 0x8d, 0x28, 0x60, 0x31, 0x40, 0x51,
  0x26, 0x76, 0x4d, 0xc7, 0xad, 0x6e, 0xfc, 0xc6, 0x11, 0xfa, 0xf5, 0xb1,
  0xd4, 0xfa, 0x23, 0xf9, 0x8e, 0xf0, 0x4c, 0x8f, 0x58, 0x0d, 0x26, 0x08,
  0xe0, 0xf9, 0xb2, 0xba, 0x2f, 0xd6, 0xe8, 0xe0, 0x8e, 0x05, 0x7d, 0xaa,
  0xb3, 0xd3, 0x07, 0xe8, 0xf9, 0x3e, 0xa5, 0x5d, 0xe7, 0x8e, 0xd9, 0xf1,
  0x18, 0x3a, 0x2d, 0x03, 0x25, 0xaa, 0x72, 0xa2, 0x2e, 0x2c, 0x6f, 0xd3,
  0x64, 0x71, 0xfa, 0x4f, 0xa5, 0xa4, 0x8a, 0xf6, 0x15, 0x8f, 0x31, 0xf8,
  0x21, 0x11, 0x51, 0xb4, 0xcf, 0x87, 0xa1, 0xf4, 0xca, 0x8b, 0xc3, 0xab,
  0x93, 0x99, 0x15, 0xb3, 0x7c, 0xf7, 0x25, 0x2e, 0xbc, 0x58, 0xc4, 0x1c,
  0xf3, 0xd8, 0x43, 0x78, 0xc4, 0x26, 0x98, 0x74, 0x51, 0x02, 0x87, 0x11,
  0xd6, 0x7f, 0xb6, 0xe8, 0x37, 0x8e, 0x75, 0x6c, 0x07, 0x08, 0xe6, 0x10,
  0x05, 0x88, 0xdc, 0x06, 0xb3, 0xa9, 0x12, 0x0b, 0x46, 0xd5, 0x4e, 0x2a,
  0x6d, 0xeb, 0x02, 0x34, 0xbe, 0x00, 0xee, 0xf0, 0x8d, 0x61, 0x5b, 0x97,
  0x4b, 0x3d, 0x0f, 0x68, 0x1f, 0xd8, 0x2f, 0x91, 0x24, 0xef, 0xdc, 0x41,
  0x37, 0x39, 0xe9, 0xa7, 0x7a, 0x70, 0x06, 0xf3, 0xc4, 0x00, 0xd2, 0x2e,
  0xce, 0x00, 0x9c, 0xe0, 0x63, 0x84, 0xc5, 0x94, 0x32, 0x0c, 0x8e, 0x06,
  0x86, 0x6a, 0xe2, 0xea, 0xa7, 0x3f, 0x02, 0xc1, 0x99, 0xf3, 0xdf, 0xef,
  0x94, 0x5a, 0x4b, 0x22, 0xca, 0x87, 0x61, 0x23, 0x93, 0x87, 0x5d, 0x84,
  0xc3, 0xbb, 0x1c, 0xcf, 0xbb, 0x1b, 0xd7, 0x5b, 0xbe, 0xbb, 0x63, 0x34,
  0xc6, 0x8d, 0xb4, 0xdf, 0xc3, 0x49, 0x77, 0xc6, 0xf1, 0x1b, 0x8f, 0x86,
  0x7a, 0x2f, 0x9c, 0xfd, 0x3a, 0x9e, 0xee, 0x4b, 0x22, 0x93, 0xcf, 0xad,
  0x37, 0x40, 0x2e, 0x8f, 0xc1, 0x6a, 0x4e, 0x59, 0x8e, 0x19, 0x3f, 0x99,
  0x04, 0x78, 0xfc, 0x60, 0x60, 0x76, 0x72, 0xca, 0x26, 0x4f, 0x83, 0xb2,
  0x6f, 0x3e, 0x75, 0x66, 0xf5, 0xf6, 0xc4, 0x96, 0xbf, 0x69, 0x31, 0x31,
  0xae, 0x27, 0x2d, 0xb2, 0xca, 0x7a, 0xa8, 0x02, 0xd2, 0x55, 0x4a, 0x5a,
  0x81, 0xf1, 0xe7, 0x0b, 0x6e, 0x90, 0x94, 0xba, 0xbb, 0xcf, 0xe9, 0x8f,
  0xdb, 0x2b, 0x09, 0xab, 0x79, 0x56, 0x92, 0x3e, 0xfe, 0x87, 0x22, 0xda,
  0xb1, 0x54, 0x3d, 0xca, 0xff, 0x19, 0xb9, 0xb9, 0xc8, 0x03, 0x2a, 0xff,
  0x92, 0x9a, 0x13, 0xa9, 0x85, 0x02, 0x03, 0xc7, 0x59, 0xcd, 0x2c, 0x62,
  0xa8, 0x0d, 0xba, 0x5f, 0x39, 0xb9, 0xab, 0xbb, 0xb3, 0x02, 0x30, 0x28,
  0x17, 0x72, 0x11, 0xed, 0x09, 0xdc, 0xc2, 0x38, 0x6f, 0x94, 0x8c, 0x36,
  0xed, 0x39, 0xaa, 0x55, 0xa5, 0x0b, 0x37, 0x9b, 0xba, 0x9a, 0xd7, 0xe4,
  0xae, 0x02, 0xf6, 0x1f, 0xec, 0x17, 0xf3, 0xba, 0x6f, 0x38, 0x64, 0x42,
  0xbd, 0xc9, 0x40, 0xb5, 0x17, 0xb0, 0x13, 0x15, 0x5c, 0xee, 0xbd, 0x5b,
  0xec, 0x24, 0xc2, 0x36, 0x46, 0xa0, 0xe2, 0x05, 0xce, 0x40, 0xf3, 0x76,
  0xee, 0xfa, 0x58, 0xa2, 0x18, 0x03, 0xee, 0xfa, 0x52, 0x98, 0x44, 0xe0,
  0x35, 0xe3, 0x8c, 0x22, 0x9e, 0x39, 0x0e, 0x63, 0xc5, 0x08, 0xdd, 0x84,
  0xf0, 0xbc, 0x90, 0xea, 0x4c, 0x6d, 0x43, 0xb0, 0xdc, 0xd8, 0xee, 0x9f,
  0x25, 0x4e, 0xb6, 0xec, 0x88, 0xc8, 0x7b, 0xd6, 0x52, 0x1e, 0xec, 0xe2,
  0xd5, 0xcc, 0x0e, 0xdb, 0x72, 0x9a, 0x60, 0xd5, 0x81, 0xcf, 0x4c, 0x59,
  0xe7, 0x11, 0x3f, 0xe5, 0xf9, 0xd9, 0xaf, 0x3b, 0xad, 0x39, 0xcc, 0x35,
  0x02, 0xef, 0x87, 0x1e, 0xb1, 0xd7, 0x68, 0xb0, 0x6c, 0xc2, 0x68, 0xc3,
  0x3e, 0x69, 0x1e, 0xd9, 0x5c, 0x7c, 0xeb, 0xe4, 0xec, 0xdc, 0x09, 0xec,
  0x2e, 0x57, 0x91, 0x9c, 0xfd, 0x13, 0x89, 0x53, 0x4f, 0x26, 0xed, 0x09,
  0x7a, 0x01, 0x5c, 0xb5, 0x20, 0x33, 0x5f, 0xd7, 0x41, 0xf6, 0x07, 0x5d,
  0x43, 0x49, 0xbc, 0xb8, 0x9e, 0xbf, 0x19, 0x0e, 0x57, 0xce, 0xff, 0xae,
  0xcc, 0x3a, 0x5e, 0x26, 0x17, 0x9f, 0x2f, 0xa4, 0x75, 0xf9, 0x10, 0xe9,
  0x27, 0xe5, 0x9d, 0x5c, 0xcf, 0xda, 0xcb, 0x13, 0xf7, 0x09, 0x2d, 0x08,
  0x27, 0x60, 0xc5, 0x3a, 0x11, 0xd7, 0xdc, 0xba, 0xaa, 0xdd, 0x45, 0x02,
  0xdd, 0x30, 0x89, 0xe1, 0x3e, 0x47, 0x63, 0x89, 0x89, 0xb5, 0x84, 0xf7,
  0xae, 0xab, 0x46, 0x02, 0x85, 0x2e, 0xae, 0x10, 0xcf, 0xe1, 0xbf, 0x09,
  0xf7, 0x1a, 0x50, 0xd4, 0x8f, 0xbf, 0x8c, 0x4d, 0xe8, 0x84, 0xbc, 0x20,
  0xbf, 0x98, 0x06, 0x4a, 0x1d, 0xc4, 0x66, 0x3c, 0x95, 0x3d, 0x0d, 0x03,
  0xca, 0x75, 0x32, 0x40, 0x10, 0x2e, 0xbb, 0xb3, 0x03, 0x50, 0x22, 0x6c,
  0x28, 0x57, 0x83, 0xc6, 0x81, 0xf6, 0xa9, 0x0e, 0xc2, 0xaf, 0xcd, 0x1f,
  0x17, 0x9b, 0xab, 0x16, 0x3a, 0x07, 0x8b, 0x0d, 0x2b, 0x4f, 0x03, 0x66,
  0xfa, 0x64, 0x5a, 0x98, 0xe3, 0xc9, 0x5d, 0x4e, 0xd8, 0xe5, 0x90, 0x58,
  0x48, 0x67, 0xd9, 0xf9, 0x3f, 0xc5, 0x22, 0x3e, 0x0d, 0x1f, 0x99, 0xa1,
  0xe7, 0xef, 0xd3, 0xdd, 0x3e, 0x41, 0x9a, 0x91, 0x6a, 0x2d, 0x9a, 0x85,
  0xea, 0xb2, 0xb6, 0x0a, 0x4e, 0xb1, 0x35, 0xc0, 0xf5, 0x38, 0x2e, 0xce,
  0x19, 0x1c, 0x9f, 0x93, 0x2b, 0x01, 0x84, 0x60, 0xb1, 0x42, 0xc1, 0x4a,
  0xf7, 0xdb, 0x66, 0x18, 0xd6, 0x5d, 0xbf, 0x11, 0x0f, 0xcb, 0x44, 0x23,
  0x4e, 0x81, 0x0a, 0xa9, 0xe4, 0x3d, 0x2e, 0x2c, 0x5a, 0xcb, 0x08, 0xd9,
  0xa1, 0x1f, 0xd5, 0x5b, 0x3c, 0xed, 0x59, 0xcb, 0x10, 0x57, 0x91, 0x35,
  0x1b, 0x04, 0x9d, 0x92, 0x38, 0xf7, 0xf2, 0xe5, 0xa0, 0xd0, 0xb1, 0xa8,
  0x44, 0x9a, 0xe4, 0xeb, 0xfe, 0x99, 0x1f, 0x49, 0xdc, 0x2f, 0x42, 0x06,
  0xeb, 0x50, 0x11, 0xdf, 0xf9, 0x71, 0xf3, 0x66, 0xe4, 0x31, 0x40, 0x48,
  0x50, 0xe8, 0x58, 0xaf, 0xab, 0x09, 0xfd, 0xec, 0xe9, 0xd2, 0x06, 0x22,
  0x97, 0xc4, 0xb6, 0xef, 0xae, 0x4f, 0xf4, 0x98, 0x63, 0x58, 0x44, 0x14,
  0xc0, 0x3a, 0x3b, 0xd7, 0xff, 0x12, 0x65, 0xf1, 0xff, 0x58, 0xa1, 0x11,
  0xdd, 0xf8, 0xbe, 0x49, 0x0e, 0x51, 0xc8, 0x18, 0xbe, 0x3f, 0x1d, 0x5e,
  0xc1, 0x9f, 0xa6, 0xc0, 0x62, 0x8f, 0x49, 0xb9, 0x44, 0x16, 0xa6, 0x21,
  0xbe, 0x21, 0x47, 0x1f, 0xe4, 0x23, 0x2f, 0x39, 0xe6, 0x2d, 0x0f, 0xa1,
  0x68, 0xd8, 0xc3, 0x9b, 0x5c, 0xe1, 0xd4, 0x29, 0x4c, 0x43, 0x4c, 0xdb,
  0x47, 0xb1, 0x46, 0xae, 0xb1, 0xa4, 0xa1, 0xc8, 0xe4, 0x55, 0x17, 0xfd,
  0xdc, 0x50, 0xfe, 0x07, 0x4c, 0x71, 0xac, 0x9b, 0x16, 0x0a, 0x26, 0x4b,
  0x9e, 0xa5, 0x5a, 0x24, 0xa4, 0xfd, 0xcd, 0x62, 0x8f, 0xab, 0xff, 0x28,
  0x9d, 0xcb, 0x1e, 0x64, 0x8e, 0x8e, 0x36, 0x72, 0x5b, 0x6d, 0x33, 0x2a,
  0x0c, 0x21, 0xd5, 0x1a, 0xf3, 0x03, 0xab, 0xc3, 0xcc, 0x4c, 0x8e, 0x95,
  0x72, 0x44, 0x4e, 0xc5, 0x9f, 0xa2, 0x6d, 0x53, 0xf0, 0xbe, 0x23, 0x53,
  0x5f, 0xfa, 0xdf, 0x60, 0x57, 0x2c, 0xfe, 0x46, 0x66, 0xd5, 0x6d, 0xce,
  0x67, 0xff, 0xc0, 0x02, 0xb5, 0x06, 0x54, 0x56, 0xde, 0x2b, 0xfc, 0xc9,
  0xf7, 0xe9, 0xd7, 0x12, 0xba, 0x09, 0x03, 0x51, 0xdc, 0xfb, 0xff, 0xd0,
  0xa2, 0x15, 0x2f, 0x23, 0xeb, 0x29, 0xfa, 0xdd, 0x4d, 0x52, 0x31, 0x23,
  0x02, 0xa4, 0x3a, 0xd5, 0xd2, 0x1e, 0x2a, 0xff, 0x34, 0xfa, 0xfc, 0xff,
  0xe5, 0xfe, 0xae, 0xcf, 0xe6, 0xfa, 0xcc, 0xf3, 0xdc, 0x3e, 0xc9, 0xf1,
  0xe2, 0xaa, 0xc9, 0x13, 0x6b, 0x4a, 0x9e, 0x3d, 0x3f, 0x56, 0x24, 0xd6,
  0xa3, 0xb8, 0x2c, 0x06, 0xba, 0xe3, 0x3f, 0xea, 0x5e, 0x1c, 0xbe, 0x10,
  0xc2, 0x9d, 0xd3, 0xef, 0xac, 0x5f, 0x15, 0xe5, 0x52, 0xc7, 0x24, 0x7f,
  0x2f, 0xa3, 0xa0, 0x58, 0x4a, 0xa8, 0x24, 0xf2, 0xcf, 0xd7, 0xd2, 0x36,
  0x05, 0x1e, 0x27, 0xe7, 0xc9, 0x1e, 0xaf, 0x60, 0xa0, 0x61, 0xc6, 0xd3,
  0xa5, 0x0e, 0x91, 0xc9, 0x57, 0xd0, 0x52, 0x20, 0x01, 0x5a, 0xe6, 0x09,
  0xea, 0x20, 0x17, 0xcb, 0x50, 0xe5, 0x8f, 0x51, 0x46, 0xc0, 0x72, 0xf2,
  0x09, 0x11, 0x4b, 0xe2, 0x1b, 0x1b, 0x08, 0x26, 0x53, 0x3c, 0x97, 0x21,
  0x5d, 0x5c, 0xe6, 0x69, 0xd2, 0x60, 0x0a, 0xe3, 0xd4, 0x18, 0x50, 0x3c,
  0xc7, 0xae, 0xb3, 0xb1, 0x45, 0x5d, 0x3d, 0x59, 0xf7, 0x3f, 0xab, 0x64,
  0xbe, 0x4d, 0xa9, 0x1c, 0x48, 0xdf, 0x31, 0xdd, 0x56, 0xd3, 0xd9, 0xa1,
  0xc6, 0x00, 0xad, 0xd3, 0x12, 0xa1, 0x52, 0xd7, 0xdd, 0xe8, 0x8b, 0xcc,
  0x49, 0xa1, 0xbc, 0xa6, 0x9b, 0x34, 0x27, 0x3a, 0xb4, 0xbc, 0xf7, 0x1a,
  0xf9, 0xd8, 0xcf, 0xed, 0xef, 0x04, 0xbe, 0x5c, 0x3b, 0x08, 0x2d, 0xa8,
  0x35, 0xe9, 0x9c, 0xac, 0x9c, 0x08, 0x4d, 0x40, 0x06, 0xff, 0xa9, 0x0c,
  0x4c, 0x5b, 0xf2, 0x3e, 0x3d, 0xaf, 0xa6, 0x33, 0xf0, 0xbf, 0xa1, 0x31,
  0x26, 0xb0, 0x0a, 0xac, 0x4e, 0xf5, 0xd7, 0x6e, 0xc6, 0x92, 0x69, 0xb3,
  0x08, 0xb0, 0xb1, 0xc3, 0xba, 0x39, 0x27, 0xd3, 0xff, 0xca, 0x96, 0xd9,
  0x39, 0x3a, 0xb7, 0x4a, 0x0b, 0x62, 0x03, 0x2d, 0xdf, 0xf6, 0xb5, 0x34,
  0x37, 0xfc, 0x36, 0xd5, 0xf0, 0x19, 0xc1, 0x51, 0x3d, 0xa8, 0xea, 0x00,
  0x33, 0x1b, 0x3c, 0x28, 0x15, 0xf6, 0x8d, 0x91, 0x17, 0xe6, 0xb8, 0x3b,
  0x35, 0xf4, 0x03, 0xd5, 0x53, 0xfb, 0x56, 0x27, 0x70, 0xb9, 0xf3, 0xa0,
  0x8f, 0x02, 0xa3, 0xdf, 0x54, 0x0f, 0x51, 0xf5, 0xe8, 0x07, 0xe0, 0x98,
  0x2e, 0x30, 0x54, 0xdd, 0xd4, 0xc5, 0xec, 0x12, 0xa9, 0x03, 0xab, 0xf1,
  0x4d, 0xc3, 0xd8, 0x59, 0x12, 0x32, 0x01, 0xe3, 0x9d, 0xf3, 0xbc, 0xf7,
  0x00, 0x22, 0xff, 0x2e, 0x39, 0xf5, 0x08, 0xe1, 0x96, 0xb9, 0x11, 0x97,
  0x98, 0x4f, 0x1f, 0xd7, 0x66, 0xee, 0x5f, 0xb8, 0x73, 0xd6, 0x9c, 0xf7,
  0x3a, 0xc6, 0x66, 0x7a, 0x4d, 0x17, 0x74, 0xf2, 0xd7, 0x43, 0x31, 0x60,
  0xb0, 0x39, 0x91, 0x60, 0x2a, 0x0e, 0x70, 0xc3, 0x5e, 0xbf, 0x23, 0xd5,
  0x0f, 0xea, 0xa8, 0x3c, 0x94, 0x05, 0x5a, 0x71, 0x1a, 0xc5, 0x89, 0xd8,
  0xf4, 0x3e, 0x8d, 0x5b, 0x9d, 0xf0, 0xbb, 0x53, 0xea, 0x9a, 0xf3, 0xf5,
  0x67, 0x2f, 0xc5, 0xf5, 0x0d, 0x55, 0x30, 0x4c, 0x31, 0xe8, 0x44, 0x91,
  0xe7, 0xdb, 0x2b, 0xbb, 0xa6, 0xd7, 0xea, 0xd1, 0xf5, 0x2c, 0x22, 0x8c,
  0x15, 0x0f, 0x57, 0xaf, 0xbe, 0x8b, 0x2d, 0xf4, 0xab, 0x31, 0x53, 0x95,
  0xf4, 0x02, 0xcc, 0x63, 0x0f, 0x6c, 0x0e, 0x72, 0x54, 0x43, 0x00, 0x42,
  0x59, 0x75, 0x4f, 0xa0, 0x28, 0x9e, 0x00, 0xba, 0x38, 0x7f, 0x72, 0xc0,
  0xbf, 0x33, 0xd2, 0x7a, 0xf7, 0x65, 0x4f, 0x01, 0x69, 0xd3, 0xc5, 0xcb,
  0x0f, 0x94, 0x1c, 0xae, 0x5d, 0xb8, 0x60, 0x4e, 0x07, 0xf9, 0xcc, 0xea,
  0x55, 0x9d, 0x28, 0x61, 0x6e, 0xa3, 0xbd, 0x18, 0xe8, 0x00, 0xeb, 0xf8,
  0xd5, 0x46, 0x18, 0xa8, 0x37, 0xff, 0x9c, 0xd4, 0x2a, 0x53, 0x3f, 0x04,
  0x4d, 0x21, 0xad, 0xb4, 0xee, 0x27, 0x4a, 0x00, 0x28, 0xec, 0x58, 0x1a,
  0x68, 0x22, 0x2d, 0x65, 0xcb, 0xbe, 0xfe, 0xed, 0x22, 0x48, 0xbc, 0x03,
  0xf2, 0xf3, 0xae, 0xe9, 0x3d, 0x24, 0x47, 0xb1, 0xe1, 0x3b, 0x45, 0x56,
  0xe7, 0x8f, 0xac, 0x71, 0x25, 0x5f, 0x0a, 0xc4, 0x1b, 0xb5, 0x44, 0x24,
  0x0f, 0xf0, 0x10, 0x83, 0x85, 0xf7, 0xbe, 0x3c, 0x56, 0x4e, 0x07, 0xe9,
  0xa5, 0xdf, 0x1b, 0x1a, 0xb5, 0x32, 0x69, 0x00, 0xee, 0x68, 0x1f, 0x3f,
  0xb3, 0xb1, 0xff, 0x36, 0x4c, 0x3a, 0x01, 0x4d, 0xe7, 0x31, 0x57, 0xfc,
  0x63, 0xdc, 0xc8, 0xbe, 0xe9, 0x92, 0x3f, 0x3b, 0x08, 0x1b, 0x18, 0x2b,
  0x9a, 0x59, 0xf5, 0xaa, 0xf0, 0xa9, 0xa4, 0xcd, 0xc5, 0x06, 0xa1, 0x2a,
  0xa2, 0x14, 0x4c, 0x5c, 0x20, 0xe8, 0xa5, 0xb9, 0x29, 0x59, 0x4b, 0xcb,
  0x26, 0x73, 0x18, 0x9c, 0x3f, 0xb3, 0xfa, 0x32, 0x2b, 0xb4, 0x31, 0x2f,
  0xc1, 0x06, 0x4a, 0x41, 0x4a, 0xb6, 0x17, 0xd6, 0xc4, 0x16, 0xef, 0x05,
  0x44, 0xd9, 0xf2, 0xc7, 0x61, 0x01, 0xed, 0x20, 0x32, 0xd4, 0x1a, 0x59,
  0x1c, 0xe3, 0x5e, 0xec, 0xae, 0x20, 0x5e, 0xe5, 0xf7, 0x95, 0xcf, 0xf0,
  0xbb, 0xe8, 0xfe, 0x3f, 0xfa, 0xa5, 0x92, 0xc3, 0x5d, 0xa0, 0x81, 0x51,
  0x71, 0x54, 0xb4, 0x3e, 0xce, 0x95, 0x29, 0xce, 0x06, 0x01, 0xf5, 0x19,
  0x32, 0xc2, 0x0d, 0xdf, 0x18, 0x0c, 0xf6, 0x48, 0x5e, 0x94, 0xa9, 0x68,
  0x43, 0xff, 0xad, 0xb1, 0xb9, 0xa0, 0xa3, 0x9d, 0x3e, 0xc9, 0x34, 0x32,
  0x42, 0x57, 0xdb, 0x58, 0x01, 0xb3, 0x51, 0xa0, 0xa6, 0xb3, 0x3e, 0xdb,
  0x01, 0x2e, 0x2f, 0x28, 0x2c, 0xd3, 0x42, 0xe9, 0xce, 0xf9, 0xc1, 0x0e,
  0xba, 0x52, 0x4d, 0x9a, 0x45, 0xf6, 0xa9, 0xa2, 0xe1, 0xe5, 0x01, 0xf7,
  0x20, 0xaf, 0xa1, 0xf0, 0xe8, 0xf9, 0x12, 0x26, 0x00, 0xfd, 0xa5, 0x13,
  0x2e, 0xdd, 0x28, 0xb5, 0x62, 0x09, 0x18, 0xab, 0x4c, 0xc8, 0xe8, 0x53,
  0x25, 0x1f, 0x43, 0xbd, 0x4f, 0x4c, 0xe7, 0x1e, 0xef, 0x2b, 0x46, 0x0f,
  0x11, 0xe3, 0x07, 0x00, 0xe8, 0x39, 0xdf, 0x4f, 0xdc, 0x33, 0x39, 0xeb,
  0x03, 0xdb, 0x4a, 0x53, 0x0d, 0x52, 0x27, 0x3f, 0x51, 0xca, 0xbf, 0xa2,
  0x24, 0xeb, 0x2a, 0x3b, 0x11, 0x11, 0xbc, 0xcc, 0x05, 0xed, 0xe8, 0xf9,
  0x31, 0xa4, 0xfe, 0x3e, 0x65, 0xb8, 0xfc, 0x02, 0x50, 0x4a, 0x9e, 0xfd,
  0x16, 0x02, 0xf3, 0x36, 0x2c, 0xd2, 0xc9, 0x28, 0x9b, 0xf6, 0xfd, 0xd3,
  0x32, 0x50, 0x01, 0xc3, 0xe7, 0xd0, 0xa5, 0x26, 0xa9, 0x13, 0xdb, 0x42,
  0x35, 0xde, 0x0f, 0xf8, 0x98, 0x08, 0xf5, 0x01, 0x27, 0x9a, 0x22, 0x37,
  0xde, 0xc9, 0xaf, 0xb5, 0x57, 0x5c, 0xb7, 0x57, 0x43, 0x0f, 0xce, 0x0c,
  0xe9, 0x27, 0x4a, 0xf1, 0x65, 0xa7, 0xe4, 0xc4, 0xf9, 0xdc, 0x07, 0xa5,
  0x4d, 0x41, 0x9c, 0x04, 0xde, 0x12, 0x17, 0xd4, 0x7f, 0xbe, 0xa0, 0xe8,
  0xbe, 0x27, 0x49, 0x38, 0xec, 0xa7, 0xd1, 0x4c, 0xdf, 0x41, 0x45, 0x5c,
  0xb8, 0xc0, 0x3a, 0x10, 0x1b, 0xf1, 0xb4, 0x9d, 0x62, 0x0a, 0xfc, 0x15,
  0x10, 0x42, 0xd3, 0x74, 0xdf, 0xc2, 0xc7, 0x0c, 0xb1, 0x9e, 0x50, 0xfd,
  0x4e, 0xf5, 0x59, 0xd6, 0x14, 0x2a, 0xe6, 0xa9, 0xf4, 0x04, 0xe2, 0x20,
  0x12, 0xcc, 0xf9, 0xf5, 0xfb, 0x4b, 0x51, 0x56, 0xbb, 0xa2, 0xe5, 0x28,
  0x0a, 0xdc, 0xbb, 0x5f, 0x02, 0xd1, 0x0b, 0x33, 0x04, 0x45, 0x19, 0x6a,
  0x9a, 0x28, 0xb5, 0x92, 0xf4, 0x88, 0x75, 0x67, 0x2f, 0xc5, 0xbe, 0x2e,
  0x81, 0x4e, 0x3a, 0xdf, 0xc2, 0xbe, 0x2a, 0xd6, 0x2e, 0x78, 0x0c, 0xbb,
  0xcb, 0xa3, 0xbf, 0x19, 0x1a, 0xe7, 0x5f, 0x82, 0xfa, 0x1f, 0xbc, 0xa5,
  0x5e, 0x9e, 0xc2, 0x5e, 0x9a, 0xd3, 0xa3, 0x5c, 0x3a, 0x25, 0xed, 0xae,
  0x9f, 0xfd, 0xa3, 0x01, 0x34, 0x93, 0x24, 0x1a, 0xde, 0x59, 0xb2, 0x5a,
  0x19, 0x60, 0xf3, 0xe1, 0x23, 0x5a, 0xba, 0xec, 0x71, 0x60, 0x13, 0x0c,
  0x41, 0x9b, 0xf1, 0x97, 0x07, 0x64, 0x97, 0x9f, 0x0f, 0x7f, 0x2f, 0xe3,
  0x0a, 0x23, 0x41, 0x6e, 0xb2, 0x62, 0x97, 0xc6, 0x40, 0x27, 0xf8, 0xcb,
  0x12, 0xb4, 0xa8, 0xa6, 0x95, 0x0e, 0x5e, 0x18, 0x71, 0xfa, 0x72, 0xcd,
  0xba, 0x85, 0xa8, 0x83, 0x15, 0x1f, 0x87, 0x8d, 0x46, 0xb9, 0x04, 0xdf,
  0x93, 0x96, 0xa8, 0x8f, 0x22, 0xc6, 0xf0, 0xb2, 0xcb, 0xd2, 0x59, 0xe5,
  0x58, 0xcd, 0xbc, 0x44, 0x22, 0x46, 0x27, 0x1e, 0xc9, 0xfb, 0x71, 0xb7,
  0xcb, 0xd5, 0xac, 0xda, 0xda, 0x63, 0xec, 0x7c, 0x05, 0x48, 0x49, 0x72,
  0x23, 0xa1, 0x22, 0xf1, 0x7d, 0x75, 0x39, 0x55, 0x29, 0x40, 0x4a, 0xed,
  0x7e, 0x27, 0x4c, 0xec, 0x0e, 0x0b, 0xeb, 0x87, 0xb2, 0x4d, 0x59, 0x4c,
  0xf4, 0x56, 0xf3, 0x47, 0xef, 0xb5, 0x18, 0x1e, 0x2a, 0x95, 0x6a, 0x4a,
  0x42, 0x5a, 0x42, 0xed, 0x97, 0x7f, 0x7a, 0x8c, 0xc5, 0xa9, 0xae, 0x76,
  0xc5, 0x51, 0x4f, 0xb4, 0x05, 0x70, 0xee, 0xaf, 0xbc, 0xff, 0x32, 0xe8,
  0xeb, 0x4a, 0x4b, 0xe7, 0xd7, 0xf5, 0x16, 0xe8, 0xe6, 0xc8, 0xc7, 0x71,
  0x84, 0x56, 0xd1, 0x66, 0x9a, 0xa4, 0xe1, 0xef, 0x25, 0xf8, 0xff, 0xdd,
  0xc3, 0xbd, 0x23, 0x35, 0x85, 0x05, 0x54, 0x58, 0x5d, 0x55, 0xb3, 0x55,
  0xb6, 0xb9, 0x1a, 0x56, 0x05, 0x04, 0xb0, 0xa7, 0x33, 0x8f, 0xcd, 0x09,
  0x69, 0xa5, 0x3c, 0x27, 0x40, 0xb1, 0x2f, 0xa7, 0xa3, 0xce, 0x8c, 0x0e,
  0x43, 0xa7, 0xe7, 0xa0, 0xe4, 0x9d, 0x4b, 0x9a, 0x71, 0x68, 0xb0, 0xad,
  0x1e, 0x28, 0xaa, 0x1f, 0xc6, 0xea, 0xc3, 0xeb, 0xb1, 0xff, 0xf5, 0x60,
  0x11, 0x37, 0x21, 0x9f, 0xf6, 0x58, 0x1e, 0xcd, 0xdc, 0xac, 0x0e, 0xae,
  0x8a, 0xbf, 0x5f, 0xc4, 0x23, 0x2f, 0x2a, 0x31, 0x72, 0xd2, 0xea, 0x08,
  0xa7, 0xc2, 0x04, 0x73, 0x19, 0x42, 0xb0, 0xce, 0x01, 0x58, 0x60, 0xc7,
  0xf7, 0x9b, 0x40, 0x5e, 0x19, 0xaa, 0x6c, 0xf5, 0x1b, 0xb3, 0x52, 0x76,
  0xbd, 0xff, 0x27, 0x15, 0x72, 0x20, 0x74, 0xa8, 0xab, 0x6e, 0xf9, 0x3f,
  0x2a, 0xb6, 0x70, 0x16, 0x6f, 0x38, 0x6e, 0xb4, 0x0f, 0x9f, 0xb8, 0xfe,
  0x19, 0xc2, 0xf0, 0xe5, 0xa8, 0x69, 0x01, 0x6d, 0x0f, 0x90, 0xa4, 0x5e,
  0x25, 0xb6, 0xd1, 0x1a, 0x75, 0x47, 0xc6, 0xd0, 0xbd, 0xfb, 0x01, 0x3a,
  0xcd, 0xd2, 0x44, 0xa0, 0x97, 0x50, 0x01, 0x11, 0xb9, 0xbf, 0xaa, 0x9d,
  0x94, 0xf8, 0xf8, 0x71, 0x71, 0x43, 0x65, 0xd6, 0x6f, 0x6c, 0x17, 0xab,
  0x4a, 0x9c, 0x77, 0xd7, 0x5b, 0x72, 0x1a, 0x90, 0x17, 0x5a, 0x5f, 0x18,
  0x19, 0x0a, 0x99, 0x76, 0xdf, 0x20, 0x41, 0xa9, 0x9b, 0x0e, 0x9c, 0x4b,
  0xe5, 0xb7, 0xd5, 0x44, 0xcc, 0x11, 0x2a, 0x06, 0xaf, 0x0d, 0xd3, 0x00,
  0x91, 0xf5, 0xad, 0xb4, 0x44, 0x0b, 0x1f, 0xd5, 0xcc, 0x95, 0xbb, 0xa6,
  0xfa, 0x09, 0x9f, 0x12, 0x65, 0xd3, 0x31, 0x24, 0x33, 0xe1, 0x07, 0x17,
  0xcc, 0x6f, 0x01, 0xa8, 0xb7, 0x6a, 0xbe, 0x42, 0xc7, 0x71, 0x9b, 0x93,
  0xdc, 0x34, 0x11, 0x06, 0xd1, 0x76, 0xf5, 0x81, 0x1f, 0xec, 0xa7, 0x22,
  0x91, 0x9e, 0xe2, 0xdd, 0x7f, 0x9d, 0xac, 0x40, 0xbc, 0x6b, 0x93, 0xc5,
  0xf4, 0x9c, 0xbf, 0xae, 0xef, 0xf7, 0xe9, 0x5a, 0x45, 0xf5, 0xe0, 0xaf,
