const char modelo[] = {
  0x1c, 0x00, 0x00, 0x00, 0x54, 0x46, 0x4c, 0x33, 0x14, 0x00, 0x20, 0x00,
  0x1c, 0x00, 0x18, 0x00, 0x14, 0x00, 0x10, 0x00, 0x0c, 0x00, 0x00, 0x00,
  0x08, 0x00, 0x04, 0x00, 0x14, 0x00, 0x00, 0x00, 0x1c, 0x00, 0x00, 0x00,
  0x8c, 0x00, 0x00, 0x00, 0x0c, 0x01, 0x00, 0x00, 0x44, 0x44, 0x00, 0x00,
  0x54, 0x44, 0x00, 0x00, 0xec, 0x50, 0x00, 0x00, 0x03, 0x00, 0x00, 0x00,
  0x01, 0x00, 0x00, 0x00, 0x04, 0x00, 0x00, 0x00, 0x6a, 0xbb, 0xff, 0xff,
  0x0c, 0x00, 0x00, 0x00, 0x1c, 0x00, 0x00, 0x00, 0x3c, 0x00, 0x00, 0x00,
  0x0f, 0x00, 0x00, 0x00, 0x73, 0x65, 0x72, 0x76, 0x69, 0x6e, 0x67, 0x5f,
  0x64, 0x65, 0x66, 0x61, 0x75, 0x6c, 0x74, 0x00, 0x01, 0x00, 0x00, 0x00,
  0x04, 0x00, 0x00, 0x00, 0x68, 0xff, 0xff, 0xff, 0x09, 0x00, 0x00, 0x00,
  0x04, 0x00, 0x00, 0x00, 0x08, 0x00, 0x00, 0x00, 0x6f, 0x75, 0x74, 0x70,
  0x75, 0x74, 0x5f, 0x30, 0x00, 0x00, 0x00, 0x00, 0x01, 0x00, 0x00, 0x00,
  0x04, 0x00, 0x00, 0x00, 0x76, 0xbb, 0xff, 0xff, 0x04, 0x00, 0x00, 0x00,
  0x0c, 0x00, 0x00, 0x00, 0x6b, 0x65, 0x72, 0x61, 0x73, 0x5f, 0x74, 0x65,
  0x6e, 0x73, 0x6f, 0x72, 0x00, 0x00, 0x00, 0x00, 0x03, 0x00, 0x00, 0x00,
  0x5c, 0x00, 0x00, 0x00, 0x2c, 0x00, 0x00, 0x00, 0x04, 0x00, 0x00, 0x00,
  0xb8, 0xff, 0xff, 0xff, 0x0d, 0x00, 0x00, 0x00, 0x04, 0x00, 0x00, 0x00,
  0x13, 0x00, 0x00, 0x00, 0x43, 0x4f, 0x4e, 0x56, 0x45, 0x52, 0x53, 0x49,
  0x4f, 0x4e, 0x5f, 0x4d, 0x45, 0x54, 0x41, 0x44, 0x41, 0x54, 0x41, 0x00,
  0xdc, 0xff, 0xff, 0xff, 0x0c, 0x00, 0x00, 0x00, 0x04, 0x00, 0x00, 0x00,
  0x13, 0x00, 0x00, 0x00, 0x6d, 0x69, 0x6e, 0x5f, 0x72, 0x75, 0x6e, 0x74,
  0x69, 0x6d, 0x65, 0x5f, 0x76, 0x65, 0x72, 0x73, 0x69, 0x6f, 0x6e, 0x00,
  0x08, 0x00, 0x0c, 0x00, 0x08, 0x00, 0x04, 0x00, 0x08, 0x00, 0x00, 0x00,
  0x0b, 0x00, 0x00, 0x00, 0x04, 0x00, 0x00, 0x00, 0x13, 0x00, 0x00, 0x00,
  0x6d, 0x69, 0x6e, 0x5f, 0x72, 0x75, 0x6e, 0x74, 0x69, 0x6d, 0x65, 0x5f,
  0x76, 0x65, 0x72, 0x73, 0x69, 0x6f, 0x6e, 0x00, 0x0e, 0x00, 0x00, 0x00,
  0x34, 0x43, 0x00, 0x00, 0x2c, 0x43, 0x00, 0x00, 0x0c, 0x43, 0x00, 0x00,
  0xfc, 0x41, 0x00, 0x00, 0xec, 0x40, 0x00, 0x00, 0xdc, 0x00, 0x00, 0x00,
  0xd4, 0x00, 0x00, 0x00, 0xcc, 0x00, 0x00, 0x00, 0xc4, 0x00, 0x00, 0x00,
  0xbc, 0x00, 0x00, 0x00, 0xb4, 0x00, 0x00, 0x00, 0x94, 0x00, 0x00, 0x00,
  0x74, 0x00, 0x00, 0x00, 0x04, 0x00, 0x00, 0x00, 0x52, 0xbc, 0xff, 0xff,
  0x04, 0x00, 0x00, 0x00, 0x60, 0x00, 0x00, 0x00, 0x0c, 0x00, 0x00, 0x00,
  0x08, 0x00, 0x0e, 0x00, 0x08, 0x00, 0x04, 0x00, 0x08, 0x00, 0x00, 0x00,
  0x10, 0x00, 0x00, 0x00, 0x28, 0x00, 0x00, 0x00, 0x00, 0x00, 0x06, 0x00,
  0x08, 0x00, 0x04, 0x00, 0x06, 0x00, 0x00, 0x00, 0x04, 0x00, 0x00, 0x00,
  0x01, 0x00, 0x00, 0x00, 0xeb, 0x03, 0x00, 0x00, 0x0c, 0x00, 0x18, 0x00,
  0x14, 0x00, 0x10, 0x00, 0x0c, 0x00, 0x04, 0x00, 0x0c, 0x00, 0x00, 0x00,
  0xaf, 0x8f, 0x0e, 0x93, 0x06, 0x2c, 0x0f, 0xb5, 0x02, 0x00, 0x00, 0x00,
  0x02, 0x00, 0x00, 0x00, 0x04, 0x00, 0x00, 0x00, 0x06, 0x00, 0x00, 0x00,
  0x32, 0x2e, 0x31, 0x39, 0x2e, 0x30, 0x00, 0x00, 0xbe, 0xbc, 0xff, 0xff,
  0x04, 0x00, 0x00, 0x00, 0x10, 0x00, 0x00, 0x00, 0x00, 0x00, 0x00, 0x00,
  0x00, 0x00, 0x00, 0x00, 0x00, 0x00, 0x00, 0x00, 0x00, 0x00, 0x00, 0x00,
  0xda, 0xbc, 0xff, 0xff, 0x04, 0x00, 0x00, 0x00, 0x10, 0x00, 0x00, 0x00,
  0x31, 0x2e, 0x31, 0x34, 0x2e, 0x30, 0x00, 0x00, 0x00, 0x00, 0x00, 0x00,
  0x00, 0x00, 0x00, 0x00, 0x2c, 0xb1, 0xff, 0xff, 0x30, 0xb1, 0xff, 0xff,
  0x34, 0xb1, 0xff, 0xff, 0x38, 0xb1, 0xff, 0xff, 0x3c, 0xb1, 0xff, 0xff,
  0x0a, 0xbd, 0xff, 0xff, 0x04, 0x00, 0x00, 0x00, 0x00, 0x40, 0x00, 0x00,
  0xcc, 0x65, 0x0b, 0xfb, 0x8b, 0x5b, 0xe6, 0x0a, 0xd8, 0xb2, 0xf0, 0x9c,
  0xe7, 0x4f, 0x68, 0xb2, 0xd5, 0xa3, 0x94, 0x96, 0x55, 0x3e, 0xbe, 0xbc,
  0x1e, 0x3e, 0xae, 0x69, 0x64, 0xcc, 0xd2, 0x05, 0x1b, 0xdb, 0xee, 0xe5,
  0x4d, 0x54, 0x5f, 0x65, 0xb8, 0x6a, 0x48, 0xc7, 0xee, 0x1c, 0x9b, 0x8a,
  0x2d, 0x1a, 0xff, 0x0c, 0x49, 0xaf, 0xb1, 0x10, 0xad, 0xe4, 0xfa, 0x22,
  0xa1, 0x23, 0x05, 0x3e, 0xa4, 0x61, 0x81, 0x87, 0x38, 0x1d, 0xfa, 0xc2,
  0xc1, 0x1d, 0x2b, 0x4f, 0x25, 0x40, 0xc5, 0x27, 0x55, 0x40, 0x0f, 0x91,
  0xf5, 0x55, 0x4d, 0xe6, 0x8f, 0x08, 0x40, 0x11, 0x21, 0xbb, 0x43, 0xce,
  0xa3, 0xa1, 0x49, 0xc8, 0xa1, 0xd0, 0x01, 0xa8, 0xa2, 0x15, 0xf9, 0x55,
  0x31, 0x24, 0x08, 0x53, 0x40, 0xa5, 0x1c, 0xec, 0xe1, 0x45, 0xeb, 0x23,
  0x31, 0x55, 0x0e, 0x11, 0xd4, 0x29, 0x48, 0xf3, 0x1a, 0x22, 0xfe, 0xd8,
  0x0a, 0xcd, 0xf6, 0xe5, 0x90, 0xfa, 0x66, 0x68, 0x65, 0x2a, 0x0f, 0x0a,
  0xeb, 0x37, 0x53, 0xd8, 0x21, 0x8c, 0x55, 0x2c, 0xb8, 0x18, 0xad, 0x46,
  0xf3, 0x93, 0x54, 0xfa, 0x1e, 0x04, 0xd6, 0xab, 0xc9, 0xf5, 0x3e, 0x13,
  0x07, 0xca, 0xe7, 0xe8, 0x28, 0x67, 0x3b, 0xad, 0x44, 0x9e, 0x2b, 0x38,
  0x1e, 0xf1, 0x8b, 0xbd, 0x0b, 0x1d, 0xa0, 0xdd, 0x62, 0xd6, 0x47, 0xca,
  0x11, 0xa4, 0x8e, 0x1e, 0xf4, 0x1d, 0x2c, 0x24, 0x90, 0xee, 0xd7, 0x20,
  0x06, 0xb2, 0xe4, 0x2a, 0xc5, 0x0d, 0x22, 0xfd, 0x10, 0x0e, 0x8e, 0xab,
  0x96, 0x11, 0xeb, 0x36, 0x0e, 0x05, 0xb4, 0x3f, 0x65, 0x28, 0xfb, 0xa4,
  0x8c, 0x53, 0xfe, 0x0b, 0x35, 0x54, 0x3f, 0xe8, 0x18, 0x3c, 0x66, 0x2c,
  0xd9, 0x86, 0x63, 0xe1, 0x0e, 0xac, 0x9c, 0x24, 0xcf, 0x52, 0xf9, 0x6a,
  0xe4, 0xa5, 0xa4, 0x31, 0x4d, 0xcf, 0x5c, 0xd3, 0xb9, 0xca, 0xcb, 0xf7,
  0xc0, 0xe5, 0xbc, 0xdf, 0x3a, 0xd4, 0x18, 0x9a, 0xb9, 0x17, 0xdc, 0x3a,
  0x01, 0xf7, 0x2a, 0x6a, 0x48, 0x02, 0xb3, 0x32, 0x2b, 0x62, 0x2c, 0xfe,
  0xdf, 0xfd, 0x91, 0xda, 0x3a, 0xd5, 0xda, 0x1d, 0x57, 0xa8, 0xfb, 0xe3,
  0x25, 0xff, 0x2b, 0x18, 0x4a, 0x46, 0x19, 0xce, 0xa8, 0x4a, 0x77, 0x2a,
  0x9f, 0x46, 0x2c, 0xa9, 0x07, 0xea, 0x37, 0x5b, 0x4a, 0xc6, 0xdb, 0x61,
  0x9f, 0xa8, 0xa3, 0x0e, 0x53, 0x28, 0xdb, 0xc8, 0xa5, 0xbb, 0x61, 0x03,
  0x01, 0x61, 0x51, 0x12, 0xe4, 0x1f, 0x1c, 0x51, 0x04, 0x27, 0xd3, 0x16,
  0x6d, 0xf9, 0xb8, 0xcb, 0xf2, 0xcc, 0xce, 0xb4, 0x58, 0x65, 0x12, 0xc2,
  0x46, 0xdf, 0xda, 0x53, 0x16, 0x3e, 0x4f, 0x11, 0x2d, 0x04, 0xe7, 0x31,
  0xd7, 0xeb, 0xab, 0xb3, 0xd8, 0x68, 0x9e, 0xb3, 0xc0, 0x4d, 0xeb, 0x21,
  0x2d, 0xb6, 0x97, 0x29, 0xc3, 0x0c, 0xde, 0xe4, 0xe8, 0x56, 0xf1, 0xe8,
  0xc1, 0x5e, 0xb2, 0xb4, 0xcb, 0xed, 0x94, 0x03, 0x0e, 0x2d, 0x4e, 0xa3,
  0xa2, 0xa1, 0xf7, 0x59, 0x58, 0x3c, 0x39, 0x39, 0x04, 0x0e, 0xbd, 0x35,
  0x1c, 0x2b, 0x4f, 0x6c, 0xfe, 0x4e, 0xd3, 0x36, 0x64, 0x29, 0x2d, 0x59,
  0xb6, 0xab, 0x61, 0x44, 0xdc, 0x1a, 0xc7, 0x7f, 0x4d, 0xa5, 0xa5, 0x66,
  0x7c, 0xed, 0x24, 0x78, 0x0e, 0x0e, 0x30, 0x9b, 0xf6, 0x28, 0x1c, 0x44,
  0x9a, 0x52, 0xcd, 0xb9, 0x32, 0x62, 0x54, 0xb5, 0x44, 0xb7, 0xcb, 0xbe,
  0x45, 0x55, 0x28, 0xad, 0xca, 0x34, 0x94, 0x96, 0xb6, 0xad, 0xa3, 0x63,
  0xb0, 0x3b, 0x29, 0x4c, 0xdf, 0x51, 0x13, 0xe6, 0x2b, 0xf3, 0xfb, 0x45,
  0x9a, 0x19, 0x8a, 0x2e, 0x3e, 0x25, 0xff, 0x97, 0x14, 0x8f, 0x53, 0x21,
  0x15, 0xea, 0x9c, 0xf2, 0x13, 0x08, 0x3e, 0xb5, 0x39, 0x05, 0xa2, 0x79,
  0xc5, 0x79, 0x48, 0x61, 0xca, 0x2a, 0x18, 0xd9, 0x01, 0x94, 0x76, 0xe6,
  0xeb, 0x00, 0x2d, 0x57, 0x25, 0x94, 0x89, 0xf2, 0x1f, 0xef, 0xdd, 0x8f,
  0xc7, 0xe8, 0x68, 0xac, 0x09, 0x62, 0x0d, 0x6f, 0x02, 0xfb, 0x14, 0xd6,
  0x92, 0x07, 0x61, 0xb0, 0x24, 0x67, 0xc4, 0x16, 0x1b, 0xde, 0x31, 0x4f,
  0x1e, 0x38, 0xdf, 0x1f, 0xe1, 0x0e, 0x31, 0x46, 0x23, 0x60, 0xcb, 0x8d,
  0x41, 0xd6, 0xac, 0x5e, 0x30, 0xb2, 0x44, 0x94, 0x17, 0x67, 0x25, 0x70,
  0x25, 0xc0, 0x4f, 0xfb, 0x2e, 0xa0, 0x48, 0x3f, 0xb8, 0x1f, 0x4a, 0x63,
  0x9e, 0xb7, 0xa1, 0x4d, 0x1c, 0xa6, 0x8c, 0x01, 0x5d, 0x2c, 0x20, 0xf5,
  0xe4, 0x9b, 0x1c, 0xba, 0x4e, 0x53, 0xa1, 0x86, 0x88, 0xd7, 0x20, 0x38,
  0x54, 0x53, 0x63, 0xb0, 0xce, 0x1f, 0xb0, 0xed, 0x68, 0x4a, 0xda, 0xce,
  0x45, 0xac, 0x71, 0x4d, 0x9a, 0xd3, 0xac, 0x57, 0x66, 0x0d, 0xe9, 0x92,
  0x07, 0xd7, 0x2b, 0xa7, 0xaf, 0x91, 0xe7, 0xbd, 0x86, 0x15, 0x24, 0xab,
  0xe0, 0xa5, 0x32, 0x2d, 0x5b, 0x86, 0xd6, 0x3d, 0xd8, 0xe2, 0x71, 0xbf,
  0x39, 0x30, 0xcb, 0x02, 0x3d, 0xe7, 0x9b, 0xaa, 0xb8, 0xcc, 0xab, 0x0f,
  0x7f, 0x43, 0x09, 0x17, 0x28, 0x65, 0x1d, 0xc7, 0x99, 0xe7, 0xa7, 0xbb,
  0x1c, 0x6b, 0x55, 0x55, 0x59, 0xd3, 0x41, 0x61, 0x5b, 0x1a, 0x0b, 0x0d,
  0x62, 0xd3, 0x1a, 0xc4, 0xde, 0x36, 0x0a, 0x35, 0x70, 0x14, 0x4e, 0x05,
  0xd8, 0xc0, 0xcb, 0xed, 0xd6, 0x61, 0x45, 0x56, 0xad, 0x56, 0x3d, 0xc8,
  0xb1, 0xca, 0xda, 0xcd, 0xe1, 0xfd, 0x2b, 0x17, 0xd6, 0x22, 0x44, 0xbf,
  0xe6, 0x05, 0x14, 0xe2, 0x55, 0x12, 0x30, 0xc3, 0x00, 0x5b, 0xe8, 0x1b,
  0xc0, 0xce, 0xc9, 0x70, 0x4e, 0x45, 0xc1, 0x05, 0x44, 0x5a, 0xea, 0x49,
  0x0e, 0xb5, 0xad, 0x42, 0x57, 0x64, 0x35, 0x63, 0x45, 0xc8, 0xa4, 0x42,
  0xef, 0x3a, 0xc2, 0x5d, 0xf2, 0x20, 0x1d, 0xfe, 0xe6, 0x48, 0x27, 0xb9,
  0x10, 0x8f, 0x98, 0x47, 0xef, 0xf4, 0xcc, 0xec, 0xb8, 0xb0, 0x08, 0x35,
  0xf6, 0xdd, 0x5b, 0xa1, 0x15, 0xd7, 0x19, 0x5d, 0xe9, 0xd5, 0xa5, 0xa7,
  0xff, 0x4b, 0xb9, 0xd8, 0x07, 0xb6, 0xb5, 0xc7, 0xf6, 0xce, 0xc3, 0xd1,
  0x35, 0xa5, 0xfc, 0x42, 0x31, 0x20, 0xa5, 0xf0, 0xa6, 0x4d, 0xff, 0xe5,
  0x3d, 0x4d, 0x47, 0x45, 0x0b, 0x67, 0xba, 0xaf, 0xb1, 0xb8, 0xf0, 0xde,
  0xed, 0x47, 0xe3, 0xc6, 0x24, 0x38, 0xfe, 0xa8, 0xc8, 0x5f, 0xe9, 0xc5,
  0x00, 0xd1, 0x5f, 0xa0, 0xd0, 0xd5, 0xe0, 0x0c, 0xf9, 0x22, 0x25, 0xc7,
  0x5b, 0xbd, 0x1e, 0xaa, 0xaf, 0x1d, 0xf5, 0x2d, 0x73, 0x52, 0xf8, 0xea,
  0x09, 0x5d, 0x2b, 0x2d, 0x18, 0x0b, 0x38, 0x27, 0x00, 0x5e, 0x53, 0xa3,
  0xb9, 0x47, 0x8c, 0x05, 0x4e, 0xe8, 0xf0, 0xd8, 0x5c, 0x09, 0x06, 0x47,
  0x4e, 0xf8, 0xc4, 0x59, 0xff, 0x3b, 0x25, 0x49, 0xee, 0x15, 0x03, 0xdb,
  0xca, 0xef, 0x2f, 0x1c, 0x3f, 0xb5, 0xce, 0x42, 0xf1, 0xaf, 0x9c, 0x60,
  0x41, 0xb7, 0x22, 0xdd, 0x24, 0x67, 0xd1, 0x15, 0xbd, 0xd8, 0x20, 0x07,
  0xc7, 0xa9, 0x17, 0x16, 0x59, 0xdc, 0xe5, 0xab, 0xb6, 0xe3, 0x2c, 0x9b,
  0x5b, 0xd0, 0x54, 0xad, 0x4a, 0xd0, 0x0b, 0x04, 0xe8, 0x35, 0x3e, 0x2b,
  0x22, 0xfa, 0xb1, 0x77, 0x54, 0xf7, 0x27, 0x6b, 0xca, 0xae, 0x5d, 0xed,
  0xf8, 0x35, 0xe9, 0x73, 0x4b, 0xb8, 0xc2, 0x6a, 0x70, 0x39, 0xb4, 0x0b,
  0x33, 0xb8, 0x34, 0x0d, 0xa6, 0xfd, 0x42, 0xb8, 0xc4, 0xfd, 0xf8, 0x09,
  0x7f, 0x76, 0x65, 0x17, 0x39, 0x49, 0xaf, 0x01, 0x59, 0xf8, 0xba, 0x03,
  0xe3, 0x46, 0xd0, 0x75, 0x76, 0xbd, 0x6b, 0x99, 0xad, 0xbe, 0xe7, 0x41,
  0x31, 0xd4, 0x12, 0x45, 0xf4, 0x61, 0x5e, 0x9b, 0xb6, 0x9b, 0xdf, 0x51,
  0x34, 0x62, 0x19, 0xf5, 0xdd, 0x1f, 0x69, 0x6b, 0xc8, 0x9e, 0x5c, 0xe1,
  0xd3, 0xe8, 0x05, 0xa0, 0x7b, 0xce, 0x06, 0x60, 0x64, 0xa4, 0x09, 0x25,
  0x9b, 0x18, 0x53, 0x42, 0x3c, 0x8f, 0xc2, 0x71, 0xa9, 0xd3, 0x40, 0x43,
  0xdd, 0x4e, 0xb6, 0xba, 0x01, 0x6c, 0x3b, 0xa9, 0x84, 0x2a, 0x24, 0xee,
  0x5a, 0xcd, 0xb7, 0xbc, 0xf3, 0x12, 0xa7, 0xe2, 0x36, 0xdd, 0x2f, 0xda,
  0xef, 0xa7, 0xc6, 0x02, 0xd1, 0x9c, 0xdb, 0xa0, 0x30, 0xb7, 0xfe, 0x53,
  0x3e, 0x76, 0x93, 0x68, 0x86, 0x10, 0xfc, 0x68, 0xa6, 0x82, 0x67, 0x1d,
  0x8d, 0xc9, 0x08, 0x29, 0x37, 0xba, 0xea, 0xe2, 0xe6, 0x97, 0x00, 0xa2,
  0xd4, 0xdd, 0x62, 0x64, 0x66, 0xaa, 0xf2, 0xe3, 0x34, 0xcb, 0x47, 0x36,
  0x04, 0xf1, 0x00, 0x92, 0xa9, 0xf0, 0x32, 0xc5, 0xcf, 0xf2, 0x34, 0x8f,
  0x2f, 0x01, 0x1c, 0x72, 0x3d, 0x42, 0xb8, 0x13, 0x3a, 0x5d, 0x11, 0x5e,
  0x52, 0xce, 0xe1, 0xd0, 0x47, 0x67, 0xfc, 0x1d, 0x79, 0xf1, 0x7e, 0x53,
  0x37, 0x76, 0xeb, 0x48, 0xbb, 0x13, 0x1c, 0xde, 0xf2, 0xb1, 0x64, 0x31,
  0x0a, 0x4b, 0xb5, 0x60, 0xef, 0x88, 0x2f, 0xc1, 0xc8, 0x59, 0x2a, 0x05,
  0xdc, 0x32, 0x99, 0x16, 0x1c, 0xa1, 0x23, 0x97, 0x47, 0xd9, 0x8f, 0x7f,
  0xc3, 0xb9, 0xdf, 0x23, 0x39, 0x2a, 0xf3, 0x18, 0xfb, 0x42, 0xfc, 0xc3,
  0x34, 0x0a, 0x2d, 0x25, 0xba, 0x1d, 0x49, 0x5d, 0xc9, 0x64, 0xc0, 0x04,
  0xab, 0x56, 0xd6, 0xa1, 0x59, 0xb7, 0x5a, 0x61, 0xfe, 0x61, 0x0b, 0x0b,
  0x99, 0x52, 0x5f, 0x2e, 0x6c, 0x9f, 0x05, 0xdd, 0x3b, 0x2d, 0x29, 0xb1,
  0x10, 0x27, 0xea, 0xf4, 0xf0, 0xdb, 0xfc, 0x05, 0x3a, 0x35, 0x9e, 0x37,
  0xaf, 0xdb, 0x18, 0x2e, 0x95, 0x3c, 0x08, 0x06, 0x58, 0x9f, 0x24, 0xfa,
  0x9a, 0x03, 0x30, 0x0d, 0x31, 0xb4, 0xd1, 0x60, 0xba, 0x19, 0x3c, 0xc9,
  0x32, 0x67, 0x97, 0xc5, 0x31, 0xf9, 0x0e, 0xfd, 0x2c, 0xcd, 0x6c, 0x69,
  0xab, 0x9f, 0xed, 0x46, 0x20, 0x31, 0xb9, 0x92, 0xf9, 0x40, 0x16, 0xb5,
  0x59, 0xf6, 0xd5, 0x5c, 0x0c, 0xe1, 0x1b, 0x53, 0xf3, 0xfc, 0x61, 0xcf,
  0xbf, 0x70, 0x5e, 0x49, 0xe1, 0xbf, 0xa8, 0xd6, 0xfb, 0xd2, 0x2c, 0xf8,
  0xc6, 0x66, 0x3e, 0x57, 0x53, 0xb8, 0x42, 0x31, 0xb0, 0xae, 0x5b, 0x5f,
  0xc6, 0xdd, 0xc3, 0x49, 0xbe, 0xd9, 0x43, 0xf1, 0xb3, 0xd4, 0xfd, 0xb7,
  0x4e, 0x44, 0xbb, 0xbe, 0xb9, 0xee, 0x02, 0xc7, 0x10, 0x58, 0x2d, 0x34,
  0x0b, 0x59, 0x41, 0x2b, 0xf2, 0x3d, 0x18, 0x65, 0x05, 0x13, 0xcd, 0x70,
  0x51, 0xe4, 0xb2, 0x77, 0x47, 0xab, 0x70, 0x2a, 0xbd, 0xd6, 0x66, 0x1f,
  0x18, 0x33, 0xe5, 0x75, 0x26, 0x97, 0x28, 0x0e, 0x37, 0xbd, 0x81, 0xa0,
  0xb3, 0x1b, 0xea, 0xf8, 0xf8, 0x09, 0xe2, 0x59, 0x42, 0x51, 0x13, 0x2f,
  0xfe, 0x43, 0x57, 0xe9, 0xc0, 0x3b, 0xa5, 0x11, 0xcc, 0xc9, 0xe0, 0x0a,
  0x18, 0x5f, 0x55, 0x67, 0xd9, 0xf6, 0x34, 0x06, 0x37, 0xba, 0x02, 0x4b,
  0xa0, 0x3e, 0x48, 0x93, 0x26, 0xca, 0xf6, 0x28, 0xf8, 0x9e, 0x40, 0xdc,
  0x56, 0x12, 0x0b, 0x11, 0x27, 0x01, 0x9a, 0x5d, 0x8c, 0x48, 0x55, 0xfb,
  0xc5, 0x0d, 0x00, 0x60, 0x20, 0x32, 0x35, 0x3a, 0xd9, 0xf8, 0xc3, 0x73,
  0x53, 0x9c, 0xed, 0x24, 0xb4, 0x15, 0xbf, 0x9a, 0x98, 0x2e, 0xfd, 0xc6,
  0xfa, 0xa6, 0xbe, 0xc3, 0xa2, 0xef, 0xfb, 0x18, 0xd7, 0xd2, 0x26, 0x30,
  0x65, 0x29, 0xef, 0xcc, 0x36, 0x09, 0x63, 0x0b, 0xf6, 0xfa, 0xd4, 0xa7,
  0x03, 0xf4, 0xab, 0x54, 0x30, 0xdc, 0x0a, 0x15, 0x48, 0xdf, 0x3f, 0x33,
  0x59, 0x96, 0x45, 0x93, 0xb6, 0xd1, 0x07, 0x0d, 0x3f, 0x18, 0x8f, 0x22,
  0x01, 0xaa, 0x92, 0x4c, 0x99, 0xeb, 0xb9, 0xf9, 0x97, 0xf0, 0xa7, 0xeb,
  0xf4, 0x72, 0x13, 0x42, 0xcb, 0xcd, 0x84, 0x22, 0xa9, 0xd8, 0x2d, 0x6e,
  0x72, 0x49, 0x8f, 0x72, 0xb9, 0xf8, 0x16, 0x59, 0x62, 0x9a, 0xf9, 0x95,
  0xf9, 0xd5, 0xae, 0x30, 0x86, 0x0e, 0xed, 0x5a, 0x81, 0x90, 0xd0, 0x07,
  0x2b, 0xcd, 0xfa, 0x44, 0x00, 0xe0, 0x6f, 0xba, 0x62, 0x37, 0xd1, 0xad,
  0xa7, 0x06, 0x2e, 0x21, 0x4f, 0x1f, 0xfd, 0x50, 0xbd, 0x28, 0x92, 0x85,
  0x41, 0x75, 0xcc, 0x20, 0x28, 0xdd, 0x4d, 0x8b, 0x33, 0x66, 0xa4, 0xa2,
  0x68, 0x23, 0xcf, 0xba, 0x10, 0x1f, 0x13, 0x6b, 0xbc, 0xa2, 0x46, 0x9f,
  0xf5, 0xa4, 0xd6, 0x40, 0xb7, 0xb0, 0xf5, 0xbf, 0x9f, 0xb2, 0x15, 0x04,
  0x12, 0xf8, 0x95, 0xe3, 0x09, 0xad, 0x4e, 0x99, 0x17, 0x50, 0x45, 0x0d,
  0xdf, 0xe0, 0x35, 0xdc, 0x8d, 0xc6, 0x44, 0x6a, 0x53, 0x97, 0xac, 0x0f,
  0xf9, 0xd1, 0x3d, 0x71, 0xe5, 0x87, 0x83, 0x24, 0xed, 0x63, 0x4a, 0xd7,
  0x67, 0xa1, 0x15, 0x1e, 0xea, 0x39, 0xa5, 0xc1, 0xc9, 0x96, 0xc9, 0xf7,
  0x51, 0x58, 0x2d, 0x44, 0x84, 0xb2, 0xd8, 0x11, 0xa7, 0xd2, 0x34, 0x9f,
  0x75, 0xf9, 0x0d, 0x43, 0x6f, 0x03, 0x5e, 0x68, 0xf4, 0x8d, 0xbe, 0x8c,
  0x63, 0x1e, 0xa4, 0x69, 0x20, 0x13, 0x5c, 0xb8, 0xac, 0x61, 0x07, 0x3a,
  0x5c, 0xac, 0x75, 0x6c, 0x40, 0xc2, 0x62, 0x9e, 0xe4, 0x9a, 0xcf, 0x43,
  0x72, 0x21, 0x93, 0xd5, 0xca, 0x1a, 0xfa, 0xe8, 0xae, 0x28, 0x69, 0x27,
  0xbf, 0x8c, 0x8d, 0xc7, 0x97, 0xd9, 0x6a, 0x07, 0x68, 0x07, 0x76, 0x37,
  0x38, 0xc2, 0xe2, 0x31, 0x85, 0x68, 0x2a, 0xc8, 0x4f, 0xbe, 0x94, 0xbf,
  0x3b, 0xd7, 0x66, 0x77, 0xc2, 0xe3, 0x33, 0x04, 0xc1, 0xd5, 0x93, 0x58,
  0xb9, 0xf2, 0xcf, 0xba, 0x9c, 0xec, 0xa4, 0xa9, 0x85, 0x49, 0x86, 0xd3,
  0x44, 0x1f, 0x64, 0x4d, 0x57, 0x5b, 0x38, 0x9c, 0x1f, 0x6e, 0x3d, 0x31,
  0x16, 0x6f, 0x07, 0xfd, 0x68, 0x0c, 0xd7, 0x0e, 0x29, 0xe7, 0xb7, 0x0c,
  0xf9, 0x08, 0x0b, 0xa1, 0x1c, 0xc0, 0x89, 0x7d, 0x1f, 0x28, 0x7c, 0xbf,
  0xc8, 0x74, 0xef, 0xbd, 0x2e, 0x33, 0x56, 0x1e, 0xe2, 0x2d, 0xde, 0xe1,
  0x9d, 0xa6, 0x03, 0x8f, 0xd1, 0xd3, 0x78, 0x47, 0x81, 0x7a, 0xf0, 0x05,
  0xf3, 0x4c, 0xc5, 0xe1, 0x37, 0xcc, 0x75, 0x99, 0x8f, 0xa9, 0xd4, 0x67,
  0x3b, 0xd9, 0x43, 0x11, 0x46, 0x10, 0xba, 0x52, 0xb7, 0xb2, 0xbc, 0x02,
  0x26, 0xbc, 0x3f, 0x99, 0xda, 0x41, 0xc0, 0xd9, 0x89, 0x74, 0x1d, 0x53,
  0xe0, 0xd2, 0x9f, 0x74, 0x65, 0x32, 0xcb, 0x07, 0xdc, 0x36, 0x0f, 0x61,
  0x51, 0xe5, 0x78, 0xc7, 0x91, 0xa0, 0x8e, 0xe8, 0x38, 0x4a, 0xfa, 0x6a,
  0x73, 0x5a, 0x2f, 0xc7, 0x58, 0x65, 0x96, 0xe1, 0xba, 0x27, 0xe9, 0x5e,
  0x50, 0x1f, 0xfa, 0xb4, 0x08, 0x9c, 0x02, 0x89, 0x3c, 0x11, 0x61, 0xf8,
  0xfc, 0x96, 0xdc, 0xa4, 0x8e, 0xa1, 0x89, 0xb3, 0xd7, 0x31, 0xdb, 0xb5,
  0x31, 0x66, 0x75, 0xe3, 0x4b, 0xeb, 0xbb, 0x83, 0xf5, 0x19, 0x38, 0xb4,
  0xe7, 0xbb, 0xbc, 0x4f, 0x88, 0x67, 0xd9, 0xf6, 0x8c, 0x61, 0x05, 0xe8,
  0xea, 0x10, 0xd0, 0xdb, 0x6b, 0x20, 0xfa, 0x8c, 0x9f, 0x5d, 0xc8, 0xec,
  0x57, 0x39, 0x02, 0xc9, 0xae, 0x62, 0x81, 0x4f, 0xa4, 0xa8, 0x04, 0x09,
  0x6a, 0xed, 0xb8, 0x04, 0x66, 0xa5, 0x83, 0xe3, 0xe5, 0xa6, 0x97, 0x39,
  0xe1, 0x3d, 0xe4, 0x96, 0xba, 0x4c, 0x49, 0xe0, 0x48, 0x5c, 0xdf, 0xf0,
  0x3c, 0x5b, 0x68, 0x31, 0x8b, 0xfe, 0x01, 0xae, 0x1a, 0xdb, 0x1d, 0x37,
  0x35, 0xf1, 0x42, 0x16, 0x6b, 0xa9, 0x6e, 0x7f, 0xde, 0xc3, 0x51, 0x7e,
  0xec, 0x6a, 0x21, 0x2e, 0x83, 0xad, 0xd4, 0x57, 0xa3, 0x35, 0x51, 0x3a,
  0x9a, 0x6b, 0x9d, 0xf1, 0xeb, 0x12, 0x07, 0x79, 0x53, 0x61, 0xe8, 0x25,
  0xf9, 0xca, 0xd3, 0x0e, 0xce, 0x29, 0x89, 0xbe, 0xa6, 0xfe, 0xd4, 0xb8,
  0xeb, 0x47, 0xb9, 0x0a, 0xae, 0x44, 0x29, 0xa6, 0x72, 0xa2, 0x4a, 0x40,
  0xee, 0xa2, 0x0a, 0xaf, 0x23, 0x31, 0x49, 0x8f, 0x11, 0x91, 0x90, 0x08,
  0x12, 0x63, 0xf8, 0x6f, 0x9c, 0x69, 0x34, 0x54, 0xf1, 0xab, 0x11, 0x10,
  0xdb, 0x92, 0xf6, 0x72, 0x2f, 0xe8, 0xd1, 0xdb, 0xa4, 0xe3, 0x65, 0xf2,
  0x07, 0x24, 0x37, 0x9f, 0xad, 0x38, 0x99, 0x2e, 0xd3, 0x48, 0x9a, 0xc2,
  0x7b, 0x39, 0xd2, 0xcb, 0x51, 0xde, 0xcf, 0xc3, 0x00, 0x6c, 0x58, 0xc8,
  0xd3, 0x6a, 0x5e, 0xea, 0x58, 0xed, 0x16, 0x54, 0xd4, 0x3c, 0x62, 0x43,
  0xfe, 0xc5, 0xb8, 0xb2, 0x6c, 0xad, 0x39, 0xe6, 0x0f, 0x64, 0x51, 0xca,
  0x67, 0x8c, 0x60, 0x4a, 0x57, 0x07, 0xdc, 0x51, 0x67, 0x25, 0x61, 0x9a,
  0x1a, 0x99, 0xdd, 0xe8, 0x0f, 0xbc, 0xfa, 0x8a, 0xc4, 0x4e, 0x8a, 0xa4,
  0x02, 0xe1, 0x2e, 0x00, 0x21, 0x37, 0x06, 0x31, 0xe2, 0x5e, 0xe3, 0xc8,
  0x04, 0xe9, 0x88, 0xd9, 0x02, 0x42, 0x55, 0xef, 0x21, 0xce, 0x40, 0xc9,
  0xf7, 0xcd, 0x71, 0x4e, 0xe0, 0x5f, 0x8f, 0xe6, 0x4f, 0xc4, 0x09, 0xc7,
  0x9a, 0xb4, 0x8e, 0xba, 0x87, 0x6a, 0x7f, 0x8c, 0x34, 0x50, 0xf0, 0xc9,
  0xff, 0xa2, 0x66, 0xfa, 0x38, 0x7d, 0x5e, 0x61, 0xb7, 0x16, 0xb6, 0x15,
  0xb3, 0x45, 0x15, 0xf1, 0xf3, 0x01, 0xc0, 0x0a, 0x9f, 0xba, 0xcd, 0x5b,
  0x3c, 0x65, 0x48, 0x8e, 0xa9, 0x52, 0x7a, 0x0c, 0x48, 0x90, 0x01, 0xbc,
  0x65, 0xa6, 0xc3, 0x95, 0xaf, 0x2f, 0xf9, 0x86, 0xf2, 0x8b, 0x2c, 0x8c,
  0xca, 0x81, 0xa5, 0x28, 0x8c, 0xda, 0x8c, 0x55, 0x3a, 0x32, 0x32, 0x2c,
  0xd0, 0xe0, 0xa4, 0x82, 0xac, 0x86, 0x5e, 0xa4, 0x2d, 0x18, 0x3f, 0x54,
  0x11, 0x49, 0xd3, 0x19, 0x1b, 0x9d, 0xb9, 0xcf, 0x56, 0x8b, 0x7a, 0xb2,
  0x91, 0xad, 0xa0, 0x0a, 0x15, 0x89, 0x68, 0xda, 0xec, 0x19, 0x8c, 0xf7,
  0x58, 0x06, 0x4d, 0x0a, 0x41, 0x83, 0xc4, 0x03, 0x20, 0x0a, 0x85, 0x8d,
  0x15, 0x6b, 0x4d, 0x5a, 0x35, 0x2f, 0xe2, 0x2c, 0x4e, 0x60, 0x11, 0x7b,
  0xd4, 0x01, 0x4b, 0x3b, 0x6b, 0x19, 0xa4, 0xee, 0x16, 0xc7, 0xb3, 0xea,
  0x9c, 0x06, 0x3c, 0xf0, 0x70, 0xb7, 0x3b, 0x1f, 0x3b, 0x76, 0x6d, 0xa7,
  0x1d, 0xb8, 0x21, 0x28, 0x1b, 0x43, 0x08, 0xb3, 0x97, 0x6d, 0xd0, 0xc2,
  0x2a, 0x18, 0x1a, 0xf3, 0x3f, 0x94, 0xa1, 0xd0, 0xc6, 0x13, 0x2c, 0xe3,
  0x66, 0xeb, 0x83, 0xf0, 0xaf, 0x50, 0x06, 0xc1, 0x89, 0x81, 0x20, 0x9a,
  0x68, 0xb8, 0x63, 0xde, 0xcb, 0x03, 0x29, 0x91, 0x68, 0xa8, 0x52, 0xbd,
  0xf3, 0xc9, 0xa7, 0x2c, 0x5b, 0x99, 0xaa, 0xfa, 0x34, 0x5d, 0x22, 0xef,
  0x5c, 0x84, 0xd0, 0x1c, 0x9e, 0x74, 0x89, 0x04, 0x70, 0xbb, 0x1c, 0xdd,
  0x2c, 0xb3, 0x07, 0xe4, 0x01, 0x69, 0x12, 0xac, 0x35, 0x9e, 0x6f, 0x8d,
  0x63, 0x73, 0x9c, 0x45, 0xeb, 0xec, 0xd3, 0xe8, 0x77, 0xfe, 0x6d, 0x1b,
  0xa2, 0xb0, 0x0b, 0x2c, 0xd9, 0x9f, 0x1c, 0x98, 0x09, 0x86, 0xfa, 0x48,
  0x81, 0x75, 0x52, 0xee, 0xa1, 0x68, 0x82, 0xb6, 0x5f, 0x62, 0x53, 0x63,
  0x38, 0xeb, 0x63, 0xa7, 0x06, 0x60, 0x12, 0x68, 0x67, 0x63, 0x0d, 0x12,
  0xb8, 0x69, 0xc7, 0x99, 0xf5, 0x96, 0xbe, 0x3a, 0xe1, 0x83, 0x33, 0x3c,
  0xca, 0x0d, 0x7f, 0xb7, 0x18, 0xe1, 0xc4, 0x92, 0x76, 0x54, 0x93, 0x3d,
  0xc7, 0x96, 0xc6, 0xa0, 0xe5, 0x0b, 0x90, 0x7f, 0xf3, 0x56, 0xd4, 0x91,
  0x17, 0x20, 0xaa, 0x01, 0x85, 0x3e, 0xb4, 0x3b, 0xd2, 0x95, 0xde, 0x28,
  0xe1, 0x2b, 0xbb, 0x09, 0xd0, 0xa2, 0x7b, 0xe8, 0x52, 0xe1, 0x75, 0x01,
  0xab, 0xf8, 0xee, 0x8f, 0x17, 0xb9, 0xc4, 0x32, 0xfa, 0x42, 0xc6, 0x8d,
  0x93, 0xf8, 0x44, 0xa4, 0xa6, 0x9f, 0xdb, 0xd2, 0xf4, 0x2c, 0xe9, 0x30,
  0x84, 0xbb, 0xde, 0x96, 0x00, 0xc1, 0x72, 0x84, 0x5e, 0x89, 0x6d, 0x0f,
  0xbd, 0x7d, 0x41, 0xe1, 0x2e, 0xa6, 0xcd, 0x8a, 0xb8, 0xb7, 0x0a, 0x9c,
  0x64, 0x03, 0xb5, 0xd7, 0x8d, 0xa7, 0x2c, 0xb0, 0x2e, 0x51, 0xde, 0xbb,
  0xb9, 0xef, 0xe4, 0x47, 0xe0, 0x13, 0x12, 0xa7, 0xc9, 0xbf, 0x2f, 0x72,
  0xac, 0xb0, 0xba, 0x3d, 0x99, 0x72, 0x72, 0x43, 0x8c, 0x93, 0x64, 0x9e,
  0xfd, 0x40, 0x3c, 0x51, 0x4d, 0x78, 0xbd, 0x00, 0x9b, 0x8a, 0xfa, 0x37,
  0x20, 0x2f, 0x1e, 0x10, 0x31, 0x84, 0x96, 0xf4, 0x27, 0x5c, 0x16, 0xb1,
  0xa1, 0xab, 0x77, 0xff, 0x13, 0xea, 0x2f, 0x72, 0xcc, 0xdd, 0x1c, 0xcc,
  0xd8, 0x65, 0x35, 0xe9, 0xc3, 0x55, 0xf6, 0x22, 0x5b, 0xef, 0x1c, 0x90,
  0xa0, 0xe6, 0x04, 0x82, 0xe5, 0xd7, 0xa9, 0x7a, 0x17, 0xe3, 0xfd, 0x07,
  0xe4, 0xc7, 0x61, 0x13, 0x3f, 0x11, 0x5b, 0xfc, 0x4e, 0x66, 0x57, 0x6f,
  0x2c, 0x7d, 0x56, 0x6f, 0xc8, 0x09, 0x1e, 0x16, 0xbd, 0x66, 0x43, 0x23,
  0x2a, 0xca, 0x5d, 0xc7, 0xc9, 0xca, 0xab, 0xd6, 0x3f, 0x8e, 0xda, 0x28,
  0x40, 0xdc, 0x2a, 0x94, 0x04, 0xc8, 0xeb, 0x2b, 0xd6, 0x43, 0x05, 0x8e,
  0x1f, 0x0d, 0x78, 0xa1, 0x8f, 0x50, 0x71, 0x07, 0x9c, 0xb7, 0x60, 0x00,
  0x36, 0x40, 0x43, 0xcf, 0x9b, 0x2e, 0x43, 0x66, 0xd5, 0x41, 0xba, 0xee,
  0x25, 0xed, 0xf0, 0x16, 0xf0, 0x4b, 0x40, 0x00, 0xb6, 0xbf, 0x91, 0x0f,
  0xbc, 0xe7, 0x45, 0xac, 0xaf, 0xc9, 0x24, 0x91, 0x24, 0x48, 0x1c, 0xa5,
  0x32, 0x5e, 0xa3, 0x2c, 0x93, 0xb0, 0x5d, 0xf3, 0x3a, 0xcf, 0x74, 0xce,
  0x06, 0xaa, 0x08, 0xeb, 0xde, 0x1c, 0x75, 0x0e, 0x5e, 0x35, 0x5d, 0x71,
  0x26, 0x16, 0x35, 0x36, 0x12, 0x56, 0xb1, 0xd3, 0x1c, 0x24, 0x13, 0x1c,
  0xa5, 0x9f, 0x16, 0xee, 0x60, 0xc0, 0xe2, 0x10, 0xab, 0xcb, 0xd6, 0x4e,
  0xa9, 0x69, 0x9e, 0xaf, 0xe3, 0x61, 0x56, 0x99, 0x68, 0xf9, 0x99, 0x5f,
  0xbb, 0x1f, 0x41, 0xed, 0x23, 0xb0, 0xa9, 0x6a, 0x1d, 0x3e, 0xf2, 0xb9,
  0x54, 0x00, 0x0a, 0xa4, 0x94, 0x0e, 0xc4, 0xe4, 0x34, 0x9b, 0x10, 0xe0,
  0x6f, 0x4d, 0x29, 0xef, 0x36, 0x90, 0x67, 0x27, 0x48, 0xa7, 0x0c, 0x16,
  0x18, 0x57, 0xb1, 0x0c, 0xdb, 0x5c, 0x75, 0xbc, 0x45, 0xa1, 0xe5, 0xc5,
  0x95, 0xc4, 0x1f, 0xf7, 0x00, 0xb0, 0xa2, 0x43, 0x8d, 0x27, 0x0f, 0x34,
  0xca, 0xfe, 0xba, 0x51, 0x48, 0x7a, 0x68, 0x47, 0x9e, 0x61, 0x20, 0x5f,
  0xf1, 0x7f, 0x24, 0x37, 0x7a, 0xe4, 0xb7, 0x18, 0x11, 0xa5, 0x40, 0x71,
  0x24, 0x3b, 0xbc, 0xbc, 0x2e, 0x50, 0x4e, 0x51, 0x71, 0xc4, 0x9e, 0xd2,
  0xc2, 0x32, 0xb7, 0x43, 0xa1, 0xb8, 0x1b, 0x47, 0xbd, 0xd7, 0xfe, 0x19,
  0x1a, 0x57, 0x4a, 0x3a, 0x07, 0x2b, 0xfa, 0x1a, 0x9b, 0x68, 0x63, 0x95,
  0xa2, 0x63, 0xbf, 0x19, 0x81, 0xbb, 0xd8, 0xd4, 0xf8, 0xad, 0xce, 0xe6,
  0x4d, 0xbc, 0x62, 0x1b, 0x11, 0x4c, 0x0e, 0xd0, 0xf3, 0x45, 0x1b, 0x5b,
  0x48, 0x17, 0xdd, 0x2f, 0x43, 0x20, 0xad, 0xc3, 0xfb, 0xb4, 0x4c, 0xcc,
  0x15, 0xd5, 0x34, 0x34, 0x71, 0xd8, 0x33, 0x6c, 0x4c, 0x0f, 0x49, 0xe4,
  0x68, 0xad, 0xb7, 0xd8, 0x55, 0x56, 0xcc, 0x5c, 0xa6, 0x69, 0xe4, 0x59,
  0xcb, 0xfa, 0x44, 0x6b, 0xbf, 0x4a, 0xe7, 0xc8, 0x0c, 0xd5, 0xe5, 0xe1,
  0x1a, 0xc9, 0xa7, 0xa1, 0x0c, 0x28, 0x9d, 0x44, 0x93, 0xb9, 0xc9, 0xeb,
  0xd0, 0xfe, 0xa7, 0x08, 0x20, 0x1c, 0x62, 0x21, 0x64, 0xc2, 0x5f, 0xc7,
  0xc1, 0x69, 0x5b, 0xff, 0x08, 0x7f, 0xb3, 0x4b, 0xf2, 0xb4, 0xab, 0xb2,
  0x30, 0x3f, 0xab, 0x62, 0xb1, 0xa1, 0x38, 0x1d, 0xda, 0xbf, 0x05, 0x4d,
  0xfb, 0xc9, 0xda, 0x5b, 0x4f, 0x15, 0x50, 0xea, 0xdd, 0x53, 0x0f, 0xfb,
  0x5c, 0xc8, 0xd4, 0x44, 0x05, 0x0a, 0x18, 0xa6, 0x47, 0xa2, 0xcb, 0x57,
  0x1e, 0xef, 0x51, 0xde, 0xbc, 0x54, 0x64, 0xbc, 0x9f, 0xcb, 0x15, 0xc4,
  0xd6, 0xa6, 0x0a, 0xc5, 0x4f, 0xb0, 0x65, 0xf8, 0xff, 0x04, 0x3b, 0x08,
  0xc3, 0xde, 0xf1, 0xbe, 0xdd, 0x92, 0x18, 0x47, 0x42, 0x6d, 0xbc, 0x0a,
  0x2f, 0xed, 0x26, 0x5d, 0x87, 0x89, 0xe5, 0x1c, 0x1d, 0x38, 0xbe, 0xdd,
  0x8a, 0x8b, 0xa6, 0x4c, 0x42, 0x44, 0xd2, 0x9a, 0xb6, 0xf0, 0x49, 0xc3,
  0xc3, 0xb5, 0x08, 0xfd, 0xf3, 0x6a, 0x0b, 0x7a, 0x27, 0xb2, 0xde, 0x9d,
  0x9c, 0x6a, 0xca, 0xff, 0xc6, 0xfc, 0xd6, 0xea, 0xdc, 0xa7, 0x2b, 0x12,
  0x05, 0x6f, 0x1e, 0xdc, 0x3d, 0x58, 0x6b, 0x25, 0x2a, 0x9e, 0xf1, 0x58,
  0x11, 0x9d, 0x8e, 0xc3, 0x43, 0xe1, 0xda, 0xf1, 0xbc, 0x40, 0x3e, 0x2e,
  0x9f, 0xed, 0x4b, 0x3b, 0x34, 0xfb, 0x1f, 0x36, 0x20, 0x02, 0xa5, 0xc7,
  0x59, 0x68, 0x74, 0x4b, 0xf1, 0xe5, 0x1b, 0xfd, 0xa2, 0xe8, 0x08, 0xba,
  0xe4, 0x5a, 0x07, 0x06, 0xef, 0xbb, 0x4f, 0x04, 0x40, 0x02, 0xd4, 0x05,
  0x26, 0xb2, 0x09, 0x27, 0xb1, 0x45, 0x32, 0xa9, 0xfa, 0xd5, 0xf0, 0x27,
  0x1d, 0xa0, 0x11, 0x2f, 0x43, 0xf8, 0xf4, 0xc1, 0x08, 0xa2, 0xf5, 0xec,
  0x11, 0xb7, 0xe7, 0x46, 0xc6, 0xd5, 0x48, 0x61, 0xf6, 0x5d, 0x24, 0xca,
  0xb4, 0xe9, 0x14, 0xfb, 0x19, 0xfd, 0x0a, 0x17, 0xe0, 0x95, 0x57, 0xe7,
  0x31, 0x2a, 0xb3, 0xe4, 0x96, 0x6a, 0xbf, 0xa1, 0x14, 0xb0, 0xd6, 0xc9,
  0xea, 0x59, 0x3c, 0x0e, 0x92, 0xe1, 0x31, 0xd5, 0xca, 0x1e, 0x1a, 0x3f,
  0xa7, 0x49, 0x15, 0x06, 0x33, 0x45, 0xc0, 0x33, 0x4a, 0x43, 0xd0, 0xc9,
  0x47, 0xd2, 0x1f, 0xb4, 0x62, 0xe2, 0x48, 0xc7, 0xd9, 0x17, 0x65, 0x55,
  0xe1, 0xa2, 0x30, 0x2e, 0xba, 0x43, 0xff, 0xe8, 0x8f, 0x08, 0xb6, 0x99,
  0xe0, 0xf0, 0xe2, 0xc5, 0x40, 0x62, 0xc0, 0xed, 0x13, 0xc4, 0xbf, 0xb2,
  0xb6, 0xa8, 0xdd, 0xc5, 0xd0, 0x0c, 0x2b, 0x65, 0x1b, 0x66, 0x6c, 0xa4,
  0x65, 0xdb, 0x17, 0x23, 0x29, 0x1f, 0x05, 0xad, 0x5f, 0xb0, 0xf4, 0xcc,
  0x51, 0x55, 0xe5, 0x25, 0x38, 0x81, 0xbc, 0xd8, 0xef, 0xf4, 0xcd, 0x97,
  0x24, 0xcb, 0xfb, 0xe2, 0x55, 0x43, 0x06, 0xcd, 0x01, 0xe2, 0xd5, 0x35,
  0xfd, 0x14, 0xb8, 0x32, 0x15, 0x76, 0xd7, 0x10, 0xea, 0xed, 0x43, 0xc1,
  0x2f, 0x50, 0x55, 0x1c, 0xb7, 0x3d, 0xae, 0x37, 0xb7, 0x73, 0x62, 0x1a,
  0xac, 0xe9, 0xe2, 0xce, 0xb9, 0x8a, 0xcc, 0xba, 0xf8, 0x04, 0xd0, 0x78,
  0x36, 0x25, 0xe8, 0x2d, 0x45, 0xd4, 0xb9, 0x16, 0xe6, 0xff, 0x9b, 0xec,
  0x15, 0x40, 0x6c, 0xe5, 0x41, 0xc8, 0xab, 0x2b, 0xcc, 0x54, 0x11, 0x54,
  0xb9, 0x4d, 0x03, 0x62, 0x11, 0xd5, 0x70, 0x6c, 0x02, 0xd9, 0x5d, 0xbf,
  0x3f, 0x4c, 0xf8, 0x54, 0xd6, 0xdf, 0x04, 0xce, 0x1b, 0xdf, 0x48, 0x17,
  0xb9, 0x5e, 0x3a, 0xdc, 0x2a, 0x9e, 0x43, 0x28, 0x48, 0xff, 0x45, 0x8a,
  0x41, 0xab, 0xb0, 0xb7, 0x06, 0xe9, 0xd0, 0x52, 0x05, 0xdb, 0x3b, 0xc8,
  0x49, 0x1a, 0x1e, 0xe2, 0x78, 0x72, 0x4b, 0x8b, 0xcd, 0x75, 0x36, 0xa9,
  0x88, 0xef, 0xec, 0x62, 0x22, 0xc3, 0x09, 0xda, 0x82, 0xfc, 0xef, 0x88,
  0x90, 0x8e, 0xf9, 0xea, 0x8b, 0xdf, 0xbb, 0x1e, 0xf5, 0xcc, 0x76, 0x39,
  0xb3, 0xb8, 0x34, 0x8e, 0x58, 0x67, 0x30, 0x82, 0x49, 0x70, 0x75, 0xb3,
  0x01, 0xa5, 0x24, 0x59, 0x0d, 0x9c, 0x55, 0xce, 0xc1, 0x4c, 0x13, 0xb2,
  0x75, 0xc0, 0x99, 0x6d, 0xd5, 0x6b, 0x54, 0xf7, 0x1e, 0xfe, 0x27, 0xe1,
  0xcd, 0x1c, 0xcb, 0x31, 0xb0, 0xdb, 0x6b, 0xf9, 0xb5, 0x3b, 0xe5, 0x77,
  0x24, 0x32, 0xb7, 0xc1, 0xb3, 0x2a, 0xcc, 0xc3, 0x6b, 0x1f, 0x9f, 0xe2,
  0xe9, 0x1e, 0x4f, 0x54, 0x01, 0xf8, 0xf9, 0x12, 0x04, 0x02, 0xf7, 0xf4,
  0x82, 0xff, 0x04, 0x4f, 0x9d, 0x5f, 0xdf, 0xe4, 0x4c, 0x9b, 0xcf, 0x9e,
  0xcd, 0x71, 0xf1, 0x85, 0xbe, 0xdb, 0xa8, 0xd2, 0x4b, 0xfd, 0xb9, 0x9e,
  0xf7, 0xd7, 0x5a, 0x8e, 0x26, 0xc0, 0xbe, 0xd1, 0x51, 0xb2, 0x74, 0xe3,
  0x1e, 0xfd, 0xc1, 0xf1, 0x63, 0x52, 0xc5, 0xe0, 0x09, 0xcb, 0x0b, 0xf0,
  0xbf, 0x14, 0x6d, 0xb0, 0x8b, 0xeb, 0x3f, 0xdc, 0xea, 0xfa, 0xa0, 0xe9,
  0xdd, 0x8c, 0x98, 0x70, 0x4d, 0xbc, 0x68, 0xbb, 0x4b, 0xc1, 0x61, 0xf2,
  0xc0, 0x70, 0x14, 0x16, 0xe4, 0x4d, 0xc2, 0x33, 0xe8, 0x29, 0xf4, 0x17,
  0xfe, 0x25, 0x47, 0xe8, 0x23, 0x40, 0x54, 0x42, 0x82, 0xe0, 0xfd, 0xe9,
  0x81, 0xed, 0xf5, 0x2b, 0x2a, 0xf2, 0x13, 0x58, 0xc8, 0xe5, 0x36, 0x11,
  0xb0, 0x79, 0x0b, 0xb0, 0x56, 0x09, 0x61, 0x01, 0x61, 0x9e, 0x3b, 0x67,
  0xb3, 0xd6, 0x78, 0xf8, 0xa6, 0x03, 0x9e, 0x3b, 0x2e, 0x89, 0xc7, 0x9a,
  0xe3, 0x56, 0xe7, 0xb8, 0x0a, 0x9d, 0x2e, 0xb2, 0xff, 0x2e, 0x4f, 0xee,
  0x3d, 0x00, 0xc1, 0x55, 0x17, 0xee, 0x2e, 0xf5, 0x17, 0x13, 0xdc, 0x4c,
  0x5c, 0xce, 0xb6, 0x2e, 0xdd, 0xbd, 0x2f, 0x04, 0xcf, 0xaf, 0xf9, 0x02,
  0x4c, 0x5d, 0xf6, 0x51, 0x64, 0xb3, 0xcf, 0x40, 0x1b, 0x60, 0xbf, 0xce,
  0xbc, 0x6c, 0xe2, 0x5c, 0x43, 0x18, 0x21, 0x3d, 0xe7, 0x13, 0xe5, 0xf8,
  0x34, 0xf5, 0x0b, 0x51, 0xa6, 0xfd, 0x2b, 0x3a, 0x29, 0xa8, 0x55, 0xd4,
  0xbb, 0xf5, 0x52, 0x2e, 0x0d, 0xe2, 0x0d, 0x51, 0xdf, 0xf7, 0xfd, 0xc9,
  0x53, 0x2d, 0x06, 0x00, 0xc4, 0xeb, 0xae, 0xdd, 0x08, 0xe2, 0x6d, 0xe3,
  0x4e, 0xf3, 0xf7, 0x44, 0xfb, 0x21, 0x16, 0x49, 0xdb, 0xa8, 0xbf, 0xb3,
  0xbb, 0x03, 0xe2, 0xa1, 0xe9, 0xd8, 0x44, 0x2e, 0x39, 0x40, 0xd2, 0x28,
  0x12, 0x11, 0x0e, 0xcf, 0xa3, 0x22, 0x0f, 0x2f, 0xd8, 0xf4, 0xac, 0x46,
  0x3a, 0xea, 0x00, 0x48, 0xa9, 0xe6, 0xf9, 0x2e, 0xe5, 0x17, 0xaa, 0x2a,
  0x41, 0xe0, 0xf2, 0xad, 0x20, 0x1a, 0xff, 0xc6, 0x30, 0xa5, 0xbf, 0xef,
  0x5f, 0x05, 0x0b, 0x63, 0x28, 0x31, 0xfe, 0x15, 0x36, 0x9f, 0x17, 0x22,
  0x9f, 0x39, 0x3b, 0xc4, 0xce, 0x0b, 0x3d, 0xf4, 0x4f, 0xce, 0x23, 0x3a,
  0x4c, 0xc5, 0x7f, 0xde, 0x27, 0x61, 0xe8, 0x10, 0x7c, 0xef, 0xdc, 0x40,
  0xd6, 0x19, 0x5f, 0x14, 0x68, 0xc5, 0xbc, 0xbc, 0x13, 0xcd, 0xf3, 0x2d,
  0x00, 0x58, 0x02, 0xf9, 0xb1, 0x22, 0x19, 0xa3, 0x54, 0x13, 0x00, 0xd4,
  0x64, 0x37, 0xb3, 0x53, 0xc0, 0xfd, 0xe1, 0x1e, 0xa9, 0x2e, 0x52, 0xc7,
  0x02, 0x5a, 0xaa, 0x33, 0xf1, 0xa5, 0xe4, 0x11, 0xa6, 0x36, 0xb9, 0x46,
  0xc7, 0x02, 0xde, 0xa0, 0x9e, 0x4d, 0xae, 0xed, 0xfd, 0x1a, 0x1e, 0xa7,
  0x51, 0x99, 0x41, 0xec, 0xfc, 0xbe, 0x45, 0x24, 0x39, 0x44, 0x56, 0xde,
  0xd5, 0xd0, 0x26, 0xe5, 0x23, 0xda, 0x32, 0x0d, 0x4b, 0x50, 0xb8, 0x23,
  0x47, 0xed, 0xb1, 0xcd, 0x2e, 0xde, 0xd3, 0x3a, 0x4b, 0x41, 0x51, 0xab,
  0xae, 0x4e, 0x98, 0x48, 0x24, 0xf5, 0xa3, 0x22, 0x29, 0xd2, 0xf9, 0x12,
  0xbf, 0xc3, 0x08, 0x38, 0x12, 0xd7, 0x29, 0x5c, 0xfb, 0x57, 0x56, 0x63,
  0xb0, 0x0f, 0x1b, 0xfb, 0xfb, 0xdc, 0xf7, 0x67, 0x23, 0x34, 0xff, 0xc1,
  0x68, 0xd8, 0xfe, 0x4f, 0x00, 0x4c, 0x34, 0xe2, 0x0a, 0x61, 0x55, 0x1e,
  0x3c, 0xdd, 0x20, 0xe6, 0xba, 0xcd, 0xf6, 0x98, 0x09, 0x48, 0x9f, 0x53,
  0x29, 0xfc, 0xa8, 0x52, 0x0c, 0x28, 0xde, 0xe3, 0x40, 0xe0, 0x34, 0xd5,
  0xcf, 0xa3, 0x51, 0xcc, 0x5d, 0x3a, 0xad, 0xd4, 0x29, 0x28, 0xf3, 0xc9,
  0xb2, 0x0c, 0xcd, 0x2d, 0x31, 0x5b, 0x04, 0x1b, 0x2c, 0x12, 0x03, 0x11,
  0xcd, 0xec, 0x42, 0xdc, 0x25, 0xb7, 0x3f, 0x07, 0x30, 0x49, 0x21, 0x3f,
  0xf2, 0x34, 0xcc, 0x4d, 0xff, 0xbd, 0x3f, 0xc9, 0xdd, 0x03, 0x45, 0x37,
  0x26, 0x44, 0xaf, 0x1a, 0xb8, 0xe8, 0xe1, 0xaf, 0xb4, 0x47, 0x30, 0xaf,
  0x55, 0x37, 0xc0, 0x33, 0xb4, 0xeb, 0x2d, 0xe4, 0xff, 0x18, 0x16, 0xa9,
  0xaf, 0xc4, 0x11, 0xe9, 0x3d, 0x0a, 0xc5, 0xe6, 0x3f, 0xdc, 0x09, 0x17,
  0xb8, 0xce, 0xc3, 0x43, 0xa7, 0x15, 0xc4, 0xde, 0xf8, 0xa6, 0xd3, 0x2c,
  0x1a, 0x99, 0x2a, 0x12, 0x1b, 0xc3, 0xdd, 0xb7, 0xd0, 0x1d, 0xa5, 0x42,
  0xd9, 0x3b, 0x1c, 0x02, 0xda, 0xe4, 0x06, 0x30, 0xf6, 0xd3, 0xa1, 0x35,
  0xf3, 0x51, 0x22, 0x43, 0xac, 0x1a, 0x33, 0x40, 0x5f, 0x4f, 0x1f, 0x37,
  0x5f, 0xf0, 0x51, 0xe5, 0x45, 0x02, 0x92, 0xe7, 0x81, 0x49, 0xce, 0xdc,
  0x93, 0xbc, 0x98, 0x04, 0xe9, 0xcc, 0xc8, 0x16, 0xb7, 0xce, 0xbf, 0x3d,
  0xe3, 0x71, 0xb9, 0x19, 0xed, 0x60, 0x61, 0x8f, 0xa6, 0xd9, 0x15, 0xf0,
  0xaf, 0x96, 0x53, 0xd4, 0x8e, 0xc6, 0x32, 0x3f, 0x0a, 0x51, 0xa8, 0xaa,
  0x6f, 0xfe, 0xaf, 0x47, 0x00, 0x50, 0x47, 0x1b, 0x15, 0x73, 0x2e, 0xb1,
  0xee, 0x02, 0x92, 0x15, 0x3b, 0xa1, 0xb4, 0xb3, 0x58, 0x5d, 0x58, 0xa6,
  0xe2, 0x8e, 0x9f, 0xa8, 0xb7, 0x0f, 0x43, 0x0a, 0x38, 0x95, 0xbc, 0x81,
  0x9c, 0xbb, 0x20, 0x43, 0x00, 0x5e, 0x14, 0xb8, 0x4d, 0x02, 0x69, 0xdc,
  0xec, 0x0d, 0x0d, 0x99, 0x67, 0xeb, 0xdb, 0x4c, 0x6f, 0x59, 0x6b, 0x63,
  0x73, 0x67, 0x62, 0xf4, 0xc3, 0x67, 0x8e, 0xc2, 0x32, 0x09, 0x18, 0xa5,
  0xe6, 0x4f, 0xa9, 0x58, 0xed, 0x13, 0x05, 0xcc, 0x9c, 0x4d, 0x40, 0x27,
  0x01, 0xee, 0x76, 0x96, 0x5a, 0xe2, 0x17, 0x15, 0x9a, 0x81, 0x72, 0x09,
  0xcc, 0xaa, 0x8d, 0xc8, 0x16, 0xa0, 0x20, 0xcf, 0x51, 0x18, 0x9a, 0x9a,
  0xc2, 0x8d, 0xb5, 0xc1, 0x4f, 0xb0, 0xb2, 0x8d, 0xe8, 0x30, 0x18, 0xe2,
  0xff, 0xf7, 0xf6, 0xa5, 0x21, 0xbb, 0x1f, 0x66, 0xd4, 0x37, 0xe3, 0x5d,
  0x2e, 0xf9, 0xe4, 0xc8, 0xc8, 0xd4, 0x12, 0x3b, 0x2a, 0x60, 0x2d, 0x90,
  0x5a, 0x9e, 0xa4, 0x9f, 0x96, 0x74, 0x8f, 0x2c, 0x4c, 0x26, 0x1b, 0x69,
  0x32, 0x63, 0x29, 0x28, 0xd6, 0x85, 0x0d, 0xa9, 0xdb, 0xed, 0xc9, 0xd4,
  0x67, 0x2d, 0x92, 0x0c, 0x71, 0xee, 0xaf, 0x0f, 0x0d, 0xc0, 0xb0, 0xbc,
  0xbd, 0xbe, 0xb5, 0xd6, 0xa7, 0x9c, 0x39, 0xd2, 0x8e, 0xfc, 0xd9, 0xe5,
  0xb3, 0x81, 0x4a, 0xec, 0x26, 0x73, 0x2e, 0x4f, 0x0e, 0x2d, 0xcd, 0x21,
  0xe7, 0x39, 0x5d, 0x2e, 0xfe, 0xe6, 0xcc, 0xe8, 0x32, 0xe7, 0x49, 0xe2,
  0x01, 0xcd, 0x5b, 0x23, 0xdf, 0x56, 0xee, 0x9b, 0xf2, 0x1c, 0x4a, 0x35,
  0x61, 0xce, 0xfd, 0xce, 0x59, 0x20, 0xd7, 0x69, 0xd1, 0xc9, 0x26, 0xcb,
  0x15, 0xb0, 0x68, 0x13, 0x0c, 0x37, 0x04, 0x59, 0x3e, 0x13, 0xef, 0x21,
  0x16, 0xdf, 0xc1, 0x1d, 0x60, 0xcf, 0xe3, 0x4b, 0x25, 0x38, 0xe3, 0x17,
  0x4a, 0xa3, 0x19, 0xe2, 0x1f, 0xb5, 0x5e, 0x08, 0xf4, 0x21, 0x09, 0x3c,
  0x6e, 0xda, 0xde, 0x61, 0x55, 0xd5, 0xd3, 0xe3, 0x49, 0x39, 0x24, 0x3e,
  0x20, 0xea, 0xcb, 0x9e, 0xd5, 0xa2, 0xe6, 0x93, 0x9c, 0xaa, 0xcc, 0xec,
  0xfb, 0xb8, 0x02, 0xcd, 0x0b, 0x9e, 0x90, 0x06, 0xfc, 0x0b, 0xdf, 0x9f,
  0xd3, 0x5b, 0xfb, 0xca, 0x46, 0x14, 0x9d, 0x05, 0x2c, 0x2f, 0xe8, 0xa0,
  0x5c, 0x16, 0xc4, 0xfd, 0xc4, 0x24, 0xb9, 0xba, 0x26, 0xc3, 0x45, 0x4b,
  0xba, 0x14, 0xd1, 0x14, 0xd9, 0xb8, 0xb7, 0xb5, 0x21, 0x03, 0xbe, 0x0e,
  0x01, 0xe6, 0x50, 0x1b, 0xde, 0x41, 0xce, 0xec, 0xfc, 0xba, 0x2c, 0x24,
  0xff, 0x05, 0xec, 0x9e, 0x23, 0x1c, 0x30, 0x36, 0x59, 0xfa, 0x1d, 0x0e,
  0xde, 0x42, 0x13, 0xed, 0x0c, 0x63, 0x34, 0x20, 0xd5, 0x40, 0x52, 0x1b,
  0x9d, 0x0d, 0xc4, 0x23, 0x18, 0x81, 0x17, 0x11, 0x09, 0x29, 0x9d, 0xb6,
  0xf6, 0xef, 0x33, 0xbb, 0x4e, 0xea, 0x13, 0xf4, 0xb8, 0x2d, 0xad, 0xc6,
  0xea, 0xc9, 0x32, 0x13, 0x3a, 0x04, 0xdd, 0xdb, 0xd1, 0xbb, 0xdb, 0x50,
  0xf9, 0xed, 0x46, 0x40, 0x31, 0x22, 0x25, 0xdb, 0x30, 0x43, 0x45, 0x61,
  0x4a, 0xef, 0xa6, 0x10, 0x4c, 0xf2, 0x58, 0x1b, 0x35, 0x1b, 0xd7, 0xff,
  0x58, 0x55, 0xdb, 0xf8, 0x2c, 0xf0, 0x2d, 0x9a, 0xe2, 0x5b, 0x55, 0xed,
  0x4a, 0xb0, 0x64, 0x03, 0xf6, 0xbf, 0xcc, 0xd0, 0x1b, 0xfa, 0x42, 0xbf,
  0x28, 0x28, 0x2d, 0xae, 0xda, 0xb8, 0x05, 0xab, 0xc5, 0xd4, 0xc6, 0xbb,
  0x34, 0x04, 0x02, 0x52, 0xbc, 0x64, 0xd4, 0xd4, 0x5b, 0x25, 0x23, 0x63,
  0x09, 0x27, 0x6b, 0xed, 0xa7, 0x9f, 0x1e, 0x9d, 0x4d, 0x05, 0xf6, 0xbb,
  0x0e, 0x58, 0xa2, 0x34, 0xc0, 0x46, 0xb1, 0x4a, 0xef, 0xcb, 0x14, 0x17,
  0xdc, 0x35, 0xc9, 0x54, 0x9e, 0x42, 0x48, 0xba, 0xe2, 0xb4, 0xc9, 0x20,
  0xe0, 0xb1, 0x77, 0xf3, 0xd3, 0x07, 0xf9, 0x32, 0x81, 0xf0, 0xd2, 0x5f,
  0xe5, 0x31, 0x92, 0xd1, 0xe3, 0x3a, 0xa4, 0x4a, 0x4e, 0xb7, 0xf9, 0x9a,
  0x9a, 0xeb, 0xf6, 0xcb, 0x46, 0xc7, 0x12, 0x31, 0x4c, 0x1e, 0x0f, 0xc0,
  0x43, 0x0f, 0xf9, 0x91, 0xcc, 0xd8, 0x22, 0x5d, 0x49, 0x4c, 0x4a, 0xf3,
  0x29, 0x19, 0xa7, 0x57, 0xe4, 0x1f, 0x0f, 0x27, 0x9d, 0xc8, 0xf1, 0x50,
  0xb9, 0xc9, 0x23, 0x38, 0x29, 0xae, 0x4c, 0xa1, 0xd0, 0x2d, 0x38, 0x5d,
  0xbf, 0xc0, 0x5f, 0x38, 0x23, 0x6e, 0xa4, 0xf0, 0xd4, 0xa8, 0xc2, 0xb1,
  0xf0, 0xb0, 0x2b, 0xf4, 0x92, 0xeb, 0x2d, 0xc2, 0x31, 0x54, 0x73, 0xcb,
  0xb4, 0x71, 0xa4, 0x1a, 0xf3, 0xdf, 0x9e, 0x3e, 0xcd, 0x45, 0xa5, 0xc3,
  0xc9, 0xe4, 0x52, 0x52, 0xdb, 0x07, 0xa8, 0x9e, 0x1e, 0x31, 0xf0, 0xff,
  0xce, 0xec, 0x26, 0xe2, 0x56, 0xfe, 0xf9, 0x5a, 0xc4, 0xf0, 0x28, 0xbd,
  0x34, 0xcd, 0xe0, 0x38, 0x0d, 0x53, 0xfd, 0x36, 0x51, 0x0d, 0x77, 0xf1,
  0x2a, 0x16, 0xcd, 0xc6, 0x0c, 0xbf, 0x33, 0x45, 0x43, 0x93, 0x38, 0x48,
  0xfe, 0x51, 0x40, 0x15, 0xd5, 0xab, 0xbb, 0x7a, 0x30, 0x18, 0xba, 0x0c,
  0xa6, 0xe8, 0x0e, 0x37, 0x05, 0xf4, 0xb9, 0x28, 0x06, 0x4d, 0xcf, 0xfb,
  0x9c, 0xaa, 0x57, 0xe5, 0xae, 0xf3, 0x16, 0xde, 0xc0, 0x53, 0x9d, 0x1d,
  0x5d, 0x0d, 0xd6, 0x06, 0xd0, 0x4d, 0xae, 0xeb, 0x3c, 0xcf, 0xee, 0xfb,
  0x22, 0x32, 0x13, 0xc2, 0x47, 0xf8, 0xe8, 0x09, 0x5f, 0x58, 0xad, 0x81,
  0x4e, 0x6f, 0x9f, 0x70, 0x18, 0x63, 0x3f, 0x83, 0x84, 0xd2, 0x21, 0xb3,
  0x41, 0xdb, 0x10, 0x84, 0x5a, 0x5b, 0x10, 0x49, 0x9d, 0xba, 0x3c, 0x99,
  0x82, 0x98, 0x86, 0x6c, 0x44, 0x65, 0xae, 0xbd, 0x44, 0x6d, 0x70, 0x86,
  0x07, 0x12, 0x4a, 0xa9, 0x8c, 0xbd, 0x65, 0x39, 0xab, 0x53, 0x52, 0xbf,
  0x61, 0x25, 0x03, 0x06, 0xe0, 0xef, 0x07, 0x92, 0x28, 0x9f, 0x22, 0xc7,
  0xcb, 0xe4, 0x83, 0x3d, 0xd9, 0x25, 0x42, 0x5c, 0x9c, 0x6d, 0x01, 0x64,
  0x18, 0x49, 0x17, 0xa7, 0xbb, 0x96, 0x49, 0xce, 0x30, 0x68, 0xdb, 0xb3,
  0xab, 0xf3, 0xcd, 0x4a, 0x93, 0xcd, 0x18, 0xa0, 0x4f, 0x6a, 0x42, 0x4f,
  0xac, 0x9a, 0x73, 0x25, 0x88, 0xc0, 0xd2, 0x1f, 0xd7, 0xb7, 0xdd, 0x49,
  0xcf, 0xc2, 0x99, 0xd2, 0x55, 0xa8, 0x0f, 0xf5, 0xaf, 0x30, 0x87, 0x99,
  0x75, 0xc2, 0xf3, 0xfa, 0x73, 0xac, 0x44, 0xd5, 0xeb, 0x42, 0x30, 0x8c,
  0x9a, 0x67, 0xaf, 0xf1, 0xff, 0x26, 0xdf, 0xf9, 0xe6, 0x04, 0x2f, 0x6e,
  0x84, 0x04, 0x4f, 0x45, 0x46, 0xc6, 0xa5, 0x0f, 0x17, 0x22, 0x2d, 0xa2,
  0x46, 0x55, 0xb6, 0xbb, 0x06, 0x94, 0xbf, 0x39, 0x30, 0x22, 0xc2, 0xf1,
  0x18, 0xe6, 0xaa, 0xe9, 0xc1, 0x5d, 0xfc, 0x09, 0xed, 0x41, 0x2d, 0x50,
  0x62, 0xad, 0x8b, 0x3f, 0x35, 0x50, 0xe0, 0x1c, 0xee, 0xeb, 0xed, 0xd3,
  0x0e, 0x1d, 0xab, 0x59, 0x5c, 0xb2, 0x9d, 0x1f, 0x25, 0x1a, 0xb0, 0xbc,
  0xf9, 0xc1, 0xbc, 0x33, 0xc9, 0x15, 0xae, 0x58, 0x9e, 0x0c, 0xd3, 0x07,
  0xaf, 0xad, 0x67, 0xad, 0x6a, 0xf8, 0xb1, 0x75, 0xef, 0xf6, 0x59, 0xe5,
  0x68, 0x8b, 0x13, 0x2e, 0x68, 0xba, 0xb0, 0x96, 0xb1, 0x4d, 0xfb, 0xfe,
  0x66, 0xc4, 0xc0, 0xa3, 0x5e, 0x71, 0x4c, 0xe5, 0xe7, 0x2d, 0x55, 0xc5,
  0xc6, 0xfc, 0x1a, 0x61, 0x18, 0x0f, 0x13, 0x75, 0xc7, 0x93, 0x37, 0x4c,
  0x6a, 0xa1, 0xea, 0x4b, 0xbd, 0x01, 0xd3, 0xb1, 0x03, 0x1a, 0x2d, 0xe1,
  0x21, 0x4d, 0x08, 0xd6, 0xd1, 0x02, 0x2e, 0x2c, 0x56, 0x16, 0x2e, 0xd7,
  0xf1, 0xf2, 0xeb, 0xef, 0xf3, 0x6f, 0x66, 0xdc, 0x7b, 0x65, 0x98, 0x36,
  0x17, 0xaf, 0x3f, 0x1f, 0x39, 0xbc, 0x4f, 0xff, 0xfc, 0x02, 0xf4, 0xb1,
  0xdd, 0x5b, 0xd2, 0xda, 0x2e, 0x6b, 0x70, 0xe2, 0x48, 0x93, 0xbd, 0x4b,
  0xf4, 0x56, 0x39, 0x54, 0x1b, 0x61, 0xae, 0xbd, 0x95, 0x38, 0x26, 0x08,
  0xa8, 0x8e, 0x5c, 0xda, 0xc9, 0x63, 0x16, 0x6f, 0x14, 0xe1, 0xba, 0xc2,
  0x36, 0x2e, 0x12, 0xa9, 0x62, 0xc0, 0x39, 0xf1, 0x1e, 0x08, 0xd2, 0x61,
  0xc8, 0x2a, 0x5f, 0x50, 0x0a, 0x23, 0xba, 0xd1, 0xae, 0x46, 0x01, 0x22,
  0x32, 0x36, 0x5e, 0x46, 0x1f, 0x9f, 0xf1, 0x39, 0x46, 0xc0, 0x52, 0xc5,
  0xdc, 0x32, 0xbd, 0x6e, 0x6a, 0xea, 0x42, 0xb7, 0xfe, 0x62, 0xce, 0xe5,
  0x56, 0x96, 0xf0, 0x9f, 0x17, 0xca, 0xac, 0x5d, 0xf3, 0xcd, 0x63, 0x66,
  0x93, 0xe3, 0x2e, 0xca, 0x36, 0x3e, 0xf6, 0x2a, 0xec, 0xb8, 0x94, 0xcb,
  0xfe, 0xfd, 0xd3, 0x3b, 0x9d, 0xce, 0xc7, 0xad, 0xf8, 0xd1, 0x27, 0x2c,
  0xa5, 0xd8, 0xa5, 0x22, 0xa9, 0x69, 0x17, 0x7b, 0xfc, 0xba, 0xf5, 0x42,
  0xf0, 0x24, 0xc6, 0x5b, 0x53, 0x56, 0x13, 0x7f, 0x2e, 0xf2, 0x0f, 0xa0,
  0xa2, 0xf0, 0xad, 0x2a, 0x45, 0xd9, 0x3a, 0xde, 0x9f, 0x77, 0x09, 0xb2,
  0x31, 0x4b, 0xbb, 0x43, 0xbc, 0xc2, 0xa8, 0xc1, 0x31, 0x5e, 0x4e, 0x64,
  0x94, 0x4d, 0x39, 0xf1, 0xc5, 0xc6, 0x9f, 0xf8, 0x8e, 0x28, 0x8b, 0x05,
  0x34, 0x0d, 0xeb, 0x23, 0x2b, 0x0b, 0x59, 0xe7, 0x5d, 0xc3, 0x88, 0x06,
  0x35, 0xc1, 0x51, 0x64, 0xc6, 0x68, 0xf8, 0x63, 0x23, 0xb7, 0x20, 0xf9,
  0x4e, 0xd5, 0x41, 0x19, 0x97, 0xe1, 0xf8, 0x9a, 0xd1, 0x25, 0xf9, 0x06,
  0x3b, 0x55, 0x20, 0x09, 0x25, 0x2f, 0x04, 0xa3, 0xcc, 0xd9, 0x12, 0xc7,
  0x62, 0x5e, 0xa5, 0x0d, 0x0f, 0xb0, 0x32, 0xde, 0xdd, 0x1b, 0xcb, 0xec,
  0xcc, 0xa6, 0x05, 0xd4, 0xee, 0x33, 0x3c, 0xb6, 0x20, 0x04, 0xa1, 0xdf,
  0xe7, 0xe7, 0x36, 0x99, 0xd5, 0xb9, 0xeb, 0xea, 0xcf, 0xa1, 0xf5, 0x26,
  0xb7, 0xfe, 0x04, 0xa2, 0x1e, 0xae, 0x50, 0xc2, 0x64, 0xc8, 0x1e, 0xfc,
  0x74, 0xd7, 0x18, 0x33, 0x1b, 0x28, 0xa9, 0xde, 0x23, 0xde, 0xfb, 0x3a,
  0xc2, 0xad, 0xab, 0xa1, 0x32, 0xfc, 0x22, 0x59, 0x4b, 0x4f, 0x4a, 0x26,
  0xaf, 0x2d, 0xe1, 0xc3, 0x49, 0xf1, 0x02, 0xd2, 0x71, 0x40, 0xf3, 0x4e,
  0xba, 0xd2, 0x3f, 0xc9, 0x3e, 0xf9, 0xe1, 0x29, 0xa4, 0x13, 0xd9, 0x54,
  0x0d, 0x08, 0xcb, 0x6d, 0xdb, 0xb3, 0xd4, 0x22, 0xc8, 0x08, 0x96, 0x23,
  0xe1, 0xb9, 0xc5, 0xa3, 0xeb, 0x73, 0xeb, 0xac, 0x56, 0x5e, 0xbd, 0xc7,
  0x0b, 0xd9, 0x3e, 0x1b, 0xc7, 0xd7, 0xf1, 0xeb, 0x1c, 0xef, 0x1e, 0x3a,
  0xb6, 0x40, 0xac, 0x3d, 0xcd, 0x97, 0x98, 0xc6, 0x10, 0xa4, 0xf6, 0xfe,
  0x35, 0xe2, 0xbf, 0x74, 0x19, 0xbb, 0xd6, 0xb0, 0x04, 0x5b, 0xa4, 0x00,
  0x53, 0x07, 0xec, 0xa3, 0x10, 0x2a, 0x66, 0x57, 0x42, 0xa8, 0xab, 0x11,
  0xd9, 0x44, 0x90, 0x05, 0x4e, 0xcf, 0xd7, 0x4b, 0xeb, 0xe1, 0x75, 0x0a,
  0xdf, 0x04, 0xf1, 0x6a, 0x26, 0x31, 0xf5, 0x25, 0x25, 0xfa, 0x3c, 0x97,
  0x5c, 0x27, 0xc6, 0x4e, 0x39, 0x64, 0x11, 0x98, 0x30, 0xb9, 0x40, 0x23,
  0xfb, 0xc5, 0x93, 0xce, 0x7f, 0x22, 0x59, 0x6f, 0xed, 0xba, 0xa6, 0x3d,
  0x4d, 0x29, 0xc9, 0x24, 0x14, 0xa8, 0x85, 0x0a, 0x48, 0xce, 0xef, 0xb5,
  0x8d, 0xa9, 0xeb, 0xc2, 0xf5, 0x25, 0x9a, 0xee, 0x07, 0x0e, 0xda, 0x3f,
  0x81, 0x9a, 0x22, 0x64, 0x6b, 0x7f, 0x11, 0x07, 0x9a, 0x67, 0xe6, 0xcf,
  0x0f, 0xd1, 0xc8, 0xcd, 0x69, 0xfb, 0x6d, 0x93, 0x4d, 0x8a, 0xb7, 0x67,
  0xa7, 0xd2, 0x3b, 0x7d, 0x2a, 0xaa, 0xa1, 0xcd, 0x47, 0x7d, 0xa1, 0xb4,
  0x1b, 0x7e, 0x6a, 0x4d, 0xfb, 0x39, 0x41, 0x85, 0x50, 0xeb, 0xdd, 0x35,
  0x07, 0xa6, 0x8d, 0xa1, 0x09, 0x5d, 0xe9, 0x9a, 0xb4, 0x21, 0xd0, 0xf5,
  0x5b, 0x45, 0xd9, 0xab, 0xd0, 0x3b, 0xef, 0x7e, 0x25, 0x62, 0x58, 0x3a,
  0x3c, 0x73, 0x23, 0x12, 0x4d, 0x89, 0x8f, 0x33, 0xc7, 0xfe, 0x55, 0x91,
  0x8d, 0xe3, 0xb3, 0xdb, 0xa1, 0x91, 0x5f, 0xf9, 0xf0, 0x46, 0x60, 0x90,
  0x4d, 0x2d, 0x8f, 0xb2, 0x47, 0xec, 0x58, 0xbe, 0x34, 0xec, 0xb6, 0x4c,
  0x0c, 0xbf, 0x4e, 0x58, 0xf0, 0x51, 0x67, 0x30, 0x44, 0x8d, 0x21, 0xc6,
  0xab, 0xc8, 0x32, 0xef, 0xad, 0xce, 0x4f, 0x25, 0x4c, 0x29, 0xaf, 0x15,
  0xae, 0xe2, 0xb3, 0xfa, 0xaf, 0x77, 0xca, 0x44, 0x99, 0x46, 0x9c, 0x5d,
  0x60, 0x99, 0x64, 0x96, 0xe8, 0x17, 0x9e, 0x27, 0xf5, 0xa6, 0xf9, 0x7e,
  0xfb, 0x2b, 0x4d, 0x61, 0x72, 0x17, 0xf8, 0xd5, 0xf0, 0x1b, 0xe4, 0x32,
  0xcc, 0xfe, 0x9a, 0xc9, 0x9a, 0x5d, 0x24, 0x59, 0xbb, 0xbf, 0x29, 0x9d,
  0x22, 0x97, 0x8e, 0xe6, 0x03, 0x90, 0xcf, 0xfc, 0xda, 0x11, 0x9b, 0x6d,
  0xd9, 0x04, 0xa7, 0xbd, 0xb7, 0x98, 0xc0, 0x5a, 0x9c, 0x65, 0x87, 0x37,
  0x60, 0x41, 0x7d, 0x85, 0xa2, 0xe2, 0x91, 0xd1, 0xa4, 0x53, 0x0c, 0x7e,
  0x5d, 0xb3, 0xa1, 0x05, 0xd6, 0x8d, 0x15, 0x48, 0xae, 0xa6, 0x97, 0x2b,
  0x23, 0xa4, 0x3f, 0x9e, 0xe2, 0x7c, 0xda, 0x70, 0x10, 0x93, 0xb1, 0xcf,
  0x5c, 0x75, 0xd7, 0x47, 0x03, 0xba, 0x07, 0xc2, 0x95, 0x89, 0x56, 0x05,
  0x06, 0x36, 0x62, 0x6c, 0x00, 0x9a, 0xaa, 0xb3, 0x38, 0x0e, 0x08, 0xe3,
  0x9b, 0xa0, 0x9b, 0x2f, 0xd6, 0xd3, 0x29, 0x5e, 0xc3, 0x62, 0x9a, 0x0c,
  0xda, 0x53, 0xf7, 0xe7, 0x1b, 0xc3, 0xd2, 0xb2, 0x1d, 0xe1, 0x19, 0xce,
  0x50, 0x4d, 0xda, 0x43, 0x0b, 0x54, 0x32, 0x63, 0x66, 0xc8, 0x21, 0xdb,
  0xa5, 0x2c, 0x4b, 0xca, 0xce, 0x1f, 0xf1, 0x3f, 0x82, 0x3a, 0xca, 0x34,
  0xe0, 0x3c, 0xb9, 0xbe, 0x10, 0xbd, 0xd5, 0xf7, 0x69, 0xef, 0x7f, 0x9d,
  0x31, 0x59, 0xd4, 0x03, 0x1f, 0x56, 0xd1, 0x32, 0x16, 0xb1, 0xda, 0x5d,
  0x0b, 0xdf, 0x3d, 0xc3, 0x44, 0x25, 0x62, 0x24, 0x49, 0x59, 0x1a, 0xfb,
  0xfa, 0x5a, 0xa2, 0xa7, 0x9c, 0xae, 0x5e, 0x6e, 0x49, 0xc6, 0xc6, 0x9d,
  0x54, 0x21, 0xd2, 0x39, 0x6e, 0x11, 0x3e, 0x53, 0x1f, 0xeb, 0x39, 0xa3,
  0x1e, 0xdd, 0x04, 0x22, 0x9b, 0xc4, 0x2c, 0xe2, 0xe5, 0xbf, 0x82, 0xcf,
  0x22, 0x9d, 0x3e, 0x06, 0x24, 0xa2, 0x5d, 0xd7, 0x39, 0x08, 0xf2, 0x40,
  0x3e, 0x5f, 0xfe, 0x84, 0xa5, 0x1d, 0x5d, 0xeb, 0x26, 0xaa, 0x0b, 0x55,
  0x3e, 0x3e, 0xbb, 0xbc, 0x23, 0x33, 0xb0, 0x9f, 0x60, 0x11, 0xa5, 0x2d,
  0x6f, 0xf1, 0xc3, 0xdd, 0xf1, 0xf4, 0xe3, 0x0e, 0x36, 0x6a, 0xbb, 0x01,
  0x08, 0x1c, 0x5a, 0x5a, 0x5b, 0xbb, 0x45, 0xe0, 0x36, 0xa5, 0x68, 0x2b,
  0xb5, 0x74, 0xe6, 0x10, 0xe8, 0x18, 0x49, 0x74, 0xf9, 0x54, 0xab, 0x9d,
  0x19, 0xa0, 0x3b, 0x64, 0xec, 0xbe, 0xa0, 0xe8, 0x05, 0x4f, 0x49, 0xb5,
  0xff, 0x34, 0x48, 0x00, 0xd1, 0xb9, 0x2b, 0xa8, 0xc5, 0x0b, 0x09, 0xdc,
  0x8d, 0xed, 0xbf, 0x46, 0x58, 0x61, 0x3f, 0x37, 0xb2, 0xa1, 0x17, 0x1f,
  0xf2, 0x01, 0xa2, 0xb0, 0xf1, 0x22, 0xed, 0x11, 0xe6, 0xcb, 0xf2, 0xa9,
  0x3c, 0x4c, 0x3f, 0xb5, 0xbe, 0x0d, 0x3d, 0xcc, 0x4f, 0x4b, 0xff, 0xe7,
  0xf3, 0xc6, 0x89, 0x54, 0xa8, 0xf4, 0x18, 0xa3, 0x24, 0x9c, 0x64, 0x56,
  0xd9, 0xde, 0xce, 0xe4, 0xb1, 0xaf, 0xca, 0x18, 0x0e, 0x51, 0xed, 0xb4,
  0x02, 0xbe, 0x9a, 0x29, 0x22, 0x30, 0xd0, 0x5a, 0x2c, 0x00, 0x33, 0x5f,
  0x5b, 0xb4, 0xb9, 0x70, 0xac, 0xf2, 0x08, 0xf4, 0x41, 0x71, 0x00, 0xb1,
  0x1d, 0x14, 0x46, 0xfe, 0xc9, 0xf6, 0x27, 0x11, 0x32, 0x32, 0xc7, 0x10,
  0xb2, 0xca, 0x7b, 0x6e, 0x6f, 0x35, 0xa5, 0xb3, 0x03, 0x08, 0xd7, 0x26,
  0x02, 0xd0, 0x44, 0xce, 0x08, 0x41, 0xe2, 0xa4, 0x35, 0xe5, 0x9a, 0xdb,
  0xec, 0x53, 0xd4, 0xd7, 0x9b, 0x67, 0x48, 0x55, 0xc5, 0x0d, 0xdf, 0x0d,
  0x67, 0x0b, 0x5b, 0x48, 0x9d, 0xb3, 0xef, 0x30, 0xcc, 0xfa, 0x06, 0xef,
  0x19, 0x10, 0xf6, 0x4a, 0x52, 0x68, 0x4d, 0xa8, 0xc2, 0x98, 0xdd, 0xaf,
  0x4f, 0xa3, 0x04, 0xd0, 0x49, 0x84, 0x8e, 0x89, 0xd6, 0xb7, 0x4b, 0x63,
  0x34, 0x90, 0x00, 0x07, 0x4f, 0xbc, 0xb9, 0x57, 0xba, 0x0f, 0x20, 0x1b,
  0x0b, 0xf2, 0x7f, 0x26, 0x21, 0x31, 0x46, 0x5d, 0xc7, 0xfb, 0x7f, 0x0b,
  0xce, 0x09, 0x76, 0x4d, 0x2c, 0xd9, 0x16, 0x3c, 0x67, 0x46, 0x53, 0x5b,
  0x29, 0xf4, 0x77, 0x5a, 0x1e, 0xe1, 0x08, 0x51, 0xbc, 0xe3, 0x3d, 0x33,
  0x7f, 0x32, 0x40, 0x61, 0xb1, 0xd4, 0x3f, 0xd8, 0x9d, 0x63, 0xe4, 0x19,
  0xfa, 0xa1, 0xc0, 0xd8, 0xf8, 0x12, 0x3f, 0xcf, 0xd0, 0x06, 0xe5, 0x1f,
  0xb7, 0x4f, 0x22, 0x10, 0xdc, 0x97, 0x08, 0x43, 0x0e, 0x57, 0xc1, 0xb2,
  0xa0, 0x60, 0x3f, 0xe0, 0x4a, 0xaf, 0x1b, 0x97, 0x03, 0x39, 0xdf, 0x23,
  0x6a, 0x6a, 0xc2, 0x0d, 0x16, 0xa5, 0x32, 0x5c, 0xfe, 0xf3, 0x3d, 0x50,
  0x2d, 0xc0, 0xe0, 0xa8, 0x09, 0xd3, 0xca, 0x35, 0x92, 0x08, 0x44, 0xbe,
  0x0d, 0xe0, 0xfe, 0xfc, 0x56, 0xb2, 0xbd, 0xa4, 0x7d, 0xc4, 0x6e, 0x4a,
  0x67, 0xe7, 0xcb, 0x31, 0xab, 0x6b, 0xf0, 0x59, 0xc5, 0x6d, 0xea, 0x33,
  0x03, 0xea, 0x0b, 0xa7, 0xbb, 0x30, 0x47, 0x9c, 0x46, 0xc9, 0x5b, 0xb3,
  0x4d, 0x6f, 0x4a, 0x95, 0x4e, 0x59, 0xa5, 0x14, 0x51, 0x24, 0x57, 0xb3,
  0x2f, 0x11, 0x37, 0xc0, 0xc2, 0x54, 0xc8, 0x71, 0x1a, 0xa2, 0x21, 0x6a,
  0x5e, 0x6f, 0xd4, 0xc1, 0xb5, 0x63, 0xf7, 0x5f, 0x5b, 0xb9, 0xec, 0x53,
  0x25, 0x96, 0xda, 0x1a, 0x9b, 0x1b, 0x5f, 0x58, 0xbd, 0xb4, 0x98, 0x62,
  0x12, 0x53, 0xff, 0x97, 0xbf, 0x45, 0x6a, 0x48, 0x13, 0x20, 0x62, 0x6f,
  0x9d, 0xf9, 0xb5, 0x41, 0x40, 0x53, 0x5e, 0x1a, 0xf8, 0x54, 0xe7, 0x14,
  0xe6, 0xe8, 0x27, 0x9c, 0xe7, 0x30, 0xee, 0xae, 0x2e, 0xc6, 0x34, 0xbc,
  0xbd, 0x16, 0xe4, 0x4a, 0xec, 0x6f, 0xa1, 0x46, 0x4f, 0xa7, 0xd9, 0xc3,
  0x68, 0xca, 0xfc, 0xa7, 0xd0, 0x47, 0x5a, 0x08, 0xf6, 0xb2, 0xf6, 0x5a,
  0x6c, 0xd7, 0xab, 0x55, 0x25, 0xe4, 0xf3, 0x41, 0xfa, 0xc2, 0xad, 0xd8,
  0xbe, 0x45, 0x9c, 0xd4, 0xe3, 0x50, 0x00, 0xfe, 0x30, 0x48, 0xbc, 0xe4,
  0x09, 0xe9, 0x0c, 0xa0, 0x09, 0x88, 0x31, 0x31, 0x91, 0x3d, 0x0e, 0x69,
  0x5b, 0xeb, 0x95, 0x4f, 0x35, 0x37, 0x9b, 0xbd, 0x53, 0xde, 0x81, 0x50,
  0x84, 0xfb, 0x0a, 0x9e, 0x30, 0x47, 0xe1, 0xca, 0xbf, 0xb1, 0x57, 0x3c,
  0x98, 0x60, 0x56, 0xd7, 0xc8, 0xc0, 0x55, 0xbe, 0xf3, 0xce, 0xaa, 0x20,
  0xff, 0x11, 0x4a, 0x4a, 0x30, 0x17, 0x99, 0x39, 0x50, 0x6f, 0xb7, 0x1b,
  0xff, 0x57, 0x6a, 0x41, 0x37, 0xe8, 0x13, 0xe6, 0x0d, 0x67, 0xda, 0xd0,
  0x38, 0x23, 0x36, 0x38, 0x35, 0x34, 0x05, 0x3f, 0x65, 0x00, 0xde, 0xfe,
  0xe4, 0x9b, 0x22, 0x58, 0x8f, 0xd9, 0xa0, 0xe4, 0xd2, 0xc3, 0x3f, 0xef,
  0xb5, 0x0e, 0xdf, 0x5a, 0x21, 0xdb, 0xff, 0x4b, 0x47, 0xb1, 0x16, 0xdd,
  0xc3, 0x67, 0xb3, 0xcc, 0x20, 0xd0, 0xc8, 0x28, 0x59, 0xe4, 0x6c, 0xfa,
  0x68, 0x0e, 0x61, 0x37, 0xe2, 0x14, 0xc7, 0xed, 0x17, 0x06, 0xdf, 0x49,
  0xb2, 0xd6, 0xa7, 0xd7, 0x72, 0xd1, 0x56, 0xda, 0x4f, 0x42, 0xf4, 0xbb,
  0xed, 0xe6, 0x2a, 0x32, 0xc3, 0xe2, 0xc4, 0x69, 0xee, 0x23, 0xbc, 0x30,
  0x47, 0xb1, 0x28, 0xd5, 0x6a, 0xf0, 0x9f, 0x26, 0x8e, 0x88, 0xa8, 0xb9,
  0x6d, 0x44, 0xb3, 0xef, 0x3e, 0xca, 0xb2, 0x1b, 0x40, 0x16, 0x1b, 0xe8,
  0xc7, 0xba, 0xc6, 0xa9, 0x52, 0xde, 0x42, 0xc7, 0xe4, 0xf3, 0x53, 0xe0,
  0xf2, 0xca, 0x63, 0xea, 0xf7, 0x00, 0x86, 0xb3, 0x9d, 0xb8, 0xcb, 0xa9,
  0xd7, 0x9a, 0x06, 0x0b, 0x20, 0x4f, 0xc5, 0x0d, 0xcf, 0x1d, 0x2d, 0xaa,
  0x2d, 0xca, 0x9d, 0x72, 0x7f, 0xa4, 0xf1, 0xb1, 0xd7, 0x9f, 0x34, 0x0f,
  0xc2, 0x17, 0xa0, 0xd9, 0xc2, 0x36, 0x86, 0xb6, 0x90, 0xca, 0x0c, 0xa0,
  0xee, 0xe9, 0x17, 0x10, 0xda, 0xab, 0x0a, 0x00, 0xc8, 0x33, 0x4b, 0x43,
  0x39, 0x92, 0x30, 0x97, 0x18, 0x63, 0xe6, 0x2b, 0x55, 0x9f, 0xba, 0x22,
  0x17, 0x06, 0x06, 0x78, 0xbb, 0xc7, 0x33, 0x12, 0x0b, 0xd1, 0x0d, 0x33,
  0xa6, 0xe1, 0xe5, 0x26, 0x62, 0xdd, 0x1c, 0x00, 0x55, 0x10, 0x15, 0xa0,
  0xa9, 0x03, 0x03, 0x05, 0x65, 0x10, 0xd0, 0x51, 0xee, 0xa2, 0x09, 0xe3,
  0xef, 0x65, 0xe6, 0x43, 0x64, 0x51, 0x6f, 0x36, 0x4d, 0xa7, 0x39, 0xff,
  0xc2, 0x0e, 0x29, 0x16, 0x68, 0x57, 0xee, 0xc1, 0xbc, 0xd0, 0x46, 0x73,
  0x05, 0x51, 0xe5, 0xfa, 0x35, 0xee, 0x28, 0x04, 0x4b, 0xb5, 0x1d, 0xc2,
  0x17, 0x0c, 0x2d, 0xaa, 0xd5, 0x20, 0x3a, 0xc9, 0x9b, 0x3a, 0xf0, 0x14,
  0x2a, 0x2b, 0x4e, 0xbb, 0xba, 0xda, 0x5f, 0x27, 0xa0, 0x0c, 0xf1, 0x5a,
  0xcb, 0xb3, 0xea, 0xed, 0xad, 0xa6, 0xf8, 0x30, 0x18, 0x4b, 0xc8, 0xd1,
  0x0d, 0xbf, 0x08, 0x2d, 0x0e, 0xb5, 0x4e, 0x2f, 0x31, 0xb8, 0x4b, 0xa8,
  0x18, 0xec, 0x62, 0xfb, 0x08, 0x22, 0xe0, 0x02, 0xfe, 0xf4, 0x36, 0xeb,
  0xde, 0x28, 0x4a, 0x55, 0xe7, 0x29, 0x0b, 0x5c, 0x5c, 0xc4, 0xbe, 0x01,
  0xae, 0xad, 0xc0, 0xcc, 0x5c, 0x41, 0xf6, 0xdc, 0xa4, 0x2c, 0x3f, 0x33,
  0x03, 0xce, 0xa3, 0x36, 0x27, 0xb6, 0xd4, 0x29, 0xd9, 0x4b, 0x06, 0xec,
  0xe7, 0x0e, 0x5b, 0x3d, 0xdb, 0xf4, 0xda, 0xb4, 0xfb, 0xc3, 0xd0, 0xa2,
  0xbd, 0x5d, 0xa8, 0xf6, 0xc9, 0x4c, 0x4b, 0xbd, 0x3f, 0xe2, 0x05, 0x28,
  0x5c, 0x5e, 0xfc, 0x04, 0x3a, 0x08, 0xe3, 0xb5, 0xcc, 0xb8, 0xc5, 0xf5,
  0x04, 0x12, 0xdf, 0xd9, 0xa1, 0x43, 0xad, 0xcb, 0xce, 0x48, 0x56, 0xec,
  0xac, 0xa3, 0x21, 0x19, 0x08, 0xf4, 0x3d, 0xe4, 0xf2, 0x11, 0x24, 0x7f,
  0x4a, 0x24, 0x36, 0xde, 0x40, 0x01, 0xc3, 0x71, 0xd7, 0x54, 0x1c, 0x09,
  0x01, 0x3a, 0x22, 0xc0, 0x44, 0x1e, 0x27, 0xa4, 0xbc, 0x53, 0xb2, 0x4e,
  0x52, 0xd3, 0x3b, 0x1f, 0xb4, 0xaa, 0xaf, 0x5c, 0x36, 0x94, 0x5f, 0x65,
  0xd1, 0x0e, 0x59, 0x4d, 0xee, 0x59, 0x1c, 0xd8, 0xad, 0xdb, 0x5a, 0xfb,
  0xc1, 0xf8, 0xb4, 0xad, 0x20, 0x37, 0xd0, 0xac, 0x1c, 0xbd, 0x14, 0x29,
  0x5f, 0x51, 0x74, 0x18, 0xbf, 0xee, 0x22, 0x13, 0xe7, 0x07, 0xd6, 0xb0,
  0xc6, 0x4e, 0x0a, 0xf4, 0xda, 0x17, 0x21, 0x43, 0x1e, 0x12, 0x70, 0xe9,
  0x0c, 0x16, 0x5f, 0x23, 0x78, 0xf9, 0xd3, 0xeb, 0x99, 0xe2, 0x52, 0xf0,
  0x09, 0xd8, 0x08, 0xf8, 0xbb, 0x23, 0xf1, 0xea, 0x38, 0x1e, 0x28, 0xb3,
  0xd4, 0x1d, 0xba, 0xf6, 0x7b, 0xb2, 0xeb, 0xf2, 0xc3, 0xe8, 0x47, 0xb6,
  0x23, 0x62, 0x3f, 0x1a, 0xcd, 0xab, 0xa0, 0xdf, 0x5f, 0x24, 0x50, 0x5d,
  0x53, 0x23, 0xa7, 0x39, 0xae, 0xa7, 0x56, 0xc1, 0x4f, 0xfe, 0xf3, 0x56,
  0x1d, 0xd6, 0xc4, 0x15, 0xcd, 0x4f, 0xc2, 0x4e, 0x24, 0xb9, 0x21, 0xb3,
  0xd1, 0xa8, 0xa3, 0xf3, 0x6a, 0x7f, 0xbb, 0x08, 0x32, 0x36, 0x28, 0x58,
  0x4b, 0xf3, 0xe1, 0x52, 0x13, 0xd1, 0xc7, 0x32, 0x4c, 0x01, 0xd8, 0xe9,
  0xbb, 0x0f, 0xec, 0x47, 0xd0, 0xa7, 0x35, 0x0e, 0x20, 0xe7, 0xa4, 0xdc,
  0x19, 0x31, 0x1a, 0x48, 0xde, 0x00, 0xe8, 0x63, 0xff, 0x53, 0xab, 0xf0,
  0x04, 0x08, 0xde, 0x17, 0xe0, 0x68, 0x95, 0x48, 0x5d, 0x35, 0xd0, 0x76,
  0xd7, 0x6f, 0x35, 0x6d, 0xe9, 0x47, 0x7b, 0x61, 0xcc, 0x30, 0x72, 0x20,
  0x64, 0xd8, 0xd8, 0xd6, 0x38, 0xba, 0xaf, 0x7f, 0xc4, 0x53, 0xc7, 0xa4,
  0x3f, 0xe7, 0x74, 0xeb, 0x9e, 0x26, 0x27, 0xa9, 0xe7, 0xa2, 0x5d, 0xdc,
  0x6e, 0x3a, 0xc3, 0xe5, 0xef, 0x46, 0x30, 0x9f, 0x3e, 0x2f, 0xa3, 0xa8,
  0x08, 0x50, 0x53, 0x29, 0x11, 0x09, 0xcb, 0x3e, 0xda, 0x34, 0xc5, 0x32,
  0x19, 0x2f, 0x12, 0x10, 0xc5, 0xab, 0xf1, 0xf6, 0xff, 0x41, 0xc7, 0xc9,
  0x86, 0x01, 0x45, 0x1c, 0xe6, 0xbb, 0xb2, 0x95, 0x2d, 0xc5, 0x98, 0xd8,
  0x8c, 0x46, 0x4c, 0x03, 0x9d, 0xaa, 0xba, 0x59, 0xdd, 0x03, 0x22, 0x33,
  0xcc, 0x5b, 0xae, 0xb2, 0xfc, 0xd7, 0x27, 0xe1, 0x61, 0xe2, 0x04, 0x0b,
  0xde, 0xb4, 0x19, 0x25, 0xbc, 0xb5, 0xc8, 0x9a, 0x39, 0x0c, 0x38, 0xda,
  0xe1, 0xd9, 0xe1, 0x9c, 0xea, 0x36, 0xab, 0xbc, 0x1e, 0x10, 0x20, 0xa1,
  0xb1, 0x90, 0x83, 0xc4, 0x0d, 0x3f, 0x3a, 0x68, 0xd7, 0x11, 0x15, 0x51,
  0xf6, 0x08, 0x79, 0xcc, 0x16, 0xe7, 0xe9, 0xce, 0x83, 0x82, 0x44, 0x62,
  0x7e, 0xe2, 0xbf, 0x95, 0xf7, 0x92, 0xca, 0x67, 0xdc, 0x68, 0x0b, 0x3a,
  0xd7, 0x76, 0xd8, 0x50, 0x93, 0x17, 0x7f, 0x02, 0xd8, 0x1d, 0xcd, 0x83,
  0x55, 0x67, 0xb5, 0x2a, 0x02, 0xb1, 0x9d, 0x8a, 0xbd, 0xe6, 0xa1, 0x3d,
  0x79, 0x1e, 0x44, 0xed, 0x54, 0x98, 0xd4, 0xd5, 0x61, 0xc4, 0x9d, 0x4d,
  0xae, 0x5a, 0xd3, 0xa6, 0x9f, 0xfa, 0x74, 0x9c, 0x9a, 0x32, 0x43, 0xee,
  0xa5, 0xbb, 0x1d, 0xb2, 0xff, 0xe4, 0x47, 0x42, 0xf8, 0x9d, 0x33, 0xad,
  0xa1, 0x96, 0xf0, 0x41, 0x10, 0x0d, 0xa9, 0xfa, 0x0b, 0x3b, 0x0f, 0xaf,
  0x0d, 0x2b, 0x37, 0x8c, 0xd8, 0x35, 0x28, 0x26, 0x19, 0xbd, 0xb5, 0x3c,
  0x86, 0x48, 0x50, 0xa2, 0xdd, 0x9e, 0xb2, 0x4d, 0x07, 0x05, 0x62, 0x20,
  0xb3, 0xd0, 0x33, 0x8f, 0x3b, 0xac, 0xb0, 0x90, 0x39, 0x53, 0x88, 0xa9,
  0x88, 0xb7, 0x05, 0x67, 0x47, 0x6b, 0xcb, 0x16, 0x95, 0x01, 0x71, 0x60,
  0x45, 0x47, 0x9f, 0xb8, 0xef, 0x29, 0x77, 0xac, 0x52, 0x0b, 0x04, 0x94,
  0x2e, 0x18, 0x74, 0xd5, 0xed, 0xf4, 0x66, 0xd5, 0xdf, 0x82, 0xd9, 0x28,
  0x9f, 0x9b, 0x18, 0x08, 0xc1, 0x4c, 0x66, 0x67, 0x99, 0x11, 0xf7, 0x6d,
  0x24, 0xda, 0xd5, 0x50, 0x68, 0x36, 0x02, 0x37, 0x33, 0x29, 0x23, 0x7b,
  0xf5, 0x9b, 0xf5, 0x26, 0x8b, 0xb2, 0x4b, 0x5e, 0x1a, 0xb3, 0x73, 0x08,
  0x9f, 0x9c, 0x9f, 0xce, 0x2c, 0x6b, 0xbd, 0xec, 0xaf, 0x54, 0x4b, 0x3a,
  0x5d, 0x75, 0xc4, 0xe1, 0xef, 0x0e, 0x8d, 0x8a, 0xca, 0xe1, 0xc9, 0x10,
  0x06, 0xc9, 0x93, 0x79, 0xe6, 0x40, 0xd5, 0x04, 0x09, 0x96, 0x5b, 0x58,
  0xc3, 0xc6, 0x10, 0x14, 0x38, 0xd2, 0x47, 0x73, 0x9a, 0xa9, 0x60, 0xd4,
  0xb4, 0x14, 0x5a, 0xcf, 0x19, 0xbb, 0x6d, 0x03, 0x1b, 0xa5, 0x10, 0x54,
  0x20, 0xa1, 0x61, 0xd2, 0x03, 0x23, 0xf8, 0x54, 0xfc, 0x40, 0xf7, 0x5b,
  0xd0, 0xab, 0x23, 0x28, 0xdf, 0xf1, 0xbf, 0x3a, 0x91, 0xc6, 0xd4, 0x0e,
  0xc3, 0x7d, 0x12, 0xda, 0x15, 0xc4, 0xfe, 0xb6, 0xcd, 0x5d, 0x28, 0xe2,
  0x64, 0x3d, 0x28, 0x9a, 0xdf, 0x27, 0xe1, 0xf7, 0x2c, 0xb8, 0x2d, 0xdd,
  0x5a, 0x09, 0x95, 0x29, 0xeb, 0x26, 0x41, 0x6d, 0x8c, 0xab, 0x37, 0xb9,
  0xa0, 0x5f, 0xe5, 0x2f, 0x97, 0xee, 0x4d, 0xda, 0xdb, 0x43, 0xf2, 0x5b,
  0x6a, 0x50, 0x43, 0x3f, 0x95, 0x4e, 0xef, 0x06, 0x63, 0xa8, 0x5f, 0xcd,
  0xe2, 0xbc, 0x0d, 0xb1, 0xfc, 0xa1, 0x70, 0xbe, 0xcd, 0x03, 0xdc, 0x11,
  0x32, 0xe8, 0x20, 0xae, 0xf1, 0xbe, 0xaf, 0x29, 0x5c, 0x32, 0x65, 0x16,
  0x0b, 0x55, 0xe8, 0xbc, 0x91, 0x52, 0xc2, 0x9e, 0x05, 0xdc, 0x95, 0x0c,
  0x9f, 0x61, 0x57, 0x8f, 0x16, 0x43, 0xdb, 0x7a, 0x06, 0x91, 0xcc, 0xa3,
  0x44, 0xca, 0xf7, 0xde, 0x33, 0xaa, 0xa7, 0x4f, 0x8a, 0xc6, 0x54, 0x1c,
  0x21, 0x44, 0xc0, 0x35, 0xbf, 0xfb, 0xfe, 0xc1, 0x2f, 0x81, 0x3d, 0x90,
  0x58, 0xec, 0xa0, 0xd1, 0xc0, 0x5b, 0xb8, 0x38, 0xc1, 0xfc, 0x0a, 0x72,
  0xe3, 0xfa, 0xd7, 0x06, 0xb2, 0x52, 0x4c, 0x4f, 0xd2, 0x3d, 0x5b, 0x1a,
  0xee, 0x96, 0x98, 0x14, 0x14, 0x52, 0x72, 0xfc, 0x19, 0xf3, 0x91, 0xdf,
  0x6d, 0xa8, 0xfa, 0x2b, 0x52, 0x44, 0xf8, 0xb4, 0xf5, 0xde, 0xcf, 0x13,
  0x02, 0xf0, 0x5a, 0x2f, 0xe5, 0x2f, 0x6b, 0xe8, 0x67, 0x93, 0x57, 0x1d,
  0x94, 0x6f, 0xbb, 0x37, 0x73, 0x5b, 0xea, 0x78, 0x03, 0x6f, 0x52, 0x56,
  0xa4, 0x43, 0x0e, 0x58, 0x2e, 0x37, 0x32, 0xdc, 0x62, 0xc7, 0x2c, 0xf8,
  0x90, 0x13, 0x20, 0xe1, 0xd2, 0x46, 0xc5, 0x38, 0xb1, 0x3b, 0x26, 0x47,
  0xac, 0xfd, 0xcc, 0xc5, 0xb7, 0xa6, 0xdb, 0xad, 0xf9, 0x34, 0xed, 0x11,
  0xa7, 0x41, 0x61, 0xe4, 0x45, 0x65, 0xbb, 0xd4, 0xed, 0x1a, 0xd2, 0xcc,
  0x03, 0x06, 0xd8, 0x5e, 0xbb, 0x56, 0xb8, 0x0a, 0xb5, 0x43, 0x1c, 0xe8,
  0xac, 0x4f, 0x6a, 0xa0, 0x26, 0x45, 0xb7, 0x1b, 0xd8, 0x9b, 0x2f, 0x5b,
  0x37, 0x41, 0xc6, 0xd0, 0x1b, 0x3d, 0xee, 0x03, 0xc4, 0x34, 0x3e, 0xd1,
  0x9f, 0xc4, 0xe8, 0xc0, 0xf7, 0xa7, 0xfc, 0x4a, 0x28, 0x9e, 0xf0, 0x43,
  0x74, 0xb9, 0x32, 0x11, 0x0e, 0x78, 0xb0, 0x3e, 0xc3, 0xe5, 0xd9, 0x34,
  0xfd, 0xd9, 0x9a, 0x41, 0xb4, 0x9a, 0xcb, 0x84, 0x8f, 0xfa, 0xec, 0x4c,
  0x8b, 0x4b, 0xfd, 0xdd, 0xe6, 0xda, 0x07, 0xbc, 0x3e, 0x45, 0x6d, 0xbb,
  0x85, 0xe6, 0x68, 0x8d, 0xa8, 0x4f, 0x69, 0x23, 0x55, 0xcf, 0x40, 0x73,
  0x13, 0x99, 0x2b, 0x47, 0xe1, 0x58, 0xf8, 0xc6, 0x6e, 0x5a, 0x00, 0xd7,
  0x5d, 0xb2, 0x70, 0xec, 0x42, 0xa4, 0x98, 0x88, 0x57, 0xc9, 0x99, 0xe9,
  0xff, 0xfb, 0xd6, 0x7a, 0xc2, 0xbd, 0xcc, 0x55, 0x01, 0x01, 0xcb, 0x5b,
  0x45, 0x07, 0x99, 0x42, 0x8e, 0x26, 0x96, 0x0a, 0x8b, 0x5b, 0x94, 0x88,
  0x29, 0xd9, 0xc4, 0x48, 0x56, 0xb9, 0xeb, 0x0a, 0xe6, 0x48, 0x20, 0x25,
  0x65, 0xe1, 0x6c, 0x1b, 0xca, 0x52, 0x68, 0x21, 0xea, 0x53, 0xb0, 0x0b,
  0x5b, 0x6d, 0xa8, 0xd7, 0x95, 0x66, 0x9b, 0x62, 0x2c, 0x3a, 0xc4, 0xe4,
  0x79, 0x1f, 0x31, 0x41, 0xf9, 0x4d, 0x40, 0xa0, 0xf4, 0x07, 0xad, 0x81,
  0xb3, 0x38, 0x6d, 0xd7, 0xdb, 0xf4, 0xbb, 0x8d, 0xa8, 0xe0, 0xa2, 0xc3,
  0xe6, 0x72, 0xc5, 0xfe, 0x1d, 0xb0, 0x30, 0x02, 0x1b, 0x6b, 0x60, 0x47,
  0x4c, 0x35, 0x9f, 0xb5, 0xdb, 0xd3, 0xbc, 0x61, 0x4c, 0x30, 0x52, 0x4f,
  0xce, 0x21, 0xf9, 0x3c, 0x08, 0xf1, 0xe4, 0xbf, 0xa7, 0x2b, 0x08, 0x06,
  0x9c, 0x1e, 0xef, 0xb9, 0xa8, 0x65, 0x25, 0x76, 0x64, 0xf7, 0xe4, 0x07,
  0x13, 0x7a, 0xbf, 0x2f, 0xfc, 0xce, 0x91, 0x6a, 0x3e, 0xa7, 0xd7, 0x54,
  0x24, 0xb4, 0xdb, 0x55, 0xd4, 0x93, 0xae, 0x61, 0x4a, 0xdf, 0x67, 0xb2,
  0xc3, 0x2b, 0x5f, 0x5f, 0x24, 0xb5, 0x29, 0x04, 0x3e, 0x29, 0x4e, 0x00,
  0xed, 0x03, 0x09, 0xbc, 0x75, 0x1c, 0x3e, 0x1d, 0x55, 0x3b, 0x2d, 0xd6,
  0x2d, 0x11, 0x57, 0x89, 0xc8, 0xf4, 0x09, 0xf6, 0xd9, 0xee, 0xc6, 0xda,
  0xc9, 0x79, 0xe5, 0x43, 0x1d, 0x6a, 0x20, 0xbe, 0xa1, 0xe7, 0x0b, 0xc0,
  0x55, 0x70, 0x9f, 0xae, 0x64, 0x25, 0xa3, 0x42, 0x43, 0x99, 0x4f, 0x65,
  0x00, 0x64, 0x5e, 0xf9, 0x05, 0xc8, 0x20, 0xd8, 0x22, 0xab, 0xef, 0x03,
  0x94, 0xa6, 0x4f, 0x57, 0x67, 0x1e, 0xee, 0x48, 0x0f, 0xba, 0xbc, 0x35,
  0xaf, 0x35, 0x20, 0x1f, 0xc5, 0x59, 0x92, 0x45, 0x1f, 0x12, 0x10, 0x98,
  0xa1, 0x07, 0xda, 0x28, 0xb5, 0xc1, 0xd7, 0xdf, 0x31, 0xa4, 0x58, 0x6f,
  0x1b, 0x3d, 0xc7, 0x78, 0x53, 0xdd, 0xc8, 0xb0, 0x04, 0x32, 0x95, 0x35,
  0xd6, 0x01, 0xc4, 0x9d, 0x14, 0x01, 0x99, 0x4f, 0xbd, 0x9b, 0xee, 0xca,
  0x51, 0xb0, 0xcf, 0x34, 0xb3, 0xc2, 0x94, 0x15, 0xfb, 0xe8, 0x4e, 0x9e,
  0x48, 0x50, 0x35, 0xeb, 0x3c, 0xeb, 0xe2, 0x4d, 0x0b, 0x0b, 0xed, 0xf3,
  0x04, 0x4a, 0x24, 0x3a, 0x5e, 0xdc, 0xe0, 0x1a, 0xdd, 0xc4, 0x52, 0xa5,
  0x24, 0x27, 0x05, 0xaa, 0x13, 0xea, 0xda, 0x0e, 0xc4, 0xb1, 0xa6, 0x78,
  0x0e, 0x22, 0xba, 0x4c, 0x4b, 0x7f, 0x51, 0xf6, 0x23, 0xac, 0x21, 0x0f,
  0x43, 0x01, 0xc5, 0x29, 0xd2, 0x11, 0xea, 0x42, 0xd0, 0xd5, 0x0d, 0xf3,
  0x6d, 0xb1, 0x9d, 0xe9, 0xc8, 0x00, 0xe2, 0xee, 0x93, 0xa2, 0xfe, 0x2b,
  0xa5, 0xce, 0x73, 0xe3, 0x5d, 0x2a, 0x1e, 0x2b, 0x63, 0x9f, 0xcb, 0xcd,
  0x82, 0x73, 0x30, 0xde, 0x4e, 0x77, 0x3e, 0xc5, 0xf8, 0x75, 0xdc, 0x47,
  0x39, 0x28, 0xac, 0xed, 0x25, 0x68, 0x35, 0x10, 0xd6, 0xf4, 0xfd, 0x9f,
  0x9a, 0xda, 0xff, 0x43, 0xda, 0xa8, 0xb5, 0x99, 0x34, 0x0b, 0x4a, 0x68,
  0x18, 0xbf, 0x1a, 0xe3, 0xed, 0x34, 0xb1, 0x27, 0xf8, 0x39, 0x05, 0x4f,
  0x20, 0xc9, 0x50, 0xff, 0x21, 0x89, 0x50, 0xa9, 0xca, 0x54, 0x4f, 0x85,
  0x81, 0x8a, 0x92, 0xf3, 0xb7, 0xb2, 0x98, 0xc5, 0x68, 0x1f, 0xbe, 0xa7,
  0x23, 0x00, 0xe7, 0x36, 0xa1, 0xff, 0x64, 0x57, 0xca, 0xab, 0x42, 0x35,
  0xa9, 0xfd, 0xdd, 0xbf, 0xb3, 0x82, 0x24, 0xeb, 0xb1, 0xbe, 0xd5, 0xc7,
  0xbc, 0x56, 0x4f, 0xc9, 0xf8, 0xad, 0xb7, 0xc4, 0xf3, 0x61, 0xc3, 0xa6,
  0xe8, 0x8e, 0xce, 0xab, 0xb4, 0x9e, 0xf5, 0xa8, 0x52, 0x54, 0xe6, 0xa5,
  0xc4, 0x61, 0x6e, 0x29, 0xc9, 0xdd, 0xa4, 0xac, 0x9a, 0xd8, 0xf7, 0xd3,
  0xd0, 0xff, 0x2c, 0x5d, 0x54, 0xc2, 0x78, 0x48, 0xfb, 0x63, 0x9b, 0xde,
  0x48, 0xdb, 0x57, 0x05, 0x18, 0xb7, 0xb2, 0x66, 0x61, 0xa1, 0x1e, 0xd3,
  0xd0, 0x41, 0x21, 0x29, 0xb8, 0x36, 0xc1, 0x18, 0x8b, 0x88, 0x73, 0xff,
  0x65, 0x14, 0xfa, 0x70, 0x51, 0x02, 0xbc, 0xc0, 0x81, 0xd9, 0x66, 0x9f,
  0x60, 0x34, 0x05, 0x82, 0xc9, 0xaa, 0x48, 0xe9, 0xca, 0xdf, 0x2b, 0x90,
  0x6a, 0x1c, 0x0e, 0x77, 0x75, 0xee, 0xb2, 0x85, 0xb4, 0x1e, 0x58, 0x19,
  0xcd, 0x14, 0xb7, 0x00, 0x2a, 0x8f, 0x4b, 0xed, 0x3f, 0xf3, 0x23, 0x3b,
  0xdf, 0x08, 0x45, 0xb7, 0x46, 0x1c, 0x41, 0x97, 0x54, 0xed, 0xec, 0xd8,
  0x23, 0x2b, 0xa4, 0xfd, 0x63, 0xe4, 0xb8, 0xf3, 0x53, 0x50, 0x38, 0xca,
  0x28, 0x5e, 0x0e, 0xf3, 0x9e, 0xf5, 0x99, 0x1f, 0x11, 0xd2, 0x02, 0x38,
  0x27, 0x2e, 0x08, 0x44, 0x58, 0xde, 0x37, 0x41, 0xe2, 0xd8, 0xef, 0xae,
  0xf0, 0xe5, 0xa6, 0xe5, 0x4e, 0x16, 0x62, 0x9d, 0x55, 0x0e, 0xad, 0xf1,
  0xd1, 0x01, 0x3e, 0x27, 0x61, 0xf9, 0xf6, 0x4c, 0xc7, 0xf1, 0xe3, 0x3a,
  0xa7, 0x05, 0x24, 0x58, 0x81, 0x01, 0xc3, 0xfc, 0x2a, 0x57, 0xce, 0xa9,
  0x99, 0xb5, 0x62, 0xf1, 0x22, 0x15, 0xfb, 0x23, 0xb4, 0x51, 0xc8, 0x0c,
  0xf3, 0x2a, 0x55, 0x12, 0x29, 0xe0, 0x37, 0x4d, 0xc2, 0x3c, 0x5d, 0x92,
  0xb4, 0xec, 0xc7, 0xc0, 0xa1, 0xb1, 0xa6, 0x98, 0xf5, 0x11, 0x49, 0x1b,
  0x50, 0x6f, 0x0d, 0xb8, 0x99, 0x26, 0x2b, 0xa1, 0xa1, 0xd8, 0xd6, 0x62,
  0x18, 0x64, 0x0d, 0xfa, 0x20, 0x13, 0x0d, 0x07, 0x3b, 0x2f, 0xfc, 0xb9,
  0x37, 0xe4, 0xe2, 0x3c, 0x22, 0xa9, 0xdb, 0x34, 0xca, 0xc3, 0xda, 0xe0,
  0x2d, 0xac, 0x0c, 0x54, 0xfc, 0xd4, 0x01, 0x35, 0x45, 0x32, 0xcf, 0xd3,
  0xf1, 0xc7, 0x4e, 0xda, 0x9d, 0xad, 0x3e, 0xd3, 0xd5, 0x35, 0xdd, 0xb2,
  0x6f, 0xa9, 0xa4, 0x6b, 0xed, 0x00, 0x44, 0xcc, 0xe1, 0x56, 0x43, 0xb2,
  0x57, 0x5c, 0xad, 0xe4, 0xe1, 0x42, 0x2e, 0x7c, 0x43, 0xff, 0xcd, 0x49,
  0x02, 0xa9, 0xbe, 0x21, 0xd7, 0x50, 0x5b, 0xc5, 0x07, 0xbe, 0xe5, 0xbc,
  0x47, 0x41, 0xd9, 0x42, 0x3c, 0x32, 0xd6, 0xdc, 0xe8, 0xa8, 0x1e, 0xda,
  0x30, 0x5e, 0x15, 0xc3, 0x9c, 0x21, 0x2a, 0xfe, 0x96, 0xc9, 0xde, 0x0c,
  0xf7, 0xf6, 0xa4, 0x24, 0xa8, 0xd6, 0x09, 0xf6, 0x2b, 0xc1, 0x11, 0xd1,
  0xc7, 0xec, 0x37, 0xd1, 0xd9, 0x31, 0x31, 0x29, 0xa4, 0xe6, 0x54, 0x62,
  0xa0, 0x8d, 0xb0, 0x5e, 0x3c, 0xfb, 0xd7, 0x7a, 0x8e, 0xec, 0x26, 0xc8,
  0x02, 0xe1, 0xb9, 0x9d, 0xd6, 0x7a, 0x41, 0x4b, 0xa5, 0x98, 0x66, 0xfa,
  0x8c, 0x28, 0xb1, 0xf4, 0xad, 0xac, 0xc4, 0x9d, 0x07, 0x55, 0x5f, 0x25,
  0x7a, 0xcf, 0x5b, 0x43, 0x00, 0x92, 0x82, 0x4c, 0x81, 0xac, 0xdb, 0x66,
  0xb7, 0xeb, 0xf0, 0xe9, 0x70, 0xf2, 0x68, 0x55, 0x37, 0xb0, 0x1f, 0xa9,
  0xc5, 0xf7, 0x8f, 0xd0, 0x55, 0x36, 0xab, 0x8a, 0x2d, 0x2f, 0x31, 0x10,
  0xff, 0x9d, 0x57, 0x9a, 0xdb, 0x55, 0xeb, 0xc5, 0xa9, 0x36, 0xfb, 0x27,
  0xac, 0x13, 0x76, 0x62, 0x26, 0xb9, 0x23, 0x07, 0x54, 0xc4, 0x9d, 0xb9,
  0x9e, 0x09, 0x00, 0x6f, 0xae, 0x86, 0xb0, 0xf6, 0x1c, 0x5b, 0x60, 0xeb,
  0x56, 0x3a, 0xf9, 0xbc, 0xe3, 0x74, 0xc5, 0x3a, 0xb0, 0x1a, 0x1f, 0xaa,
  0xb7, 0xcf, 0xef, 0x21, 0xbd, 0xb8, 0xcf, 0x0d, 0x75, 0x1d, 0x32, 0x37,
  0x81, 0xae, 0x96, 0x95, 0x8f, 0xb3, 0x00, 0x8d, 0x97, 0x6e, 0x0a, 0x57,
  0x2e, 0x95, 0xdf, 0x38, 0x02, 0x82, 0x49, 0xc9, 0x8b, 0x70, 0xcc, 0x65,
  0x9a, 0xb7, 0x19, 0x62, 0x47, 0x4a, 0x33, 0xca, 0xfa, 0xa7, 0x64, 0xe6,
  0xe7, 0xf8, 0xad, 0xcb, 0x89, 0x05, 0xdf, 0xf1, 0xa5, 0xe0, 0x25, 0x47,
  0x48, 0x90, 0x46, 0xbe, 0xaa, 0xe4, 0xed, 0x0b, 0xb7, 0x9b, 0xb2, 0x99,
  0x37, 0xec, 0xe4, 0x6d, 0x36, 0xe9, 0x30, 0x42, 0x1d, 0xe2, 0xba, 0x0d,
  0x71, 0x84, 0xcb, 0x52, 0x27, 0x0a, 0x38, 0x3c, 0x16, 0x5e, 0x78, 0x02,
  0xfe, 0xa1, 0x8f, 0x23, 0xf3, 0x30, 0x42, 0x62, 0x99, 0x82, 0x21, 0xf5,
  0x26, 0x3c, 0x6a, 0xb5, 0xaf, 0xd4, 0x3f, 0xf6, 0x63, 0x67, 0xa2, 0x33,
  0x4b, 0x5b, 0x11, 0x5e, 0xc8, 0x21, 0xd5, 0xda, 0x1b, 0x26, 0xb4, 0x65,
  0x3b, 0x11, 0xcd, 0xca, 0xf9, 0x42, 0x5f, 0xef, 0x4e, 0xab, 0x59, 0xe5,
  0x04, 0xd2, 0x86, 0xac, 0xc9, 0xfe, 0x1e, 0x1b, 0x69, 0xaa, 0x8c, 0xba,
  0x53, 0x07, 0x25, 0x27, 0xeb, 0xce, 0x82, 0xbd, 0x00, 0x97, 0x8f, 0x2b,
  0x8f, 0xa3, 0x69, 0xc0, 0xc9, 0xfc, 0xb3, 0xbf, 0x3c, 0xd8, 0xf2, 0xc6,
  0x20, 0x00, 0x50, 0x96, 0x01, 0xe0, 0xbe, 0x2d, 0x51, 0x0b, 0x76, 0xc8,
  0x9f, 0x69, 0xe8, 0x6a, 0xed, 0x44, 0x0c, 0xaf, 0xc0, 0xe2, 0xee, 0x3a,
  0x4b, 0xe4, 0xd4, 0x7e, 0xb9, 0x71, 0x83, 0xc9, 0xfa, 0x7c, 0xe6, 0x82,
  0x90, 0x92, 0x6e, 0x93, 0x14, 0xfd, 0x49, 0x48, 0x0e, 0x69, 0xe8, 0x42,
  0x57, 0x8d, 0x29, 0x4c, 0x52, 0x3a, 0xf5, 0x11, 0x1b, 0x9f, 0xfc, 0xb4,
  0x6a, 0xe1, 0x63, 0x3b, 0xf3, 0x05, 0xdd, 0xe0, 0x0c, 0xca, 0x6d, 0x95,
  0x31, 0xcb, 0xff, 0x21, 0x27, 0x7f, 0xfa, 0x2f, 0x3f, 0x97, 0xa8, 0xe7,
  0x2a, 0x4c, 0x2d, 0xd5, 0x44, 0x12, 0xd9, 0x8c, 0xd6, 0x1b, 0x41, 0x85,
  0xe1, 0xe0, 0x52, 0x4a, 0x76, 0xda, 0x58, 0xd6, 0x7e, 0xec, 0xdb, 0xa5,
  0x34, 0x32, 0x69, 0x99, 0x25, 0x08, 0xc7, 0x56, 0x58, 0x99, 0xd5, 0xa1,
  0xb1, 0x8b, 0x1e, 0x12, 0x95, 0xc7, 0x1a, 0xfe, 0x5c, 0x8f, 0x1b, 0xe9,
  0xd6, 0xd1, 0x88, 0x29, 0x28, 0xea, 0x84, 0x15, 0x73, 0x85, 0xe2, 0x97,
  0x1e, 0x9f, 0x8c, 0xa2, 0x20, 0x6f, 0xac, 0x64, 0x9a, 0x58, 0x81, 0xf8,
  0xdd, 0xd5, 0x12, 0x06, 0xec, 0xb6, 0xd1, 0xdd, 0x41, 0xc0, 0x39, 0x76,
  0xde, 0x8e, 0x1f, 0x6d, 0x9d, 0xfc, 0x75, 0x62, 0x23, 0xda, 0x8c, 0x4e,
  0x82, 0xf1, 0x59, 0x2e, 0xfc, 0xfb, 0x5e, 0xe1, 0xb5, 0x90, 0x01, 0x23,
  0x9e, 0xb5, 0x91, 0xf2, 0x97, 0x41, 0x06, 0x65, 0xaa, 0xa7, 0xb3, 0x33,
  0x23, 0xfe, 0x7e, 0x14, 0x96, 0xaa, 0x03, 0xe6, 0xd9, 0xc1, 0xad, 0x72,
  0x87, 0xbc, 0x87, 0x99, 0x29, 0x55, 0x38, 0x8d, 0xbd, 0xd8, 0xf4, 0x81,
  0x3f, 0xbc, 0xee, 0xe6, 0xca, 0x35, 0xd0, 0x76, 0x75, 0x28, 0x00, 0x9b,
  0x1b, 0x2b, 0x10, 0x2b, 0x55, 0xd0, 0xf7, 0xbb, 0xea, 0xa3, 0xc3, 0xde,
  0x9e, 0xfc, 0x2d, 0x17, 0x08, 0x3a, 0x39, 0xb0, 0xc2, 0xc2, 0x64, 0x8b,
  0x90, 0x77, 0x8d, 0xe1, 0xc6, 0x4d, 0xeb, 0xd9, 0x24, 0x13, 0x8d, 0xcd,
  0xa1, 0x83, 0x97, 0xac, 0xc0, 0x82, 0x2e, 0xae, 0x07, 0xcb, 0xc8, 0x2d,
  0xea, 0x3c, 0x9b, 0xcb, 0xf4, 0xa3, 0x21, 0x22, 0xa6, 0x29, 0xaf, 0xf1,
  0x5c, 0x67, 0xd7, 0x31, 0xa9, 0x93, 0x3d, 0x8e, 0x0b, 0xbe, 0xd5, 0xb4,
  0x39, 0x35, 0x53, 0xe2, 0x44, 0x2e, 0x10, 0x46, 0x19, 0xd8, 0x53, 0x84,
  0x28, 0x3f, 0x10, 0xe7, 0xc3, 0x61, 0xf0, 0x66, 0x5c, 0x3b, 0x0b, 0x60,
  0x58, 0x2b, 0x60, 0x4c, 0x4e, 0xe1, 0xc8, 0xd5, 0x8e, 0x16, 0x8b, 0x45,
  0x01, 0x08, 0xf1, 0xb6, 0x06, 0x2a, 0x37, 0xed, 0xd3, 0x46, 0x14, 0x1a,
  0x5b, 0x42, 0xec, 0x13, 0x0f, 0x1a, 0xa6, 0x94, 0x13, 0x6a, 0x2c, 0x39,
  0x5d, 0x25, 0xae, 0x05, 0x43, 0xae, 0x45, 0x8a, 0xef, 0xaa, 0xae, 0x44,
  0x70, 0xf1, 0xf9, 0x8d, 0xc3, 0x3d, 0x5d, 0xa9, 0x08, 0x86, 0xc0, 0x54,
  0xb9, 0xa9, 0x95, 0xaf, 0xd1, 0xbc, 0x5a, 0xf1, 0x49, 0xfc, 0x57, 0xc5,
  0x49, 0x63, 0x72, 0x15, 0xd0, 0x93, 0xa5, 0x3d, 0xbe, 0xd2, 0xce, 0x2d,
  0xaf, 0x54, 0xc1, 0xaf, 0x05, 0xe7, 0x4c, 0x6c, 0xb1, 0x4b, 0x41, 0x75,
  0x4e, 0x46, 0x3b, 0x22, 0x33, 0x8a, 0x18, 0xa5, 0xa2, 0x10, 0x75, 0x2d,
  0x0e, 0x3f, 0x44, 0xfe, 0x3c, 0xf1, 0x3a, 0xf4, 0xc7, 0xd7, 0x75, 0xdb,
  0xeb, 0xaf, 0x64, 0xea, 0xef, 0xae, 0x68, 0x9d, 0xbd, 0x5a, 0xf5, 0x4b,
  0xff, 0xf1, 0x1c, 0x1c, 0xa8, 0x6b, 0x92, 0x50, 0xbe, 0x49, 0xe8, 0x91,
  0x5b, 0xd3, 0xf5, 0x8d, 0xfc, 0x9f, 0xd3, 0x47, 0xad, 0x55, 0xcb, 0x84,
  0xcd, 0x3c, 0x41, 0x8f, 0x13, 0xd2, 0x6d, 0x4f, 0x28, 0xb5, 0x42, 0xab,
  0x98, 0xb0, 0x4e, 0xf5, 0xe9, 0xc9, 0x8c, 0xcf, 0xff, 0x94, 0xee, 0x73,
  0x84, 0x08, 0xd4, 0xb7, 0xa9, 0x8a, 0x06, 0xbc, 0xf9, 0x53, 0xbc, 0x51,
  0x5a, 0xd9, 0xd6, 0xa2, 0x33, 0x71, 0xdd, 0x56, 0x24, 0xbd, 0xf1, 0x14,
  0xf3, 0x2d, 0xf6, 0xbd, 0x70, 0x99, 0x59, 0x9b, 0xdd, 0xda, 0x15, 0xd2,
  0x0a, 0x15, 0xdf, 0xdb, 0xca, 0xab, 0xe2, 0xcd, 0x65, 0x37, 0x07, 0x5f,
  0x8b, 0x16, 0x26, 0xb4, 0x47, 0xd6, 0x9d, 0xc7, 0x0e, 0x96, 0xf4, 0x65,
  0x61, 0xa8, 0x5a, 0x9a, 0x9f, 0xfc, 0x2a, 0x1e, 0x65, 0x08, 0xf5, 0xb1,
  0xc8, 0x52, 0xe8, 0xb6, 0x20, 0xac, 0xe9, 0xa1, 0x06, 0xd5, 0xe5, 0xe9,
  0x35, 0x25, 0x6f, 0xc0, 0x31, 0xaa, 0x90, 0x57, 0x34, 0xf6, 0xc8, 0x66,
  0xb4, 0xe7, 0x4d, 0xb8, 0x6b, 0x97, 0xbc, 0xc0, 0x1a, 0x74, 0x1d, 0x22,
  0xe9, 0xfb, 0x3f, 0x07, 0x70, 0x17, 0x1f, 0x22, 0xfc, 0x35, 0x60, 0x68,
  0x09, 0xd5, 0xc1, 0x3b, 0x59, 0xb8, 0x65, 0x50, 0x2c, 0x75, 0x9d, 0x23,
  0x6f, 0x70, 0x8e, 0xfe, 0x4d, 0x10, 0xf0, 0xb3, 0x34, 0xee, 0x93, 0x8f,
  0x1e, 0x8f, 0x06, 0x24, 0xf5, 0x63, 0x34, 0xf7, 0xc5, 0x52, 0x8a, 0x43,
  0x3b, 0x81, 0xd1, 0xc6, 0x2c, 0x27, 0x22, 0x2b, 0x5c, 0xcd, 0x71, 0x4d,
  0x23, 0xb0, 0xc0, 0x08, 0xcf, 0xfa, 0x74, 0x97, 0x1c, 0x26, 0x9b, 0xa5,
  0x6e, 0xf0, 0xc0, 0x6a, 0x5e, 0x32, 0x68, 0x9f, 0x42, 0xdd, 0xab, 0x04,
  0xe1, 0x04, 0x18, 0x75, 0x3d, 0x87, 0x24, 0x0f, 0x2b, 0x96, 0xb5, 0xc4,
  0xe5, 0xbf, 0xe1, 0xc6, 0xf2, 0xce, 0x2e, 0x4c, 0xea, 0x5c, 0x60, 0xcf,
  0x18, 0x17, 0xbe, 0xb3, 0x02, 0xe1, 0xe2, 0x42, 0xc2, 0xcd, 0xbf, 0x7f,
  0x01, 0xe4, 0xae, 0x70, 0xe4, 0x9c, 0xf2, 0x1f, 0x69, 0x3b, 0xcb, 0x4e,
  0xc6, 0xe4, 0xa5, 0x38, 0x02, 0xa4, 0x3b, 0xa3, 0x30, 0xd3, 0xe5, 0x64,
  0x0e, 0x67, 0xe8, 0x9a, 0xf2, 0xac, 0x29, 0xc4, 0xfa, 0xce, 0xf4, 0x30,
  0xbd, 0x4e, 0x50, 0xbe, 0xfa, 0x0f, 0x05, 0xaf, 0xc6, 0x00, 0x6e, 0x5e,
  0x72, 0xcc, 0x61, 0xe2, 0x33, 0xd1, 0x2d, 0x6f, 0x6a, 0x35, 0x2f, 0x99,
  0x64, 0xdc, 0x42, 0x5d, 0x0d, 0xc9, 0x6e, 0xff, 0xbf, 0xf5, 0x5e, 0x0a,
  0x51, 0x97, 0x2f, 0xcb, 0x24, 0xc1, 0x5b, 0x0a, 0x19, 0x98, 0x2d, 0xdb,
  0xd2, 0x3e, 0x3d, 0xe7, 0xa0, 0x2f, 0xf8, 0x3c, 0x72, 0xc7, 0x98, 0x2d,
  0x1c, 0x53, 0x26, 0x5c, 0xfc, 0xcb, 0x9e, 0x46, 0xaa, 0x55, 0xf8, 0x59,
  0xf5, 0xb6, 0x6f, 0x04, 0xb0, 0x1c, 0x66, 0xd5, 0xad, 0xe3, 0x18, 0xbd,
  0x69, 0xc2, 0xf1, 0x0a, 0xe9, 0x49, 0xb2, 0x40, 0x22, 0x3c, 0x5a, 0x08,
  0x7c, 0xe3, 0xc5, 0x67, 0xe9, 0xb5, 0x42, 0x64, 0xc2, 0x04, 0x34, 0xa1,
  0x20, 0xdf, 0xd5, 0x61, 0x91, 0x25, 0xf4, 0x61, 0x5c, 0x59, 0xed, 0xa7,
  0xc2, 0x01, 0xab, 0x3a, 0x5d, 0xa0, 0x1f, 0xcf, 0xed, 0x08, 0xd8, 0x3f,
  0x47, 0xeb, 0x1e, 0xfa, 0xb3, 0xbc, 0xc9, 0x26, 0x37, 0x65, 0x22, 0x5a,
  0x5b, 0xc9, 0xe7, 0x98, 0xdb, 0x0b, 0x87, 0x18, 0x57, 0x51, 0xe7, 0xa4,
  0xe7, 0x2d, 0x61, 0x1d, 0x52, 0x9f, 0xf5, 0x9c, 0xa7, 0xce, 0x43, 0xf2,
  0x72, 0x30, 0x09, 0x06, 0xbc, 0xba, 0xc2, 0xb9, 0xda, 0xc0, 0x70, 0x21,
  0x0e, 0xed, 0xbc, 0x52, 0x05, 0xc2, 0x19, 0x75, 0x5d, 0x58, 0x7e, 0xd2,
  0x32, 0x2e, 0xfe, 0x50, 0x71, 0x33, 0x32, 0xe0, 0xfd, 0xb2, 0x40, 0x4a,
  0x2c, 0x13, 0xc9, 0x1c, 0xb0, 0xfd, 0x07, 0xfe, 0xfd, 0xfa, 0xfb, 0xdb,
  0xfe, 0x34, 0xf9, 0xd5, 0xe0, 0x3a, 0xff, 0x14, 0x1a, 0x42, 0xee, 0xec,
  0xf4, 0x06, 0x57, 0xb2, 0xfa, 0xcb, 0x52, 0x4b, 0x21, 0x27, 0x2f, 0xe8,
  0x65, 0xb1, 0x2f, 0xfb, 0xe1, 0x31, 0x0c, 0xe7, 0xee, 0x2b, 0xfa, 0xed,
  0x31, 0x0c, 0x0c, 0x4b, 0xb3, 0x11, 0xd4, 0xe9, 0x15, 0x0c, 0xad, 0x48,
  0xf0, 0xb9, 0xcf, 0x45, 0x2e, 0x44, 0x38, 0xf8, 0xa7, 0xf8, 0x4f, 0x3a,
  0x38, 0x32, 0xd8, 0x56, 0x99, 0xa7, 0x38, 0x4f, 0xb8, 0x58, 0x09, 0x5a,
  0xd6, 0x4f, 0x1d, 0xec, 0xf6, 0x43, 0xf2, 0xdc, 0x01, 0x14, 0x38, 0xa2,
  0xf8, 0x39, 0xe6, 0xaa, 0xff, 0x2b, 0xc3, 0x40, 0x9d, 0x2a, 0xf2, 0xb1,
  0xfe, 0xcf, 0xaf, 0x2e, 0xf7, 0xa5, 0x50, 0x9c, 0xdc, 0x4a, 0x9e, 0x1d,
  0xec, 0xcb, 0x19, 0xa2, 0x97, 0x3d, 0x15, 0x9b, 0x0e, 0xa8, 0xa3, 0xc8,
  0xe1, 0x08, 0xae, 0x0e, 0x1e, 0x01, 0xb2, 0x05, 0xfe, 0x51, 0xef, 0x2d,
  0x0c, 0x08, 0x03, 0x40, 0x9d, 0xc5, 0xd4, 0xb1, 0x08, 0x55, 0xb0, 0xbc,
  0xd5, 0xe0, 0xf9, 0xb2, 0x0a, 0x30, 0xae, 0x23, 0x06, 0xcf, 0x3d, 0x08,
  0xde, 0xc5, 0x22, 0x1f, 0xa6, 0xb3, 0xe6, 0x5a, 0x36, 0xf6, 0xb7, 0xf2,
  0x41, 0xf8, 0x52, 0xde, 0xb3, 0x58, 0x55, 0x29, 0xe1, 0x52, 0xe8, 0xb2,
  0x23, 0x0d, 0x30, 0x1f, 0x3b, 0xad, 0x4c, 0xb8, 0xfb, 0xf6, 0x43, 0xbb,
  0x3c, 0xda, 0x47, 0xc2, 0x38, 0x0b, 0x09, 0x33, 0xfe, 0x2c, 0x32, 0xcd,
  0x1b, 0xf8, 0x22, 0x38, 0xc9, 0xc4, 0xc2, 0x09, 0x15, 0x06, 0xb8, 0xf2,
  0xfc, 0xb7, 0xe0, 0xaf, 0xe8, 0xcb, 0xd4, 0xe3, 0x7f, 0xfa, 0x3b, 0x53,
  0xee, 0x2d, 0x34, 0x20, 0x3d, 0x4c, 0xc7, 0x5d, 0x1b, 0x28, 0x29, 0x03,
  0x81, 0xeb, 0xed, 0xdd, 0xc3, 0xa2, 0x9f, 0x2e, 0x23, 0x2f, 0x36, 0xc9,
  0x8b, 0x4c, 0x1c, 0x51, 0xba, 0x2a, 0xe8, 0xde, 0xb6, 0x18, 0x29, 0x8d,
  0x30, 0x31, 0x61, 0x39, 0x29, 0x14, 0x13, 0x4c, 0xf0, 0x2a, 0x0f, 0xf1,
  0xc4, 0x38, 0x9a, 0xb2, 0x4e, 0xea, 0x13, 0xa2, 0xd6, 0xa1, 0x59, 0x03,
  0x19, 0xc5, 0x61, 0x3d, 0x64, 0x9b, 0xdc, 0xea, 0x10, 0x60, 0x3a, 0xc6,
  0xb0, 0x67, 0x05, 0xb4, 0x08, 0x29, 0x65, 0x0b, 0xf8, 0x13, 0xd1, 0x42,
  0xba, 0xf0, 0xab, 0x32, 0x3e, 0xb6, 0x21, 0x2c, 0x05, 0x65, 0x2e, 0xb2,
  0xd3, 0x0f, 0xb3, 0x5a, 0xc5, 0x9a, 0xc1, 0x42, 0xb4, 0x4b, 0x6c, 0x16,
  0xc1, 0xb4, 0x07, 0xba, 0xa6, 0xe2, 0xf5, 0x0f, 0xac, 0x36, 0xbb, 0x34,
  0x44, 0xf5, 0xd5, 0x67, 0xfe, 0x95, 0x5a, 0x16, 0x36, 0x51, 0x29, 0x4a,
  0x33, 0x5d, 0xa0, 0xe6, 0x49, 0xfe, 0x55, 0xdc, 0x1b, 0x9a, 0xe5, 0x47,
  0xed, 0x9b, 0xc1, 0x35, 0x13, 0x18, 0xb5, 0x10, 0xe7, 0x2a, 0xb9, 0x9e,
  0xcd, 0x21, 0xcf, 0x48, 0xe5, 0xea, 0x06, 0x94, 0xf7, 0x01, 0x21, 0x52,
  0xa5, 0x9c, 0x15, 0xb6, 0xf3, 0x60, 0x53, 0xf7, 0x4c, 0xc2, 0x6e, 0x02,
  0x5a, 0xa5, 0x35, 0xc5, 0xc4, 0xca, 0xb1, 0x07, 0x83, 0x62, 0xd5, 0xa0,
  0x9d, 0x21, 0xf3, 0x16, 0x69, 0x01, 0x49, 0x3a, 0x59, 0x22, 0xbc, 0xda,
  0x8c, 0x5f, 0x12, 0xe9, 0xb0, 0x04, 0x6a, 0x3d, 0x6d, 0x2d, 0x07, 0x50,
  0xb3, 0xc1, 0xe6, 0x61, 0x47, 0x6b, 0x31, 0xf4, 0x66, 0x8a, 0x02, 0x55,
  0xb1, 0x1c, 0x05, 0x46, 0xfe, 0xf1, 0x67, 0xa1, 0x4c, 0x3d, 0x34, 0xb4,
  0x01, 0x10, 0x23, 0xf0, 0xdb, 0xd3, 0x5e, 0x83, 0x99, 0x8e, 0x8e, 0x13,
  0x45, 0x70, 0x49, 0x2e, 0x19, 0xf3, 0x1d, 0xe0, 0x16, 0x9f, 0x83, 0x4c,
  0xf6, 0x61, 0xf0, 0x87, 0xb2, 0xdc, 0xc2, 0x3c, 0x06, 0xf9, 0xac, 0xba,
  0x84, 0x4b, 0x5e, 0xa1, 0xbf, 0x81, 0xf8, 0xbd, 0x35, 0xe5, 0x58, 0xbf,
  0xa5, 0x1d, 0x1f, 0xbe, 0x42, 0x0b, 0x35, 0xb2, 0xb1, 0x4b, 0x2b, 0xc9,
  0xce, 0xd4, 0xb4, 0xe2, 0x03, 0x94, 0xd9, 0xad, 0xea, 0xf4, 0xc8, 0x53,
  0x34, 0x28, 0x9b, 0x59, 0x2d, 0x8f, 0xc7, 0x71, 0xa6, 0x87, 0x5a, 0xb7,
  0x4b, 0xe7, 0xae, 0x5d, 0xef, 0x4d, 0x95, 0x9d, 0x31, 0x8a, 0x97, 0x14,
  0xb6, 0xc7, 0x4b, 0xe3, 0x3a, 0x07, 0xd1, 0xf4, 0xea, 0x64, 0x0b, 0xae,
  0x64, 0xed, 0x74, 0x6b, 0x45, 0xb3, 0x61, 0x3c, 0xd0, 0x2a, 0xd3, 0x55,
  0xf0, 0xd1, 0x49, 0x7d, 0x66, 0x94, 0x39, 0x53, 0x24, 0x3b, 0xa6, 0x9b,
  0x00, 0xcc, 0xdd, 0x67, 0xaf, 0x6a, 0x32, 0x5c, 0xd2, 0x3c, 0x63, 0xc8,
  0x25, 0x0c, 0x92, 0x47, 0xd9, 0xa6, 0xc5, 0x7d, 0x28, 0xde, 0xa1, 0xb9,
  0xaf, 0x09, 0xdd, 0x18, 0xbe, 0x0a, 0xf6, 0x97, 0x0d, 0x61, 0x05, 0x13,
  0xa3, 0x5e, 0xe7, 0x3d, 0x47, 0xe4, 0x3f, 0xd4, 0x41, 0xb9, 0xbb, 0xde,
  0xee, 0x3c, 0x9b, 0xae, 0x27, 0x69, 0x1f, 0xcc, 0x17, 0xde, 0xb4, 0x62,
  0xc5, 0xee, 0x8d, 0xde, 0xf4, 0xb7, 0x14, 0x73, 0x89, 0xbd, 0x2f, 0x37,
  0xdf, 0x32, 0x93, 0x0f, 0xfc, 0x23, 0xc8, 0x6b, 0x6a, 0x06, 0xa7, 0x30,
  0x40, 0xf6, 0x6b, 0x4b, 0x26, 0x28, 0x24, 0xdc, 0x65, 0xdd, 0xc1, 0xa1,
  0xb2, 0x22, 0x4c, 0xc4, 0x3a, 0x69, 0xbb, 0xd1, 0x6e, 0x21, 0x16, 0xfc,
  0xce, 0xa9, 0x11, 0x32, 0x6f, 0x05, 0x40, 0x5c, 0x44, 0x7e, 0x43, 0xb1,
  0x11, 0x4e, 0xbe, 0x97, 0x88, 0x3f, 0x30, 0xde, 0x9e, 0x5c, 0xfc, 0xca,
  0x0d, 0x19, 0x4d, 0x62, 0xe7, 0x65, 0xd2, 0xaa, 0x42, 0x57, 0x29, 0x67,
  0x69, 0x6a, 0x5d, 0x4c, 0xae, 0xc0, 0x32, 0x7b, 0xd0, 0x57, 0xeb, 0x24,
  0x61, 0x4e, 0xa1, 0x9c, 0x92, 0xf8, 0xa8, 0x59, 0xe3, 0x97, 0xc1, 0xe0,
  0x4c, 0xd0, 0x5e, 0xc5, 0x3e, 0xd0, 0x4e, 0x4f, 0x9b, 0x30, 0x41, 0x25,
  0x54, 0x5a, 0xab, 0x52, 0xc7, 0xbd, 0x32, 0xa7, 0xae, 0xcb, 0x57, 0xd9,
  0xfe, 0x93, 0x53, 0xd5, 0xb6, 0xdb, 0x03, 0xbc, 0x3c, 0x4d, 0x06, 0x2c,
  0xdf, 0xd7, 0xd2, 0x27, 0x11, 0x89, 0x85, 0x44, 0xc0, 0xcb, 0x95, 0xdf,
  0x66, 0xd0, 0xe5, 0x24, 0x37, 0x37, 0x03, 0xcc, 0x09, 0x5a, 0xc1, 0x98,
  0x41, 0xb3, 0x60, 0x40, 0xdd, 0xbe, 0x05, 0xf8, 0xcf, 0x3c, 0xf6, 0xca,
  0xf4, 0x44, 0xaa, 0x3e, 0x17, 0xde, 0x53, 0xae, 0xdd, 0xc9, 0x4a, 0xf8,
  0xb7, 0x64, 0x24, 0xde, 0x06, 0x4d, 0xac, 0xe9, 0x4c, 0xc0, 0x2f, 0x2d,
  0xda, 0x27, 0x0f, 0x54, 0xf0, 0x32, 0xca, 0x38, 0x3b, 0xd3, 0x9a, 0xd6,
  0x23, 0x00, 0x2a, 0x2d, 0x86, 0x3c, 0xf4, 0x65, 0xf2, 0xe5, 0xcb, 0xdd,
  0xfc, 0xbc, 0xf5, 0x24, 0x07, 0x52, 0x02, 0xe4, 0x2d, 0x91, 0x0c, 0x13,
  0xaf, 0xba, 0xc5, 0xaa, 0x02, 0xad, 0xd2, 0x14, 0xa4, 0xa3, 0x9a, 0xb1,
  0x2e, 0xc5, 0x64, 0x08, 0x49, 0x51, 0x56, 0xb6, 0xe4, 0x47, 0xe3, 0xd9,
  0xeb, 0x73, 0xaf, 0xfa, 0x56, 0x40, 0x93, 0x93, 0x25, 0x58, 0x0f, 0xd8,
  0xdb, 0x10, 0x4d, 0xf6, 0xdb, 0x4e, 0xfa, 0x55, 0xd7, 0xff, 0xa1, 0xd8,
  0x15, 0x54, 0xfa, 0xfb, 0xfa, 0x37, 0xb8, 0x1e, 0xb6, 0x9b, 0x1e, 0x55,
  0xf1, 0xed, 0x07, 0x2f, 0x4a, 0x33, 0xb5, 0xd7, 0xfb, 0xfe, 0x30, 0xf9,
  0x57, 0x66, 0x03, 0x29, 0xe2, 0x56, 0x4c, 0xdc, 0x22, 0xc2, 0xc6, 0x3d,
  0x64, 0x0e, 0x00, 0x42, 0x3c, 0xe4, 0x4f, 0xfe, 0xa9, 0x05, 0x5b, 0xaf,
  0xca, 0x4c, 0x57, 0xaf, 0x53, 0x7f, 0x26, 0x4a, 0xfa, 0xc9, 0xa6, 0x03,
  0x68, 0x17, 0x0e, 0xd5, 0xf7, 0x53, 0x24, 0x55, 0xb2, 0x14, 0xa7, 0x30,
  0x5a, 0xa6, 0x51, 0xf0, 0x31, 0x40, 0xb9, 0x21, 0x59, 0xcd, 0x70, 0xa9,
  0x5b, 0x73, 0xf9, 0xc8, 0xad, 0xdc, 0x33, 0x53, 0xc2, 0xc0, 0xca, 0x31,
  0x4d, 0xbe, 0xda, 0xac, 0xa1, 0x02, 0xd8, 0xf2, 0xf7, 0xc3, 0xd0, 0x41,
  0xfa, 0x47, 0x30, 0xa2, 0x66, 0x3a, 0xe8, 0xd7, 0x39, 0x3f, 0x4a, 0x53,
  0xde, 0xdb, 0x01, 0x2b, 0xc3, 0xca, 0xd0, 0x9c, 0xef, 0x78, 0xcd, 0x42,
  0x55, 0x09, 0x68, 0x33, 0xc7, 0xb0, 0xce, 0xc3, 0x42, 0xee, 0xce, 0xbd,
  0x17, 0xcb, 0xba, 0x62, 0x91, 0x13, 0x16, 0x10, 0x3c, 0xa5, 0xa5, 0xd0,
  0x24, 0xda, 0xde, 0x1e, 0xb1, 0xfd, 0xfc, 0x54, 0xd0, 0x67, 0xa5, 0x24,
  0xb5, 0x26, 0x8c, 0x47, 0x5a, 0x3d, 0xae, 0xcc, 0xde, 0x3e, 0x55, 0xee,
  0xb6, 0x40, 0x01, 0x0b, 0x54, 0x01, 0x17, 0x48, 0x30, 0x6c, 0xda, 0x1d,
  0xb7, 0x47, 0xb9, 0xdb, 0x14, 0xd0, 0xc3, 0x48, 0xc3, 0xe6, 0x00, 0x58,
  0xa2, 0x29, 0xf1, 0xc1, 0xfc, 0x49, 0x24, 0x13, 0x57, 0x4d, 0x18, 0x09,
  0xa4, 0x97, 0xc7, 0x4f, 0xab, 0x10, 0x40, 0xf9, 0x4f, 0x19, 0xbf, 0xb5,
  0xc1, 0xd3, 0x12, 0xf1, 0xcd, 0xa2, 0xc7, 0x0d, 0xdd, 0xc4, 0x39, 0x15,
  0x12, 0x5e, 0x51, 0xc2, 0x4e, 0x50, 0xef, 0x62, 0x65, 0xfc, 0x56, 0x69,
  0x58, 0xb7, 0xc0, 0x5c, 0xef, 0xdf, 0x76, 0xd6, 0x43, 0x42, 0x3c, 0xdc,
  0x1d, 0x76, 0x48, 0x44, 0xa5, 0xdb, 0x11, 0x15, 0xaa, 0xa4, 0x43, 0xbd,
  0xf6, 0xe4, 0x46, 0x1c, 0xbe, 0xa1, 0xf5, 0xa6, 0x2d, 0xbf, 0xcd, 0x4e,
  0x1f, 0x45, 0xb2, 0x3a, 0x9f, 0xdc, 0x20, 0x52, 0xa6, 0x31, 0xeb, 0x5c,
  0x3d, 0xcd, 0xd6, 0x47, 0xad, 0xa1, 0x22, 0xe7, 0x1e, 0x81, 0x4f, 0xc3,
  0xc4, 0x50, 0xd0, 0xc5, 0xb7, 0x63, 0x39, 0xe8, 0x2c, 0x2c, 0x91, 0x53,
  0xdc, 0x4c, 0x39, 0x0c, 0xa2, 0x6c, 0x02, 0xe2, 0x33, 0x18, 0x1d, 0x01,
  0xdd, 0x25, 0x70, 0x16, 0x26, 0x3e, 0x5f, 0x97, 0xef, 0x1e, 0x09, 0x33,
  0xaa, 0x64, 0x52, 0xb5, 0x9e, 0x31, 0x9b, 0x17, 0x01, 0x63, 0xee, 0x0c,
  0xcd, 0xe1, 0x17, 0xa3, 0x2f, 0xa8, 0xda, 0x24, 0xd8, 0x1f, 0xf9, 0xfb,
  0x4f, 0xe2, 0x20, 0x5d, 0x3b, 0x02, 0xde, 0x6a, 0x42, 0xd8, 0x37, 0x51,
  0xc0, 0x53, 0xa6, 0x9f, 0x49, 0xf7, 0x23, 0x05, 0x04, 0x46, 0xf2, 0xbc,
  0xb2, 0x16, 0xeb, 0xd5, 0xd9, 0x88, 0x3b, 0x9f, 0xee, 0xab, 0x04, 0xd1,
  0x62, 0x2f, 0x56, 0x94, 0xba, 0x57, 0xe1, 0x74, 0x4f, 0x90, 0x32, 0x0f,
  0xee, 0xb0, 0xa2, 0xd7, 0xcf, 0x93, 0x45, 0xa9, 0xf5, 0x27, 0xd1, 0xaf,
  0xaf, 0x09, 0x3c, 0xb9, 0x6b, 0x6c, 0xf7, 0x4e, 0x6c, 0xea, 0xf5, 0x89,
  0x52, 0xb7, 0x01, 0x3c, 0x38, 0xc3, 0xa1, 0xcd, 0x0e, 0xee, 0x10, 0xf7,
  0xba, 0x25, 0xa2, 0x31, 0x1a, 0x7e, 0xdf, 0x7c, 0xcf, 0x48, 0xa9, 0xd3,
  0x08, 0x06, 0x21, 0xac, 0x6f, 0x2c, 0xb8, 0x5c, 0x3a, 0x05, 0x1c, 0x28,
  0x81, 0xa7, 0x8f, 0xb8, 0xd3, 0xf8, 0x0b, 0xdd, 0xc5, 0x4a, 0xcf, 0xc7,
  0xe1, 0x7f, 0xdf, 0x0a, 0xbc, 0x2a, 0xd2, 0x5e, 0xfe, 0x36, 0xc9, 0xeb,
  0x45, 0xcd, 0x48, 0x00, 0xcc, 0x64, 0x35, 0x5d, 0xd1, 0xae, 0x47, 0x66,
  0x31, 0x16, 0x0c, 0x18, 0x56, 0x06, 0x56, 0xde, 0x5b, 0x98, 0x0b, 0xba,
  0x03, 0xff, 0xe0, 0xf8, 0x1b, 0xbb, 0x64, 0xba, 0x98, 0x70, 0xd8, 0x38,
  0x02, 0x59, 0x0d, 0xe0, 0xe0, 0x8d, 0xe1, 0xcc, 0xf2, 0x32, 0xb7, 0xc1,
  0x57, 0x4a, 0xb8, 0x9d, 0xad, 0xc7, 0x48, 0xb1, 0x4e, 0xde, 0x0c, 0x50,
  0x8e, 0x33, 0xfa, 0x9c, 0xad, 0x0c, 0xdd, 0x1d, 0x6f, 0xcc, 0x00, 0xe3,
  0xb3, 0xec, 0xa1, 0x77, 0x4f, 0x8b, 0xbc, 0xf7, 0x99, 0xed, 0x6e, 0x52,
  0x62, 0xc4, 0x70, 0xaa, 0x63, 0xa3, 0x10, 0x61, 0x7a, 0x27, 0x94, 0xdc,
  0xf0, 0x4c, 0x04, 0x29, 0x37, 0xc6, 0x03, 0xe0, 0xcc, 0xbc, 0x20, 0xb1,
  0x2f, 0x72, 0x6b, 0xd6, 0xfd, 0x59, 0xe7, 0xd4, 0x74, 0xdb, 0x8f, 0x50,
  0xbb, 0x63, 0x9c, 0xba, 0xf5, 0x11, 0xaa, 0xf0, 0x5f, 0x64, 0xf9, 0x69,
  0x17, 0xd3, 0xfa, 0xfe, 0x67, 0x29, 0xc9, 0xbc, 0x0c, 0x8f, 0x4c, 0x43,
  0x1c, 0xaf, 0xb9, 0x87, 0x8a, 0x9a, 0x1f, 0x62, 0xa8, 0xe2, 0xb2, 0xc8,
  0x00, 0x0c, 0x0f, 0xae, 0x41, 0x73, 0xe9, 0x48, 0x26, 0x10, 0xc4, 0x1c,
  0xb4, 0x3a, 0x15, 0x65, 0x96, 0x23, 0x12, 0x86, 0x75, 0xfe, 0xe4, 0xec,
  0xa0, 0xd3, 0x2c, 0xa2, 0x05, 0x90, 0x37, 0x37, 0xf8, 0xee, 0x8f, 0xbd,
  0x50, 0x74, 0x86, 0xa9, 0xbc, 0x00, 0xa3, 0x4c, 0xf9, 0x23, 0xf2, 0xf6,
  0xcb, 0x8a, 0xf2, 0xd1, 0xa9, 0x81, 0x6e, 0x06, 0xf3, 0x1d, 0xc9, 0xe1,
  0x87, 0xc9, 0x73, 0xf6, 0x22, 0x94, 0x9e, 0x24, 0x3a, 0x4f, 0xd7, 0x11,
  0xc0, 0x98, 0x37, 0x7a, 0xda, 0xa1, 0x76, 0xda, 0x16, 0xcc, 0x61, 0x0c,
  0xe2, 0x1c, 0x70, 0x9a, 0xa6, 0xf9, 0x58, 0xa7, 0xef, 0x08, 0x55, 0x1c,
  0x72, 0x4e, 0x8d, 0x79, 0x8d, 0x55, 0xae, 0xb8, 0xac, 0x75, 0x38, 0x0c,
  0xa5, 0x47, 0xb7, 0x79, 0x90, 0x0d, 0x9b, 0x00, 0xeb, 0x06, 0x0d, 0x3c,
  0x94, 0x28, 0x7a, 0xce, 0x74, 0x72, 0x10, 0x2c, 0x0e, 0xb5, 0x56, 0xd3,
  0xfa, 0x49, 0x58, 0xba, 0xb2, 0x15, 0xdb, 0x97, 0x8c, 0x2a, 0x8f, 0xd8,
  0xfa, 0xfc, 0x6f, 0xb1, 0x2b, 0x8f, 0xef, 0xcd, 0xf2, 0xe6, 0xac, 0xe3,
  0x6b, 0xf2, 0xc8, 0x13, 0x0a, 0xc4, 0x2a, 0x21, 0x8c, 0x46, 0x05, 0xfa,
  0xbe, 0x7e, 0xd9, 0xc9, 0x3c, 0x62, 0x19, 0x03, 0x12, 0x57, 0x21, 0x1b,
  0xbb, 0x3e, 0xfe, 0xfc, 0xad, 0xa4, 0x5b, 0xad, 0x9e, 0x1e, 0x22, 0x67,
  0x0e, 0x30, 0xe2, 0xdb, 0x92, 0x04, 0xf9, 0xee, 0x30, 0xd6, 0xfe, 0xd6,
  0x38, 0x1d, 0x03, 0x50, 0x4a, 0x18, 0x2f, 0x2c, 0xae, 0x2f, 0xab, 0x5d,
  0x67, 0x9d, 0x4c, 0x20, 0x35, 0x4c, 0x9c, 0x3e, 0x91, 0x25, 0x23, 0xd3,
  0xe1, 0xa8, 0xc1, 0x36, 0xf8, 0xd6, 0x86, 0xc2, 0x34, 0xdb, 0x0e, 0x37,
  0x85, 0x0b, 0x8f, 0xd4, 0xeb, 0xf8, 0x68, 0x8b, 0x1c, 0x4e, 0xe5, 0x13,
  0x54, 0x20, 0x37, 0xb0, 0xb4, 0x67, 0x98, 0x4f, 0xd5, 0x9a, 0x3b, 0x18,
  0xa3, 0xc8, 0x6d, 0xac, 0x29, 0x45, 0x00, 0xd8, 0x76, 0x17, 0x44, 0x21,
  0x72, 0x39, 0x12, 0x67, 0x14, 0x61, 0xe0, 0xea, 0x01, 0x32, 0xb0, 0x73,
  0x07, 0xa7, 0x52, 0x64, 0x6b, 0xd7, 0xb0, 0x61, 0xfd, 0x08, 0xa6, 0x68,
  0xda, 0xb2, 0x38, 0x25, 0xae, 0x82, 0xef, 0xfc, 0xc5, 0x16, 0x6b, 0xee,
  0x2f, 0x00, 0xc7, 0xf3, 0xb9, 0x7f, 0x4f, 0x97, 0x6d, 0x66, 0xc2, 0x4d,
  0x08, 0xd7, 0x70, 0x65, 0x38, 0x9d, 0xe6, 0xca, 0x3c, 0xd3, 0x58, 0x43,
  0xdf, 0x86, 0x65, 0x82, 0xc8, 0x1b, 0xcf, 0x2d, 0xc3, 0x23, 0x42, 0x57,
  0x53, 0x0e, 0x53, 0xf0, 0x0d, 0x8c, 0x54, 0xc1, 0x0d, 0xbb, 0x66, 0xdb,
  0x06, 0x9b, 0x51, 0x34, 0x8e, 0xd4, 0x5d, 0x9a, 0xe1, 0xf4, 0xc9, 0x11,
  0x08, 0x3c, 0x1c, 0xca, 0xe8, 0x21, 0x31, 0x1f, 0xa6, 0xf3, 0x53, 0xfb,
  0x42, 0xe4, 0x2b, 0xe7, 0x51, 0x9a, 0xc3, 0x50, 0xdb, 0xaf, 0x8c, 0x4d,
  0xba, 0x39, 0x50, 0x29, 0xa7, 0x65, 0xd9, 0xd2, 0x6b, 0xb7, 0x40, 0x63,
  0xf3, 0xe1, 0xad, 0x25, 0x52, 0xa3, 0x4f, 0xfc, 0x03, 0x6f, 0xa5, 0x37,
  0xb5, 0xe8, 0x2d, 0xa8, 0x8b, 0x45, 0x62, 0xa3, 0xc8, 0x89, 0x57, 0x53,
  0xdc, 0x73, 0x77, 0x51, 0xda, 0x7f, 0x81, 0x59, 0x56, 0x29, 0xaf, 0xb7,
  0xd7, 0xa3, 0xa9, 0xf1, 0xcf, 0x95, 0xa9, 0xb1, 0xd4, 0x86, 0x3e, 0xd0,
  0x24, 0x13, 0x9e, 0xfb, 0xc6, 0x98, 0xba, 0xa8, 0x97, 0x86, 0x14, 0x87,
  0xff, 0xdd, 0xc4, 0x31, 0xbd, 0x7e, 0xa0, 0x9f, 0xe0, 0x52, 0x0d, 0x02,
  0x03, 0x5a, 0xb3, 0x8f, 0x67, 0x14, 0xc1, 0x3f, 0x03, 0x7d, 0x90, 0x4e,
  0x0b, 0xb7, 0xe8, 0x62, 0xd0, 0x56, 0x2f, 0xbe, 0x62, 0xb7, 0x75, 0x4e,
  0x9d, 0x04, 0x8c, 0x5c, 0x88, 0x4e, 0x32, 0xcb, 0xe6, 0xb3, 0x1c, 0xa6,
  0xa6, 0xfe, 0xc2, 0xf3, 0xb6, 0xaf, 0x05, 0x74, 0x96, 0x5a, 0x07, 0x86,
  0x5f, 0x70, 0x3d, 0x5c, 0xe0, 0xb7, 0xf6, 0xad, 0x51, 0x94, 0x64, 0x2b,
  0x39, 0x7d, 0x8b, 0x49, 0x31, 0x75, 0x60, 0x57, 0x7f, 0x77, 0x24, 0x6b,
  0xc2, 0xeb, 0x59, 0x31, 0x5a, 0xad, 0x0b, 0xe7, 0x2e, 0x44, 0x2d, 0x2f,
  0xdf, 0x14, 0xe7, 0x3c, 0xe2, 0xa1, 0x52, 0x02, 0x91, 0xbb, 0xf4, 0x86,
  0xcb, 0x11, 0x8a, 0xed, 0x09, 0x77, 0x36, 0x81, 0x21, 0x5b, 0xf8, 0xf9,
  0x63, 0xaa, 0xa1, 0xd1, 0xa7, 0x19, 0x18, 0x0d, 0x81, 0x30, 0x3f, 0xd3,
  0xec, 0x2a, 0xf7, 0x38, 0x53, 0xd1, 0x7f, 0x4d, 0x8c, 0x10, 0xc6, 0xd0,
  0x90, 0xc8, 0x29, 0x4d, 0x2f, 0xaf, 0xee, 0x5b, 0x7a, 0x95, 0xa0, 0xc0,
  0xc1, 0x76, 0x31, 0x37, 0x3a, 0xd2, 0x39, 0x91, 0xb0, 0x78, 0xa7, 0xd6,
  0xc2, 0x0e, 0xb7, 0x54, 0x1d, 0xa9, 0xff, 0xe2, 0x87, 0x05, 0x02, 0x94,
  0x16, 0xc4, 0xa1, 0x2a, 0xec, 0xa7, 0xcf, 0xe2, 0x64, 0xc6, 0xf0, 0x53,
  0xc5, 0xda, 0xc4, 0x77, 0x69, 0x1f, 0x83, 0xb1, 0x14, 0x58, 0xda, 0x46,
  0xcf, 0xec, 0xb7, 0xe4, 0x5b, 0x0a, 0xb2, 0x84, 0x4c, 0x1f, 0x50, 0x78,
  0xd1, 0x9b, 0xe6, 0xb3, 0x13, 0xc0, 0x4d, 0x40, 0x4e, 0xff, 0x9b, 0xfd,
  0x52, 0x9d, 0x3e, 0xba, 0xeb, 0x0a, 0xbd, 0xe6, 0xc9, 0x5e, 0x57, 0x32,
  0xe8, 0x51, 0x06, 0xa6, 0x10, 0x2d, 0xc0, 0xc6, 0xe0, 0xcd, 0x76, 0x65,
  0x3c, 0xeb, 0xa6, 0xd5, 0xdf, 0x23, 0x75, 0x1a, 0x21, 0x1a, 0x1c, 0x26,
  0x42, 0x52, 0x98, 0x8b, 0xd2, 0x2e, 0x1a, 0x37, 0xbe, 0x6a, 0x05, 0x22,
  0xab, 0xf3, 0xcb, 0xfd, 0x97, 0x40, 0x38, 0x25, 0x93, 0xa2, 0xfc, 0x8b,
  0xd6, 0x95, 0x36, 0xf3, 0x57, 0xb0, 0xd9, 0x22, 0xa6, 0xe7, 0xf8, 0xaa,
  0xff, 0xd4, 0xbc, 0x3c, 0x19, 0xc6, 0x07, 0x2a, 0x56, 0xf8, 0xa4, 0x47,
  0x55, 0x3e, 0x01, 0xf6, 0x38, 0x4d, 0xa8, 0xc4, 0x5a, 0x38, 0x34, 0x02,
  0x4b, 0x16, 0xa3, 0x5f, 0x5e, 0xcc, 0x19, 0xf0, 0xac, 0xe7, 0x38, 0x8a,
  0xda, 0x2a, 0x0e, 0x40, 0x97, 0xb3, 0x54, 0xcc, 0xdc, 0x1c, 0x53, 0x0e,
  0x0b, 0x38, 0x93, 0x25, 0x3e, 0xbb, 0x08, 0xb2, 0xd8, 0xeb, 0xc7, 0x36,
  0x39, 0xa0, 0x61, 0x07, 0x69, 0xff, 0xa8, 0x32, 0x2a, 0x02, 0x9c, 0x57,
  0x3f, 0xdf, 0x2f, 0xfe, 0xe4, 0xc3, 0x93, 0xd7, 0xaa, 0x05, 0x3e, 0x0a,
  0x60, 0xf7, 0xde, 0xe2, 0x81, 0xf8, 0xf8, 0x37, 0xb7, 0xfa, 0x3f, 0x2e,
  0x0a, 0x34, 0xad, 0xe1, 0xf3, 0x2d, 0x3f, 0x17, 0x2e, 0xb6, 0xd8, 0x30,
  0x9a, 0xf5, 0x9a, 0x4e, 0xd9, 0x78, 0x37, 0x38, 0x97, 0x2d, 0xbc, 0xad,
  0x1b, 0x73, 0x97, 0xba, 0x32, 0x7b, 0x9e, 0x62, 0xa4, 0x5d, 0x64, 0x56,
  0x3a, 0x56, 0xd4, 0x6c, 0xc0, 0x1a, 0x64, 0xdb, 0xe5, 0xee, 0x3b, 0xd0,
  0xd2, 0x53, 0xba, 0xe2, 0xdf, 0xc6, 0x39, 0xcc, 0xfe, 0x7a, 0x3f, 0x36,
  0xe5, 0xfc, 0xad, 0x67, 0xaa, 0x46, 0x23, 0x79, 0xcc, 0xfd, 0x73, 0x44,
  0x12, 0x5d, 0xac, 0x4b, 0xc8, 0x22, 0xdc, 0xd2, 0x2c, 0x1d, 0xef, 0x01,
  0x69, 0x46, 0xa3, 0xf2, 0xf5, 0xd1, 0xa8, 0x32, 0x39, 0x4b, 0xce, 0x3c,
  0xb3, 0xe0, 0x06, 0x2a, 0xb3, 0xb4, 0xb5, 0x20, 0xd4, 0x12, 0x3a, 0x5c,
  0xa7, 0x4f, 0x4e, 0xb8, 0x10, 0xe3, 0x16, 0x69, 0xd1, 0xf7, 0x27, 0xbf,
  0x65, 0x2e, 0xd6, 0xfb, 0xab, 0x26, 0xc8, 0xf8, 0xa5, 0xe8, 0x4a, 0x08,
  0xfa, 0x55, 0x18, 0xd0, 0x09, 0xb5, 0xfb, 0x40, 0xe9, 0xe4, 0xe8, 0x19,
  0xdc, 0x2a, 0x06, 0x58, 0x50, 0x61, 0x59, 0x42, 0xbe, 0xe3, 0xb2, 0x01,
  0x03, 0xf8, 0x3d, 0x65, 0x3f, 0xd0, 0x48, 0xb6, 0x60, 0xa7, 0xaa, 0xe0,
  0x2e, 0x13, 0xd2, 0x31, 0x04, 0xe6, 0xc4, 0x1d, 0x47, 0xd5, 0x29, 0xd7,
  0x32, 0x01, 0x42, 0x18, 0x5b, 0xb7, 0xd0, 0x05, 0xd1, 0xd7, 0x4a, 0xa6,
  0x23, 0xec, 0xe3, 0x1b, 0xc8, 0x5c, 0xa6, 0x08, 0xeb, 0x19, 0xae, 0xfc,
  0x57, 0xfe, 0x2c, 0x40, 0xdd, 0xa5, 0xb0, 0x52, 0xe5, 0xc6, 0x56, 0x3a,
  0x98, 0x18, 0x1a, 0xf9, 0x45, 0x08, 0x69, 0x19, 0x90, 0x11, 0xc0, 0x4b,
  0x05, 0x9d, 0x50, 0xbf, 0x49, 0xe5, 0x9c, 0x4b, 0x97, 0xa3, 0x12, 0xe1,
  0xf9, 0x56, 0xed, 0xab, 0x69, 0xf7, 0xda, 0x59, 0x28, 0xae, 0xa7, 0xbe,
  0x52, 0x7f, 0x45, 0x1a, 0x69, 0x09, 0xd7, 0x5c, 0xde, 0x77, 0xf9, 0x4d,
  0xe1, 0x4e, 0x62, 0xae, 0xdf, 0xe0, 0xbf, 0xc1, 0x21, 0x15, 0x45, 0xfa,
  0x23, 0xbc, 0xf8, 0x29, 0x20, 0xb6, 0x04, 0x2c, 0xed, 0x59, 0xcc, 0x18,
  0xb2, 0x08, 0x27, 0x01, 0x54, 0x46, 0x06, 0x59, 0x05, 0xf9, 0xd9, 0xdd,
  0x4e, 0xf8, 0xa9, 0xaa, 0x9d, 0xa5, 0x13, 0x0f, 0x03, 0xd9, 0x27, 0xf9,
  0x33, 0xac, 0xb7, 0x14, 0x37, 0xbf, 0x41, 0xa2, 0x0c, 0xbf, 0xd5, 0xe7,
  0x65, 0x9a, 0xf3, 0x93, 0x4b, 0xe3, 0xf3, 0xb6, 0xbd, 0x22, 0x57, 0x25,
  0xee, 0xa4, 0xb4, 0xba, 0x40, 0x24, 0xd1, 0xcf, 0x42, 0xd7, 0x1f, 0x94,
  0xfe, 0x68, 0x9e, 0x9c, 0xbf, 0x53, 0xc5, 0x55, 0x51, 0x46, 0xde, 0x2a,
  0xd1, 0x18, 0x56, 0x11, 0x3c, 0xdd, 0x0d, 0xa4, 0x60, 0x06, 0x65, 0x1c,
  0xae, 0xf7, 0x95, 0x50, 0xbf, 0xa3, 0xfb, 0xfa, 0x18, 0x29, 0x36, 0x8b,
  0x1f, 0xd8, 0x6d, 0x4b, 0xea, 0xef, 0xb0, 0x9b, 0xbd, 0x50, 0xc0, 0x34,
  0xab, 0x30, 0x5e, 0x0c, 0x23, 0x4a, 0x62, 0x36, 0xa4, 0x06, 0x5f, 0x6d,
  0x3b, 0xca, 0xe5, 0xdd, 0xbc, 0xdf, 0xa5, 0x92, 0xef, 0xf7, 0x06, 0x53,
  0xd2, 0x30, 0x1c, 0x26, 0x3c, 0x46, 0xf2, 0x42, 0x06, 0xa9, 0x50, 0x94,
  0x9c, 0xaf, 0x39, 0x3a, 0xc0, 0xa3, 0xa2, 0x94, 0xc0, 0x60, 0x43, 0x47,
  0x4b, 0x32, 0x56, 0x50, 0x1d, 0xb3, 0xb8, 0x37, 0xd5, 0x3f, 0xb2, 0x3d,
  0xe4, 0xf8, 0x07, 0x3d, 0xd1, 0x0f, 0xf0, 0x20, 0xf7, 0x62, 0xe3, 0x24,
  0x67, 0xaa, 0x6f, 0x5c, 0xc6, 0x5d, 0xcc, 0xda, 0xfa, 0x92, 0x3c, 0xa6,
  0xb8, 0x9f, 0xed, 0xba, 0x6d, 0x91, 0xc5, 0xca, 0x3a, 0x8b, 0x33, 0x8d,
  0xc9, 0x43, 0x38, 0x3d, 0x2f, 0x1e, 0x56, 0x23, 0x25, 0x3c, 0xeb, 0xbc,
  0x47, 0x8f, 0x5d, 0x9f, 0xb1, 0xb1, 0x64, 0xe0, 0x9d, 0x33, 0x0e, 0xc4,
  0x25, 0xea, 0x28, 0x12, 0xaa, 0xe9, 0xad, 0xe2, 0x54, 0xb0, 0x94, 0xda,
  0xa3, 0xad, 0xa9, 0xb3, 0x48, 0x14, 0xbd, 0x44, 0xd4, 0x0f, 0x26, 0xc7,
  0x17, 0x54, 0x4e, 0xe2, 0x3a, 0x89, 0xa1, 0xd3, 0xe6, 0x81, 0x8e, 0x60,
  0x0b, 0x1e, 0xe3, 0xe0, 0x2f, 0x55, 0x28, 0xda, 0xc3, 0xd0, 0x0c, 0xd5,
  0xdf, 0xe6, 0x16, 0x98, 0xeb, 0x20, 0x82, 0xce, 0x0c, 0xc1, 0xa0, 0xc4,
  0x55, 0xb0, 0x1e, 0x3a, 0xaa, 0x59, 0xd7, 0xd3, 0x95, 0xd2, 0x5d, 0xe3,
  0x03, 0x2a, 0xe8, 0x67, 0xe8, 0x15, 0xb9, 0x96, 0x01, 0xa5, 0x9b, 0xeb,
  0xed, 0x13, 0x43, 0xe5, 0x57, 0xf0, 0x38, 0xa3, 0x13, 0x04, 0xc9, 0x6d,
  0xd3, 0x44, 0x63, 0x05, 0xaf, 0x90, 0x22, 0x0c, 0xbd, 0x8d, 0x0e, 0x0f,
  0x9e, 0x39, 0x2c, 0xcf, 0xdb, 0xc5, 0x16, 0x33, 0x1c, 0xc5, 0x9c, 0xe3,
  0x61, 0x02, 0x17, 0xe8, 0x46, 0xb9, 0xb9, 0x65, 0xaf, 0x2f, 0x50, 0x8c,
  0x32, 0x39, 0x14, 0x14, 0x01, 0xa4, 0xdb, 0xc7, 0xa0, 0xd2, 0x4a, 0xe1,
  0x66, 0x46, 0x31, 0x55, 0x21, 0x89, 0x50, 0x4d, 0xe9, 0xec, 0x59, 0xee,
  0x0b, 0x04, 0xd3, 0x6f, 0x19, 0x43, 0x08, 0x25, 0xa3, 0xdd, 0x63, 0xfb,
  0x9d, 0x28, 0x41, 0xda, 0x50, 0xc8, 0xf1, 0x62, 0x93, 0xf3, 0xb0, 0x69,
  0x93, 0x44, 0x39, 0x5b, 0x0a, 0xe7, 0x52, 0x31, 0xd0, 0xa8, 0x01, 0x22,
  0xea, 0xfd, 0x37, 0x34, 0x24, 0xb6, 0xd3, 0xfe, 0xfc, 0xb3, 0xd2, 0x08,
  0x4d, 0xeb, 0x57, 0xb5, 0x6a, 0xc5, 0x06, 0xda, 0xc6, 0x49, 0xe8, 0x63,
  0x31, 0x19, 0x4b, 0xdc, 0x00, 0x6a, 0xfe, 0x9e, 0xbb, 0xd9, 0xea, 0xec,
  0x84, 0xf9, 0x23, 0xee, 0x20, 0xb7, 0x20, 0xfb, 0xf4, 0xcc, 0x54, 0xc6,
  0x0c, 0x18, 0x87, 0xc7, 0xa5, 0x21, 0x26, 0xc9, 0x21, 0xeb, 0x68, 0x40,
  0x44, 0xab, 0xf4, 0x32, 0x90, 0x27, 0xe5, 0x97, 0x35, 0x3b, 0xe8, 0x1b,
  0x81, 0xdb, 0x65, 0xb2, 0x09, 0x1a, 0xeb, 0x89, 0xf8, 0x4d, 0x0e, 0x15,
  0x8c, 0xae, 0x5b, 0x35, 0x57, 0x0c, 0x9b, 0x00, 0x64, 0xae, 0x03, 0x33,
  0x33, 0x25, 0xfe, 0xfd, 0x8d, 0xb9, 0xa2, 0xf8, 0xfd, 0xae, 0xa0, 0xf2,
  0xa6, 0xd0, 0x9f, 0x30, 0x5d, 0x43, 0xb9, 0xb5, 0xe5, 0xc2, 0xb6, 0xcc,
  0x63, 0x0d, 0xc4, 0x29, 0x40, 0xc9, 0x4c, 0xe0, 0x94, 0x15, 0x14, 0x01,
  0xdf, 0xdf, 0x75, 0x5a, 0x61, 0x63, 0xc2, 0x30, 0xfe, 0x0c, 0xcf, 0x39,
  0x06, 0x0f, 0xd5, 0x12, 0xd5, 0xcf, 0xb8, 0xf7, 0x03, 0xab, 0x94, 0xa1,
  0xc7, 0x11, 0xb0, 0x50, 0x35, 0x44, 0x58, 0x81, 0x48, 0x56, 0x23, 0xce,
  0x31, 0x4d, 0x17, 0x74, 0xd9, 0x8e, 0x91, 0x50, 0xf5, 0x78, 0x19, 0xf9,
  0x20, 0x8c, 0xf9, 0xe4, 0x21, 0xa3, 0x2d, 0x88, 0xf0, 0x3c, 0xc0, 0xf8,
  0xf7, 0x0d, 0x9a, 0x47, 0x9f, 0x55, 0xd5, 0xe4, 0x5b, 0x2c, 0x1b, 0x29,
  0x8b, 0xe4, 0x67, 0xd0, 0x46, 0x5e, 0x57, 0xca, 0xed, 0x05, 0x5f, 0x29,
  0x37, 0xab, 0xfa, 0x16, 0xf4, 0x1f, 0xae, 0x15, 0x27, 0xfe, 0xa6, 0xd4,
  0xf5, 0x63, 0xe3, 0xdf, 0xba, 0x32, 0x51, 0x39, 0xbc, 0xb2, 0xae, 0x0e,
  0x0b, 0x20, 0xc7, 0xfd, 0x14, 0xe3, 0x75, 0x50, 0xe8, 0x18, 0xad, 0x6a,
  0x61, 0xfc, 0x4a, 0xc7, 0xac, 0x26, 0x03, 0xdd, 0xfa, 0x60, 0x9e, 0x1d,
  0x57, 0x6a, 0x99, 0x1a, 0x03, 0x44, 0x57, 0x05, 0xbe, 0xa0, 0x28, 0xba,
  0xb7, 0x73, 0x0c, 0xce, 0x2e, 0x50, 0x04, 0xb2, 0x64, 0x63, 0x29, 0x71,
  0xb8, 0xc2, 0x06, 0x0d, 0xf3, 0xcc, 0x1c, 0xfe, 0xb3, 0x65, 0xb8, 0xf4,
  0x04, 0xaa, 0x21, 0xa1, 0xdc, 0xfe, 0xd6, 0xe8, 0x1e, 0x03, 0xcd, 0x31,
  0xe0, 0x2f, 0x33, 0xe9, 0x02, 0x53, 0x31, 0x63, 0xfb, 0x28, 0xd9, 0x46,
  0x46, 0x03, 0x88, 0x31, 0x33, 0x15, 0x6e, 0xf0, 0xc0, 0x2d, 0x08, 0x1c,
  0xca, 0xfd, 0xc0, 0xb0, 0xab, 0x12, 0xeb, 0xac, 0xca, 0xd9, 0xdf, 0x4d,
  0x26, 0x4b, 0xeb, 0x4d, 0x61, 0xa0, 0xe2, 0x68, 0x44, 0xfd, 0x5e, 0x92,
  0xa6, 0x62, 0xe4, 0x82, 0x68, 0x1b, 0x66, 0x26, 0x48, 0xfe, 0xb7, 0x25,
  0x9a, 0xe6, 0x2a, 0x51, 0x02, 0x2e, 0x8f, 0x29, 0xa1, 0x1e, 0xa6, 0x45,
  0xb0, 0x93, 0x15, 0x9c, 0x43, 0x5a, 0x14, 0xbb, 0x26, 0xe2, 0x9d, 0x51,
  0xd8, 0x57, 0x11, 0x58, 0x51, 0xfa, 0x51, 0x1e, 0xe8, 0x16, 0x57, 0x0f,
  0xd3, 0x63, 0x62, 0x44, 0x63, 0x44, 0xc6, 0xc7, 0x53, 0x15, 0x94, 0x00,
  0xf5, 0x90, 0x98, 0xd1, 0x33, 0xa6, 0x34, 0xa4, 0x55, 0x10, 0xfc, 0xb0,
  0x4d, 0x13, 0x18, 0xe5, 0x9b, 0xa9, 0x18, 0x10, 0x2b, 0x69, 0xae, 0xda,
  0xf4, 0x0d, 0xfd, 0x2c, 0xfb, 0xb9, 0x98, 0xe7, 0xce, 0xf2, 0x9e, 0x0d,
  0xf1, 0xf9, 0x64, 0x0f, 0xd8, 0xe1, 0x60, 0x59, 0xe7, 0x6e, 0xde, 0xee,
  0x27, 0xcd, 0xf8, 0xe2, 0x52, 0x66, 0x1c, 0xf0, 0xa3, 0xf6, 0xbb, 0xcd,
  0x2e, 0x4d, 0x3d, 0xa2, 0x3c, 0xad, 0x11, 0x4b, 0x0c, 0x37, 0xc8, 0x51,
  0x40, 0xd1, 0xb0, 0x6b, 0xb0, 0xa4, 0xc4, 0x0e, 0x00, 0xe5, 0x29, 0x16,
  0x46, 0x3f, 0x36, 0xaf, 0xeb, 0x50, 0x0e, 0x97, 0x50, 0x31, 0x57, 0xd1,
  0xdc, 0xce, 0xc7, 0xec, 0x64, 0xfe, 0xa7, 0xae, 0xc3, 0x10, 0xd8, 0xf0,
  0x6e, 0xb8, 0xbd, 0x05, 0x55, 0x18, 0x2c, 0x52, 0xdf, 0x1e, 0xed, 0xbe,
  0xda, 0x40, 0xd3, 0x1d, 0x9d, 0x98, 0xc6, 0x59, 0x45, 0x18, 0x5a, 0x3a,
  0x39, 0x24, 0x00, 0x5d, 0x4d, 0x55, 0x29, 0x7f, 0x1c, 0x4f, 0x0b, 0x5a,
  0xe0, 0x2f, 0xac, 0x00, 0xf2, 0x40, 0x71, 0xbd, 0xc7, 0x98, 0x1b, 0xa7,
  0xb9, 0xa1, 0x1a, 0xa6, 0xf8, 0xe2, 0x4f, 0x43, 0x28, 0x1d, 0x6e, 0xdd,
  0x37, 0x32, 0xc4, 0x9f, 0x6e, 0xb5, 0xc7, 0xd2, 0x60, 0xb6, 0xca, 0xd3,
  0x48, 0xa0, 0x1b, 0xc3, 0x1c, 0xba, 0x06, 0xdd, 0xc6, 0xbf, 0xea, 0x49,
  0x90, 0x2c, 0x0b, 0xd7, 0x3b, 0xc6, 0x22, 0x20, 0xd6, 0x95, 0x2a, 0xc9,
  0x5a, 0x1d, 0x4a, 0xa8, 0xb0, 0x33, 0x41, 0x23, 0xad, 0xfe, 0xdb, 0xfa,
  0xbc, 0xdd, 0xff, 0xc5, 0x68, 0x42, 0x21, 0xa9, 0xcb, 0xf5, 0x29, 0x2c,
  0xeb, 0x93, 0x6f, 0xe0, 0x82, 0xdc, 0x96, 0x7b, 0x54, 0x0e, 0x21, 0x72,
  0x8b, 0xbd, 0x34, 0x09, 0xc8, 0x42, 0xd4, 0xe0, 0x94, 0x7d, 0x85, 0x84,
  0xbb, 0x8e, 0xf3, 0xff, 0x69, 0x8c, 0xad, 0x98, 0x45, 0x9b, 0x21, 0x3a,
  0x43, 0x72, 0xe6, 0x06, 0x94, 0x9f, 0xe3, 0x21, 0x1b, 0xa1, 0x3a, 0x82,
  0x59, 0x03, 0xaa, 0xc3, 0xbe, 0x75, 0x0f, 0xc5, 0x1b, 0xe3, 0xc5, 0x6d,
  0x81, 0x85, 0xf0, 0x93, 0x30, 0x7d, 0x66, 0x01, 0xda, 0x59, 0x04, 0xa3,
  0x81, 0xf0, 0xb9, 0x72, 0xb3, 0xd7, 0x9e, 0x4d, 0xa3, 0x6d, 0xe6, 0x71,
  0xae, 0x47, 0xf6, 0xa6, 0x55, 0x2b, 0xd2, 0xe5, 0x07, 0x32, 0x04, 0x17,
  0xe3, 0xc5, 0xb1, 0x63, 0x82, 0x32, 0xd2, 0x05, 0x31, 0x7c, 0x90, 0x29,
  0xc5, 0xd3, 0x2d, 0x21, 0x4c, 0x8a, 0xfe, 0x5e, 0xb2, 0xfc, 0x62, 0x59,
  0xc6, 0xd8, 0x6e, 0x19, 0x24, 0xdb, 0xc3, 0x22, 0x97, 0x93, 0x17, 0x6a,
  0x0c, 0xf0, 0xfb, 0x04, 0xd8, 0x13, 0xcb, 0x57, 0xc5, 0x8c, 0x13, 0x09,
  0x4c, 0x33, 0x81, 0x2a, 0x44, 0x9a, 0xd9, 0x8b, 0xf2, 0x9c, 0x4d, 0x78,
  0xbe, 0x43, 0x11, 0xe5, 0xb4, 0x78, 0x1c, 0x19, 0xa1, 0xf4, 0x32, 0xee,
  0x46, 0x42, 0xaf, 0xcb, 0xe0, 0x87, 0xf3, 0xbb, 0x41, 0xd5, 0xa3, 0xd4,
  0x18, 0x21, 0xe7, 0xd8, 0xee, 0x23, 0x84, 0xa6, 0xd0, 0x10, 0x9f, 0x1e,
  0xf1, 0xdd, 0xa8, 0xf6, 0x52, 0xad, 0x47, 0xae, 0xee, 0x3b, 0x0a, 0x62,
  0xce, 0x6e, 0xbd, 0x42, 0x51, 0x3c, 0x5f, 0x30, 0x51, 0x4e, 0x87, 0x20,
  0xcc, 0x17, 0x30, 0xa1, 0x11, 0x5b, 0xca, 0xa2, 0x19, 0xbf, 0xcf, 0x5b,
  0x9e, 0x4f, 0xb5, 0x58, 0xb9, 0x77, 0x5d, 0x99, 0x13, 0xf7, 0x6d, 0x1a,
  0x9c, 0x58, 0x1b, 0x4c, 0x6b, 0x13, 0xf0, 0x8d, 0x63, 0x8e, 0xe6, 0xb7,
  0xa6, 0xf0, 0x33, 0x2f, 0x07, 0xf1, 0x1a, 0x88, 0xf0, 0xa0, 0xd8, 0xa9,
  0x8f, 0x14, 0x46, 0x32, 0xb9, 0xb0, 0xaa, 0x58, 0x94, 0xd8, 0x8b, 0x5a,
  0x1c, 0x0f, 0xa8, 0x2d, 0xc5, 0x27, 0x95, 0x16, 0xe3, 0xde, 0xc0, 0x65,
  0xbd, 0x17, 0x42, 0xad, 0xde, 0x9f, 0x9d, 0x43, 0x2b, 0x0b, 0xbf, 0x12,
  0x11, 0x7a, 0x8f, 0x9a, 0x8a, 0xd0, 0x8a, 0x12, 0x54, 0xdd, 0x57, 0xb5,
  0x91, 0x3c, 0x31, 0x93, 0x30, 0x06, 0x56, 0x69, 0x71, 0xaf, 0x7e, 0x72,
  0xe9, 0x93, 0x6c, 0x37, 0xbe, 0xc1, 0x0f, 0x83, 0x90, 0xec, 0xa4, 0x71,
  0x8b, 0x66, 0xaf, 0x55, 0x8c, 0x7c, 0x26, 0x3a, 0x09, 0x60, 0x84, 0x3d,
  0x47, 0xd3, 0xad, 0x8a, 0xb0, 0x84, 0x5a, 0x97, 0x4e, 0xa1, 0x4b, 0x58,
  0x1d, 0x0f, 0x5e, 0x25, 0xe0, 0x66, 0xbc, 0x45, 0x8a, 0x9a, 0x47, 0x01,
  0xd0, 0x08, 0xde, 0x8d, 0x26, 0x5f, 0x7c, 0x92, 0x21, 0xa0, 0xf1, 0xcf,
  0xe4, 0xe5, 0x1d, 0xd5, 0x21, 0xfd, 0x11, 0x5e, 0x12, 0x3f, 0xd9, 0xcf,
  0xec, 0xc3, 0xd8, 0x81, 0x8e, 0x9e, 0xc5, 0xc1, 0x22, 0x1d, 0x2d, 0x73,
  0xcc, 0x12, 0x8e, 0x33, 0x6d, 0x6e, 0x14, 0x89, 0xa9, 0x2b, 0x99, 0xea,
  0x55, 0xb9, 0x0d, 0x69, 0xa4, 0xec, 0x7b, 0x58, 0xd1, 0x64, 0x22, 0xdd,
  0xa5, 0x0e, 0x78, 0x39, 0x86, 0x24, 0x76, 0xe0, 0x8e, 0xc6, 0x2f, 0x89,
  0x4c, 0x84, 0x79, 0xde, 0xf8, 0x39, 0x43, 0x06, 0xc3, 0xb4, 0xae, 0x3f,
  0xfa, 0x08, 0x4b, 0x42, 0x79, 0x48, 0x07, 0xf1, 0x9b, 0x15, 0x2d, 0xb2,
  0xd1, 0x32, 0xd7, 0x10, 0xff, 0x69, 0xdc, 0x3b, 0xcc, 0xd7, 0x93, 0xb9,
  0x0c, 0x65, 0xb8, 0x03, 0xb0, 0x92, 0x87, 0x5a, 0xfc, 0x9e, 0xcc, 0x98,
  0xd1, 0xd2, 0x5f, 0xb9, 0x8f, 0x53, 0x3c, 0xec, 0xa9, 0x5a, 0x7a, 0xb3,
  0xb3, 0x1e, 0x95, 0xc0, 0x66, 0x67, 0x3b, 0x97, 0x9b, 0xc6, 0xac, 0x0a,
  0xaf, 0x55, 0xaf, 0x9f, 0xe5, 0x20, 0xe2, 0x9f, 0xe2, 0xc6, 0x4f, 0x47,
  0x8b, 0x22, 0x1d, 0x40, 0xa4, 0x62, 0x05, 0x09, 0xf0, 0xd9, 0x91, 0xcb,
  0xa4, 0xac, 0xce, 0x8d, 0x02, 0xc0, 0xcf, 0xdc, 0x02, 0x8b, 0x65, 0x8c,
  0x02, 0x72, 0x27, 0x63, 0x37, 0xc5, 0xb9, 0xb3, 0x03, 0x0c, 0xb2, 0xef,
  0x62, 0x2c, 0x62, 0x09, 0x47, 0xdc, 0x82, 0x4b, 0x63, 0x46, 0x2b, 0x1c,
  0x50, 0x8c, 0xd9, 0xa2, 0x6d, 0x41, 0xea, 0xd3, 0x0c, 0xbe, 0x81, 0xe5,
  0xbd, 0x36, 0x46, 0xed, 0x34, 0x8e, 0x69, 0x60, 0xf9, 0x3c, 0x12, 0x41,
  0xbb, 0x2c, 0xeb, 0x43, 0x1d, 0x12, 0x31, 0x3c, 0x0c, 0x1c, 0x9a, 0x61,
  0x96, 0x36, 0x02, 0x05, 0x5c, 0xd5, 0xe4, 0xba, 0x37, 0xc4, 0x69, 0x47,
  0x6e, 0x0d, 0xdf, 0x62, 0x18, 0x10, 0x56, 0x81, 0xba, 0x11, 0x93, 0x29,
  0xd1, 0x20, 0xb5, 0xee, 0x8e, 0xc2, 0xf4, 0xa2, 0xc7, 0xcf, 0x72, 0x66,
  0xc1, 0x2d, 0x00, 0x86, 0x34, 0xe0, 0x23, 0x6d, 0xae, 0x70, 0xe5, 0x4d,
  0x9e, 0xc2, 0xef, 0xe4, 0x1b, 0x6e, 0x01, 0x0b, 0x92, 0x0a, 0x48, 0x21,
  0xc0, 0x66, 0x73, 0x4a, 0x08, 0xd1, 0x51, 0x86, 0xb4, 0x3b, 0x0a, 0x30,
  0x15, 0x86, 0xa2, 0xfe, 0xc6, 0x15, 0x2d, 0x25, 0x5f, 0x6e, 0xbd, 0x14,
  0xd3, 0x4d, 0x13, 0x73, 0xdb, 0x57, 0xf7, 0x44, 0xd3, 0xea, 0x62, 0x5f,
  0x18, 0x87, 0xe1, 0xcb, 0xd8, 0x07, 0x98, 0x98, 0x61, 0x5d, 0x76, 0x9c,
  0x17, 0xd8, 0xa9, 0x5e, 0x56, 0xbe, 0xda, 0x92, 0xa5, 0xae, 0x3a, 0xed,
  0xa8, 0x93, 0x2c, 0x98, 0xf8, 0x2c, 0xf2, 0x36, 0xe9, 0x6b, 0xc7, 0x16,
  0x43, 0xde, 0xdf, 0x06, 0x21, 0x0f, 0x06, 0x05, 0x88, 0xde, 0xde, 0x64,
  0x01, 0x93, 0xaf, 0x0f, 0x1d, 0x00, 0x91, 0xa9, 0xe0, 0x57, 0xd9, 0xe0,
  0x57, 0x64, 0x1d, 0xcc, 0x46, 0xe1, 0xc7, 0x02, 0xaf, 0xc3, 0xf7, 0x45,
  0x3d, 0xd0, 0xee, 0x4f, 0xe0, 0x90, 0xfc, 0xe9, 0x3f, 0x61, 0x04, 0xeb,
  0x1f, 0x9f, 0x15, 0x45, 0x61, 0xf7, 0x49, 0xfa, 0xc6, 0x5f, 0xa6, 0xc5,
  0x72, 0x61, 0x67, 0x88, 0x07, 0xe2, 0x59, 0xcd, 0x36, 0xb0, 0x8d, 0x8d,
  0xfd, 0x32, 0xf2, 0x1f, 0x25, 0xe1, 0x33, 0x02, 0xf6, 0x3e, 0x0e, 0x63,
  0x17, 0x33, 0x94, 0x42, 0xff, 0x59, 0x1d, 0xf2, 0x1a, 0xf0, 0x45, 0x25,
  0x85, 0x4c, 0x3d, 0x91, 0x60, 0x98, 0x26, 0x5b, 0x09, 0x06, 0xdc, 0x81,
  0xe8, 0x35, 0x22, 0x9b, 0xa4, 0xd5, 0x20, 0xf1, 0xbf, 0x85, 0x17, 0x06,
  0xd5, 0xbf, 0xe0, 0xd8, 0xf3, 0xab, 0x3e, 0x6b, 0x1e, 0x15, 0x48, 0x98,
  0x06, 0x9d, 0x50, 0x38, 0x06, 0xb5, 0xf1, 0x53, 0xf2, 0x5e, 0x93, 0xfa,
  0xf4, 0x6c, 0x01, 0x23, 0xfd, 0xa4, 0xea, 0xff, 0xe5, 0x29, 0x85, 0x1f,
  0x3a, 0x10, 0xd2, 0x31, 0x6a, 0x44, 0xf5, 0x1c, 0x00, 0x4a, 0xae, 0x69,
  0x41, 0x10, 0xd0, 0x97, 0xb5, 0x9b, 0xa5, 0x8e, 0xa2, 0x33, 0x12, 0xfa,
  0x74, 0xfe, 0xe2, 0xef, 0x9c, 0xc7, 0x3e, 0xfa, 0x3c, 0x83, 0xa1, 0x24,
  0x9c, 0x61, 0xd3, 0x99, 0xeb, 0x3b, 0xe6, 0xf2, 0x8f, 0x9f, 0x07, 0xab,
  0xde, 0xd2, 0x67, 0x2b, 0xa0, 0x5a, 0xa9, 0xa8, 0xa8, 0xb9, 0x61, 0xde,
  0x2f, 0x67, 0x4a, 0x01, 0xa0, 0x59, 0x9f, 0xee, 0xec, 0x96, 0x8c, 0x4a,
  0x99, 0x47, 0x6b, 0x8c, 0xf6, 0xa1, 0xee, 0x51, 0x2e, 0x97, 0x22, 0x1a,
  0xa5, 0x98, 0x3d, 0x35, 0xb0, 0xbf, 0x3c, 0x97, 0xf5, 0x14, 0x10, 0x53,
  0xe4, 0x04, 0x00, 0x11, 0x73, 0x11, 0xa0, 0xa4, 0xab, 0x11, 0x16, 0xb8,
  0x1f, 0x7c, 0xc5, 0x3d, 0x95, 0x73, 0xd6, 0x9f, 0x73, 0x30, 0xd0, 0xf4,
  0xbd, 0xb1, 0x9d, 0x15, 0x01, 0x42, 0x49, 0x4c, 0xf6, 0xfe, 0x02, 0x5b,
  0xe0, 0x3c, 0xf8, 0x03, 0x1d, 0x26, 0xe6, 0x4b, 0x1a, 0x24, 0x89, 0x32,
  0xa5, 0x04, 0x9e, 0x63, 0xe3, 0xbb, 0xf9, 0xb6, 0xa7, 0x30, 0x16, 0xa5,
  0xdd, 0xed, 0xfa, 0x23, 0xbc, 0xdf, 0x4a, 0xdc, 0x60, 0xa9, 0xe6, 0xd4,
  0x52, 0x5f, 0x35, 0x65, 0x3f, 0x2b, 0xd1, 0x4e, 0x54, 0xe1, 0xdb, 0x68,
  0x57, 0x55, 0x65, 0x3a, 0x27, 0x60, 0xc8, 0x94, 0x23, 0xf8, 0x99, 0x34,
  0x08, 0x31, 0x5f, 0x43, 0xfa, 0x95, 0x9e, 0xa9, 0x14, 0x26, 0x2d, 0x50,
  0x2e, 0xe9, 0x28, 0x38, 0xa0, 0xa6, 0x12, 0x47, 0x58, 0x0d, 0xad, 0x27,
  0x64, 0xf7, 0x03, 0xff, 0x4a, 0xcc, 0x2a, 0x06, 0xe7, 0xfd, 0x66, 0xc6,
  0x12, 0x03, 0xfd, 0xbb, 0xa3, 0xc6, 0x96, 0x25, 0xe0, 0xd6, 0x52, 0xa9,
  0x68, 0x5a, 0x2f, 0xfb, 0x3e, 0x34, 0xe4, 0x4c, 0xc7, 0x4e, 0xa1, 0xa6,
  0x1f, 0xad, 0x55, 0xc7, 0x02, 0xb0, 0x36, 0xd1, 0xd1, 0xc1, 0xea, 0xfa,
  0x37, 0x3f, 0x6a, 0xc5, 0x5d, 0x49, 0x9a, 0x06, 0xa3, 0x61, 0x4a, 0x9c,
  0x1c, 0xd9, 0x44, 0x58, 0x15, 0x74, 0xa8, 0xcf, 0xf7, 0x5b, 0x61, 0xfd,
  0xfb, 0x20, 0x4a, 0xf0, 0xf2, 0xc4, 0x42, 0xe1, 0x11, 0x9e, 0x27, 0xf8,
  0x11, 0x52, 0x2a, 0x2f, 0xf4, 0x9d, 0xd2, 0xf7, 0xb4, 0xcf, 0x49, 0x51,
  0xa8, 0x2c, 0x49, 0xd6, 0xd1, 0x17, 0xe5, 0xcc, 0x34, 0xc9, 0x0e, 0xe6,
  0x1c, 0xca, 0xc0, 0x56, 0xb2, 0x48, 0xd6, 0x24, 0x37, 0x08, 0xbc, 0xa4,
  0xd4, 0xb6, 0xd5, 0xc2, 0x1f, 0xb3, 0x69, 0xd0, 0xfa, 0xae, 0x60, 0xe1,
  0x67, 0x5c, 0x30, 0x04, 0x2b, 0x54, 0x8d, 0xc6, 0x2e, 0x52, 0xd3, 0x5c,
  0xeb, 0x70, 0x4e, 0x29, 0x7f, 0xef, 0x49, 0xc9, 0xb1, 0xf8, 0x2c, 0x70,
  0x69, 0x08, 0x2e, 0xb3, 0x4d, 0xbe, 0x02, 0xa6, 0x57, 0x14, 0x39, 0xeb,
  0xb4, 0x5d, 0xa3, 0xae, 0xca, 0x40, 0xa1, 0x5e, 0x2f, 0x94, 0x27, 0xb8,
  0xa3, 0xdd, 0x15, 0xbd, 0x03, 0xab, 0x54, 0xda, 0xe8, 0xb0, 0xfd, 0x10,
